{"vocab": {"##pot": 11008, "hold": 2907, "##ronia": 28140, "gloria": 10778, "##iad": 28665, "##iste": 27870, "device": 5080, "berlin": 4068, "munoz": 23685, "##ston": 7106, "molecule": 13922, "##valent": 24879, "gears": 19456, "origins": 7321, "invasion": 5274, "negotiating": 18875, "##\u05dc": 29799, "[unused379]": 384, "##\u043e\u0432": 19259, "saddle": 12279, "orchards": 22976, "berry": 10498, "##meister": 28824, "flies": 10029, "algorithm": 9896, "##andra": 29159, "repairs": 10315, "\u0645": 1295, "flaws": 21407, "aircraft": 2948, "bernie": 15941, "hours": 2847, "madden": 24890, "scenes": 5019, "##strel": 26877, "##\u10d3": 29977, "1769": 20663, "87": 6584, "crimean": 20516, "plane": 4946, "[unused877]": 882, "##ject": 20614, "drunken": 15967, "bronze": 4421, "ursula": 20449, "##\u1d2e": 30027, "##basket": 25351, "known": 2124, "rivals": 9169, "[unused289]": 294, "roots": 6147, "##voking": 22776, "disadvantaged": 27322, "davies": 9082, "modular": 19160, "##pas": 19707, "defendants": 16362, "gallon": 25234, "retail": 7027, "saturated": 23489, "delle": 24121, "##nut": 24072, "##ructured": 26134, "navajo": 22440, "communist": 4750, "rejoined": 14311, "[unused458]": 463, "##\u0985": 29883, "hearst": 25419, "callie": 20072, "\u6f22": 1904, "serena": 14419, "roughly": 5560, "[unused305]": 310, "garment": 19002, "wondering": 6603, "proteins": 8171, "##loe": 26846, "jurgen": 23171, "driveway": 11202, "nominally": 24207, "depending": 5834, "[unused290]": 295, "pre": 3653, "bautista": 27845, "ached": 15043, "endorsement": 20380, "laborers": 23428, "cramped": 22766, "##imated": 20592, "##skaya": 23070, "[unused647]": 652, "linen": 17517, "##ceae": 9071, "##pers": 7347, "##enne": 24336, "[unused601]": 606, "literal": 18204, "malacca": 28481, "realms": 18814, "guests": 6368, "express": 4671, "##kt": 25509, "levy": 12767, "punt": 18975, "heats": 18559, "##ural": 11137, "bin": 8026, "bavarian": 15097, "decided": 2787, "uniformed": 25189, "donnell": 18016, "snap": 10245, "ferreira": 26135, "sincere": 18006, "learned": 4342, "\u2086": 1553, "successors": 18530, "[unused56]": 57, "municipality": 3250, "\u1107": 1460, "occupy": 11494, "dangerously": 20754, "repeats": 17993, "integer": 16109, "##\u611b": 30379, "ripe": 22503, "evacuation": 13982, "twists": 21438, "shower": 6457, "##bir": 17706, "constantly": 7887, "samples": 8168, "mormon": 15111, "explains": 7607, "enraged": 18835, "##\u093e": 29876, "\u028a": 1132, "##ici": 28775, "jersey": 3933, "technical": 4087, "comprises": 8681, "ala": 21862, "##eri": 11124, "death": 2331, "luna": 12909, "arched": 9194, "princes": 12000, "##mian": 20924, "##\u2096": 30094, "##im": 5714, "##ring": 4892, "747": 25374, "blaze": 15347, "dubai": 11558, "libraries": 8860, "nhs": 17237, "civil": 2942, "invading": 17657, "ki": 11382, "\u5b9a": 1822, "volta": 26089, "##\u5065": 30294, "laws": 4277, "aba": 19557, "##\u51fa": 30300, "##lean": 20898, "mated": 28795, "cordoba": 17986, "trieste": 25199, "##rah": 10404, "##lal": 13837, "andrei": 18125, "##iz": 10993, "soviets": 15269, "benches": 19571, "professionally": 12145, "##\u308d": 30215, "populated": 10357, "celebrities": 12330, "kendall": 14509, "##com": 9006, "clerks": 26706, "##\u0bbe": 29931, "##to": 3406, "[unused462]": 467, "temples": 8436, "##\u79cb": 30455, "pepper": 11565, "growls": 27825, "##out": 5833, "massimo": 28080, "mustered": 21900, "shifting": 9564, "leslie": 8886, "derbyshire": 15207, "cullen": 19925, "disability": 11980, "biographical": 16747, "##ecin": 28191, "coulter": 28293, "gathering": 7215, "goods": 5350, "dna": 6064, "mild": 10256, "leon": 6506, "producer": 3135, "##rant": 17884, "passageway": 27336, "anymore": 4902, "locality": 10246, "twelve": 4376, "ab": 11113, "coronation": 12773, "extent": 6698, "jesuit": 13840, "##wy": 18418, "pedal": 15749, "##nets": 22781, "##hora": 16977, "trash": 11669, "##beam": 28302, "cheat": 21910, "338": 27908, "warnings": 16234, "confinement": 21551, "1986": 3069, "teased": 13074, "axis": 8123, "success": 3112, "strengths": 20828, "##ones": 21821, "fulfilling": 21570, "flourished": 17893, "teenager": 10563, "edwin": 10049, "[unused730]": 735, "proclamation": 16413, "##ously": 13453, "[unused488]": 493, "liked": 4669, "conde": 24707, "recorder": 14520, "patch": 8983, "jericho": 17309, "##kle": 19099, "1847": 9176, "chores": 27091, "commended": 22429, "superiority": 19113, "accumulated": 14830, "##yp": 22571, "[unused113]": 118, "cary": 20533, "inward": 20546, "##tica": 22723, "##unds": 26698, "netflix": 20907, "##kie": 11602, "pad": 11687, "[unused434]": 439, "##rane": 18053, "##i": 2072, "slowed": 9784, "redhead": 26705, "earthquake": 8372, "kazakhstan": 11769, "floods": 14295, "recipe": 17974, "cutting": 6276, "##any": 19092, "##weig": 27204, "sherwood": 19427, "##nagar": 14346, "brewery": 12161, "##fp": 22540, "householder": 7536, "##rky": 15952, "\u00fe": 1101, "squeezing": 15328, "alleviate": 24251, "insult": 15301, "carmen": 11425, "##oys": 27153, "strikes": 9326, "##hell": 18223, "niccolo": 27033, "solve": 9611, "interfaces": 19706, "[unused782]": 787, "could": 2071, "##river": 24352, "sails": 17553, "respects": 17475, "trier": 25487, "myself": 2870, "space": 2686, "##\u52a0": 30305, "soloist": 16504, "trigger": 9495, "apostolic": 11815, "hospital": 2902, "weston": 12755, "1975": 3339, "26": 2656, "battalions": 10157, "clutches": 29497, "famously": 18172, "1683": 27414, "cardinals": 9310, "ministers": 7767, "]": 1033, "##leaf": 19213, "dealers": 16743, "recycled": 22207, "\u03b3": 1157, "bourne": 15803, "boss": 5795, "situations": 8146, "outstretched": 21059, "625": 22810, "circumstances": 6214, "730": 28004, "lack": 3768, "scrambled": 13501, "tired": 5458, "##\u05d0": 29788, "contingent": 15445, "roxy": 23682, "human": 2529, "##sr": 21338, "bat": 7151, "relating": 8800, "usl": 22448, "enactment": 26465, "jenna": 13504, "50th": 12951, "1805": 13126, "retired": 3394, "cowan": 25752, "dispose": 27764, "corporate": 5971, "yelled": 7581, "stock": 4518, "explorer": 10566, "nude": 15287, "##rd": 4103, "importance": 5197, "servers": 14903, "##vable": 12423, "straightening": 27508, "demetrius": 28367, "##anza": 16076, "med": 19960, "[unused937]": 942, "narrow": 4867, "suez": 21974, "##nd": 4859, "##flight": 28968, "ceo": 5766, "smeared": 25400, "##frey": 22586, "turbulent": 22609, "leasing": 26707, "god": 2643, "##ais": 15593, "intercollegiate": 21587, "catastrophe": 25539, "murders": 9916, "grips": 24758, "intimidation": 28973, "coupling": 19780, "scan": 13594, "lil": 13451, "bribe": 26470, "ban": 7221, "##nage": 27031, "wild": 3748, "crowd": 4306, "anyone": 3087, "commons": 7674, "advice": 6040, "nomenclature": 23718, "indonesian": 9003, "clarissa": 25260, "consumed": 10202, "dementia": 28767, "enhancing": 20226, "780": 28601, "france": 2605, "irresistible": 27149, "accommodated": 28959, "##ara": 5400, "chance": 3382, "waiting": 3403, "##ags": 26454, "priest": 5011, "tak": 27006, "norman": 5879, "[unused420]": 425, "fool": 7966, "populace": 22508, "##\u0435\u0432\u0438\u0447": 22646, "sloane": 17558, "##\u2010": 30048, "end": 2203, "conner": 17639, "consistent": 8335, "##rgan": 16998, "51st": 26017, "sq": 5490, "babe": 11561, "\u5bb6": 1825, "[unused764]": 769, "addition": 2804, "##bbed": 15499, "formed": 2719, "purchases": 17402, "1930s": 5687, "unable": 4039, "\u307b": 1676, "explode": 15044, "potentially": 9280, "expanding": 9186, "product": 4031, "ticked": 26019, "adolescent": 20274, "55th": 29075, "encounter": 8087, "##dha": 17516, "150": 5018, "##kari": 20224, "##nham": 20465, "militant": 16830, "marie": 5032, "harmed": 25596, "eager": 9461, "theodore": 10117, "knife": 5442, "sensible": 21082, "missiles": 10815, "royalist": 20796, "##max": 17848, "demonstrators": 28337, "authorised": 19256, "responded": 5838, "##uy": 26230, "elementary": 4732, "##\u10dd": 29986, "professor": 2934, "skeleton": 13526, "michelle": 9393, "laguna": 18169, "stewart": 5954, "[unused306]": 311, "##lub": 27959, "##ate": 3686, "##stadt": 21543, "hull": 6738, "hydro": 18479, "reviewers": 15814, "greenwich": 13861, "##\u045a": 29763, "passing": 4458, "jaguar": 16490, "produced": 2550, "##onus": 24891, "precise": 10480, "##ddy": 14968, "\u72ac": 1908, "fiery": 15443, "##wen": 12449, "##bain": 29148, "chronic": 11888, "orphan": 18211, "dove": 10855, "drafting": 21168, "ballast": 28030, "termination": 18287, "circumstance": 25652, "##dee": 26095, "starbucks": 29500, "[unused141]": 146, "navigator": 20532, "talent": 5848, "fort": 3481, "ty": 5939, "##beau": 26401, "[unused679]": 684, "nodding": 11863, "medieval": 5781, "registration": 8819, "1784": 16496, "guidelines": 11594, "valley": 3028, "division": 2407, "sane": 22856, "transmitted": 11860, "nanny": 19174, "floors": 8158, "##\u5c0f": 30355, "##vao": 24682, "buddhist": 7992, "pathways": 16910, "140": 8574, "fi": 10882, "##\u30a2": 30219, "##vana": 27313, "##rock": 16901, "pak": 22190, "oro": 20298, "nowadays": 13367, "dynamite": 21719, "throbbed": 27714, "arcadia": 25178, "laszlo": 28226, "quinlan": 28451, "falling": 4634, "##rued": 28551, "interference": 11099, "beta": 8247, "colleen": 28385, "mimic": 23150, "holly": 9079, "dried": 9550, "ware": 16283, "exceeded": 14872, "##adt": 18727, "cavalier": 28778, "forms": 3596, "1981": 3261, "priory": 14284, "\u067e": 1302, "associations": 8924, "truth": 3606, "avid": 18568, "##using": 18161, "gordon": 5146, "in": 1999, "assisting": 13951, "protections": 28548, "angie": 14835, "infants": 16725, "analogue": 21800, "estuary": 18056, "watered": 27129, "attempting": 7161, "consuming": 15077, "unmarked": 25779, "wrenched": 26971, "[unused408]": 413, "sorcerer": 23324, "##eit": 20175, "victor": 5125, "designed": 2881, "enhancement": 22415, "ville": 20184, "##\u222a": 30132, "prototype": 8773, "freezing": 12809, "answering": 10739, "##ssi": 18719, "please": 3531, "somalia": 14717, "\u2011": 1514, "##aire": 14737, "##physical": 23302, "boundary": 6192, "supported": 3569, "\u208e": 1559, "lorraine": 13895, "vane": 23334, "professors": 12655, "cinder": 29399, "##tham": 22536, "association": 2523, "blossoms": 28766, "programs": 3454, "\u2282": 1610, "rift": 16931, "##\u05de": 29801, "principles": 6481, "guarantees": 21586, "rites": 17105, "weather": 4633, "##ente": 15781, "manor": 6952, "bmg": 24499, "uniquely": 20640, "dumping": 23642, "localities": 19664, "sentences": 11746, "therapeutic": 17261, "suspects": 13172, "planet": 4774, "##sun": 19729, "corporation": 3840, "spit": 13183, "##fting": 26169, "souls": 9293, "##joy": 24793, "[unused513]": 518, "constituents": 24355, "clair": 17936, "east": 2264, "##kor": 21815, "spreading": 9359, "##\u6bd4": 30416, "[unused294]": 299, "##\u1d4d": 30036, "impaired": 18234, "nick": 4172, "steadily": 11328, "##tched": 28265, "##cultural": 29415, "frequency": 6075, "##\u0621": 29815, "ed": 3968, "harmon": 25546, "gables": 27008, "hovering": 16349, "arguing": 9177, "flashback": 21907, "##\u1d30": 30028, "wedge": 17632, "sphinx": 27311, "skinner": 17451, "crisp": 15594, "cas": 25222, "overwhelmingly": 24783, "45": 3429, "fluffy": 27036, "sculpture": 6743, "starving": 18025, "ek": 23969, "recommends": 26021, "\u27e9": 1630, "stubborn": 14205, "##ingdon": 29138, "pierre": 5578, "during": 2076, "arrange": 13621, "dinosaur": 15799, "ina": 27118, "displayed": 6913, "mason": 6701, "carbon": 6351, "newsweek": 26948, "enemy": 4099, "[unused65]": 66, "heightened": 21106, "##dorf": 11592, "generosity": 26161, "schwarz": 29058, "picking": 8130, "naturalized": 27558, "discover": 7523, "domingo": 15586, "##udeau": 27627, "arrest": 6545, "history": 2381, "welded": 29014, "pastoral": 13645, "mexico": 3290, "nervously": 12531, "province": 2874, "playable": 16854, "##port": 6442, "looking": 2559, "faulty": 28927, "shuffled": 18764, "priests": 8656, "sang": 6369, "potassium": 18044, "suburb": 7575, "potsdam": 26554, "coaching": 7748, "vocalists": 27478, "screens": 12117, "##\u0932": 29870, "##arina": 27943, "reported": 2988, "foraging": 26912, "##works": 9316, "crowded": 10789, "nine": 3157, "conduct": 6204, "[unused672]": 677, "[unused512]": 517, "ring": 3614, "officer": 2961, "lovely": 8403, "reclaim": 24104, "##lita": 27606, "travelling": 8932, "masonry": 18103, "brown": 2829, "\u2193": 1586, "settlement": 4093, "breaking": 4911, "cambodian": 24417, "rattling": 26347, "232": 20666, "owns": 8617, "transactions": 11817, "im": 10047, "repairing": 26296, "110": 7287, "nutrient": 26780, "250": 5539, "##rogen": 22991, "##hips": 19801, "containment": 29174, "derivative": 13819, "baldwin": 10970, "[unused180]": 185, "##eh": 11106, "alexander": 3656, "committing": 16873, "##\u7af9": 30459, "pleasant": 8242, "\u0636": 1285, "hans": 7003, "flanders": 13998, "##ith": 8939, "##20": 11387, "jason": 4463, "204": 19627, "triggered": 13330, "auditions": 21732, "cursed": 10678, "##\u306d": 30196, "johnny": 5206, "buckley": 17898, "langdon": 15232, "old": 2214, "##e": 2063, "mediated": 19872, "adjusting": 19158, "##bala": 25060, "atoms": 13353, "\u0640": 1290, "##\u207f": 30080, "##icus": 14239, "[unused69]": 70, "##oue": 27872, "dowry": 29603, "condensed": 25011, "compressor": 29329, "nbl": 28013, "initiative": 6349, "grimace": 25898, "g": 1043, "##iu": 17922, "filthy": 18294, "simple": 3722, "rigorous": 20001, "palestine": 8976, "wandering": 13071, "##\u02b3": 29708, "gamma": 13091, "brandt": 19407, "##\u00a8": 29651, "informs": 15670, "saratoga": 23136, "skopje": 29255, "prominence": 12144, "##pg": 26952, "tessa": 13167, "##otte": 28495, "wraps": 19735, "##ath": 8988, "amazing": 6429, "##vati": 20203, "symmetry": 14991, "##folia": 21710, "backwards": 11043, "##lce": 23314, "perpendicular": 19581, "\u30e0": 1725, "webber": 19861, "finley": 29194, "filippo": 28669, "probing": 28664, "wolf": 4702, "##\u516b": 30297, "believed": 3373, "peek": 19043, "##s\u0142aw": 23305, "lies": 3658, "recreation": 8640, "chords": 18495, "hooves": 28399, "voivodeship": 7225, "slavic": 13838, "fusion": 10077, "iq": 26264, "##que": 4226, "der": 4315, "devastation": 25594, "remark": 17674, "242": 22431, "propagation": 20594, "##strom": 15687, "##xious": 25171, "##hiti": 27798, "submerged": 13563, "friday": 5958, "indicated": 5393, "\u099b": 1357, "doorway": 7086, "trailed": 11145, "their": 2037, "##iface": 29164, "arch": 7905, "deal": 3066, "racist": 16939, "[unused899]": 904, "muster": 20327, "literacy": 8433, "dockyard": 24874, "cosmopolitan": 24686, "##400": 29537, "antenna": 13438, "confusing": 16801, "deluxe": 15203, "islamic": 5499, "majority": 3484, "pt": 13866, "##bara": 20709, "expressions": 11423, "freeze": 13184, "fourier": 26899, "lausanne": 22256, "combat": 4337, "leo": 6688, "arms": 2608, "swift": 9170, "friendships": 28956, "##nan": 7229, "tending": 25069, "258": 24398, "stimulated": 25194, "mysteries": 15572, "hana": 26048, "##ark": 17007, "reciprocal": 28309, "winery": 23910, "aggregation": 28041, "taped": 19374, "illinois": 4307, "\u2088": 1555, "[unused846]": 851, "##hold": 12640, "##22": 19317, "holocaust": 11513, "consultative": 28581, "##kat": 24498, "grinned": 6973, "possessing": 18840, "spanish": 3009, "invisible": 8841, "cancel": 17542, "satisfied": 8510, "craig": 7010, "drifted": 10070, "anne": 4776, "[unused219]": 224, "untitled": 24819, "unofficially": 29322, "rasped": 28459, "guardians": 14240, "[unused696]": 701, "##rmin": 27512, "jacobs": 12988, "methods": 4725, "causeway": 23336, "obstacles": 15314, "stephane": 26624, "##kley": 22315, "numbered": 8597, "disposed": 21866, "wired": 17502, "currents": 14731, "lined": 7732, "hydra": 26018, "orlando": 10108, "upscale": 28276, "##shima": 24772, "sykes": 23531, "##cm": 27487, "jamal": 24132, "sasha": 14673, "screams": 11652, "presidency": 8798, "hobbs": 23748, "households": 3911, "contemporaries": 16682, "darling": 9548, "headed": 3753, "corruption": 7897, "crowley": 20748, "slowing": 18068, "remove": 6366, "timely": 23259, "perspectives": 15251, "robes": 17925, "laurent": 14718, "directional": 20396, "handbook": 14812, "thrash": 27042, "versa": 18601, "custer": 28888, "thoughtfully": 19897, "alexia": 21683, "fault": 6346, "mri": 27011, "##war": 9028, "##rangle": 21476, "\u6751": 1878, "ko": 12849, "anti": 3424, "architectural": 6549, "devastated": 13879, "kobe": 24113, "iconic": 14430, "##\u2229": 30131, "buckle": 22853, "characters": 3494, "##ment": 3672, "##\u5b97": 30347, "katherine": 9477, "agenda": 11376, "sabha": 11200, "mixed": 3816, "doctors": 7435, "saharan": 24505, "##duction": 16256, "##eus": 10600, "##eto": 18903, "[unused368]": 373, "lucky": 5341, "highs": 26836, "##ello": 15350, "terrifying": 17082, "cabin": 6644, "hua": 23064, "simulation": 12504, "##dh": 16425, "hu": 15876, "##ano": 6761, "hacking": 23707, "124": 13412, "wigan": 15598, "natural": 3019, "provincial": 4992, "450": 10332, "[unused729]": 734, "##lled": 11001, "shaun": 16845, "inhaled": 15938, "28th": 15538, "podcast": 16110, "dissent": 24116, "lively": 17133, "steiner": 21264, "wage": 11897, "[unused37]": 38, "knox": 11994, "##market": 20285, "misery": 14624, "prevalence": 20272, "showcased": 22443, "infirmary": 23453, "mann": 10856, "1905": 5497, "roofed": 26080, "##iens": 24836, "window": 3332, "limbs": 10726, "rampage": 29216, "banks": 5085, "291": 27173, "productive": 13318, "##iana": 11410, "1856": 8708, "[unused338]": 343, "chewed": 18362, "kemp": 20441, "miracles": 17861, "##egorical": 27203, "point": 2391, "jerry": 6128, "[unused153]": 158, "268": 25143, "[unused193]": 198, "senators": 10153, "foo": 29379, "betsy": 22396, "preceding": 11003, "how": 2129, "\u207b": 1545, "martyrs": 18945, "\u3075": 1674, "##eral": 21673, "squeezed": 7757, "pudding": 29593, "za": 23564, "##guard": 18405, "measured": 7594, "##genase": 28835, "89": 6486, "arab": 5424, "340": 16029, "though": 2295, "##ating": 5844, "##hiro": 18334, "\u3002": 1636, "surveyor": 17169, "indications": 24936, "##miento": 28883, "\u0446": 1201, "guarded": 13802, "wolfgang": 13865, "[unused326]": 331, "##ulous": 16203, "##sas": 20939, "geographic": 9183, "##gong": 17036, "relic": 24933, "metaphysical": 29081, "voyager": 23493, "slowly": 3254, "papacy": 25097, "shear": 18330, "hardwood": 23165, "mona": 13813, "[unused576]": 581, "1550": 26245, "##worth": 5172, "malta": 9933, "galaxy": 9088, "wellington": 8409, "technology": 2974, "[unused747]": 752, "considerable": 6196, "\u00a33": 28182, "board": 2604, "rising": 4803, "fished": 26281, "1716": 28204, "observer": 9718, "anarchist": 18448, "tight": 4389, "tries": 5363, "rugby": 4043, "##jian": 27685, "##\u099a": 29892, "businesses": 5661, "gottfried": 26142, "##rp": 14536, "whereas": 6168, "atkinson": 18646, "giro": 19226, "166": 18610, "pretty": 3492, "gradual": 16612, "lying": 4688, "reports": 4311, "specification": 12827, "surveyed": 12876, "impulse": 14982, "canton": 8770, "gui": 26458, "recaptured": 23838, "tracks": 3162, "convenience": 15106, "upheld": 16813, "##gen": 6914, "subscribers": 17073, "perfume": 17013, "scores": 7644, "cinematic": 21014, "affirmative": 27352, "reliable": 10539, "recovery": 7233, "##ap": 9331, "##ess": 7971, "pristine": 27375, "##dan": 7847, "\u2096": 1565, "##\u0433": 29741, "106": 10114, "airlines": 7608, "##\u5206": 30301, "disciplined": 28675, "##c": 2278, "revenge": 7195, "statehood": 28000, "cyrus": 16123, "\u793a": 1923, "shaggy": 25741, "shortly": 3859, "punta": 27377, "##rer": 14544, "##cchi": 25955, "fountain": 9545, "terminate": 20320, "lungs": 8948, "verb": 12034, "francaise": 18427, "tonic": 28157, "spears": 13957, "cairns": 21731, "force": 2486, "coincide": 19680, "\u5185": 1773, "##uating": 24133, "discretion": 19258, "minerva": 27383, "sacked": 14159, "##lou": 23743, "distracted": 11116, "compartment": 15273, "schedule": 6134, "film": 2143, "cf": 12935, "optional": 11887, "chairperson": 19072, "uncanny": 28953, "saloon": 17078, "keating": 25865, "pocket": 4979, "kaufman": 23699, "cyclone": 11609, "retracted": 28214, "\u2500": 1615, "audrey": 14166, "\u2154": 1582, "watt": 15231, "\u65b9": 1863, "##bin": 8428, "hay": 10974, "shadow": 5192, "bulky": 27446, "230": 11816, "prayer": 7083, "dragoons": 28069, "sums": 20571, "##vington": 21827, "references": 7604, "convenient": 14057, "##rba": 28483, "disturbances": 24535, "staples": 24533, "australian": 2827, "##sti": 16643, "21": 2538, "##thes": 24138, "[unused250]": 255, "hendrix": 20645, "indicates": 7127, "##km": 22287, "##guchi": 16918, "shrimp": 20130, "precisely": 10785, "register": 4236, "warily": 23625, "rum": 19379, "originated": 7940, "skater": 18815, "restored": 5854, "midfielder": 8850, "stupid": 5236, "workshops": 9656, "andreas": 12460, "97": 5989, "monique": 26194, "##ier": 3771, "[unused965]": 970, "##nist": 26942, "morals": 25288, "\u0454": 1212, "##yria": 20379, "internationals": 27340, "translated": 5421, "unearthed": 27422, "\u5e78": 1841, "pounder": 20091, "agencies": 6736, "torn": 7950, "[unused161]": 166, "galician": 28830, "##ans": 6962, "gia": 27699, "sgt": 17001, "bank": 2924, "insignificant": 27018, "measure": 5468, "jerking": 22387, "msc": 23794, "devon": 7614, "flyer": 23821, "professional": 2658, "echoed": 10187, "ecosystems": 20440, "sheila": 15062, "everywhere": 7249, "vow": 19076, "tian": 23401, "duet": 11979, "bengali": 11267, "kenton": 25446, "[unused266]": 271, "postdoctoral": 29272, "[unused702]": 707, "codes": 9537, "sovereign": 11074, "60s": 20341, "##mussen": 29134, "tandem": 18231, "knots": 9439, "lydia": 14076, "march": 2233, "##dant": 28210, "flirt": 27978, "moving": 3048, "smoothed": 17966, "rotate": 24357, "hong": 4291, "\u1da0": 1512, "sunshine": 9609, "coverage": 6325, "cell": 3526, "um": 8529, "trams": 19216, "season": 2161, "dans": 18033, "metres": 3620, "sbs": 21342, "dwelling": 13160, "unions": 9209, "connected": 4198, "museo": 19713, "scale": 4094, "cadence": 23620, "clara": 10254, "[unused223]": 228, "event": 2724, "wadi": 28380, "##\u0442": 22919, "burr": 22715, "corn": 9781, "sorts": 11901, "controls": 7711, "lips": 2970, "eliot": 16292, "##yr": 12541, "champ": 24782, "king": 2332, "hugo": 9395, "laser": 9138, "ascended": 19644, "wellness": 25860, "boredom": 29556, "ajax": 18176, "##sfield": 15951, "residue": 21755, "recounts": 23412, "##dle": 10362, "hinduism": 19632, "budgets": 26178, "problems": 3471, "option": 5724, "fifties": 25942, "\u0d9a": 1403, "sixteenth": 14683, "astor": 25159, "reborn": 24910, "crow": 11465, "sox": 9175, "territory": 3700, "##zy": 9096, "##hl": 7317, "\u5e1d": 1838, "buyer": 17634, "qing": 13282, "after": 2044, "1929": 4612, "aerial": 9682, "anaheim": 20835, "seekers": 24071, "319": 26499, "strand": 11226, "candi": 27467, "witness": 7409, "trustees": 9360, "##row": 10524, "baptist": 7550, "firefighters": 21767, "[unused895]": 900, "heaven": 6014, "rothschild": 19712, "sights": 15925, "yi": 12316, "ministries": 16410, "marble": 7720, "singer": 3220, "affiliates": 18460, "##gga": 23033, "thorne": 14296, "jimi": 27624, "##ruff": 26919, "debate": 5981, "##aring": 22397, "flare": 17748, "[unused361]": 366, "[unused724]": 729, "drunk": 7144, "sample": 7099, "[unused875]": 880, "juan": 5348, "remainder": 6893, "[unused225]": 230, "71": 6390, "##itate": 17570, "##\u5fc4": 30376, "hostile": 10420, "importantly": 14780, "\u2098": 1567, "mocking": 19545, "##56": 26976, "##ided": 14097, "highlands": 11784, "reporter": 6398, "knows": 4282, "inside": 2503, "\u0441": 1196, "obtaining": 11381, "##hir": 11961, "worry": 4737, "##ctus": 22675, "##udi": 21041, "tools": 5906, "ljubljana": 21588, "certificate": 8196, "raion": 24235, "affecting": 12473, "rejecting": 21936, "sleep": 3637, "funeral": 6715, "suitable": 7218, "locomotives": 7830, "drones": 24633, "##\u897f": 30473, "dusseldorf": 18160, "wayne": 6159, "##mona": 21781, "##zumi": 28114, "356": 27509, "coincidence": 16507, "badly": 6649, "##\u2f65": 30160, "aviv": 12724, "undertake": 16617, "jozef": 23258, "ahead": 3805, "##ceptive": 28687, "recruits": 15024, "featured": 2956, "convinced": 6427, "##escu": 19434, "##uting": 20807, "sunk": 10417, "bea": 26892, "##ulously": 21227, "morale": 19292, "achilles": 23167, "understand": 3305, "logs": 15664, "[unused353]": 358, "1863": 6899, "cervical": 28711, "coup": 8648, "\u00ae": 1079, "##ross": 25725, "loco": 28046, "generated": 7013, "raven": 10000, "pakistani": 9889, "reconciled": 28348, "storing": 23977, "spat": 14690, "assume": 7868, "fiction": 4349, "lacey": 16355, "pointing": 7302, "searing": 25764, "276": 25113, "##khan": 26370, "1734": 27367, "southampton": 11833, "baggage": 20220, "take": 2202, "##ehan": 24660, "records": 2636, "quasi": 17982, "jalan": 28410, "coffee": 4157, "swirling": 16499, "approach": 3921, "mustang": 18851, "##\u0e25": 29954, "##\u00bc": 29664, "##hui": 20552, "una": 14477, "columnist": 13317, "spp": 26924, "##\u4f50": 30290, "##genesis": 23737, "pseudo": 18404, "let": 2292, "migrants": 16836, "piled": 17835, "attendees": 19973, "23rd": 13928, "dismay": 20006, "granting": 15080, "ideology": 13165, "selfish": 14337, "##eck": 11012, "amenities": 19870, "bologna": 14102, "media": 2865, "##tas": 10230, "##\u7530": 30437, "bounty": 17284, "##hly": 27732, "villains": 16219, "[unused442]": 447, "tax": 4171, "##dya": 25838, "dell": 12418, "pdf": 11135, "payment": 7909, "\u661f": 1866, "employing": 15440, "remarks": 12629, "magazine": 2932, "suck": 11891, "paraguay": 13884, "conscription": 26329, "pace": 6393, "jesuits": 20297, "lucia": 12337, "imagery": 13425, "obstacle": 18355, "##ils": 12146, "##rde": 25547, "acacia": 24766, "##fat": 27753, "##\u043f": 29746, "les": 4649, "##ually": 28488, "shuddering": 25735, "fabric": 8313, "##ins": 7076, "finished": 2736, "worcester": 12539, "peterson": 12001, "##itzer": 19253, "clarity": 15563, "##fs": 10343, "minorities": 14302, "tanned": 25973, "sparks": 12300, "clover": 25133, "##als": 9777, "replaced": 2999, "whale": 13156, "asset": 11412, "baffled": 29088, "mat": 13523, "boulevard": 8459, "spokesman": 14056, "escorted": 13127, "subjected": 13532, "term": 2744, "tides": 22487, "pauline": 15595, "attire": 20426, "##stand": 21515, "[unused756]": 761, "changing": 5278, "##\u5e74": 30366, "matrices": 21520, "##\u0ca8": 29936, "enjoying": 9107, "torch": 12723, "handsome": 8502, "stacks": 20829, "hearings": 19153, "\u1165": 1472, "highland": 10983, "aston": 14327, "entities": 11422, "accuse": 26960, "##aker": 22626, "##ia": 2401, "insights": 20062, "cadets": 15724, "hem": 19610, "rat": 9350, "##layer": 24314, "lifelong": 13506, "##\u0263": 29683, "\u0436": 1186, "##ald": 19058, "##hine": 14014, "divide": 11443, "wondered": 4999, "twice": 3807, "lan": 17595, "inmates": 13187, "anita": 12918, "finch": 16133, "##gled": 11533, "baronetcy": 25071, "[unused425]": 430, "##\u3001": 30161, "##amps": 25167, "\u00f7": 1099, "sampled": 18925, "##\u90e1": 30485, "spun": 7455, "##brates": 25258, "minas": 21750, "investigation": 4812, "bare": 6436, "administrator": 8911, "terri": 26568, "thrown": 6908, "##copic": 26461, "vomit": 23251, "##\u8279": 30465, "##kra": 22272, "lloyd": 6746, "1801": 12410, "textual": 25304, "dangling": 18737, "tactics": 9887, "earls": 27371, "designation": 8259, "##aldo": 27318, "privateer": 26790, "##morphic": 18078, "occasions": 6642, "sided": 11536, "suit": 4848, "tanaka": 21829, "treasury": 9837, "instant": 7107, "wizard": 10276, "urban": 3923, "leg": 4190, "adventures": 7357, "##cu": 10841, "scouting": 14299, "##lem": 16930, "##ill": 8591, "andrey": 29219, "pendulum": 28300, "plateau": 9814, "##flies": 24019, "##cave": 27454, "arias": 25905, "pilots": 8221, "carnegie": 11298, "upgraded": 9725, "chilly": 24222, "consistently": 10862, "nutrition": 14266, "##red": 5596, "announces": 17472, "\u25cf": 1619, "navy": 3212, "[unused89]": 90, "mysterious": 8075, "legged": 15817, "70th": 26934, "##cted": 10985, "luisa": 25412, "precedence": 23359, "liable": 20090, "pour": 10364, "viii": 9937, "deep": 2784, "##atics": 17592, "critic": 6232, "lowry": 27281, "##\u5ca1": 30358, "separated": 5459, "manitoba": 10512, "context": 6123, "[unused707]": 712, "complicated": 8552, "publicized": 24928, "trench": 14185, "tumbling": 21552, "efficiency": 8122, "cork": 8513, "tatar": 29241, "scout": 7464, "contentious": 29308, "jagger": 25827, "pointer": 20884, "sixteen": 7032, "##ike": 17339, "coven": 25248, "johnson": 3779, "##trum": 24456, "climbing": 8218, "greensboro": 27905, "ultimatum": 29227, "pastry": 27060, "redesignated": 11836, "conjunction": 9595, "sunlight": 9325, "##ick": 6799, "agricultural": 4910, "measurements": 11702, "expressive": 22570, "arm": 2849, "jen": 15419, "##loid": 27710, "reminds": 15537, "ledge": 18283, "monterrey": 26843, "luton": 17807, "##\u30a3": 30220, "##west": 19650, "amazed": 15261, "premise": 18458, "sobbing": 20040, "weakly": 17541, "tournaments": 8504, "twenty20": 22240, "##\u0292": 29704, "divisions": 5908, "abnormalities": 28828, "\u91d1": 1964, "##gawa": 21188, "inspect": 22459, "circular": 8206, "##uez": 29488, "nasal": 19077, "prosecutors": 19608, "skinny": 15629, "##ov": 4492, "[unused394]": 399, "unwilling": 15175, "[unused252]": 257, "incapable": 19907, "1795": 13397, "messengers": 28938, "quad": 17718, "illegal": 6206, "##icles": 20921, "##\u0dbd": 29942, "trumpeter": 28220, "##rled": 27501, "heap": 16721, "sacramento": 11932, "crawling": 15927, "conglomerate": 22453, "homogeneous": 24854, "disrepair": 27799, "bubbling": 25054, "stabilized": 27697, "hugh": 6621, "hunched": 20498, "charged": 5338, "describing": 7851, "bethel": 19375, "kangaroo": 21652, "manifested": 24906, "adapted": 5967, "harrow": 24560, "expressed": 5228, "energy": 2943, "shrub": 15751, "\u0bc7": 1398, "homeless": 11573, "crystal": 6121, "democracy": 7072, "1878": 7261, "bikes": 18105, "##liche": 27412, "airways": 13095, "##tma": 29418, "liability": 14000, "wax": 13844, "survey": 5002, "educating": 25088, "[unused769]": 774, "##\u5cf6": 30359, "henrietta": 20775, "\u0634": 1283, "enfield": 25821, "ein": 16417, "##arte": 24847, "petra": 20953, "neptune": 21167, "\u093f": 1341, "##hn": 7295, "dil": 29454, "##pool": 16869, "month": 3204, "titular": 12960, "wishes": 8996, "estrada": 26482, "rams": 13456, "dino": 22412, "pushing": 6183, "##bor": 12821, "computational": 15078, "graph": 10629, "##eche": 27635, "protects": 18227, "projection": 13996, "latvia": 12429, "\u0e32": 1422, "distinguished": 5182, "creepy": 17109, "wolverine": 22162, "hunger": 9012, "murder": 4028, "physical": 3558, "unit": 3131, "salvage": 18340, "[unused823]": 828, "warped": 25618, "embroidered": 23590, "unreasonable": 29205, "##jk": 15992, "jasmine": 14032, "odessa": 19693, "1640": 21533, "clapped": 18310, "\u20ac": 1574, "sql": 29296, "instinctively": 16607, "simon": 4079, "layla": 19786, "##anian": 26032, "[unused854]": 859, "saturday": 5095, "accidents": 13436, "hypothesis": 10744, "villas": 27317, "237": 23297, "asserting": 27644, "itf": 27682, "hive": 26736, "meteorological": 20557, "ornate": 18099, "sniffing": 27646, "##\u09ac": 29904, "seems": 3849, "revenues": 12594, "tongues": 19677, "sal": 16183, "pending": 14223, "erect": 14908, "[unused934]": 939, "spoiled": 19582, "hushed": 24033, "##tier": 17579, "emergency": 5057, "urging": 14328, "\u0982": 1346, "don": 2123, "nevertheless": 6600, "medications": 20992, "ac": 9353, "infancy": 22813, "##oh": 11631, "goddamn": 16477, "stance": 11032, "1711": 28455, "enrichment": 27226, "cuff": 26450, "occurred": 4158, "##rien": 23144, "morphology": 19476, "sudbury": 26487, "##front": 12792, "disorder": 8761, "##iot": 25185, "incomes": 29373, "amassed": 22151, "concentrating": 16966, "retrieved": 5140, "[unused939]": 944, "resistance": 5012, "naming": 10324, "kenny": 8888, "jae": 22770, "declines": 26451, "boost": 12992, "uno": 27776, "laundering": 28289, "sergeant": 6722, "amazingly": 29350, "\u5b50": 1816, "brooks": 8379, "facility": 4322, "kowalski": 28874, "accomplishment": 24718, "met": 2777, "##bham": 25522, "##mpt": 27718, "##umen": 27417, "futures": 17795, "catering": 18640, "\u044d": 1208, "##\u30db": 30248, "heirs": 15891, "harmonies": 28594, "rani": 21617, "attacks": 4491, "jackets": 17764, "guerrilla": 15722, "pants": 6471, "nissan": 16509, "whenever": 7188, "mandolin": 17687, "rms": 29311, "sep": 19802, "marlins": 27055, "##{": 29640, "##yler": 20853, "reacting": 24868, "categories": 7236, "##ested": 17944, "rumbled": 22257, "##washed": 27283, "[unused429]": 434, "knock": 7324, "posse": 25751, "prevented": 8729, "barton": 12975, "anxious": 11480, "horst": 28565, "[unused981]": 986, "fifteen": 5417, "celtics": 23279, "##ast": 14083, "nmi": 22484, "curate": 27530, "[unused369]": 374, "correspondence": 11061, "##kker": 23793, "unsuccessfully": 11551, "ulster": 11059, "swapped": 29176, "malaria": 19132, "belfast": 10330, "logan": 6307, "##hetic": 20086, "##head": 4974, "##nished": 28357, "##logist": 10727, "described": 2649, "disturbed": 12491, "thailand": 6504, "constructions": 21913, "responding": 14120, "##mental": 26901, "marriott": 26490, "claudia": 13479, "yiddish": 20112, "eyebrows": 8407, "##\u3046": 30174, "passions": 25289, "insulation": 25710, "linear": 7399, "laps": 10876, "devils": 13664, "1951": 4131, "digital": 3617, "marge": 25532, "scholastic": 24105, "inclusion": 10502, "mn": 24098, "##imeter": 19198, "powder": 9898, "granny": 19794, "bum": 26352, "425": 23285, "[unused451]": 456, "reasonably": 16286, "nominated": 4222, "predators": 12630, "##arians": 28369, "##berger": 14859, "cosmic": 14448, "pageant": 12438, "##\u6d77": 30428, "recipes": 19328, "##ckman": 24080, "evident": 10358, "barren": 20225, "knot": 12226, "viable": 14874, "choices": 9804, "jogging": 28233, "forthcoming": 16875, "grimes": 24865, "##bial": 21102, "tutor": 14924, "bret": 25626, "environmental": 4483, "\u3088": 1684, "activism": 16841, "##\u2077": 30076, "properly": 7919, "charismatic": 23916, "parkway": 12602, "##rew": 15603, "\u0923": 1322, "##nl": 20554, "stability": 9211, "imaginative": 28575, "fungal": 28079, "##brush": 18623, "diplomats": 23473, "##otide": 26601, "##cock": 13959, "tramway": 17050, "co\u2082": 20190, "bert": 14324, "settling": 9853, "##chee": 25923, "##vius": 26055, "crawled": 12425, "siding": 17326, "births": 18250, "sega": 16562, "buren": 29470, "\u03c8": 1178, "nucleus": 13502, "experienced": 5281, "##akes": 20060, "treasures": 17605, "batman": 8942, "cochin": 28982, "burmese": 14468, "accusations": 13519, "favourable": 18731, "sipping": 24747, "nomadic": 21702, "pilasters": 26752, "honest": 7481, "leopard": 16240, "prisoners": 5895, "barred": 15605, "mirror": 5259, "reporting": 7316, "deploy": 21296, "\u116f": 1479, "size": 2946, "dimension": 9812, "500": 3156, "sadler": 29012, "[unused878]": 883, "gov": 18079, "sovereignty": 12601, "disqualification": 27782, "bluff": 14441, "uppsala": 25720, "dakota": 7734, "##illa": 9386, "1854": 8421, "ix": 11814, "\u30e5": 1729, "chuckle": 15375, "brett": 12049, "trails": 9612, "##tails": 22081, "authentication": 27280, "##mine": 11233, "core": 4563, "filled": 3561, "elton": 19127, "loosen": 29476, "bays": 13933, "ana": 9617, "[unused214]": 219, "mushroom": 18565, "belgrade": 10291, "asia": 4021, "prepares": 20776, "##sta": 9153, "displays": 8834, "[unused948]": 953, "infused": 29592, "\u1174": 1482, "despair": 13905, "##balls": 18510, "retain": 9279, "yugoslav": 12292, "substantially": 12381, "represent": 5050, "moroccan": 17494, "##nesian": 20281, "dolls": 14421, "horned": 26808, "##heard": 26362, "delaying": 29391, "leaned": 4016, "retribution": 25928, "lund": 21860, "pigs": 14695, "1726": 28342, "##dock": 14647, "\u09ad": 1369, "wwe": 11700, "##th": 2705, "hog": 27589, "1836": 10081, "leung": 26037, "discouraged": 22585, "inadequate": 14710, "1906": 5518, "afc": 10511, "##ardo": 24649, "panicked": 16035, "spots": 7516, "pioneers": 13200, "##eg": 13910, "plurality": 29018, "necklace": 13016, "urge": 9075, "support": 2490, "7": 1021, "glider": 18788, "conventional": 7511, "descends": 23328, "utilization": 27891, "carbonate": 26427, "reynolds": 9579, "##\u1d2c": 30026, "##ailed": 17440, "slept": 7771, "pair": 3940, "sufi": 21845, "continue": 3613, "edmond": 21773, "tangle": 24453, "##ing": 2075, "societe": 18341, "\u1d4f": 1501, "rocky": 6857, "declaring": 13752, "morocco": 9835, "[unused3]": 4, "peacefully": 21614, "##anus": 20849, "plea": 14865, "##vac": 24887, "##nx": 26807, "speechless": 25146, "##mist": 23738, "##0": 2692, "##eu": 13765, "defined": 4225, "hospitality": 15961, "mikey": 25998, "343": 27810, "sparhawk": 13709, "##\u8857": 30472, "composition": 5512, "rake": 26008, "iata": 9833, "someone": 2619, "rebels": 8431, "backstage": 20212, "domains": 13100, "installations": 14111, "patriot": 16419, "careless": 23358, "lu": 11320, "railroads": 16197, "[unused32]": 33, "argues": 9251, "advocate": 8175, "rapid": 5915, "futuristic": 28971, "scala": 26743, "47": 4700, "##way": 4576, "##nged": 21558, "alain": 15654, "##lice": 13231, "habsburg": 17486, "official": 2880, "gorgeous": 9882, "addict": 26855, "hewitt": 19482, "##rden": 18246, "offshore": 12195, "explosion": 7738, "red": 2417, "##\u6c35": 30420, "kit": 8934, "ether": 28855, "1740": 21757, "wires": 14666, "##pres": 28994, "##hone": 27406, "colleges": 6667, "mortality": 13356, "headache": 14978, "telenovela": 25754, "##ien": 9013, "loft": 19459, "calculus": 19276, "patron": 9161, "reich": 14365, "lawn": 10168, "fines": 21892, "\u3046": 1648, "##wan": 7447, "alabama": 6041, "1844": 9730, "grants": 8624, "##orn": 9691, "##\u09b9": 29913, "##rle": 20927, "waves": 5975, "1570": 28881, "##trick": 22881, "woodland": 11051, "seventeenth": 15425, "randy": 9744, "faltered": 26015, "consolidate": 24939, "##ctum": 27272, "challenged": 8315, "source": 3120, "lou": 10223, "paler": 24489, "essex": 8862, "##via": 9035, "upbeat": 27999, "pike": 12694, "1666": 27407, "##led": 3709, "derrick": 18928, "beneath": 4218, "bishopric": 20664, "slovenia": 10307, "rough": 5931, "##gaon": 27073, "[unused374]": 379, "minogue": 27736, "##oid": 9314, "teams": 2780, "##rill": 24714, "ivanov": 26333, "##\u0f58": 29968, "2010s": 26817, "pottery": 11378, "archaeology": 12009, "excitement": 8277, "ethnicity": 18240, "admired": 12749, "harlan": 24276, "shudder": 18261, "preserves": 18536, "##ji": 4478, "##ctor": 16761, "[unused726]": 731, "syllables": 20732, "gurney": 25061, "inevitably": 21268, "nestor": 25397, "ci": 25022, "abstraction": 24504, "\u116a": 1476, "industries": 6088, "##nni": 23500, "##\u00b5": 29659, "ryu": 19367, "searching": 6575, "curl": 15390, "dreams": 5544, "republished": 24476, "##dah": 18417, "collegiate": 9234, "copeland": 27303, "needy": 23927, "cosmos": 21182, "##quin": 12519, "paint": 6773, "believes": 7164, "##ities": 6447, "uniting": 26112, "##fast": 24333, "total": 2561, "luca": 15604, "##neil": 27276, "algiers": 22947, "##arded": 28037, "##\u7a7a": 30456, "greeted": 11188, "\u2217": 1598, "spikes": 19547, "choi": 18151, "fractured": 21726, "followed": 2628, "##gg": 13871, "appropriately": 23263, "prefect": 19402, "info": 18558, "##\u03c0": 29731, "##ming": 6562, "stay": 2994, "brightened": 28996, "advisers": 24205, "##weather": 28949, "temple": 3379, "wiggled": 26750, "yarn": 27158, "182": 17691, "##dicate": 16467, "wasps": 23146, "bas": 19021, "reasoned": 24557, "moth": 5820, "##tonic": 25009, "advancement": 12607, "sensory": 16792, "tesla": 26060, "panted": 28149, "suriname": 25050, "princeton": 9173, "##oping": 17686, "hat": 6045, "cluster": 9324, "merely": 6414, "citizenship": 9068, "strongly": 6118, "wicket": 12937, "[unused902]": 907, "160": 8148, "##oka": 12352, "##\u5bb6": 30351, "publishes": 12466, "smith": 3044, "1682": 29478, "16th": 5767, "alejandro": 16810, "retreated": 11672, "ultimately": 4821, "supervisors": 22565, "##stellar": 29028, "commented": 7034, "slovene": 18326, "##\u0629": 19433, "beef": 12486, "mandatory": 10915, "[unused385]": 390, "achieved": 4719, "carmichael": 23537, "galileo": 21514, "toilets": 21674, "bs": 18667, "\u0627": 1270, "bill": 3021, "victim": 6778, "##ali": 11475, "rudolf": 12794, "baja": 19497, "[unused968]": 973, "credible": 23411, "##amine": 19915, "\u4e0d": 1744, "segments": 9214, "##rissa": 26571, "afternoons": 24738, "##uet": 23361, "vertically": 20018, "background": 4281, "paying": 7079, "##ncies": 14767, "fairfield": 18986, "apology": 12480, "magnetic": 8060, "##\u03c6": 29736, "destroyer": 9799, "##ots": 12868, "constructive": 26157, "##baum": 14898, "messages": 7696, "werewolves": 18306, "##sler": 20590, "aristocratic": 19774, "##bright": 26614, "softly": 5238, "##\u4e94": 30279, "##oco": 24163, "growl": 13349, "richest": 18429, "##orne": 23846, "eyeing": 19285, "hutton": 20408, "##lellan": 25839, "##\u6b63": 30414, "swamps": 22722, "fertility": 17376, "jesus": 4441, "facebook": 9130, "bonaparte": 20830, "sinking": 10186, "conversion": 7584, "macdonald": 10406, "##\u53e3": 30314, "chief": 2708, "callahan": 25668, "hilarious": 26316, "jumping": 8660, "rama": 14115, "cabinets": 20053, "kennedy": 5817, "guerrero": 16938, "preserving": 15224, "[unused399]": 404, "greatest": 4602, "starting": 3225, "capture": 5425, "redskins": 17461, "flemish": 15427, "ding": 22033, "sham": 25850, "##tively": 25499, "\u0292": 1138, "##\u56d7": 30323, "[unused121]": 126, "apical": 29197, "##rang": 24388, "##standing": 24911, "[unused655]": 660, "eta": 27859, "se": 7367, "breasts": 12682, "summary": 12654, "boiled": 17020, "##\u057d": 29781, "disrupted": 20275, "removed": 3718, "sticks": 12668, "lara": 13679, "farm": 3888, "infinite": 10709, "[unused641]": 646, "desires": 14714, "engraved": 16328, "ropes": 14607, "remarked": 10783, "bared": 23485, "pena": 19409, "travis": 10001, "[unused362]": 367, "combination": 5257, "##ays": 22916, "52": 4720, "341": 28358, "##\u6f22": 30430, "fuss": 28554, "[UNK]": 100, "investigated": 10847, "cite": 21893, "##tale": 22059, "comte": 19758, "herds": 28822, "edith": 13257, "1719": 28162, "snarled": 15022, "maze": 15079, "citadel": 15364, "kw": 6448, "preparation": 7547, "underneath": 7650, "1745": 21809, "ll": 2222, "##bius": 17028, "164": 17943, "vibrated": 27801, "now": 2085, "##ize": 4697, "dolores": 21544, "congregational": 20809, "##\u0bc7": 29934, "##avian": 21654, "mandela": 26887, "clerical": 23106, "juliet": 13707, "scales": 9539, "[unused963]": 968, "scares": 29421, "theatre": 3004, "adherents": 25712, "studios": 4835, "##ouring": 27897, "canonical": 18562, "##\u0438\u044f": 23483, "lover": 7089, "governors": 11141, "ponytail": 18865, "funky": 24151, "phillies": 15711, "farmland": 16439, "voluntarily": 17912, "wilderness": 9917, "pools": 12679, "sound": 2614, "##ril": 15928, "\u5cf6": 1833, "wander": 17677, "crop": 10416, "murderers": 28882, "##\u6c38": 30422, "hampton": 11615, "##\u10e1": 29988, "venue": 6891, "ache": 12336, "offset": 16396, "##pies": 13046, "##\u090f": 29850, "[unused930]": 935, "formats": 11630, "abundant": 12990, "\u5c1a": 1830, "plaques": 28487, "##hale": 15238, "lunged": 17755, "##hiff": 25798, "scowl": 19981, "globe": 7595, "\u7248": 1907, "loops": 15932, "naga": 26539, "affair": 6771, "##ates": 8520, "cum": 13988, "talmud": 24380, "microscopy": 29105, "wherever": 11210, "dock": 8946, "103": 9800, "##ovo": 16059, "concentration": 6693, "cancelled": 8014, "215": 17405, "##\u09be": 29914, "dive": 11529, "1959": 3851, "##coat": 16531, "runners": 7190, "sword": 4690, "fine": 2986, "manual": 6410, "cerro": 25498, "boarding": 9405, "\u0f54": 1430, "##aling": 21682, "warmed": 17336, "hartley": 20955, "moody": 14434, "dwyer": 29394, "##tery": 20902, "marriage": 3510, "1709": 28955, "lazarus": 23623, "prolonged": 15330, "screenplay": 9000, "voyage": 8774, "##iring": 24771, "colin": 6972, "mob": 11240, "manson": 21440, "successive": 11165, "whole": 2878, "reducing": 8161, "##30": 14142, "##graph": 14413, "\u0447": 1202, "mathematical": 8045, "industrial": 3919, "cruz": 8096, "founders": 8759, "##sil": 27572, "engaging": 11973, "proper": 5372, "prompting": 15870, "jeep": 14007, "maternity": 23676, "distinctions": 25995, "##\u05dd": 29800, "yukon": 19898, "rooted": 15685, "musik": 28076, "1954": 4051, "loaf": 27048, "##pf": 14376, "onions": 24444, "fin": 10346, "attic": 14832, "lawrence": 5623, "##icient": 20132, "sawyer": 13975, "downstream": 13248, "residential": 5647, "interfered": 28976, "dumont": 25830, "remote": 6556, "##rti": 28228, "##nus": 10182, "##ytic": 21252, "##verted": 26686, "lone": 10459, "stanza": 29509, "reyes": 12576, "magical": 8687, "attends": 23933, "[unused132]": 137, "materialized": 27075, "##borne": 19288, "ray": 4097, "disagreements": 23145, "kingdom": 2983, "needed": 2734, "inverse": 19262, "facilitated": 19601, "investing": 19920, "monumental": 15447, "134": 15170, "briefing": 27918, "rodney": 13898, "affairs": 3821, "takes": 3138, "188": 19121, "##ort": 11589, "tempted": 16312, "salsa": 26509, "brightest": 26849, "scored": 3195, "nazareth": 27192, "ankara": 20312, "exchanges": 15800, "install": 16500, "saxophonist": 19977, "\u5916": 1809, "muscle": 6740, "1750": 18171, "pipes": 12432, "##2": 2475, "gus": 12670, "##nden": 25915, "character": 2839, "##gnan": 28207, "stakeholders": 22859, "plight": 24525, "lankan": 16159, "spaces": 7258, "tribune": 10969, "magnum": 19691, "trusts": 20278, "gaddafi": 28924, "convoy": 9549, "retailer": 20196, "shropshire": 19322, "##vite": 25217, "deserted": 12768, "rayon": 26810, "oxide": 15772, "hayes": 10192, "billion": 4551, "[unused295]": 300, "baseball": 3598, "oriented": 8048, "biplane": 28686, "wherein": 16726, "twisting": 12814, "##llet": 22592, "weapon": 5195, "koreans": 24651, "##chia": 20881, "locate": 12453, "gun": 3282, "extant": 12905, "##bet": 20915, "violate": 23640, "burkina": 23089, "olivia": 7710, "##zers": 16750, "\u77f3": 1922, "minnie": 26188, "##kee": 20553, "148": 16459, "bern": 16595, "magic": 3894, "remember": 3342, "repository": 22409, "\u0e07": 1410, "##men": 3549, "##brook": 9697, "##dos": 12269, "##mum": 27147, "##ife": 29323, "[unused116]": 121, "guy": 3124, "drugged": 25483, "\u4eba": 1756, "##st": 3367, "dash": 11454, "kassel": 27884, "##turn": 22299, "ebert": 22660, "inputs": 20407, "nichols": 15746, "peninsular": 22682, "piercing": 14628, "illustrated": 7203, "mans": 16042, "gu": 19739, "darkening": 27862, "democratic": 3537, "bwf": 21215, "gambling": 12219, "vlad": 19163, "##\u6238": 30383, "##eira": 21302, "humboldt": 19249, "##mani": 20799, "##ight": 18743, "dirk": 17594, "##tyle": 27983, "muttered": 6250, "indexed": 25331, "[unused220]": 225, "mccartney": 15320, "creamy": 24519, "procedural": 24508, "spotlight": 17763, "327": 28469, "customers": 6304, "directory": 14176, "##\u0446": 29751, "brewster": 23009, "keyboardist": 20173, "number": 2193, "marital": 23143, "slits": 29199, "caden": 23600, "disbelief": 12537, "hulk": 16009, "frustrated": 10206, "mike": 3505, "overturned": 17068, "##heads": 13038, "garnered": 13056, "royalty": 16664, "wu": 8814, "[unused491]": 496, "##unciation": 24101, "intimidated": 28028, "[unused418]": 423, "octave": 21817, "##ip": 11514, "lords": 8140, "##rook": 25399, "##mount": 20048, "bulldog": 28628, "compensate": 19079, "stubble": 26816, "wolfe": 14212, "##xide": 19491, "jules": 11044, "##\u7ae0": 30458, "\u4f8d": 1765, "##\u6210": 30380, "institute": 2820, "##urn": 14287, "emphasis": 7902, "##lli": 6894, "saves": 13169, "##aus": 20559, "##oslav": 23085, "floated": 13715, "##hal": 8865, "submitted": 7864, "motorola": 29583, "lenses": 15072, "export": 9167, "hicks": 17221, "tenure": 7470, "fis": 27424, "gallons": 18501, "operatic": 22534, "orbit": 8753, "skin": 3096, "cooking": 8434, "widening": 17973, "numbers": 3616, "horses": 5194, "beautifully": 17950, "sequencing": 24558, "##enburg": 12059, "centres": 8941, "editors": 10195, "##lkirk": 23913, "loose": 6065, "crossroads": 16760, "henan": 27837, "\u00a7": 1073, "suppress": 16081, "hungarian": 5588, "forster": 21316, "drinks": 8974, "elf": 17163, "squadrons": 11435, "##ers": 2545, "dismantled": 17293, "##ridge": 9438, "zen": 16729, "exploitation": 14427, "kei": 26679, "raw": 6315, "cinematographer": 19245, "augusto": 29085, "reliefs": 27670, "students": 2493, "annals": 16945, "iron": 3707, "supernatural": 11189, "karma": 19902, "[unused631]": 636, "albanians": 25267, "cynical": 26881, "ives": 23945, "respect": 4847, "reserve": 3914, "speedway": 10688, "prohibit": 23469, "protests": 8090, "strasbourg": 18104, "missionary": 8696, "fronts": 21430, "credit": 4923, "bucket": 13610, "gunmen": 28932, "1500": 10347, "##tase": 18260, "##sky": 5874, "questioned": 8781, "operating": 4082, "306": 24622, "[unused600]": 605, "oliver": 6291, "swamp": 11963, "carrying": 4755, "stormed": 16201, "dina": 26146, "paul": 2703, "drag": 8011, "everybody": 7955, "##ign": 23773, "2003": 2494, "interstate": 7553, "mother": 2388, "meade": 26501, "clary": 13145, "wise": 7968, "further": 2582, "blink": 12373, "andrew": 4080, "infant": 10527, "emission": 15760, "wood": 3536, "seasoned": 28223, "provoke": 27895, "geelong": 18664, "hbo": 14633, "sailors": 11279, "\uff0d": 1990, "announce": 14970, "relations": 4262, "##hur": 24572, "temporarily": 8184, "arise": 13368, "sorry": 3374, "pines": 17527, "aztec": 25245, "mandated": 16714, "classroom": 9823, "poultry": 22468, "devised": 14917, "##vat": 22879, "christians": 8135, "garrett": 9674, "memoirs": 13251, "\u0631": 1280, "inhibition": 23586, "nato": 10079, "##\u9999": 30505, "##rrard": 29599, "##zbek": 28733, "joshua": 9122, "javier": 13824, "[unused271]": 276, "shrink": 22802, "fey": 23864, "tasmanian": 21394, "cornish": 17797, "bromwich": 27888, "also": 2036, "bearings": 21714, "dax": 27116, "theological": 9208, "liner": 11197, "2001": 2541, "bobby": 6173, "##tors": 6591, "sci": 16596, "##rcus": 29006, "soap": 7815, "examination": 7749, "hesitantly": 24626, "figures": 4481, "##ault": 23505, "rolls": 9372, "\u2116": 1578, "aaa": 13360, "ordination": 18129, "crusader": 25237, "##pis": 18136, "1794": 13199, "spores": 23763, "[unused567]": 572, "extravagant": 27856, "##ntly": 20630, "asian": 4004, "closure": 8503, "1799": 13839, "excerpts": 24962, "chanting": 22417, "malaya": 19979, "##cence": 29320, "binary": 12441, "earnings": 16565, "##uga": 16377, "mountain": 3137, "##yde": 18124, "dominican": 10104, "continued": 2506, "model": 2944, "##cre": 16748, "##aran": 20486, "##gill": 19791, "laura": 6874, "immortals": 26796, "##bread": 27035, "brussels": 9371, "caine": 19881, "centimeters": 18119, "abrupt": 18772, "##ndo": 15482, "commission": 3222, "intimately": 29024, "labeling": 28847, "agile": 29003, "\u30a1": 1692, "gs": 28177, "##dal": 9305, "share": 3745, "1781": 16788, "rafael": 10999, "inactive": 16389, "domestic": 4968, "attended": 3230, "northwards": 27592, "fatty": 19101, "tanks": 7286, "gladstone": 21765, "ole": 15589, "utilities": 16548, "volatile": 20606, "gust": 26903, "fuse": 19976, "brisk": 28022, "pietro": 15541, "dowager": 20508, "##\u209c": 30099, "roosevelt": 8573, "orientation": 10296, "dunedin": 22020, "mcdonald": 9383, "merging": 16468, "conclusion": 7091, "island": 2479, "##\u30ed": 30261, "\u1d40": 1495, "lucivar": 21401, "##tops": 25181, "bombings": 20109, "tho": 27793, "detailing": 17555, "thunder": 8505, "scalp": 21065, "nero": 19212, "bacteria": 10327, "principle": 6958, "jazz": 4166, "##chal": 18598, "inhibit": 26402, "offerings": 14927, "\u9580": 1968, "transforms": 21743, "potent": 16834, "[unused518]": 523, "return": 2709, "rosy": 26851, "hand": 2192, "greece": 5483, "cheaper": 16269, "jean": 3744, "cock": 10338, "##sie": 11741, "transmitter": 11659, "millennium": 10144, "\u091f": 1320, "focuses": 7679, "rao": 10546, "battles": 7465, "branches": 5628, "285": 21777, "##mann": 5804, "colored": 6910, "ripple": 24644, "14": 2403, "##ific": 18513, "requiem": 21199, "scratches": 25980, "republics": 24822, "swords": 10689, "ionic": 24774, "frederick": 5406, "relationship": 3276, "trough": 23389, "cuffs": 24347, "jena": 27510, "vertigo": 28246, "palais": 22113, "barnet": 26864, "##gers": 15776, "cozy": 26931, "mhz": 11413, "requiring": 9034, "1797": 14112, "questionable": 21068, "qaeda": 18659, "bam": 25307, "exploding": 20728, "cheekbones": 27181, "loading": 10578, "sofa": 10682, "garcia": 7439, "congresses": 24460, "armies": 8749, "##ato": 10610, "conceptual": 17158, "restrained": 19868, "bud": 13007, "cornered": 25878, "libya": 12917, "zipper": 22082, "mcmahon": 17741, "##etto": 20082, "ruined": 9868, "module": 11336, "proficient": 27029, "accumulation": 20299, "lister": 27177, "\u043b": 1190, "[unused852]": 857, "woken": 22795, "aziz": 21196, "##zcz": 29419, "arranger": 13981, "##ern": 11795, "rpm": 11575, "demanded": 6303, "##rs": 2869, "bowling": 9116, "##inium": 27585, "warwickshire": 18430, "andersen": 18308, "whistle": 13300, "kinds": 7957, "outlaws": 23107, "eyed": 7168, "pawn": 19175, "##uber": 21436, "##\u571f": 30327, "telescopes": 28026, "adventist": 25696, "##tus": 5809, "phrase": 7655, "1810": 11786, "##not": 17048, "problem": 3291, "rammed": 27653, "##yon": 14001, "strikers": 26049, "labourers": 24043, "##pon": 26029, "taxis": 25964, "af": 21358, "kindergarten": 11793, "brain": 4167, "advance": 5083, "postwar": 20013, "citizen": 6926, "libertadores": 27968, "griffin": 9258, "centralized": 22493, "castle": 3317, "denominations": 17384, "failing": 7989, "beetle": 7813, "cassidy": 13737, "heck": 17752, "shelley": 15828, "##\u5c07": 30354, "monastic": 17361, "fertile": 14946, "stil": 25931, "counterattack": 27835, "landfill": 28382, "##cott": 13124, "[unused577]": 582, "writer": 3213, "airplanes": 24042, "eclipse": 13232, "mcmillan": 27436, "romanesque": 17135, "tears": 4000, "alt": 12456, "outfits": 22054, "##ami": 10631, "patrice": 29527, "bard": 22759, "relation": 7189, "golden": 3585, "##kata": 29123, "platinum": 8899, "##on": 2239, "prakash": 22233, "compassion": 15398, "##izations": 22318, "poets": 9736, "molten": 23548, "blamed": 11248, "##rito": 28414, "expensive": 6450, "informant": 28694, "\u305b": 1659, "##riam": 25557, "dumb": 12873, "skating": 10080, "coat": 5435, "##enas": 26474, "coa": 28155, "##ser": 8043, "gunnar": 26138, "williamsburg": 26366, "madison": 7063, "intentional": 21249, "[unused970]": 975, "\u11ab": 1485, "##anov": 25417, "##garh": 13484, "maintain": 5441, "theaters": 12370, "prison": 3827, "emigration": 20387, "##ok": 6559, "analyze": 17908, "kannada": 13873, "90s": 17233, "zealand": 3414, "bunker": 15742, "\u30b7": 1706, "comforting": 16334, "stoke": 13299, "waits": 18074, "truss": 24224, "plotted": 27347, "clinical": 6612, "##horse": 23024, "regiments": 10435, "prohibition": 13574, "##11": 14526, "ways": 3971, "\u5f18": 1843, "##awan": 25903, "thighs": 9222, "##nick": 13542, "ribbon": 10557, "philosophical": 9569, "me": 2033, "drastic": 23956, "warmly": 22775, "ara": 19027, "318": 27003, "[unused855]": 860, "quake": 27785, "truths": 23019, "decreases": 17913, "adoption": 9886, "breeders": 20823, "markus": 23030, "explicit": 13216, "balkans": 19733, "stadium": 3346, "1962": 3705, "hats": 16717, "honolulu": 16598, "phones": 11640, "##ological": 10091, "lynn": 9399, "population": 2313, "capitals": 15433, "\u056c": 1226, "guarding": 17019, "raid": 8118, "adaptive": 19293, "hermit": 24308, "\u0921": 1321, "abd": 19935, "flagship": 10565, "##qing": 19784, "risks": 10831, "hazel": 14015, "rooster": 27681, "presenter": 10044, "##anies": 28064, "archaeological": 7611, "disrupt": 23217, "revolving": 24135, "spaniards": 20999, "##cute": 26869, "rogue": 12406, "1632": 28216, "grand": 2882, "sophomore": 13758, "manifestation": 24491, "lesson": 10800, "controller": 11486, "pandora": 19066, "canopy": 14582, "distrust": 29245, "titanium": 23431, "deserves": 17210, "cannot": 3685, "tigers": 7600, "dragons": 8626, "airs": 14369, "##bron": 21337, "dancing": 5613, "##lines": 12735, "amiga": 24126, "[unused837]": 842, "##orro": 29459, "##cula": 19879, "shelby": 15294, "##ties": 7368, "fork": 9292, "integrity": 11109, "susquehanna": 26361, "valle": 20171, "southeast": 4643, "implication": 25323, "\u6a39": 1884, "##\u7537": 30438, "darts": 17493, "charley": 20430, "warsaw": 8199, "peanuts": 27613, "mani": 23624, "armour": 12371, "##uge": 22890, "concentrate": 10152, "\u301c": 1645, "medical": 2966, "included": 2443, "spike": 9997, "##\u27e9": 30156, "environments": 10058, "\u6c38": 1896, "plains": 8575, "nevada": 7756, "[unused713]": 718, "appears": 3544, "eugene": 8207, "barrage": 19359, "fits": 16142, "\u00b0": 1080, "continuity": 13717, "constance": 15713, "##ust": 19966, "##\u03be": 29729, "organise": 22933, "glint": 25263, "##hd": 14945, "poured": 8542, "billed": 14843, "buds": 26734, "sedimentary": 25503, "##drive": 23663, "milwaukee": 9184, "landon": 20642, "rebuilding": 14584, "statement": 4861, "##ey": 3240, "jumps": 14523, "##\u30d5": 30246, "hannover": 29209, "##\u05e1": 29804, "##uru": 14129, "##^": 29637, "judaism": 13725, "electrification": 23679, "##bund": 27265, "castile": 15656, "##ance": 6651, "briggs": 15487, "note": 3602, "niagara": 15473, "travels": 7930, "day": 2154, "##oton": 25862, "spines": 20352, "1660": 17954, "1820s": 28504, "mw": 12464, "del": 3972, "ella": 11713, "##\u2018": 30055, "preoccupied": 23962, "madame": 10602, "daytime": 12217, "discarded": 15105, "##tone": 5524, "oblivious": 18333, "scarlett": 20862, "successor": 6332, "##gm": 21693, "crescent": 13152, "yong": 18999, "ruining": 27853, "##ode": 10244, "referee": 5330, "seeker": 29444, "possessive": 22105, "[unused602]": 607, "##ango": 23422, "arrangement": 6512, "regain": 12452, "##\u1da0": 30047, "\u03c5": 1175, "realizing": 9301, "glucose": 18423, "dipped": 13537, "too": 2205, "glided": 26936, "\u6210": 1854, "libby": 19533, "squeak": 29552, "samson": 18375, "1869": 7845, "holding": 3173, "referring": 7727, "crab": 18081, "##athi": 25457, "\u53e3": 1788, "requires": 5942, "dangerous": 4795, "##plex": 19386, "sing": 6170, "##met": 11368, "jillian": 27286, "##shore": 19208, "shining": 9716, "##talk": 28014, "deaths": 6677, "thicker": 19638, "communism": 15523, "mathematician": 13235, "slams": 25967, "rest": 2717, "gabby": 27183, "barns": 25684, "avenue": 3927, "romanian": 7056, "covered": 3139, "magnesium": 24983, "sip": 10668, "throbbing": 17061, "flyers": 16217, "pushed": 3724, "vowed": 18152, "decimal": 26066, "cared": 8725, "question": 3160, "##lika": 25421, "nobel": 10501, "##og": 8649, "advances": 9849, "listen": 4952, "sundays": 14803, "##nio": 27678, "shuttle": 10382, "musa": 23154, "disputes": 11936, "\u2113": 1577, "tu": 10722, "gulf": 6084, "[unused865]": 870, "(": 1006, "dia": 22939, "##nging": 22373, "per": 2566, "appointing": 28050, "##ioned": 19798, "invasive": 17503, "##\u2192": 30113, "##bots": 27014, "homeland": 10759, "rr": 25269, "nile": 15179, "##king": 6834, "eurasian": 23399, "triple": 6420, "distribute": 16062, "federation": 4657, "##mpton": 26793, "##bane": 27543, "interdisciplinary": 18593, "[unused661]": 666, "valve": 10764, "wonderful": 6919, "plenty": 7564, "variant": 8349, "aged": 4793, "\u110e": 1465, "capcom": 26861, "1845": 9512, "antiques": 27763, "glimpse": 12185, "allocation": 16169, "mrs": 3680, "hove": 25215, "##bay": 15907, "##\u091a": 29854, "amtrak": 20208, "blazing": 17162, "alert": 9499, "horns": 11569, "\u30ec": 1734, "fjord": 26158, "disperse": 28736, "\u0e17": 1412, "ecuador": 10378, "wolves": 8588, "activate": 20544, "##vered": 25896, "rubbed": 7503, "##mined": 25089, "hating": 22650, "lamp": 10437, "last": 2197, "carefully": 5362, "\u090f": 1314, "jacksonville": 13057, "went": 2253, "inexperienced": 26252, "consumer": 7325, "##uke": 15851, "praises": 27128, "occupying": 13992, "francisco": 3799, "##log": 21197, "recreational": 10517, "lowered": 6668, "stare": 6237, "played": 2209, "annette": 22521, "[unused300]": 305, "1816": 12357, "dietrich": 22567, "235": 17825, "redwood": 27552, "employed": 4846, "emotional": 6832, "dispatch": 18365, "complained": 10865, "volga": 26459, "easiest": 25551, "clever": 12266, "charge": 3715, "404": 24837, "1970s": 3955, "goldsmith": 22389, "institutional": 12148, "engineering": 3330, "licenses": 15943, "murmur": 20227, "fable": 28458, "realize": 5382, "trucks": 9322, "bribery": 27748, "flush": 13862, "68": 6273, "capsule": 18269, "##ador": 26467, "staunch": 26355, "ankle": 10792, "harsh": 8401, "cassie": 8869, "lobbying": 19670, "##isse": 23491, "##usa": 10383, "rampant": 25883, "ineffective": 20694, "kingdoms": 12028, "carthage": 21959, "drawn": 4567, "shipping": 7829, "husky": 18758, "danny": 6266, "mc": 11338, "stockings": 26412, "phillip": 10852, "marty": 12578, "profiles": 17879, "heinrich": 10952, "brows": 11347, "panic": 6634, "arbitrary": 15275, "tar": 16985, "kindly": 19045, "muttering": 22581, "suzanne": 15146, "travel": 3604, "sterile": 25403, "electoral": 6092, "jiang": 20613, "maurice": 7994, "##sma": 26212, "blossom": 20593, "fivb": 28423, "scenarios": 16820, "motifs": 17366, "kuwait": 13085, "accessibility": 23661, "[unused810]": 815, "potter": 10693, "##alis": 13911, "nylon": 27201, "fictional": 7214, "##dran": 24914, "##\u063a": 29831, "derive": 18547, "benson": 11999, "\u3086": 1683, "companion": 7452, "[unused460]": 465, "booklet": 19271, "desk": 4624, "fantasia": 29203, "kira": 15163, "luminous": 25567, "methyl": 25003, "distribution": 4353, "laurence": 10883, "tariff": 23234, "anticipated": 11436, "finland": 6435, "internationally": 7587, "solitude": 22560, "[unused542]": 547, "bertram": 27515, "claw": 15020, "##sted": 14701, "alright": 10303, "soaked": 13077, "lives": 3268, "##aya": 12186, "1620": 24259, "maps": 7341, "levin": 20206, "##pati": 24952, "\u4e0a": 1742, "becoming": 3352, "##tate": 12259, "##mmer": 15810, "##\ufb01": 30510, "hobart": 14005, "ghostly": 24407, "##iling": 16281, "outburst": 27719, "raided": 18784, "[unused722]": 727, "1b": 26314, "brazil": 4380, "raft": 21298, "lettering": 25782, "faults": 19399, "##leader": 19000, "headlined": 25214, "polk": 20819, "marches": 20691, "avoided": 9511, "portrays": 17509, "debated": 15268, "257": 24368, "[unused335]": 340, "absent": 9962, "inspector": 7742, "catalog": 12105, "violet": 8766, "[unused509]": 514, "renewable": 13918, "[unused115]": 120, "thompson": 5953, "cho": 16480, "thick": 4317, "jessica": 8201, "1989": 2960, "##uer": 13094, "yields": 16189, "##por": 17822, "brief": 4766, "##pro": 21572, "##\u83ef": 30468, "valerie": 14264, "[unused829]": 834, "straight": 3442, "wince": 29585, "swings": 18755, "visible": 5710, "##twined": 21077, "##ssee": 29522, "chasing": 11777, "aft": 16638, "exchanged": 10573, "parlor": 18746, "##ima": 9581, "##id": 3593, "hires": 28208, "elevators": 19406, "##lka": 26518, "splashed": 22055, "reformer": 24767, "reviews": 4391, "housemates": 28152, "[unused182]": 187, "[unused956]": 961, "qin": 19781, "##sty": 21756, "weimar": 20695, "##drick": 24092, "deng": 26957, "##\u20a4": 30100, "brahms": 28419, "##rran": 28327, "parana": 28383, "argued": 5275, "stagecoach": 26025, "cradled": 23774, "\u4ec1": 1758, "earlier": 3041, "sailed": 7434, "linguistics": 15397, "disciple": 17849, "##\u2663": 30151, "jimmie": 24671, "sob": 17540, "tamara": 21772, "mum": 12954, "nantes": 25387, "inconsistent": 20316, "176": 18561, "blast": 8479, "gut": 9535, "272": 24231, "parrot": 22530, "##\u05e8": 29811, "##sca": 15782, "kettle": 22421, "stemmed": 27674, "beige": 28799, "kansas": 5111, "##may": 27871, "hooks": 18008, "mayo": 14415, "cheshire": 13789, "litre": 16812, "showered": 23973, "ironic": 19313, "grind": 23088, "\u2076": 1540, "liaison": 14975, "genevieve": 20245, "accurate": 8321, "ami": 26445, "\u09be": 1378, "starred": 5652, "drifting": 15013, "derelict": 28839, "mills": 6341, "##aia": 27131, "youthful": 22446, "##wyn": 11761, "61": 6079, "##oric": 29180, "lucan": 20764, "contents": 8417, "##dened": 24589, "walk": 3328, "defending": 6984, "interested": 4699, "representing": 5052, "boiler": 15635, "undergoing": 14996, "appointed": 2805, "38th": 22051, "[unused13]": 14, "\u767d": 1915, "deposed": 18298, "nikolay": 28494, "[unused279]": 284, "sunni": 18883, "##shi": 6182, "sonar": 24609, "infections": 15245, "##oed": 29099, "hero": 5394, "##qu": 28940, "precipitation": 13511, "barriers": 13500, "1785": 17262, "bodily": 20445, "observatory": 9970, "##elis": 29282, "\u0564": 1222, "breathed": 8726, "##\u5730": 30328, "[unused985]": 990, "[unused774]": 779, "streamlined": 29445, "\u5317": 1781, "##\u1106": 29995, "newspaper": 3780, "oldies": 26826, "refugee": 13141, "array": 9140, "##board": 6277, "##mis": 15630, "cummings": 20750, "enacted": 11955, "##ond": 15422, "quarters": 7728, "warfare": 8309, "an": 2019, "##hoot": 23416, "organs": 11595, "reel": 15934, "countered": 17970, "guido": 20239, "vortex": 23463, "contemporary": 3824, "marcia": 22548, "##enbach": 21409, "##\u66f8": 30397, "\u30e1": 1726, "[unused592]": 597, "summon": 18654, "danube": 16212, "turkmenistan": 25432, "tingling": 23690, "rochdale": 26109, "trait": 18275, "\u05de": 1255, "tab": 21628, "##utive": 28546, "construct": 9570, "##\u209a": 30097, "satan": 16795, "urbana": 27929, "sandwiches": 22094, "pitcher": 8070, "##eding": 17819, "\u0dcf": 1408, "wed": 21981, "colorado": 5169, "gymnastics": 14002, "wroc\u0142aw": 25160, "leto": 24543, "ivan": 7332, "inclusive": 18678, "mrna": 28848, "violently": 14196, "\u2099": 1568, "##\u093f": 29877, "pathology": 19314, "1950s": 4856, "1818": 12094, "04": 5840, "mt": 11047, "##ivate": 21466, "orb": 19607, "commits": 27791, "knowing": 4209, "apologized": 17806, "##ag": 8490, "nuts": 12264, "gogh": 26603, "[unused270]": 275, "1868": 7582, "networking": 14048, "rovers": 9819, "[unused126]": 131, "slung": 20078, "treat": 7438, "ruben": 19469, "\u1162": 1471, "sms": 22434, "elongated": 17876, "educators": 19156, "genes": 9165, "hints": 20385, "jaime": 14519, "affiliation": 12912, "therapist": 19294, "topical": 25665, "collier": 20466, "bubbles": 17255, "hatch": 11300, "\u5b87": 1819, "radiant": 23751, "washing": 12699, "comedian": 9971, "preceded": 11677, "##jet": 15759, "duke": 3804, "pool": 4770, "buena": 27493, "##ggs": 21314, "r": 1054, "nun": 16634, "tumors": 21434, "slack": 19840, "##tain": 18249, "skiing": 12701, "sharing": 6631, "clues": 15774, "excellence": 8012, "uniforms": 11408, "lublin": 18967, "authenticity": 21452, "ethical": 12962, "smacked": 19203, "##corp": 24586, "##\u1d48": 30034, "##eal": 15879, "haze": 16332, "abundance": 14531, "shook": 3184, "##\u092d": 29866, "mortally": 26495, "grimm": 24287, "\u30d5": 1720, "[unused477]": 482, "ballots": 17069, "skyscraper": 24581, "vein": 12818, "measuring": 9854, "enthusiastically": 24935, "unpaid": 23850, "[unused654]": 659, "daniela": 28541, "##helm": 24546, "relates": 14623, "benoit": 21721, "gamer": 27911, "##\u00b6": 29660, "bangor": 21895, "\u0289": 1131, "duval": 23929, "windshield": 19521, "dictator": 21237, "gets": 4152, "geometry": 10988, "[unused564]": 569, "[unused814]": 819, "coordinating": 19795, "terrestrial": 12350, "maccabi": 24055, "panchayat": 20079, "1924": 4814, "shankar": 17429, "tweed": 26922, "##ductive": 26638, "chef": 10026, "conferences": 9281, "eden": 10267, "daughter": 2684, "84": 6391, "denny": 14465, "beasts": 15109, "jamestown": 27435, "lighthouse": 10171, "skulls": 21542, "\u0584": 1239, "snowfall": 26043, "sudan": 10411, "since": 2144, "springer": 17481, "flattened": 16379, "ants": 16111, "suburbs": 9435, "gown": 11739, "white": 2317, "salt": 5474, "crash": 5823, "##ggio": 20650, "tore": 9538, "##evich": 16277, "##tsky": 26824, "herring": 22103, "fr": 10424, "deaf": 12419, "##ilised": 21758, "cocked": 13179, "##uder": 29190, "##ole": 9890, "arenas": 26434, "electron": 10496, "void": 11675, "ensured": 16316, "panting": 15601, "sheppard": 24976, "ferris": 23202, "##rier": 16252, "campus": 3721, "##ying": 14147, "##\u5408": 30318, "maitland": 25511, "abusive": 20676, "polished": 12853, "##llas": 25816, "##uring": 12228, "[unused768]": 773, "prefer": 9544, "poker": 11662, "net": 5658, "hoop": 27669, "##\u02e1": 29716, "anchor": 8133, "pigment": 28815, "##ich": 7033, "arya": 26140, "via": 3081, "hosts": 6184, "brasil": 21133, "genuine": 10218, "##rine": 11467, "sniffed": 18013, "historically": 7145, "7th": 5504, "[unused59]": 60, "##lch": 29358, "bonded": 20886, "##\u03b7": 24824, "toned": 27604, "##hed": 9072, "inequality": 16440, "1811": 13086, "days": 2420, "yield": 10750, "[unused319]": 324, "committee": 2837, "blocks": 5991, "toxicity": 22423, "ratification": 27369, "diving": 9404, "##\u0563": 29768, "##well": 4381, "180": 8380, "lynch": 11404, "criminal": 4735, "crore": 21665, "modernist": 19770, "expertise": 11532, "have": 2031, "economically": 15318, "274": 25586, "[unused574]": 579, "pursue": 7323, "##gami": 26517, "wealth": 7177, "sanctions": 17147, "anglo": 7819, "wc": 15868, "derby": 7350, "##\u5b89": 30346, "motor": 5013, "mature": 9677, "shrugged": 6345, "##nock": 18057, "1980": 3150, "kanye": 29270, "rag": 17768, "deck": 5877, "##\u2095": 30093, "descendant": 12608, "##torium": 24390, "##nte": 10111, "record": 2501, "1790": 13393, "\u09a3": 1361, "airplane": 13297, "[unused848]": 853, "mclaren": 18590, "infrared": 14611, "depicted": 8212, "deposition": 19806, "##iance": 28335, "porte": 25927, "##ti": 3775, "madly": 29179, "##avia": 15164, "classics": 10002, "third": 2353, "stored": 8250, "neighbors": 10638, "##nty": 29405, "ecosystem": 16927, "bugs": 12883, "##cked": 18141, "taller": 12283, "runaway": 19050, "psi": 17816, "##wt": 26677, "olga": 15585, "islands": 3470, "##open": 26915, "lester": 14131, "chinatown": 22321, "deteriorated": 20111, "plaintiff": 20579, "endings": 21306, "\u6c0f": 1891, "bravery": 16534, "hardy": 9532, "mounting": 15986, "mothers": 10756, "trace": 7637, "##rum": 6824, "aug": 15476, "socialists": 21633, "##opped": 27288, "##thus": 19877, "christensen": 24189, "histories": 15215, "unpleasant": 16010, "departmental": 28912, "hagen": 24047, "viscount": 12182, "frontman": 21597, "stephan": 15963, "##zell": 24085, "##press": 20110, "##ises": 13087, "transmitters": 26288, "agency": 4034, "volvo": 21074, "adherence": 29235, "enforcement": 7285, "##\u2ea9": 30158, "##rity": 15780, "extraordinary": 9313, "[unused538]": 543, "136": 15407, "seeks": 11014, "lease": 10084, "tense": 9049, "shang": 29382, "auxiliary": 9830, "forsyth": 29434, "invest": 15697, "thee": 14992, "penetrate": 19136, "##naud": 26160, "##dder": 20791, "collapse": 7859, "renovated": 10601, "jump": 5376, "valor": 27314, "siege": 6859, "muhammad": 7187, "saturn": 14784, "stunned": 9860, "##wani": 29092, "monarchs": 19799, "apache": 15895, "##52": 25746, "pirate": 11304, "sec": 10819, "wakefield": 16045, "vacated": 15348, "friends": 2814, "property": 3200, "xv": 15566, "commenced": 8420, "corona": 21887, "sima": 26769, "stunts": 28465, "##ads": 19303, "##aga": 16098, "\u30b1": 1703, "franco": 9341, "##bba": 22414, "[unused933]": 938, "limp": 14401, "moon": 4231, "preventing": 10723, "wren": 16255, "engineer": 3992, "crossing": 5153, "dropped": 3333, "\u0baa": 1388, "assaults": 22664, "pleased": 7537, "\u2071": 1537, "freak": 11576, "[unused918]": 923, "[unused986]": 991, "\u65b0": 1862, "\u5409": 1793, "games": 2399, "[unused308]": 313, "shine": 12342, "substituted": 17316, "dl": 21469, "plead": 25803, "##side": 7363, "swollen": 13408, "comfortably": 18579, "bodyguards": 25681, "knighted": 19572, "voyages": 21993, "murray": 6264, "ellen": 9155, "casual": 10017, "alarms": 29034, "image": 3746, "fairies": 20182, "endemic": 7320, "nano": 28991, "##tou": 24826, "unsure": 12422, "loosely": 11853, "keenan": 26334, "avatar": 22128, "avenge": 24896, "howl": 22912, "[unused104]": 109, "1600": 14883, "ottawa": 8166, "brushes": 22569, "sparkle": 26831, "simpson": 9304, "scarlet": 11862, "meeting": 3116, "nokia": 22098, "tents": 17732, "bolton": 12118, "sapphire": 21965, "##\u05d1": 29789, "promising": 10015, "playfully": 22608, "##kou": 24861, "dimly": 25361, "utilizes": 21852, "13th": 6122, "##\u1d43": 30032, "remedy": 19519, "thought": 2245, "lux": 28359, "nomination": 6488, "savage": 9576, "colossal": 29523, "[unused256]": 261, "barcelona": 7623, "##\u53f2": 30316, "##ssa": 11488, "\u05da": 1251, "resisting": 22363, "odin": 26195, "viruses": 18191, "##court": 13421, "percy": 11312, "[unused978]": 983, "jogged": 27812, "complied": 26946, "shoe": 10818, "carol": 8594, "courthouse": 10816, "mitch": 11857, "davy": 23255, "##feld": 8151, "##\u30a7": 30223, "taking": 2635, "collected": 5067, "peeling": 28241, "dr": 2852, "wiping": 14612, "waving": 12015, "\u6708": 1872, "joshi": 26645, "##gna": 16989, "adele": 17623, "##vio": 25500, "cuisine": 12846, "##broken": 29162, "chico": 22136, "##\u057a": 29780, "##agawa": 20812, "bedford": 12003, "counterpart": 13637, "##tom": 20389, "\u8a01": 1949, "failures": 15428, "campo": 22339, "korean": 4759, "twitching": 25402, "##ending": 18537, "but": 2021, "revelations": 22191, "contribution": 6691, "\u8c37": 1951, "[unused21]": 22, "nor": 4496, "stacked": 16934, "rested": 8614, "conditions": 3785, "##tok": 18715, "##sable": 19150, "peat": 23366, "africans": 18076, "responsive": 26651, "council": 2473, "complaining": 17949, "merged": 5314, "##tish": 24788, "practised": 20439, "starts": 4627, "worked": 2499, "spheres": 19885, "[unused792]": 797, "##54": 27009, "##\u03b2": 29720, "overtook": 28920, "regan": 16964, "leases": 29597, "withdrawal": 10534, "##zone": 15975, "suzy": 28722, "said": 2056, "upstairs": 8721, "communication": 4807, "##ajan": 28869, "intent": 7848, "seoul": 10884, "pressures": 15399, "ska": 24053, "[unused86]": 87, "##rigue": 27611, "[unused873]": 878, "continual": 27222, "ax": 22260, "##gl": 23296, "##iard": 14619, "ing": 13749, "1665": 27676, "acclaimed": 10251, "connor": 6720, "difficulties": 8190, "##\u09ae": 29906, "\u6587": 1861, "juveniles": 25406, "bushes": 14568, "impetus": 27961, "antigua": 26023, "required": 3223, "switzerland": 5288, "##scope": 26127, "##ishment": 21808, "cement": 11297, "##\u5834": 30332, "lookout": 19052, "##atin": 20363, "##\u6587": 30387, "signatures": 16442, "consistency": 18700, "karim": 25461, "halftime": 22589, "elliptical": 27213, "##rich": 13149, "martin": 3235, "nearby": 3518, "##sf": 22747, "remixes": 15193, "zone": 4224, "##izing": 6026, "motion": 4367, "##ssler": 23385, "193": 19984, "assignments": 14799, "inform": 12367, "tottenham": 18127, "been": 2042, "pharmaceuticals": 24797, "virtual": 7484, "##dis": 10521, "\u3008": 1637, "decide": 5630, "quo": 22035, "##cio": 9793, "##wicz": 21355, "remarkably": 17431, "maple": 11035, "hostess": 22566, "kazan": 22001, "fishermen": 16532, "##dara": 25329, "glide": 21096, "valid": 9398, "##bery": 22509, "##gal": 9692, "victorious": 13846, "cesar": 14923, "shrieked": 22383, "orchestras": 19505, "professionals": 8390, "entourage": 25342, "anchors": 24674, "storytelling": 20957, "hello": 7592, "restless": 15035, "faber": 21720, "athens": 7571, "##tf": 24475, "eastbound": 24773, "lama": 18832, "chew": 21271, "steamed": 21734, "78": 6275, "tennis": 5093, "railway": 2737, "fledged": 26712, "battery": 6046, "##zzled": 17269, "mutations": 14494, "ballot": 10428, "paused": 5864, "noon": 11501, "##olio": 29401, "repaired": 13671, "cheese": 8808, "squads": 20191, "middlesex": 13654, "##imus": 19315, "mollusk": 13269, "blouse": 18149, "balance": 5703, "gemini": 21424, "##aks": 29243, "big": 2502, "[unused478]": 483, "eliminate": 11027, "specialization": 28031, "\u671d": 1874, "tech": 6627, "j": 1046, "caught": 3236, "##\u6a4b": 30411, "rational": 11581, "disabilities": 13597, "centro": 18120, "screenwriter": 11167, "senate": 4001, "9th": 6280, "##rad": 12173, "decommissioned": 14394, "crude": 13587, "primarily": 3952, "enchanted": 22454, "determined": 4340, "390": 20024, "waterway": 23668, "[unused745]": 750, "resume": 13746, "say": 2360, "encore": 19493, "rhode": 9763, "lamar": 19756, "mildly": 19499, "inlet": 15824, "perfection": 15401, "##nes": 5267, "##lon": 7811, "pulls": 8005, "convey": 16636, "##lo": 4135, "interfere": 15115, "hotel": 3309, "40": 2871, "\u2192": 1585, "##nted": 14706, "goth": 25976, "fresh": 4840, "sticky": 15875, "[unused971]": 976, "##bbs": 17226, "meanings": 15383, "textbooks": 18841, "welsh": 6124, "norwich": 12634, "sim": 21934, "##ten": 6528, "endure": 18094, "camouflage": 21356, "##pe": 5051, "##aux": 13754, "oils": 20631, "elsewhere": 6974, "redemption": 18434, "cambrian": 29228, "formulation": 20219, "##zar": 9057, "filing": 15242, "disapproval": 21406, "##\u0435": 15290, "conceded": 15848, "resided": 12427, "\u2093": 1563, "##ctic": 13306, "subject": 3395, "consider": 5136, "##vera": 26061, "lifted": 4196, "catalonia": 16711, "grasslands": 26183, "tinted": 25577, "wii": 16568, "packet": 14771, "##ished": 13295, "majors": 15279, "observing": 14158, "##dner": 28001, "##core": 17345, "[unused621]": 626, "##dna": 28911, "species": 2427, "kyoto": 15008, "covers": 4472, "seeming": 16064, "terms": 3408, "blinked": 7948, "reused": 26513, "vulture": 27588, "europe": 2885, "##\u5289": 30303, "hampshire": 7035, "teller": 21322, "##mber": 21784, "##stream": 21422, "loosened": 22456, "stack": 9991, "##sal": 12002, "confiscated": 17182, "fear": 3571, "abbess": 28010, "benz": 17770, "tuck": 18029, "##\u30e7": 30256, "az": 17207, "##\u0e07": 29946, "barrio": 25676, "fascination": 18987, "##craft": 10419, "hung": 5112, "\u094b": 1343, "diplomatic": 8041, "pardon": 14933, "jolt": 22538, "spectral": 17435, "nobody": 6343, "##itz": 8838, "##k": 2243, "##hi": 4048, "julia": 6423, "##\u2014": 30052, "[unused860]": 865, "##masters": 27751, "vegas": 7136, "##\u044f": 17432, "##iza": 21335, "##cate": 16280, "##post": 19894, "##oms": 22225, "simone": 14072, "complexion": 28838, "pulsing": 23139, "##ver": 6299, "cleveland": 6044, "performer": 9256, "strike": 4894, "poised": 22303, "##mund": 25574, "recapture": 27639, "##tson": 25656, "\u624b": 1858, "supplied": 8127, "##\u201e": 30060, "##\u0f42": 29962, "wagner": 10304, "northern": 2642, "236": 23593, "mobile": 4684, "##hett": 28499, "compact": 9233, "##tet": 22513, "confessed": 14312, "axes": 19589, "tidal": 15065, "fielder": 25000, "cakes": 22619, "iphone": 18059, "melodies": 16106, "fulfilled": 16829, "tailed": 14578, "##card": 11522, "##lto": 23223, "whitish": 16800, "197": 19975, "##tenberg": 21806, "harris": 5671, "##olin": 18861, "##bags": 26813, "overview": 19184, "entering": 5738, "outlying": 25376, "simi": 28684, "rouse": 27384, "periodicals": 21855, "\u662d": 1868, "##\u0142aw": 19704, "##ocating": 27483, "squat": 26783, "[unused514]": 519, "totaled": 23596, "jesse": 7627, "single": 2309, "##\u2070": 30071, "convex": 18309, "##ound": 28819, "cure": 9526, "switched": 7237, "tod": 28681, "mythical": 19336, "vibrations": 22755, "rogers": 7369, "borrowing": 23733, "sony": 8412, "rebellion": 7417, "parisian": 24262, "govern": 21208, "[unused830]": 835, "hoarse": 21221, "1729": 28449, "harmonica": 16527, "##\u0570": 29775, "ib": 21307, "sg": 22214, "convicted": 7979, "viewer": 13972, "comics": 5888, "stacey": 19997, "##stones": 29423, "##oot": 17206, "\u2264": 1608, "fender": 19028, "frowns": 29303, "alfa": 22989, "##down": 7698, "##ted": 3064, "##cco": 21408, "##rained": 27361, "##icon": 28524, "[unused921]": 926, "beloved": 11419, "aus": 17151, "##kot": 23342, "\u30ab": 1700, "##zing": 6774, "adopted": 4233, "silently": 8601, "1746": 24507, "settlements": 7617, "determine": 5646, "pinto": 25066, "expert": 6739, "capt": 14408, "##edd": 22367, "warrant": 10943, "cavern": 16679, "perform": 4685, "digger": 28661, "##sper": 17668, "##sse": 11393, "wavelength": 19934, "duly": 25073, "labrador": 18604, "nominees": 17853, "twitter": 10474, "tend": 7166, "drank": 10749, "lining": 14834, "resembled": 15881, "##ies": 3111, "[unused804]": 809, "[": 1031, "gabrielle": 16988, "wa": 11333, "lieu": 22470, "\u0435": 1185, "atletico": 16132, "funded": 6787, "organizing": 10863, "wool": 12121, "counsel": 9517, "saline": 28413, "##dam": 17130, "##fc": 11329, "patches": 13864, "[unused398]": 403, "rally": 8320, "buy": 4965, "##ad": 4215, "alfred": 6152, "draw": 4009, "advanced": 3935, "##\u0274": 29690, "skies": 15717, "quarrel": 26260, "fucking": 8239, "##eous": 14769, "\u02b3": 1142, "tracts": 22069, "pittsburgh": 6278, "1772": 17483, "gasoline": 13753, "clubs": 4184, "bandit": 25334, "grit": 24842, "somerset": 9198, "\u9593": 1969, "anytime": 15933, "fresno": 20840, "nas": 17235, "##gard": 13444, "liszt": 26273, "##lb": 20850, "27th": 15045, "##sden": 27903, "##chai": 24925, "rosenberg": 21069, "short": 2460, "herr": 23506, "vibrating": 24987, "fringe": 13548, "chased": 13303, "[unused615]": 620, "\u90e1": 1959, "winced": 15574, "blushing": 25771, "skinned": 19937, "midst": 12930, "##wart": 18367, "+": 1009, "[unused152]": 157, "grammy": 8922, "paranoia": 27890, "verify": 20410, "luz": 26214, "##rge": 20800, "extracted": 15901, "sandstone": 11694, "##rove": 17597, "broadcasting": 5062, "[unused388]": 393, "tubular": 25147, "unix": 19998, "hill": 2940, "##pw": 28400, "shivers": 28464, "##\u064a": 14498, "[unused330]": 335, "bass": 3321, "discusses": 15841, "stew": 20717, "1947": 4006, "##lder": 16502, "auguste": 20758, "##d": 2094, "perpetrators": 27675, "grazed": 26627, "##apple": 23804, "mab": 26661, "judge": 3648, "freed": 10650, "[unused510]": 515, "ronald": 8923, "nineteenth": 9137, "immune": 11311, "##nant": 16885, "fellowship": 7881, "brad": 8226, "harta": 26283, "exhibiting": 22922, "paralysis": 26287, "neat": 15708, "##\u3080": 30205, "\u3072": 1673, "entrepreneurs": 17633, "gavin": 9448, "pakistan": 4501, "mansfield": 15352, "rapidly": 5901, "##\u0627": 25573, "a": 1037, "incentives": 21134, "citations": 22921, "bells": 10118, "accountants": 29114, "facade": 8508, "\u03bc": 1166, "##xx": 20348, "convictions": 20488, "##\u05d4": 29128, "apostle": 20121, "footprints": 24629, "bjorn": 24998, "conspiracy": 9714, "characterization": 23191, "francais": 22357, "ka": 10556, "sabah": 22515, "[unused757]": 762, "cretaceous": 18122, "besieged": 17923, "sun": 3103, "occasional": 8138, "argent": 23157, "overhead": 8964, "utmost": 27917, "bunny": 16291, "peggy": 14911, "##\u9f8d": 30508, "1931": 4739, "##iers": 10136, "participation": 6577, "##ings": 8613, "##eron": 26534, "protectorate": 20394, "reeling": 28515, "[unused360]": 365, "alexei": 21219, "torah": 16297, "1733": 27230, "\u11b7": 1487, "pockets": 10306, "accounted": 14729, "suggests": 6083, "merritt": 26701, "scrapped": 14553, "##\u0440": 16856, "[unused539]": 544, "##ako": 20411, "cn": 27166, "##breaker": 21204, "swindon": 22350, "goodbye": 9119, "microwave": 18302, "intuition": 26406, "says": 2758, "iucn": 20333, "ferry": 7115, "judiciary": 14814, "deco": 21933, "##fer": 7512, "##veda": 28614, "catchment": 22865, "##suke": 16867, "godfrey": 18238, "beckett": 20599, "\u10d5": 1443, "mahmud": 25886, "two": 2048, "preached": 21491, "##be": 4783, "##gler": 17420, "feminism": 20050, "wears": 11651, "expands": 24545, "##igate": 28731, "parish": 3583, "albany": 10283, "crashing": 12894, "joe": 3533, "##jean": 27687, "favoured": 16822, "1611": 28769, "verde": 16184, "servant": 7947, "##amen": 27245, "brushed": 7765, "transmissions": 21670, "satisfying": 17087, "##urt": 19585, "uninhabited": 24749, "flows": 6223, "##ifies": 14144, "su": 10514, "mundo": 25989, "costumes": 12703, "rutland": 27780, "##\u1172": 30016, "guided": 8546, "broncos": 14169, "1758": 16832, "patterned": 25336, "[unused78]": 79, "##bol": 14956, "harness": 17445, "fired": 5045, "moderator": 29420, "##wear": 16689, "dyed": 28432, "favourites": 28271, "fragmented": 26872, "mar": 9388, "emotions": 6699, "banker": 13448, "oblivion": 24034, "grandmother": 7133, "##acker": 25418, "invaders": 17347, "##iva": 11444, "##rdy": 17460, "[unused562]": 567, "\u738b": 1909, "import": 12324, "null": 19701, "fortune": 7280, "excused": 28512, "##\u1167": 30010, "sign": 3696, "##lund": 18028, "##eving": 23559, "##tility": 18724, "astronauts": 25881, "extinguished": 27705, "concourse": 28571, "offender": 25042, "reform": 5290, "usher": 20774, "arresting": 28427, "cups": 10268, "glorious": 14013, "lantern": 12856, "provinces": 6941, "mesa": 15797, "connection": 4434, "enlisted": 9417, "##ules": 16308, "philosopher": 9667, "issue": 3277, "proposes": 17146, "##med": 7583, "##nsed": 27730, "actress": 3883, "pertaining": 20246, "finally": 2633, "##inen": 21820, "misunderstood": 28947, "institutes": 12769, "\u30bf": 1709, "maximum": 4555, "copa": 10613, "##\u4e0d": 30270, "democrats": 8037, "countryside": 10833, "ceased": 7024, "landlord": 18196, "29": 2756, "moniker": 21937, "fling": 27655, "##elin": 18809, "strained": 12250, "tajikistan": 23538, "dirt": 6900, "paints": 23262, "starvation": 22611, "191": 19871, "willis": 12688, "prepare": 7374, "accompaniment": 22205, "1898": 6068, "june": 2238, "pearce": 19560, "universities": 5534, "nave": 12847, "afi": 28697, "\u11b8": 1488, "herd": 14906, "siemens": 22108, "mexican": 4916, "gibbons": 22194, "lobe": 21833, "unauthorized": 24641, "ahmedabad": 27249, "freighter": 27945, "beneficial": 15189, "mess": 6752, "britten": 29429, "annapolis": 24889, "blackness": 19573, "[unused809]": 814, "yank": 23178, "[unused221]": 226, "orders": 4449, "logos": 25571, "##ude": 12672, "\u98a8": 1977, "headlights": 18167, "##hair": 26227, "town": 2237, "clumsy": 22902, "bournemouth": 22882, "dd": 20315, "vance": 16672, "vacant": 10030, "hui": 17504, "##imov": 25299, "##\u2044": 30070, "royalties": 25335, "aspiring": 22344, "tolerated": 25775, "##nger": 11392, "92": 6227, "\u09ac": 1368, "\u897f": 1947, "intend": 13566, "##bate": 20179, "##\u10da": 29983, "##pod": 27633, "involving": 5994, "w": 1059, "##\u9234": 30491, "con": 9530, "branding": 16140, "km": 2463, "[unused791]": 796, "##hm": 14227, "##9th": 25660, "##uising": 28580, "mca": 22432, "captivity": 16187, "azure": 24296, "##rdo": 20683, "qualification": 8263, "creatures": 7329, "firearm": 23646, "scholarship": 6566, "winkler": 20472, "hiram": 27410, "villages": 4731, "dominates": 29532, "fourteenth": 15276, "suites": 19796, "repair": 7192, "memorable": 13432, "##\u014b": 29673, "##bbon": 27684, "##ke": 3489, "##achal": 24409, "vogue": 17734, "[unused888]": 893, "commemorated": 19131, "denoted": 19537, "sidewalks": 28386, "before": 2077, "magnitude": 10194, "capped": 13880, "##ore": 5686, "520": 19611, "walker": 5232, "compulsion": 27638, "tripoli": 21841, "##\u00a6": 29649, "unstable": 14480, "militia": 8396, "weir": 16658, "keeping": 4363, "\u571f": 1801, "wildcats": 19495, "##systems": 29390, "pleasures": 26552, "club": 2252, "ass": 4632, "fungus": 16622, "apply": 6611, "pierce": 9267, "irritated": 15560, "weighing": 15243, "bhutan": 18768, "##kara": 16566, "ratio": 6463, "demise": 13614, "rob": 6487, "confirmation": 13964, "fallout": 23902, "##isk": 20573, "unclear": 10599, "matthews": 12351, "tribute": 7050, "##aar": 26526, "lately": 9906, "reading": 3752, "[unused638]": 643, "6000": 25961, "selection": 4989, "##ngo": 16656, "fancy": 11281, "harlow": 22545, "wrist": 7223, "premium": 12882, "gleaming": 18242, "angelica": 19458, "##aina": 27971, "sweep": 11740, "pinning": 22866, "vehicles": 4683, "levant": 24485, "jj": 29017, "##sonic": 18585, "vital": 8995, "zero": 5717, "annoyed": 11654, "brutality": 24083, "##umi": 12717, "[unused299]": 304, "commence": 22825, "trumpets": 26506, "##kong": 25460, "noisy": 20810, "because": 2138, "##lastic": 28723, "\u00a6": 1072, "modules": 14184, "baked": 17776, "\u6b62": 1887, "\uff01": 1986, "##41": 23632, "scriptures": 22481, "##old": 11614, "##\u092f": 29868, "\u1d43": 1496, "reeve": 20726, "happiness": 8404, "pains": 20398, "yen": 18371, "##ffi": 26989, "##\u0e17": 29948, "robot": 8957, "except": 3272, "arrived": 3369, "familiarity": 24666, "howling": 22298, "##nc": 12273, "ogden": 23203, "attested": 18470, "desire": 4792, "modernization": 20181, "##lius": 15513, "duration": 9367, "hodges": 19772, "plush": 27729, "##\u110f": 30002, "offensive": 5805, "stunt": 15412, "##re": 2890, "[unused556]": 561, "installing": 23658, "##dman": 21804, "riding": 5559, "mendoza": 18021, "\u02be": 1147, "farms": 8623, "chiefly": 15897, "tended": 11121, "hiatus": 14221, "china": 2859, "##nberg": 11144, "erratic": 24122, "destination": 7688, "hydrogen": 9732, "##gly": 25643, "biking": 28899, "b": 1038, "juliette": 24696, "hoped": 5113, "##lom": 21297, "alvaro": 24892, "minister": 2704, "rumours": 19200, "campuses": 13696, "##bbled": 12820, "st": 2358, "worn": 6247, "workout": 27090, "nairobi": 21124, "##jack": 17364, "pumps": 15856, "seychelles": 27438, "##kind": 18824, "slant": 27474, "pratt": 13208, "exposed": 6086, "elaine": 15263, "\u6728": 1875, "\u9999": 1979, "smackdown": 22120, "realising": 27504, "##gee": 18372, "noises": 14950, "leveled": 22915, "barber": 13362, "aurora": 13158, "soundtracks": 24245, "appoint": 16823, "##ox": 11636, "##ciation": 23247, "edo": 18314, "pi": 14255, "mule": 20568, "cents": 16653, "sciences": 4163, "bladed": 27402, "aqueduct": 24016, "deals": 9144, "pollard": 25513, "##yama": 11613, "apparatus": 14709, "allies": 6956, "comprised": 11539, "autumn": 7114, "duluth": 28218, "bills": 8236, "sodium": 13365, "tanner": 12780, "economies": 18730, "##&": 29617, "##bbing": 23200, "university": 2118, "bearing": 7682, "##dden": 17101, "debuts": 26740, "regretted": 18991, "ata": 29533, "those": 2216, "structured": 14336, "toll": 9565, "prevailing": 19283, "slater": 17916, "##ou": 7140, "[unused781]": 786, "kidd": 25358, "##etic": 16530, "##ye": 6672, "spans": 14798, "244": 24194, "weapons": 4255, "var": 13075, "administration": 3447, "sprawled": 21212, "yeah": 3398, "##bey": 19182, "converts": 19884, "##laya": 22923, "##mism": 26725, "##omo": 19506, "someplace": 24956, "durban": 25040, "##tec": 26557, "##dim": 22172, "instability": 18549, "portrait": 6533, "tran": 25283, "stalin": 13125, "##oux": 28700, "weaken": 23021, "##yin": 25811, "reggae": 15662, "reorganisation": 24934, "\u0263": 1117, "caitlin": 27555, "##\u0281": 29694, "masovian": 23703, "##roid": 22943, "rupert": 14641, "tee": 17170, "bartender": 15812, "c": 1039, "gloss": 27068, "establishment": 5069, "\u66f8": 1871, "\u30fc": 1739, "flushing": 23519, "patrick": 4754, "1580": 28278, "##tag": 15900, "tenant": 16713, "10": 2184, "longevity": 26906, "fbi": 8495, "antrim": 24142, "spectrum": 8674, "mathews": 23287, "##aria": 10980, "worm": 15485, "\u0917": 1317, "translating": 22969, "mile": 3542, "\u03c3": 1173, "speedy": 26203, "mars": 7733, "1679": 27924, "calgary": 10112, "yuan": 11237, "reply": 7514, "shark": 11420, "cantonese": 22241, "##llum": 20845, "desired": 9059, "corresponds": 14788, "teacher": 3836, "##alla": 25425, "equivalence": 27841, "threshold": 11207, "with": 2007, "dolphin": 17801, "rajasthan": 16815, "rounds": 6241, "portland": 6734, "##br": 19892, "##aa": 11057, "\u1102": 1456, "granite": 9753, "##quist": 18331, "##quay": 25575, "##arney": 25831, "540": 20263, "similarly": 6660, "manifold": 19726, "secretary": 3187, "##ibility": 13464, "antics": 27440, "harder": 6211, "thirsty": 24907, "leafs": 21349, "privately": 9139, "monty": 18446, "reign": 5853, "des": 4078, "##em": 6633, "precision": 11718, "disused": 26958, "mahmoud": 27278, "##\u590f": 30334, "eli": 12005, "california": 2662, "cyber": 16941, "group": 2177, "celia": 18020, "delegation": 10656, "bothered": 11250, "vilnius": 20513, "~": 1066, "slices": 25609, "slipping": 11426, "smashing": 21105, "assyrian": 19950, "tubes": 10868, "applied": 4162, "slips": 17433, "bends": 23394, "integral": 9897, "heiress": 20020, "maximilian": 18838, "[unused525]": 530, "brian": 4422, "lethal": 12765, "mesopotamia": 25889, "clown": 15912, "##itation": 18557, "gases": 15865, "minutes": 2781, "sack": 12803, "##dini": 26039, "logging": 15899, "##patient": 24343, "suits": 11072, "[unused555]": 560, "lucien": 11732, "\u043e": 1193, "halted": 12705, "carnage": 27450, "futsal": 21921, "##ml": 19968, "description": 6412, "delicate": 10059, "walters": 19097, "assam": 15181, "pornographic": 26932, "artist": 3063, "[unused384]": 389, "##gua": 19696, "strife": 27865, "##ca": 3540, "1653": 29309, "##\u00f8y": 27688, "slaves": 7179, "eisenhower": 16551, "beacon": 14400, "jeans": 6312, "palmer": 8809, "petite": 20146, "roche": 20162, "##say": 24322, "rack": 14513, "thanksgiving": 15060, "antioch": 19078, "##uity": 18518, "##\u06cc": 24830, "follower": 22399, "hallways": 28274, "privileges": 14310, "accreditation": 14893, "shield": 6099, "mistakenly": 20706, "therese": 25598, "[unused938]": 943, "\u0909": 1313, "uci": 14504, "sargent": 27599, "sikh": 17246, "payload": 18093, "##emon": 26941, "deficit": 15074, "\u09a5": 1363, "pcs": 27019, "lowers": 24950, "4a": 26424, "introductory": 23889, "recover": 8980, "imported": 10964, "salamanca": 29608, "##sant": 22341, "optical": 9380, "\u1d9c": 1511, "tasted": 12595, "censorship": 15657, "ventures": 13252, "##ef": 12879, "introduce": 8970, "sheen": 20682, "earliest": 5700, "##kr": 21638, "##\u028b": 29699, "abraham": 8181, "##stock": 14758, "[unused551]": 556, "##der": 4063, "dramas": 16547, "rediscovered": 26733, "[unused81]": 82, "teresa": 12409, "eminent": 14953, "##nell": 9091, "intellectual": 7789, "##yad": 25152, "nowhere": 7880, "tower": 3578, "confirmed": 4484, "labour": 4428, "transformed": 8590, "executive": 3237, "invitations": 29492, "protested": 11456, "gael": 28151, "hiss": 19074, "##shot": 19040, "[unused940]": 945, "##\u03ba": 29726, "advisors": 18934, "look": 2298, "flock": 19311, "##tick": 26348, "##athy": 17308, "erosion": 14173, "ufo": 24321, "establishing": 7411, "##gor": 20255, "resemblance": 14062, "proportional": 14267, "rainfall": 10101, "hiv": 9820, "lime": 14123, "standings": 11869, "shortened": 12641, "adultery": 29169, "42nd": 21373, "##tral": 21493, "[unused155]": 160, "pizza": 10733, "pia": 24624, "rouen": 27030, "rookie": 8305, "styling": 20724, "holy": 4151, "1891": 6607, "##pol": 18155, "dudley": 12648, "interceptions": 18387, "verification": 22616, "##fb": 26337, "[unused566]": 571, "lutheran": 10034, "475": 28245, "pearl": 7247, "##emia": 17577, "spd": 23772, "[unused749]": 754, "##han": 4819, "plank": 24000, "invalid": 19528, "##ann": 11639, "##mering": 27851, "246": 22376, "paisley": 23321, "times": 2335, "having": 2383, "negotiated": 13630, "feeder": 21429, "gravely": 28070, "inland": 9514, "dialogue": 7982, "infamous": 14429, "meetings": 6295, "branded": 11180, "##cular": 15431, "bath": 7198, "\u11a8": 1484, "pasta": 24857, "##ffy": 16329, "##nts": 7666, "##rica": 14735, "acquire": 9878, "tackles": 10455, "carriers": 11363, "older": 3080, "unlawful": 22300, "[unused492]": 497, "transmitting": 23820, "atom": 13787, "tumbled": 18303, "patterns": 7060, "polymer": 17782, "store": 3573, "ascension": 18071, "[unused590]": 595, "towels": 24213, "toast": 15174, "boy": 2879, "focal": 15918, "2012": 2262, "autonomous": 8392, "##aster": 24268, "##etched": 29574, "mayer": 14687, "forming": 5716, "spirits": 8633, "##und": 8630, "\u0648": 1298, "utah": 6646, "grab": 6723, "poles": 10567, "##light": 7138, "integers": 24028, "sparked": 13977, "##glio": 29480, "maneuvers": 23802, "attacking": 7866, "winger": 16072, "boilers": 20412, "suggest": 6592, "grimly": 22561, "blackened": 25788, "regardless": 7539, "salisbury": 13817, "##vocation": 19152, "fireworks": 16080, "gruff": 27038, "here": 2182, "##jer": 20009, "##py": 7685, "flourishing": 29571, "intensified": 15767, "governed": 9950, "boxer": 10423, "justin": 6796, "dimitri": 15953, "1635": 27426, "##\u03bf\u03c2": 15297, "##xton": 14226, "helpful": 14044, "band": 2316, "illusions": 24883, "bind": 14187, "##[": 29634, "##used": 13901, "improved": 5301, "file": 5371, "relocation": 18344, "wednesday": 9317, "##gf": 25708, "nebraska": 8506, "100th": 16919, "##\u5dde": 30362, "amusement": 9778, "smelling": 19773, "##ep": 13699, "##ops": 11923, "151": 16528, "christophe": 23978, "mama": 9588, "##dium": 12811, "aquarium": 18257, "chuckled": 10252, "exam": 11360, "mariana": 22097, "mohan": 18529, "m\u00b2": 7030, "quietly": 5168, "evaluation": 9312, "surviving": 6405, "##\u3059": 30184, "##\u3002": 30162, "sen": 12411, "myths": 17218, "severe": 5729, "muscular": 13472, "updated": 7172, "##cci": 14693, "##athlon": 17563, "bound": 5391, "sex": 3348, "nbc": 6788, "183": 18677, "lots": 7167, "academia": 16926, "explanation": 7526, "hosting": 9936, "touched": 5028, "miscellaneous": 25408, "mixture": 8150, "filmed": 6361, "##cytes": 27321, "##forms": 22694, "spiders": 14160, "cognition": 26497, "chelsea": 9295, "##clave": 23650, "plants": 4264, "##ora": 6525, "roach": 20997, "malmo": 23643, "1955": 3982, "\u20a9": 1573, "##wr": 13088, "warrington": 23051, "scheduling": 19940, "powell": 8997, "##ask": 19895, "cane": 11942, "prisoner": 7267, "##aer": 27867, "implemented": 7528, "altering": 22552, "graphical": 20477, "tame": 24763, "[unused521]": 526, "cavendish": 23570, ":": 1024, "##fe": 7959, "##yen": 20684, "smithsonian": 15720, "\u4fe1": 1767, "michael": 2745, "horrified": 14603, "jug": 26536, "streetcar": 21420, "positioned": 10959, "reliance": 17975, "vidal": 29259, "sidney": 11430, "##\u2191": 30112, "\u7530": 1911, "\u5fb7": 1848, "grassy": 22221, "atlantis": 16637, "1654": 27445, "apparel": 26278, "icy": 13580, "henson": 27227, "[unused565]": 570, "hedges": 25840, "ashley": 9321, "jennie": 27557, "dialects": 11976, "corbett": 24119, "reassigned": 18026, "quoted": 9339, "\u0928": 1327, "##ilde": 23891, "##ucher": 22368, "inexpensive": 23766, "figured": 6618, "merry": 12831, "ibm": 9980, "fooled": 25857, "1976": 3299, "[unused14]": 15, "warwick": 13283, "ceylon": 16447, "tissues": 14095, "bundles": 26825, "nephew": 7833, "[unused625]": 630, "1721": 27689, "raise": 5333, "##wind": 11101, "reorganization": 17118, "amalgamated": 17143, "[unused331]": 336, "\u6b63": 1888, "queer": 19483, "1612": 29186, "hendricks": 28895, "shuddered": 13937, "roma": 12836, "finals": 4399, "rosario": 17496, "salmon": 11840, "##rocity": 21735, "paste": 19351, "romani": 23982, "streets": 4534, "##zoo": 23221, "##the": 10760, "playoff": 7808, "56": 5179, "occurs": 5158, "cipher": 27715, "\u09aa": 1367, "##ling": 2989, "##iter": 21646, "##sea": 17310, "shelly": 28360, "hell": 3109, "##sby": 14478, "implementations": 24977, "##horn": 9769, "##tled": 14782, "kidnap": 22590, "italiana": 28059, "##tance": 26897, "[unused192]": 197, "mango": 24792, "poland": 3735, "tex": 16060, "watch": 3422, "halifax": 10475, "gabe": 12900, "##ination": 12758, "\u0274": 1124, "flap": 20916, "swallow": 10577, "##\u0584": 29786, "teens": 13496, "commuter": 14334, "91": 6205, "reunion": 10301, "focusing": 7995, "level": 2504, "[unused750]": 755, "racer": 14878, "1710": 23841, "##ni": 3490, "consul": 11801, "quarterly": 12174, "consideration": 9584, "##christ": 26654, "craft": 7477, "instruments": 5693, "##urance": 25863, "kim": 5035, "##nical": 20913, "closeness": 28398, "prostitute": 19215, "croix": 18733, "drama": 3689, "owners": 5608, "1807": 13206, "preface": 18443, "www": 7479, "stevie": 17458, "electronics": 8139, "neal": 11030, "##offs": 27475, "##\u0580": 29784, "happily": 11361, "\u05d1": 1242, "sixties": 22651, "##hya": 17915, "creators": 17277, "##\u30fb": 30264, "cinemas": 19039, "neighborhood": 5101, "phenomena": 13352, "brew": 24702, "paz": 18183, "thesis": 9459, "thoroughly": 12246, "fabio": 25616, "midday": 22878, "##tore": 19277, "chevrolet": 14724, "launching": 12106, "falsely": 23123, "likely": 3497, "causes": 5320, "stakes": 7533, "disbanded": 8532, "celtic": 8730, "determination": 9128, "promptly": 13364, "radcliffe": 22603, "acceptance": 9920, "##bry": 25731, "unpredictable": 21446, "naked": 6248, "nash": 10594, "pepsi": 27237, "argus": 25294, "##\u21d2": 30119, "prince": 3159, "semester": 13609, "mole": 16709, "vampire": 4393, "ordinance": 16692, "turks": 12896, "[unused428]": 433, "quarries": 27069, "mae": 11530, "vs": 5443, "[unused665]": 670, "##pel": 11880, "keyboards": 6269, "##connected": 24230, "partly": 6576, "define": 9375, "punjabi": 17498, "##rod": 14127, "ethel": 19180, "metropolis": 18236, "parochial": 28773, "safer": 13726, "stared": 3592, "excess": 9987, "##sberg": 11711, "hooker": 17074, "calls": 4455, "802": 23908, "afraid": 4452, "##tea": 27058, "widely": 4235, "##pee": 28084, "\u30bb": 1708, "\u4ebb": 1757, "##yana": 16811, "forward": 2830, "##\u0254": 29679, "chart": 3673, "ward": 4829, "1877": 7557, "305": 20405, "commonplace": 27550, "lingered": 17645, "##\u30d8": 30247, "spruce": 19893, "series": 2186, "mentally": 10597, "procurement": 21423, "##erina": 26052, "calculated": 10174, "bird": 4743, "coding": 16861, "clashed": 22600, "popped": 10538, "clearly": 4415, "##wine": 21924, "##istic": 6553, "rehab": 24497, "steward": 17946, "morgan": 5253, "goran": 28356, "138": 15028, "abuses": 21078, "craters": 27561, "##(": 29619, "\u062e": 1277, "drenched": 25265, "crown": 4410, "101": 7886, "respected": 9768, "clint": 16235, "davenport": 16273, "##cho": 9905, "raja": 10164, "dom": 14383, "gave": 2435, "lens": 10014, "fm": 4718, "regularly": 5570, "##worm": 22769, "squared": 19942, "loyalty": 9721, "\u798f": 1926, "breakout": 25129, "\u110c": 1464, "biology": 7366, "##teacher": 24741, "jing": 21536, "nut": 17490, "406": 27433, "oblique": 20658, "1742": 25704, "perfect": 3819, "##iful": 18424, "signaled": 22319, "rural": 3541, "midtown": 27219, "awarded": 3018, "1970": 3359, "franchises": 22506, "\u6c5f": 1897, "junction": 5098, "verity": 22178, "##\u00f7": 29669, "footprint": 24319, "##time": 7292, "dobson": 27679, "wta": 21925, "hines": 25445, "##sdale": 15145, "trusted": 9480, "carnival": 11485, "##trics": 29392, "mickey": 11021, "agustin": 26889, "clarence": 11805, "##rek": 16816, "idle": 18373, "montreal": 5548, "##ect": 22471, "apologetic": 29352, "skipping": 25978, "program": 2565, "dragged": 7944, "\u9f8d": 1982, "retailers": 16629, "championship": 2528, "smoked": 20482, "##md": 26876, "##nton": 15104, "learning": 4083, "charlie": 4918, "##nos": 15460, "zac": 29250, "embankment": 22756, "\u00f0": 1098, "##eded": 19082, "finger": 4344, "concession": 16427, "##nz": 14191, "ipswich": 15435, "succeed": 9510, "##ulator": 20350, "leroy": 19103, "drowning": 14759, "load": 7170, "excited": 7568, "ul": 17359, "##oned": 17799, "bloomfield": 25584, "brothers": 3428, "defence": 4721, "himalayan": 28333, "anyway": 4312, "forever": 5091, "\u5927": 1810, "muted": 22124, "gabled": 26182, "achievements": 10106, "giggling": 21783, "mohamed": 14467, "oversight": 15709, "parental": 18643, "##flict": 29301, "amor": 16095, "[unused824]": 829, "fisherman": 19949, "preparing": 8225, "introductions": 25795, "##mates": 15416, "[unused467]": 472, "practicing": 12560, "tea": 5572, "##bolt": 22803, "josephine": 16117, "renovation": 10525, "honorary": 5756, "develop": 4503, "hook": 8103, "sexuality": 13798, "assumed": 5071, "229": 22777, "assortment": 26285, "growling": 22413, "aidan": 12643, "madeline": 16974, "detection": 10788, "##ahu": 21463, "pilgrims": 17992, "##ists": 5130, "##fles": 28331, "[unused695]": 700, "##ism": 2964, "garry": 21507, "zenith": 28672, "savannah": 10891, "[unused324]": 329, "hopeful": 17772, "lawyers": 9559, "[unused497]": 502, "tibet": 13319, "sites": 4573, "[unused103]": 108, "##onda": 29067, "bangladesh": 7269, "dominic": 11282, "1927": 4764, "iberian": 21988, "###": 29614, "haste": 24748, "[unused333]": 338, "binds": 20817, "gina": 17508, "franciscan": 19420, "smaller": 3760, "nudged": 18666, "witnessing": 24740, "along": 2247, "##ping": 4691, "dread": 14436, "##yuki": 19663, "district": 2212, "stupidity": 28072, "##\u099f": 29895, "##ret": 13465, "consists": 3774, "##beck": 12750, "across": 2408, "impress": 17894, "kiel": 20963, "diego": 5277, "##eda": 11960, "surrounding": 4193, "telling": 4129, "receiving": 4909, "##\u0bc1": 29933, "mosque": 8806, "[unused546]": 551, "[unused119]": 124, "##enter": 29110, "\u0b9a": 1383, "nw": 22064, "yesterday": 7483, "##zko": 29002, "brewers": 20007, "pp": 4903, "better": 2488, "##ament": 24996, "decidedly": 27873, "sting": 12072, "jaipur": 28355, "gatherings": 21403, "displaced": 12936, "430": 19540, "clergyman": 22232, "selects": 27034, "##ra": 2527, "hillary": 18520, "dallas": 5759, "criminals": 12290, "interred": 13917, "miracle": 9727, "unemployed": 18787, "luce": 19913, "dedicated": 4056, "presumably": 10712, "joaquin": 16877, "ames": 19900, "##ains": 28247, "inappropriate": 15884, "##sack": 25607, "bing": 17620, "##zak": 20685, "mi": 2771, "savior": 24859, "include": 2421, "##ume": 17897, "kings": 5465, "yoga": 13272, "##power": 11452, "military": 2510, "minimum": 6263, "##bon": 11735, "chow": 20209, "##\u02b7": 29709, "constituted": 11846, "##sy": 6508, "merchandise": 16359, "zhu": 15503, "[unused96]": 97, "wars": 5233, "##rt": 5339, "411": 27517, "straighten": 28568, "soaring": 23990, "vulnerable": 8211, "recalling": 21195, "##fully": 7699, "reno": 17738, "##lar": 8017, "random": 6721, "noting": 9073, "##ms": 5244, "\u30af": 1702, "hawk": 9881, "chains": 8859, "jia": 25871, "beck": 10272, "spontaneous": 17630, "\u09ae": 1370, "thugs": 24106, "viper": 17947, "policemen": 19809, "lame": 20342, "introducing": 10449, "log": 8833, "protected": 5123, "alley": 8975, "sy": 25353, "\u0449": 1204, "sincerely": 25664, "falkland": 25257, "##scan": 29378, "larsen": 20094, "apparent": 6835, "proximity": 10039, "act": 2552, "milford": 22622, "spa": 12403, "huey": 29503, "steele": 12872, "enhance": 11598, "educational": 4547, "##tric": 12412, "break": 3338, "##block": 23467, "##drik": 28730, "mode": 5549, "##mmel": 29033, "judy": 12120, "shouts": 15701, "emmy": 10096, "fridge": 16716, "##ital": 18400, "girl": 2611, "erica": 19295, "furrowed": 20555, "nathan": 7150, "##ove": 21818, "detect": 11487, "wrestlers": 14039, "bermuda": 13525, "paralympics": 15600, "##boot": 27927, "##h": 2232, "hawkins": 13835, "willingness": 19732, "trains": 4499, "objection": 22224, "fantastic": 10392, "##rm": 10867, "volumes": 6702, "mackenzie": 11407, "plymouth": 10221, "weekday": 16904, "\u305d": 1660, "pretoria": 25366, "relegation": 9591, "senior": 3026, "tufts": 25252, "rq": 28134, "life": 2166, "liking": 16663, "shards": 23327, "quincy": 16141, "motorsport": 21044, "each": 2169, "accolades": 27447, "brethren": 17937, "reverse": 7901, "##\u30c6": 30239, "puppets": 26101, "##tr": 16344, "baseman": 18038, "tread": 29449, "cheer": 15138, "corners": 8413, "subtropical": 11935, "ultraviolet": 26299, "commander": 3474, "heidelberg": 16793, "permitted": 7936, "##l": 2140, "controllers": 21257, "inaugural": 7725, "moore": 5405, "##\u026f": 29688, "1689": 22685, "relatively": 4659, "crying": 6933, "rosewood": 29528, "ancestors": 10748, "[unused723]": 728, "hysterical": 25614, "trondheim": 26331, "found": 2179, "dialed": 21300, "condom": 20910, "refinery": 21034, "bram": 20839, "shovel": 24596, "nashville": 8423, "containing": 4820, "##\u02be": 29713, "[unused190]": 195, "competitive": 6975, "fantasies": 21233, "pup": 26781, "safari": 23591, "stafford": 15064, "neurological": 23130, "programme": 4746, "##ignant": 25593, "hatred": 11150, "##\u2081": 11871, "##rre": 14343, "##rring": 18807, "harbor": 6496, "dynamics": 10949, "proving": 13946, "dyer": 23494, "laid": 4201, "greedy": 20505, "chuck": 8057, "##lum": 12942, "tangent": 27250, "##dition": 20562, "catalytic": 26244, "blogs": 23012, "bicycles": 21066, "maintenance": 6032, "celaena": 29252, "impact": 4254, "motel": 14901, "##nob": 25083, "\u03bf": 1169, "pitchfork": 22355, "\u00e6": 1097, "transportation": 5193, "israel": 3956, "reclamation": 27389, "psychotic": 27756, "napoleon": 8891, "fire": 2543, "##dc": 16409, "##smith": 21405, "##n": 2078, "resolving": 29304, "severity": 18976, "churning": 26765, "circulation": 9141, "skylar": 27970, "result": 2765, "llc": 11775, "\u4e00": 1740, "emerald": 14110, "reginald": 14435, "\u0127": 1103, "paradigm": 20680, "1737": 26738, "triangles": 27189, "xinjiang": 25904, "betrayed": 12056, "partnerships": 13797, "gemma": 19073, "sumatra": 18262, "narrowing": 21978, "unacceptable": 21873, "detachment": 11009, "instituted": 14948, "towering": 20314, "jody": 27562, "pencil": 14745, "omaha": 12864, "stacy": 18566, "##zier": 21548, "electronic": 4816, "exceptionally": 17077, "##roud": 21332, "shooter": 13108, "ghanaian": 27202, "dark": 2601, "december": 2285, "easier": 6082, "installation": 8272, "fluent": 19376, "speed": 3177, "##ors": 5668, "##mba": 11201, "invertebrates": 25700, "\u221a": 1600, "##itude": 18679, "ganga": 28646, "\u0987": 1349, "##erated": 16848, "radiating": 23229, "[unused440]": 445, "meek": 28997, "undertaken": 10607, "\u5834": 1806, "factual": 25854, "helmut": 24515, "manage": 6133, "johanna": 21498, "elsie": 24603, "value": 3643, "tamil": 6008, "vila": 23840, "##lars": 28695, "fee": 7408, "##omics": 25524, "##\u5e73": 30365, "sussex": 9503, "##\uff01": 30512, "##use": 8557, "notably": 5546, "##lism": 28235, "tingle": 25792, "wilkins": 22745, "1648": 22533, "tales": 7122, "aliens": 12114, "##\u0993": 29888, "entirety": 15700, "billings": 26124, "openings": 16556, "duets": 29410, "limited": 3132, "projects": 3934, "framed": 10366, "handheld": 27291, "lengths": 10742, "confederate": 8055, "\u092d": 1330, "##is": 2483, "blinded": 20641, "1882": 7131, "dress": 4377, "gora": 26967, "##lving": 25780, "1618": 29029, "geschichte": 28299, "154": 16666, "forgive": 9641, "cree": 27831, "rourke": 24400, "zhang": 9327, "ones": 3924, "##ians": 7066, "##chemical": 15869, "[unused964]": 969, "volley": 28073, "aka": 9875, "##aries": 12086, "ting": 28642, "anand": 18887, "extension": 5331, "##51": 22203, "oval": 9242, "dumped": 14019, "[unused522]": 527, "predecessors": 16372, "##cated": 12921, "part": 2112, "\u68ee": 1882, "efforts": 4073, "difficulty": 7669, "##\u4eac": 30281, "weber": 13351, "##udence": 29424, "##hum": 28600, "announcement": 8874, "peterborough": 17587, "alsace": 24922, "georgetown": 12982, "sharif": 20351, "regeneration": 20045, "##\u4ecb": 30285, "ste": 26261, "possessed": 8679, "##mme": 20058, "many": 2116, "ousted": 28368, "angelina": 23847, "occupies": 14133, "##\u8c9d": 30478, "robust": 15873, "laughing": 5870, "down": 2091, "[unused55]": 56, "\u5fc3": 1849, "recognize": 6807, "##agne": 25440, "assumptions": 17568, "crept": 13147, "frankenstein": 22478, "seo": 27457, "apex": 13450, "coping": 27520, "infringement": 20701, "insides": 19008, "##\u0454": 29759, "david": 2585, "engages": 24255, "runs": 3216, "goodwill": 22875, "metric": 12046, "soprano": 10430, "invariant": 23915, "non": 2512, "1663": 29016, "deemed": 8357, "ultrasound": 27312, "marketing": 5821, "\u0294": 1139, "dead": 2757, "dialogues": 22580, "dickinson": 17590, "caledonian": 27449, "byu": 23471, "prowess": 26120, "leading": 2877, "##active": 19620, "trent": 7990, "bankrupt": 17482, "wished": 6257, "resented": 27188, "automatic": 6882, "bloomington": 26372, "barbed": 25007, "lineman": 24062, "digest": 17886, "jackie": 9901, "##very": 27900, "collateral": 24172, "shillings": 29332, "heir": 8215, "460": 17267, "##\u2206": 30122, "threaten": 15686, "bleed": 19501, "campaigned": 16196, "lp": 6948, "eu": 7327, "##wa": 4213, "michele": 15954, "clandestine": 24450, "stanley": 6156, "##houses": 15666, "crystalline": 24628, "shanghai": 8344, "1699": 28718, "manufactured": 7609, "ammunition": 9290, "lesser": 8276, "fortunately": 14599, "ecole": 12431, "grupo": 26678, "enzyme": 9007, "##stems": 29189, "paths": 10425, "extinct": 8548, "[unused532]": 537, "\u3057": 1657, "##cona": 24366, "lawyer": 5160, "playoffs": 7555, "##\u02bf": 29714, "##`": 29639, "musee": 18070, "villiers": 25333, "wardrobe": 17828, "spy": 8645, "212": 18164, "requests": 11186, "un": 4895, "applicant": 23761, "##\u03c7": 29737, "elliott": 9899, "zoological": 26168, "1760": 19096, "furry": 28662, "graham": 5846, "##oa": 10441, "##fied": 10451, "bridges": 7346, "##combe": 14149, "dairy": 11825, "savanna": 22323, "writhing": 26185, "161": 17365, "taiwan": 6629, "##\u05e5": 29808, "##45": 19961, "##zin": 17168, "\u0985": 1347, "##27": 22907, "stomach": 4308, "\u4f1a": 1763, "manually": 21118, "arthur": 4300, "ins": 16021, "guns": 4409, "hip": 5099, "azerbaijan": 8365, "damaging": 15011, "##lay": 8485, "tobacco": 9098, "gregor": 16973, "##haw": 14238, "runes": 29161, "discount": 19575, "##ifiers": 28295, "participates": 17257, "witnesses": 9390, "[unused777]": 782, "spielberg": 28740, "##ean": 11219, "##pura": 21228, "inspirational": 28676, "1813": 12169, "\u02bb": 1145, "36th": 21460, "janeiro": 11497, "stiff": 10551, "demonstrates": 16691, "reversal": 23163, "\u0927": 1326, "limo": 23338, "mccarthy": 12584, "confrontation": 13111, "klein": 12555, "##ie": 2666, "craved": 25155, "\u00be": 1093, "believers": 20373, "tess": 15540, "discreet": 29321, "##dl": 19422, "rug": 20452, "72": 5824, "[unused962]": 967, "sulfur": 17864, "cooke": 16546, "260": 13539, "christy": 21550, "mart": 20481, "biochemistry": 22419, "\u0443": 1198, "converse": 23705, "cain": 11557, "##rford": 26430, "foil": 17910, "restrictive": 25986, "liberalism": 26505, "##\u20b9": 30104, "shouldered": 29383, "flu": 19857, "nils": 27282, "simultaneously": 7453, "ce": 8292, "chris": 3782, "apple": 6207, "fur": 6519, "##eve": 18697, "##balance": 26657, "spectroscopy": 25458, "##yas": 16303, "laurel": 11893, "shannon": 10881, "triassic": 29529, "##\u2261": 30134, "\u03b2": 1156, "progressively": 20519, "survived": 5175, "sporadic": 24590, "[unused94]": 95, "\u02bf": 1148, "##tose": 22282, "##ciency": 29125, "electromagnetic": 17225, "ea": 19413, "##nitz": 22792, "motioned": 13054, "half": 2431, "muscled": 24909, "209": 19348, "##brick": 25646, "extremes": 28800, "[unused862]": 867, "almighty": 26668, "sultan": 7544, "colts": 14390, "##tical": 14656, "shotgun": 13305, "[unused578]": 583, "turn": 2735, "##ibar": 26656, "bravo": 17562, "manpower": 22039, "sindh": 20284, "dispute": 7593, "1988": 2997, "\u056b": 1225, "\u967d": 1973, "taunting": 29442, "##bility": 8553, "##bolic": 18647, "buttons": 11287, "incidents": 10444, "clayton": 11811, "hauling": 23113, "doesn": 2987, "outrage": 19006, "farmer": 7500, "trenches": 19874, "independence": 4336, "captains": 15755, "tolerance": 13986, "likeness": 28275, "britain": 3725, "##ain": 8113, "specialty": 12233, "##ne": 2638, "alloys": 28655, "##\u5ddd": 30361, "protestant": 8330, "norwood": 22804, "##sling": 28886, "\u0639": 1288, "urges": 23876, "##des": 6155, "[unused307]": 312, "thru": 27046, "##tute": 24518, "##chaft": 29043, "quarterfinal": 29380, "lyricist": 19489, "##americana": 27026, "##\u2c7c": 30157, "mafia": 13897, "advertising": 6475, "passports": 19494, "validity": 16406, "##phic": 17926, "\u9234": 1965, "slit": 18036, "soccer": 4715, "c2": 29248, "vocational": 13099, "##aru": 15728, "drivers": 6853, "representation": 6630, "##ile": 9463, "rumored": 22710, "suffers": 17567, "##ysis": 20960, "\u03c7": 1177, "1655": 28438, "armed": 4273, "##ppa": 13944, "##nad": 25389, "impairment": 25172, "pondered": 28347, "##lewood": 26580, "##\u25a0": 30144, "engulfed": 24692, "[unused831]": 836, "politicians": 8801, "returned": 2513, "bengal": 8191, "patio": 19404, "##hler": 13620, "odds": 10238, "deception": 17575, "remind": 10825, "clark": 5215, "mistress": 10414, "737": 22061, "headmaster": 16296, "##unce": 17457, "area": 2181, "hate": 5223, "will": 2097, "loves": 7459, "grandfather": 5615, "##\u1111": 30004, "##\u1019": 29973, "wilde": 18575, "managers": 10489, "panels": 9320, "courtship": 28592, "coated": 15026, "##asco": 28187, "snarl": 24845, "\u56d7": 1797, "smile": 2868, "412": 25873, "negative": 4997, "##uaries": 22579, "intel": 13420, "hebrew": 6836, "poe": 18922, "stamp": 11359, "##aby": 21275, "##nated": 23854, "1991": 2889, "up": 2039, "doping": 23799, "[unused315]": 320, "cole": 5624, "collect": 8145, "ada": 15262, "bitter": 8618, "cast": 3459, "gates": 6733, "[unused841]": 846, "chester": 8812, "boxers": 18508, "11th": 6252, "lever": 15929, "kind": 2785, "pledged": 16970, "##otic": 20214, "[unused623]": 628, "poster": 13082, "[unused328]": 333, "revolutions": 25239, "quantum": 8559, "unexpectedly": 14153, "##ting": 3436, "historical": 3439, "294": 28135, "portal": 9445, "gray": 3897, "assessing": 20077, "oxidation": 19577, "company": 2194, "trey": 14826, "neon": 16231, "\u6238": 1857, "\u5289": 1777, "bids": 20723, "##gnon": 26977, "nascar": 11838, "counter": 4675, "lear": 26511, "spread": 3659, "categorized": 20427, "agatha": 23863, "undead": 17315, "##ego": 20265, "dwell": 23120, "1838": 9931, "[unused162]": 167, "resort": 7001, "##bm": 25526, "oneself": 25763, "[unused139]": 144, "duel": 14216, "blend": 12586, "##plify": 28250, "compete": 5566, "spencer": 7084, "nat": 14085, "execute": 15389, "##play": 13068, "practitioners": 14617, "##\u00f8": 16415, "##wyl": 27740, "qi": 18816, "[unused953]": 958, "pod": 17491, "catfish": 23723, "seahawks": 21390, "donetsk": 29151, "##\u04cf": 29765, "stalker": 23883, "cord": 11601, "##tana": 20496, "vaudeville": 19698, "ley": 25866, "##\u30e3": 30254, "desperation": 15561, "medial": 23828, "intensive": 11806, "\u0e27": 1419, "euro": 9944, "##6": 2575, "dona": 24260, "credentials": 22496, "##rom": 21716, "\u0936": 1336, "hesitant": 20221, "steal": 8954, "grandchildren": 13628, "##nko": 16107, "parent": 6687, "##aneous": 17191, "nature": 3267, "clearer": 24509, "park": 2380, "[unused382]": 387, "snyder": 17840, "algorithms": 13792, "lending": 18435, "##nin": 11483, "finalized": 23575, "instrument": 6602, "##ger": 4590, "subfamily": 10946, "week": 2733, "##\u2502": 30143, "##ezer": 25733, "jc": 29175, "##ous": 3560, "christ": 4828, "intervals": 14025, "lennon": 14294, "virginity": 26970, "##erus": 21608, "##ulin": 18639, "descriptions": 13271, "##ken": 7520, "##ung": 5575, "raked": 22438, "beetles": 14538, "threat": 5081, "shown": 3491, "apprehension": 25809, "merrill": 16239, "stepmother": 26959, "##\u043d": 18947, "cunningham": 13652, "ceramics": 17314, "analytics": 25095, "squadron": 3704, "##camp": 26468, "training": 2731, "reinforce": 19444, "5": 1019, "revolutionary": 6208, "letterman": 26593, "[unused150]": 155, "ensued": 18942, "shu": 18454, "vijay": 17027, "##bana": 19445, "beaches": 12212, "##\u03bd": 16177, "jo": 8183, "##skie": 23955, "lonely": 9479, "tracking": 9651, "mary": 2984, "olympics": 3783, "drops": 9010, "cope": 11997, "ferguson": 11262, "512": 24406, "signature": 8085, "##uled": 18696, "athlete": 8258, "marion": 10115, "decrease": 9885, "mendez": 28950, "handgun": 28497, "unrelated": 15142, "##by": 3762, "reader": 8068, "vin": 19354, "##oko": 16366, "lulu": 21744, "nagar": 16395, "policeman": 14460, "sheldon": 19369, "##nais": 28020, "tearing": 13311, "##\u092a": 29864, "morales": 17103, "tasmania": 12343, "lavender": 20920, "semi": 4100, "##lip": 15000, "[unused593]": 598, "nicholson": 16955, "idiot": 10041, "\u5206": 1775, "riverside": 12497, "uneven": 17837, "contracted": 11016, "thinner": 23082, "irritation": 17373, "early": 2220, "factories": 11123, "\u8cb4": 1953, "##puri": 24661, "[unused373]": 378, "dod": 26489, "[unused929]": 934, "##\u738b": 30435, "uprising": 10138, "collective": 7268, "gabon": 23129, "\u10d9": 1446, "\u2015": 1518, "pollen": 22482, "##nidae": 29135, "swearing": 25082, "spurs": 18205, "deacon": 14845, "introduction": 4955, "borrowed": 11780, "approached": 5411, "lamps": 14186, "armament": 14410, "##ogenic": 24278, "##written": 15773, "humming": 20364, "##izan": 27334, "demonic": 23170, "unmarried": 17204, "##resses": 25932, "repay": 24565, "joao": 16304, "hopkins": 10239, "##\u30c4": 30238, "hang": 6865, "ruth": 7920, "luggage": 17434, "##fixed": 23901, "guinness": 17323, "roberto": 10704, "awhile": 19511, "enabling": 12067, "slipped": 5707, "##jana": 18803, "cis": 20199, "there": 2045, "##oir": 21165, "pereira": 23857, "##mology": 20570, "screw": 11224, "taxonomy": 25274, "[unused280]": 285, "##sos": 17063, "lounge": 11549, "hz": 22100, "##\u0633": 29824, "##gall": 22263, "\u2663": 1624, "brat": 28557, "institut": 17126, "##\u76f8": 30445, "wide": 2898, "began": 2211, "##ab": 7875, "travellers": 19284, "versus": 6431, "##ula": 7068, "sanskrit": 11353, "diocesan": 18680, "stamford": 22469, "disappearing": 14489, "pill": 17357, "suspended": 6731, "##nova": 13455, "screaming": 7491, "##ncia": 22750, "##zano": 24147, "delay": 8536, "vulgar": 29364, "patting": 26085, "domino": 23968, "beats": 10299, "footing": 22849, "auto": 8285, "apocalypse": 16976, "##don": 5280, "##elle": 14774, "##s": 2015, "oh": 2821, "witty": 25591, "safely": 9689, "sheltered": 18304, "kilograms": 18857, "whales": 17967, "[unused946]": 951, "undoubtedly": 17319, "trilogy": 11544, "##essed": 23656, "reactive": 22643, "bafta": 22284, "concluding": 16228, "bastards": 21123, "psalm": 22728, "fuscous": 18121, "marsh": 9409, "##ooped": 20671, "ethnic": 5636, "##ports": 25378, "couple": 3232, "audiences": 9501, "tomb": 8136, "brightness": 18295, "gulp": 26546, "##abe": 16336, "rebounds": 11049, "##rma": 17830, "prussian": 10734, "##ogy": 15707, "closes": 14572, "orchestra": 4032, "\u10d4": 1442, "##ometric": 28993, "stadion": 20756, "hooded": 21592, "anxiously": 23403, "vikings": 13468, "stables": 16232, "marking": 10060, "scrub": 18157, "essential": 6827, "wanting": 5782, "pile": 8632, "functioned": 20903, "mandal": 24373, "banda": 24112, "thing": 2518, "##hli": 27766, "dt": 26718, "\u2070": 1536, "##lta": 24458, "##cable": 21170, "junk": 18015, "##ass": 12054, "greenish": 23753, "typing": 22868, "members": 2372, "##like": 10359, "emirates": 14041, "releases": 7085, "gm": 13938, "##42": 20958, "originating": 14802, "matteo": 24713, "driver": 4062, "to": 2000, "##lde": 17920, "shri": 14880, "##\u09a1": 29896, "cholera": 25916, "pal": 14412, "\u0621": 1269, "##line": 4179, "transylvania": 20816, "aramaic": 28934, "profile": 6337, "squash": 18794, "[unused200]": 205, "contacted": 11925, "ta": 11937, "heartbeat": 12251, "juvenile": 11799, "\u05d8": 1249, "buster": 18396, "like": 2066, "arun": 28217, "##ckey": 29183, "penguins": 18134, "inherited": 7900, "rallies": 22867, "looting": 29367, "ave": 13642, "54th": 29570, "cyclic": 23750, "managerial": 24465, "##eb": 15878, "karlsruhe": 26660, "1610": 25800, "montana": 8124, "arsenal": 9433, "##mise": 28732, "##res": 6072, "opened": 2441, "##chus": 16194, "refers": 5218, "marley": 20326, "spell": 6297, "natives": 12493, "neighbouring": 9632, "\u027e": 1126, "##\u30aa": 30225, "profound": 13769, "certainly": 5121, "##imating": 22835, "constable": 12294, "absolutely": 7078, "agra": 29542, "thinkers": 24762, "develops": 11791, "wounds": 8710, "reduced": 4359, "howard": 4922, "secondly": 16378, "##person": 27576, "martinique": 29365, "pets": 18551, "apprenticeship": 20448, "chapters": 9159, "\uff0f": 1992, "texas": 3146, "\u057e": 1235, "amber": 8994, "##jhl": 29001, "##\u2193": 30114, "oaks": 13396, "slot": 10453, "professorship": 22661, "##\u58eb": 30333, "##\u2194": 30115, "anatomical": 28141, "video": 2678, "header": 20346, "commemorative": 17524, "##koff": 26126, "factory": 4713, "rowland": 20539, "antagonist": 17379, "tolkien": 23602, "##boards": 15271, "##\u8fb6": 30482, "walden": 24834, "climate": 4785, "be": 2022, "lets": 11082, "balloons": 22163, "anglican": 9437, "smoky": 20629, "teeth": 4091, "##14": 16932, "claudius": 25017, "portage": 25140, "monsters": 9219, "initial": 3988, "filming": 7467, "folding": 12745, "##ilo": 22360, "curse": 8364, "constellation": 15300, "titans": 13785, "utrecht": 18361, "##eni": 18595, "##gn": 16206, "turin": 13667, "curtains": 14694, "surprising": 11341, "1747": 24522, "equipped": 6055, "##ritan": 25279, "printer": 15041, "##\u524d": 30302, "58": 5388, "props": 24387, "\u10d0": 1438, "1793": 12387, "bliss": 13670, "##bri": 23736, "heller": 25038, "##sville": 9337, "##folding": 21508, "traded": 7007, "conveyed": 21527, "##ennial": 22929, "##\u30b9": 30233, "##rating": 15172, "augsburg": 24362, "transparency": 16987, "ballroom": 14307, "grandpa": 15310, "choked": 12444, "moose": 17716, "kenneth": 8856, "flavour": 28126, "occur": 5258, "##rrie": 22155, "annually": 6604, "198": 20003, "tatiana": 22725, "##fighting": 22158, "refused": 4188, "##kian": 28545, "liquor": 13207, "##ums": 18163, "dali": 29095, "1910": 4976, "##\u0291": 29703, "saigon": 24001, "comprehensive": 7721, "dharma": 20669, "patented": 16719, "##\u0576": 29778, "observe": 11949, "385": 24429, "##utnant": 24620, "cruel": 10311, "chilling": 27017, "harley": 13653, "##leen": 24129, "mound": 12048, "equity": 10067, "wanted": 2359, "rounding": 26939, "##vita": 28403, "##ix": 7646, "recalled": 7383, "[unused92]": 93, "marlon": 25861, "artwork": 8266, "sergei": 14543, "vikram": 29063, "place": 2173, "rugged": 17638, "[unused876]": 881, "##a1": 27717, "brooke": 11535, "lightning": 7407, "meyer": 11527, "##nn": 10695, "baronet": 8693, "##aman": 23093, "posted": 6866, "silicon": 13773, "##ieving": 25587, "mal": 15451, "elgin": 23792, "examples": 4973, "society": 2554, "messaging": 24732, "[unused195]": 200, "side": 2217, "##\u300f": 30170, "##\u0646": 15915, "loyalists": 26590, "threats": 8767, "[unused896]": 901, "##sions": 27466, "rip": 10973, "\u057d": 1234, "##esses": 26636, "wainwright": 25305, "ballad": 11571, "won": 2180, "\u8a9e": 1950, "sophisticated": 12138, "laurie": 16450, "##\u045b": 29764, "pen": 7279, "venezuelan": 15332, "derived": 5173, "utterly": 12580, "[unused833]": 838, "##peed": 25599, "exist": 4839, "subunit": 24312, "iroquois": 23015, "sevilla": 29363, "unlocked": 14058, "##oder": 27381, "absorption": 16326, "anal": 20302, "##vary": 21639, "##cko": 19665, "employs": 13495, "##lane": 20644, "graduates": 10845, "rotary": 16933, "[unused663]": 668, "\u062d": 1276, "##stown": 13731, "##ntes": 17340, "\u2261": 1607, "killer": 6359, "##ito": 9956, "comments": 7928, "\u03bb": 1165, "survival": 7691, "wei": 11417, "h": 1044, "##ska": 8337, "bold": 7782, "thomas": 2726, "spins": 23371, "portrayal": 13954, "shakespeare": 8101, "rein": 27788, "usb": 18833, "entry": 4443, "implementing": 14972, "chronicles": 11906, "cam": 11503, "[unused427]": 432, "participated": 4194, "##islaus": 25678, "##ayan": 25868, "miocene": 26926, "caucasian": 23368, "elvis": 12280, "overwhelming": 10827, "colby": 18650, "\u0192": 1108, "##enes": 28553, "womb": 26578, "haunting": 20161, "wave": 4400, "leaped": 16900, "gt": 14181, "##zen": 10431, "##oney": 17791, "enlarged": 11792, "vedic": 25824, "##mm": 7382, "workers": 3667, "lenny": 19065, "abbot": 11428, "millennia": 27620, "krishna": 10871, "[unused406]": 411, "##ine": 3170, "##ets": 8454, "affects": 13531, "intersect": 29261, "turkic": 22926, "warlord": 16579, "maru": 26280, "pandit": 29331, "ottomans": 17774, "1858": 8517, "hacked": 28719, "indigenous": 6284, "##key": 14839, "gibbs": 15659, "smack": 21526, "newt": 25597, "oversees": 22558, "told": 2409, "leans": 12671, "westward": 15165, "##fect": 25969, "##logic": 27179, "frogs": 17582, "dresses": 14464, "zimmerman": 27946, "lim": 18525, "tourists": 9045, "provence": 19923, "##ulton": 22145, "bowen": 16208, "hawker": 23937, "accepts": 13385, "internship": 22676, "eyes": 2159, "abstracts": 29474, "arcade": 10877, "specified": 9675, "##our": 8162, "interceptor": 24727, "1829": 11523, "##ll": 3363, "tangible": 24600, "bowing": 26690, "lanterns": 26078, "borne": 15356, "tentatively": 19325, "hopefully": 11504, "adjustment": 19037, "##org": 21759, "##rb": 15185, "sitting": 3564, "delighted": 15936, "mostly": 3262, "il": 6335, "soyuz": 29412, "ohio": 4058, "famine": 15625, "rene": 10731, "##code": 16044, "strung": 23509, "slower": 12430, "planes": 9738, "compilations": 22754, "\u66f2": 1870, "running": 2770, "##lby": 14510, "##\u3089": 30211, "assistant": 3353, "curator": 13023, "closer": 3553, "[unused904]": 909, "fight": 2954, "violation": 11371, "moderately": 17844, "fred": 5965, "spoil": 27594, "##\u0641": 29833, "busch": 15840, "thessaloniki": 23162, "1645": 26081, "empathy": 26452, "translations": 11913, "acquaintances": 29409, "##kis": 14270, "shawn": 13218, "\u1d2c": 1490, "slopes": 10314, "authorship": 26324, "motivated": 12774, "cornell": 10921, "dalai": 28511, "##\u7acb": 30457, "locker": 12625, "stucco": 27443, "bipolar": 29398, "\u85e4": 1944, "decisive": 13079, "##gley": 22971, "[unused358]": 363, "[unused773]": 778, "reagan": 11531, "adults": 6001, "growth": 3930, "sponsorship": 12026, "expected": 3517, "qatar": 12577, "##isan": 29196, "ideological": 17859, "replies": 14054, "leisure": 12257, "apps": 18726, "brooding": 28902, "[unused709]": 714, "hottest": 20930, "subgenus": 25356, "react": 10509, "fuzzy": 18001, "commitment": 8426, "liverpool": 6220, "300": 3998, "##nne": 10087, "logistical": 28961, "##\u0432": 25529, "exclusive": 7262, "\u30b5": 1705, "inauguration": 17331, "felicity": 27357, "skier": 21294, "leeds": 7873, "field": 2492, "purchased": 4156, "cardiac": 15050, "ji": 10147, "eighties": 27690, "embarrassing": 16436, "##kon": 19648, "thirteenth": 14725, "interspersed": 25338, "[unused349]": 354, "##vyn": 23487, "lake": 2697, "##hwa": 18663, "difference": 4489, "races": 3837, "serves": 4240, "cicero": 23080, "settlers": 7322, "di": 4487, "frankish": 26165, "writers": 4898, "relaxation": 23370, "barbados": 16893, "whatsoever": 18971, "375": 18034, "1692": 28622, "had": 2018, "sustaining": 22663, "\u30c4": 1712, "cdc": 26629, "geese": 28519, "##ped": 5669, "romania": 6339, "louisville": 11577, "governments": 6867, "upgrading": 25925, "investigate": 8556, "##linger": 23101, "##lva": 22144, "hoax": 28520, "stood": 2768, "##\u09a7": 29901, "supervisory": 26653, "swedish": 4467, "##stituting": 21532, "obsessed": 15896, "##mack": 26945, "newfound": 27608, "montenegrin": 24099, "bizarre": 13576, "equator": 26640, "##35": 19481, "builder": 12508, "daniels": 13196, "drain": 12475, "pulp": 16016, "##type": 13874, "stroke": 6909, "abby": 9460, "trolley": 20820, "##tlan": 28922, "##tite": 23096, "viewing": 10523, "litres": 25783, "##chua": 26200, "penalties": 12408, "trapping": 22977, "banco": 28678, "hourly": 21462, "##\u4ebb": 30283, "gazes": 23514, "##mun": 23041, "woodlands": 19268, "invitation": 8468, "cooled": 12981, "supporting": 4637, "burlington": 15552, "##mobile": 17751, "clouds": 8044, "butch": 17520, "sadie": 21330, "yankees": 11081, "pamphlets": 24752, "drummond": 19266, "alarmed": 19260, "##evic": 17726, "len": 18798, "policies": 6043, "wehrmacht": 23443, "enterprises": 9926, "##\u0ba8": 29922, "waived": 16301, "today": 2651, "116": 12904, "wetland": 22217, "kidnapped": 11364, "cathy": 18305, "looming": 23430, "##ls": 4877, "[unused196]": 201, "che": 18178, "holt": 12621, "fiber": 11917, "##hit": 16584, "benton": 18685, "statute": 11671, "chloe": 9318, "behave": 16582, "humanitarian": 11470, "amidst": 17171, "##bs": 5910, "discourse": 15152, "colonization": 18962, "kala": 26209, "[unused403]": 408, "##\u0649": 29837, "handling": 8304, "delivers": 18058, "##ciful": 26336, "emphasized": 13155, "prominent": 4069, "##\u0938": 29874, "mascara": 27700, "i": 1045, "[SEP]": 102, "harcourt": 22714, "chop": 24494, "mathematicians": 29374, "##gues": 22967, "##tie": 9515, "##rwin": 27349, "zev": 27909, "vigor": 24474, "tempest": 22553, "examining": 12843, "\u2081": 1548, "newscast": 20306, "cracks": 15288, "replacement": 6110, "worst": 5409, "cooked": 12984, "lump": 15116, "##bilities": 14680, "glacier": 10046, "corrupt": 13593, "unmistakable": 24219, "seymour": 13254, "trend": 9874, "moderate": 8777, "amongst": 5921, "##\u592b": 30339, "meters": 5563, "sucks": 19237, "\u026a": 1119, "premature": 21371, "supervising": 21238, "[unused892]": 897, "steamship": 23869, "##aj": 13006, "locally": 7246, "##erian": 27549, "displeasure": 28606, "[unused367]": 372, "##hc": 16257, "blindness": 26290, "kenji": 25894, "executions": 22679, "##tics": 14606, "##\u2500": 30142, "stephen": 4459, "singles": 3895, "modeling": 11643, "##<": 29629, "grease": 21956, "sees": 5927, "obscured": 23649, "devi": 14386, "shirley": 11280, "arson": 24912, "taxonomic": 27691, "sha": 21146, "honduras": 14373, "poorer": 27196, "bathurst": 21897, "1774": 17593, "cruising": 22206, "schneider": 15159, "the": 1996, "squeeze": 11025, "sparkling": 16619, "bars": 6963, "louis": 3434, "empty": 4064, "##ha": 3270, "grabbing": 9775, "local": 2334, "##bling": 9709, "translation": 5449, "killing": 4288, "##zam": 20722, "herzegovina": 11453, "meadow": 13244, "1621": 27037, "magnificent": 12047, "superior": 6020, "mora": 26821, "##16": 16048, "vigorously": 22400, "vie": 20098, "maison": 26420, "mk": 12395, "botanist": 17098, "lissa": 20244, "transformation": 8651, "mates": 14711, "\u0932": 1334, "occasion": 6686, "originates": 16896, "meet": 3113, "paperback": 13611, "\u03b1": 1155, "experts": 8519, "freeway": 10846, "untouched": 22154, "derivation": 29280, "strings": 7817, "norris": 15466, "strategically": 23972, "##yang": 12198, "conserve": 27749, "##su": 6342, "141": 15471, "aggregator": 24089, "drummer": 7101, "##jevic": 26782, "coloration": 28757, "marin": 16400, "##urus": 20089, "\u03c0": 1170, "romans": 10900, "##asi": 21369, "adriatic": 23400, "##ulsion": 23316, "md": 9108, "uncomfortable": 8796, "sammy": 14450, "##gement": 20511, "##uce": 18796, "arc": 8115, "##eim": 12112, "although": 2348, "uganda": 10031, "##apes": 29040, "initiatives": 11107, "viking": 12886, "##lga": 27887, "common": 2691, "rwanda": 17591, "##rth": 15265, "##liness": 20942, "nrl": 20686, "cylinder": 7956, "##efined": 28344, "##jm": 24703, "tampa": 9925, "##ntation": 23436, "36": 4029, "naive": 15743, "toyota": 11742, "removes": 20362, "##\u4e8c": 30278, "uss": 7234, "enthusiastic": 14727, "fritz": 12880, "shoving": 15866, "magna": 20201, "teach": 6570, "shocked": 7135, "applause": 20737, "##eth": 11031, "wine": 4511, "##ve": 3726, "outrageous": 25506, "##amo": 22591, "happy": 3407, "[unused281]": 286, "##\u0574": 29776, "consulted": 17535, "siren": 19558, "mondays": 28401, "falcon": 11684, "autonomy": 12645, "helped": 3271, "urgently": 25478, "marathon": 8589, "rap": 9680, "classrooms": 12463, "defaulted": 17265, "##uh": 27225, "\u30c1": 1710, "daze": 28918, "grossing": 18244, "greeting": 14806, "shaw": 8233, "renaissance": 8028, "heads": 4641, "trinity": 7124, "smarter": 25670, "##hara": 11077, "cruise": 8592, "ensign": 19890, "##sg": 28745, "bosnia": 9562, "theft": 11933, "##\u060c": 29814, "##ropolis": 23248, "\u3055": 1656, "indication": 12407, "assessment": 7667, "synthesis": 10752, "imperial": 4461, "overwhelmed": 13394, "##esian": 25253, "tierney": 26198, "pier": 10356, "##fighter": 20027, "gi": 21025, "punch": 8595, "successively": 24288, "[unused459]": 464, "ernie": 14637, "herself": 2841, "vastly": 24821, "drop": 4530, "monitored": 17785, "motionless": 19917, "oxford": 4345, "##kers": 11451, "adversary": 27248, "##eter": 15141, "chronicle": 9519, "compton": 18592, "variables": 10857, "truce": 18415, "cartridges": 22998, "as": 2004, "##los": 10483, "sumner": 23922, "purported": 27023, "boxes": 8378, "gothenburg": 22836, "behalf": 6852, "##cc": 9468, "home": 2188, "jew": 16522, "towers": 7626, "##ibly": 17296, "scattered": 7932, "tel": 10093, "georgian": 9166, "cheryl": 19431, "cyclones": 26069, "systematically": 23087, "simulcast": 20525, "goat": 13555, "##tai": 15444, "clyde": 12085, "removing": 9268, "peripheral": 15965, "scarborough": 18603, "mixing": 6809, "rep": 16360, "steam": 5492, "dashed": 18198, "##kura": 28260, "explosive": 11355, "rihanna": 25439, "##\u0562": 29767, "forgiveness": 17213, "secretive": 28607, "cl": 18856, "alloy": 17564, "tumble": 28388, "fae": 17282, "yanking": 25716, "##tius": 22638, "seizure": 18634, "##iman": 18505, "\u10d8": 1445, "academic": 3834, "\u2044": 1535, "harm": 7386, "\u4ecb": 1759, "##\u2190": 30111, "battalion": 4123, "europa": 12124, "[unused350]": 355, "greenberg": 24190, "conversely": 18868, "depths": 11143, "marxist": 15511, "underground": 5230, "technique": 6028, "episcopal": 9134, "faa": 17032, "truman": 15237, "##san": 8791, "[unused303]": 308, "imply": 19515, "arising": 17707, "restraining": 28285, "casablanca": 24592, "surplus": 15726, "##\u3064": 30190, "what": 2054, "amalgamation": 21968, "renegade": 28463, "we": 2057, "##phila": 26083, "inmate": 24467, "vernacular": 18485, "flees": 24776, "beauty": 5053, "##icio": 27113, "concurrent": 16483, "constantine": 12790, "portray": 17279, "primate": 25662, "philipp": 20765, "circus": 9661, "##53": 22275, "firm": 3813, "zones": 10019, "read": 3191, "inwardly": 28710, "jordan": 5207, "mystic": 17477, "id": 8909, "##rano": 20770, "##rdon": 28176, "expresses": 16783, "buzz": 12610, "##tated": 16238, "architects": 8160, "simulator": 25837, "socio": 17522, "##kla": 26086, "sul": 21396, "instruction": 7899, "easter": 10957, "remixed": 17574, "majesty": 9995, "unfamiliar": 16261, "pasture": 20787, "##\u0936": 29872, "addiction": 13449, "##mad": 25666, "\u2087": 1554, "##ows": 15568, "[unused945]": 950, "1900s": 16430, "chloride": 19057, "rely": 11160, "tokyo": 5522, "attackers": 17857, "vic": 10967, "##kan": 9126, "significant": 3278, "leah": 14188, "##ael": 21147, "[unused95]": 96, "actresses": 19910, "##nate": 12556, "##sters": 15608, "30th": 13293, "future": 2925, "standards": 4781, "observes": 24451, "foundation": 3192, "get": 2131, "1751": 24440, "##harat": 28074, "oklahoma": 5858, "narration": 21283, "470": 21064, "##nie": 8034, "\u53f8": 1791, "nails": 10063, "roberta": 23455, "chalmers": 29069, "telegram": 23921, "##nikov": 22576, "##coe": 16288, "##\u5b50": 30342, "antique": 14361, "crashes": 19119, "serbian": 6514, "##bang": 25153, "angry": 4854, "unto": 19662, "mcdonnell": 23149, "austin": 5899, "passages": 13768, "uneasy": 15491, "responds": 16412, "##iction": 28097, "disposal": 13148, "1828": 11517, "copying": 24731, "warp": 24136, "hallmark": 25812, "[unused925]": 930, "##tov": 26525, "mla": 18619, "chicago": 3190, "pilot": 4405, "greater": 3618, "players": 2867, "\u5143": 1769, "stained": 9702, "##isance": 28138, "gaines": 28645, "[unused688]": 693, "##lho": 28061, "kidnapping": 15071, "warring": 28509, "seek": 6148, "peach": 18237, "##oven": 25592, "stevens": 8799, "##ored": 19574, "screened": 12238, "airfield": 9087, "catholicism": 16138, "##typical": 27086, "##rno": 19139, "60th": 20928, "topic": 8476, "johannesburg": 15976, "interior": 4592, "wr": 23277, "finnish": 6983, "particle": 10811, "honoured": 15546, "servicemen": 26714, "orson": 25026, "hmm": 17012, "##\u03c4": 29734, "barbara": 6437, "organized": 4114, "horizons": 24484, "indicators": 20390, "shoulder": 3244, "polish": 3907, "francs": 24313, "job": 3105, "strokes": 13692, "##\u2202": 30120, "stones": 6386, "benefactor": 27398, "friedman": 18486, "apron": 20376, "\u53f2": 1790, "##runner": 23195, "##nington": 23155, "##hammer": 19742, "e": 1041, "##cellular": 16882, "latter": 3732, "##\u03bc": 29728, "fifteenth": 16249, "corporal": 14265, "##woman": 10169, "sour": 14768, "##ments": 8163, "skeletal": 20415, "newsletter": 17178, "bonuses": 29563, "[unused561]": 566, "\u05e2": 1259, "reflection": 9185, "mattress": 13342, "stanford": 8422, "grassland": 20331, "initially": 3322, "fries": 22201, "profit": 5618, "talon": 19048, "##llo": 7174, "rank": 4635, "##\u4f0a": 30288, "tapping": 15135, "smell": 5437, "nailed": 26304, "lucha": 25390, "monte": 10125, "mount": 4057, "fray": 25975, "##rries": 26801, "dion": 19542, "##vus": 27500, "suggestion": 10293, "impressions": 19221, "orchestrated": 23339, "rated": 6758, "lose": 4558, "[unused448]": 453, "alonso": 17649, "jets": 9924, "depiction": 15921, "##mable": 24088, "##rna": 12789, "dude": 12043, "kay": 10905, "302": 22060, "reindeer": 29495, "icao": 18055, "duplicate": 24473, "seminar": 18014, "33rd": 20883, "embracing": 23581, "\u00ab": 1077, "##edly": 26207, "521": 26963, "garion": 12523, "aluminium": 14794, "executing": 23448, "\u10d3": 1441, "1707": 25029, "debuting": 24469, "six": 2416, "spirituality": 21244, "brave": 9191, "receptionist": 23775, "narrower": 22546, "##\u0686": 29840, "grenade": 17038, "##jad": 27875, "##\u0645": 22192, "##tile": 15286, "##lvis": 28530, "\u1172": 1480, "arching": 27335, "elk": 18995, "allegheny": 21192, "undeveloped": 29341, "runner": 5479, "demonstrations": 13616, "theorem": 9872, "criticisms": 19628, "paces": 24785, "sigh": 6682, "competence": 22219, "hormones": 20752, "intermediate": 7783, "anomaly": 28685, "##udged": 27066, "grasped": 15517, "lunch": 6265, "xp": 26726, "[unused861]": 866, "levi": 11902, "boyd": 12164, "##nge": 15465, "yusuf": 23495, "factions": 13815, "orbits": 20347, "##eum": 14820, "flames": 7311, "disciplinary": 17972, "##tering": 17989, "timing": 10984, "compositions": 9265, "##ible": 7028, "salts": 23480, "hope": 3246, "##lr": 20974, "\u10db": 1448, "raf": 7148, "opener": 16181, "profitable": 15282, "##rish": 18774, "points": 2685, "leigh": 11797, "interviews": 7636, "##nee": 24045, "pain": 3255, "[unused776]": 781, "labeled": 12599, "##ype": 18863, "indeed": 5262, "adulthood": 20480, "uefa": 6663, "twins": 8178, "tc": 22975, "hokkaido": 20826, "colours": 8604, "\u201c": 1523, "remastered": 19484, "900": 7706, "deteriorating": 28440, "skepticism": 27936, "supporter": 10129, "breakup": 19010, "slap": 14308, "winter": 3467, "wendell": 24526, "##\u30ab": 30226, "enrico": 21982, "##zos": 28370, "moshe": 27123, "curly": 17546, "collar": 9127, "dwight": 14304, "loaned": 13190, "direction": 3257, "crossbow": 28692, "##tula": 28970, "##rington": 17281, "paramount": 11734, "vector": 9207, "abandoning": 19816, "ebony": 27680, "nana": 17810, "charted": 12568, "$": 1002, "##chment": 22729, "fargo": 23054, "helps": 7126, "myra": 23020, "availability": 11343, "##lain": 15987, "methodist": 8938, "schools": 2816, "##wig": 16279, "silvia": 27827, "##nous": 18674, "speaking": 4092, "51": 4868, "##jn": 22895, "impression": 8605, "##tani": 17681, "vessel": 6258, "refrain": 20703, "manned": 15371, "##moor": 17622, "##\u203a": 30068, "guitar": 2858, "andhra": 14065, "busiest": 20530, "##mite": 23419, "ft": 3027, "[unused44]": 45, "mounds": 19503, "aeronautics": 27459, "confronting": 26964, "evolution": 6622, "guillaume": 20061, "hostilities": 17601, "alaska": 7397, "synthesizers": 22211, "functions": 4972, "morse": 17107, "even": 2130, "poem": 5961, "rifle": 5883, "sellers": 19041, "healy": 25706, "towel": 10257, "##lic": 10415, "static": 10763, "##iting": 15402, "guyana": 18786, "grossed": 17500, "residences": 14094, "humiliated": 26608, "neill": 11511, "##atus": 15590, "prepared": 4810, "cowboys": 11666, "minds": 9273, "ultimate": 7209, "##lge": 28875, "palermo": 18705, "minnesota": 5135, "carla": 17081, "lacy": 19959, "compulsory": 14770, "[unused135]": 140, "[unused264]": 269, "exploits": 20397, "everest": 23914, "breathless": 16701, "\u0f63": 1435, "rashid": 22080, "verlag": 14552, "operators": 9224, "calmly": 12885, "quite": 3243, "##cea": 21456, "eating": 5983, "\u02e1": 1151, "##rta": 13320, "ibn": 7839, "38": 4229, "balancing": 20120, "snacks": 27962, "density": 4304, "[unused961]": 966, "walls": 3681, "cultures": 8578, "crumbling": 24827, "automated": 12978, "overlap": 17702, "fortified": 13313, "74": 6356, "guys": 4364, "puerto": 5984, "received": 2363, "ryan": 4575, "tavi": 24283, "calf": 19134, "##lang": 25023, "windows": 3645, "polgara": 27041, "docking": 25776, "styx": 21856, "sikhs": 26697, "##cat": 11266, "1992": 2826, "communion": 15661, "xiii": 15031, "mp": 6131, "[unused292]": 297, "##ography": 9888, "pirates": 8350, "##mity": 16383, "museums": 9941, "##antly": 15706, "mighty": 10478, "sunderland": 15518, "\u4e45": 1748, "nerves": 10627, "reviewed": 8182, "epoch": 25492, "rai": 15547, "publish": 10172, "\u0f60": 1433, "z": 1062, "1960s": 4120, "##65": 26187, "clashes": 17783, "##vs": 15088, "lids": 26122, "dolphins": 13600, "1943": 3826, "hard": 2524, "largest": 2922, "antarctic": 10227, "bobo": 27418, "[unused234]": 239, "\u5ba3": 1823, "busy": 5697, "budget": 5166, "ale": 15669, "##izer": 17629, "poole": 19107, "deprived": 17676, "crowns": 24364, "close": 2485, "##fest": 14081, "welcome": 6160, "happening": 6230, "[unused149]": 154, "jarvis": 21072, "organizers": 18829, "inhabited": 9613, "measures": 5761, "##hood": 9021, "indicate": 5769, "centimetres": 13935, "adamant": 29502, "researched": 18800, "outline": 12685, "beat": 3786, "1788": 15622, "escapes": 12976, "##dit": 23194, "knowles": 22815, "##hoff": 17896, "bitterly": 19248, "acquisition": 7654, "calvert": 24800, "##ue": 5657, "thanks": 4283, "hid": 11041, "aerodynamic": 28033, "##tion": 3508, "clarkson": 18648, "##ence": 10127, "##bury": 4917, "box": 3482, "com": 4012, "elected": 2700, "##ensis": 9911, "[unused131]": 136, "##wala": 23877, "treats": 18452, "trainee": 26758, "tips": 10247, "##tree": 13334, "##70": 19841, "##lved": 26832, "301": 19123, "separates": 18600, "dad": 3611, "sp": 11867, "castillo": 19371, "sampling": 16227, "martian": 20795, "advent": 13896, "##\u2090": 30089, "fluorescent": 22184, "##\u03b4": 29722, "grooves": 25880, "app": 10439, "gills": 29468, "tailor": 22701, "purposely": 24680, "animated": 6579, "totaling": 21798, "fang": 15197, "wilhelm": 9070, "weave": 25308, "formation": 4195, "examiner": 19684, "residues": 22644, "molina": 25601, "corrupted": 27279, "delaware": 8452, "diabetes": 14671, "modified": 6310, "##him": 14341, "creole": 21414, "[unused881]": 886, "yeomanry": 26883, "forth": 5743, "released": 2207, "atp": 12649, "mahogany": 23867, "##\u0259": 29681, "kepler": 28219, "formations": 13197, "kirk": 11332, "seed": 6534, "advancing": 10787, "\u5802": 1805, "##len": 7770, "[unused66]": 67, "bazaar": 22774, "chapels": 24130, "bag": 4524, "##phobic": 20200, "drink": 4392, "charlotte": 5904, "transatlantic": 26617, "##ghan": 22218, "bait": 17395, "##vances": 26711, "holiday": 6209, "worried": 5191, "##ss": 4757, "upset": 6314, "ravi": 16806, "disguised": 17330, "50": 2753, "bleak": 21657, "camilla": 26902, "pleasing": 24820, "bottles": 11015, "##watch": 18866, "mundane": 24684, "tay": 28117, "bahn": 17392, "&": 1004, "organizations": 4411, "1879": 7449, "[unused8]": 9, "[unused272]": 277, "paintings": 5265, "entrance": 4211, "chefs": 27828, "1603": 25625, "aviation": 5734, "services": 2578, "[unused10]": 11, "flights": 7599, "deposit": 12816, "battleships": 21327, "hansen": 13328, "##wife": 19993, "correspondent": 11370, "brandon": 8825, "950": 20317, "helium": 22764, "goaltender": 21437, "alps": 13698, "banner": 9484, "kyushu": 25885, "##a": 2050, "electrode": 28688, "kicks": 14590, "given": 2445, "enigma": 26757, "##rys": 24769, "##rina": 11796, "subjects": 5739, "legislator": 22964, "avengers": 14936, "car": 2482, "stars": 3340, "tribe": 5917, "curses": 23897, "grapes": 16575, "1778": 16331, "##ws": 9333, "##tua": 26302, "asserts": 19514, "##ality": 23732, "sentimental": 23069, "##bank": 9299, "##ost": 14122, "forces": 2749, "favourite": 8837, "satisfactory": 23045, "##sburg": 9695, "rocking": 14934, "chunk": 20000, "[unused864]": 869, "intrinsic": 23807, "##nium": 14907, "longer": 2936, "lawful": 26410, "1937": 4347, "slug": 23667, "##fies": 14213, "milky": 21582, "certification": 10618, "##bly": 6321, "undermine": 25174, "wounded": 5303, "##orough": 26388, "sector": 4753, "equality": 9945, "smoothing": 27045, "correctly": 11178, "regard": 7634, "startled": 9696, "liar": 16374, "warned": 7420, "khalid": 21828, "specials": 19247, "flaw": 28450, "broadcasters": 18706, "\u09a6": 1364, "wept": 24966, "defense": 3639, "liberal": 4314, "ptolemy": 23517, "spectra": 29237, "1880s": 12751, "corps": 3650, "scenic": 12916, "001": 25604, "145": 13741, "lebanon": 8341, "##vian": 18073, "##rified": 22618, "neutron": 20393, "fda": 17473, "outpost": 21080, "ominous": 23504, "secrecy": 20259, "[unused614]": 619, "median": 3991, "snort": 26759, "tailored": 21727, "allocated": 11095, "fares": 27092, "##ulsive": 23004, "rebuild": 14591, "accountability": 17842, "recycling": 17874, "furiously": 20322, "dean": 4670, "tile": 14090, "purposes": 5682, "mentioning": 18625, "##\u0940": 29878, "##inia": 23309, "tastes": 16958, "kan": 22827, "danced": 10948, "[unused775]": 780, "virtue": 11870, "##ship": 9650, "neutral": 8699, "lowest": 7290, "##\u308a": 30212, "mai": 14736, "rhea": 24775, "1956": 3838, "ich": 22564, "confused": 5457, "##ati": 10450, "##cous": 27199, "oldham": 18285, "mph": 5601, "staircase": 10714, "wrought": 18481, "vimes": 28482, "posed": 13686, "##\u0f53": 29965, "surrendered": 10795, "fibre": 20962, "pointed": 4197, "##powering": 23948, "[unused457]": 462, "22nd": 13816, "ravens": 17272, "##erin": 23282, "upgrade": 12200, "clinging": 17892, "niece": 12286, "synthesizer": 13564, "casts": 23942, "pivotal": 20369, "spare": 8622, "flutes": 28453, "cereal": 20943, "##ious": 6313, "advantages": 12637, "assassins": 18364, "virus": 7865, "occupations": 23374, "vaccines": 28896, "photography": 5855, "angus": 13682, "sophie": 8234, "inclination": 21970, "##cars": 20745, "##ed": 2098, "spectators": 12405, "##hane": 28006, "deputies": 11964, "elimination": 9614, "intentions": 11174, "blow": 6271, "dividing": 16023, "tri": 13012, "reversed": 11674, "conversions": 25834, "##hdi": 22960, "auf": 21200, "##estra": 26199, "##rigues": 22934, "modify": 19933, "elbows": 13690, "\u09af": 1371, "##rogated": 26565, "rand": 14566, "##nga": 13807, "outskirts": 12730, "wouldn": 2876, "disco": 12532, "twinkle": 29038, "amp": 23713, "newbury": 29457, "fundraising": 15524, "musique": 25784, "[unused936]": 941, "\u795e": 1925, "luxury": 9542, "sides": 3903, "million": 2454, "carlson": 22226, "newcastle": 8142, "havilland": 23994, "sentinel": 16074, "1702": 26776, "additional": 3176, "secure": 5851, "loren": 28779, "##iti": 25090, "kiev": 12100, "canteen": 26449, "contraction": 21963, "##plin": 28296, "hotter": 22302, "movies": 5691, "items": 5167, "##erving": 25164, "lodges": 26767, "chests": 28717, "documented": 8832, "breached": 25769, "constituencies": 13315, "accused": 5496, "ink": 10710, "|": 1064, "115": 10630, "misconduct": 23337, "begs": 27591, "girls": 3057, "crops": 8765, "av": 20704, "grandma": 13055, "physics": 5584, "persuasion": 27577, "nawab": 26543, "clement": 12223, "shin": 12277, "##slow": 26338, "exists": 6526, "mohawk": 22338, "[unused133]": 138, "velvet": 10966, "organisms": 11767, "blush": 16688, "drift": 11852, "\u304d": 1652, "\u0459": 1215, "smirk": 15081, "superstructure": 28391, "dye": 18554, "aground": 29406, "climates": 24734, "\u00b9\u2044\u2082": 18728, "\u5929": 1811, "\u5fe0": 1852, "benedictine": 21139, "novo": 24576, "never": 2196, "##was": 17311, "odor": 19255, "##hos": 15006, "##horpe": 22044, "trader": 17667, "repulsed": 24571, "disappears": 17144, "1725": 25651, "[unused779]": 784, "\u300e": 1643, "\u3089": 1685, "hectare": 20406, "##\u0927": 29862, "plan": 2933, "mating": 15100, "##icated": 17872, "tagged": 26610, "##mana": 24805, "[unused737]": 742, "landed": 5565, "maureen": 19167, "shuffle": 23046, "exploration": 8993, "java": 9262, "owes": 24381, "shatter": 27271, "##cured": 19405, "##anial": 27532, "[unused278]": 283, "qualify": 7515, "##ram": 6444, "sichuan": 20980, "##\u0153": 29674, "barony": 19365, "##uses": 25581, "[unused550]": 555, "einstein": 15313, "##rians": 23543, "##elo": 18349, "normally": 5373, "wagon": 9540, "englishman": 25244, "jeremiah": 17526, "build": 3857, "##olo": 12898, "pacing": 15732, "##iensis": 27806, "clarinet": 12089, "rejects": 19164, "\u9053": 1957, "myspace": 24927, "clearance": 14860, "##oria": 11069, "pianos": 27864, "##tters": 24168, "continuation": 13633, "chatter": 24691, "##hua": 14691, "realm": 8391, "tb": 26419, "dresden": 12983, "cadillac": 20425, "##gc": 18195, "cathedral": 5040, "##stead": 25647, "career": 2476, "consequences": 8465, "[unused805]": 810, "suppose": 6814, "vet": 29525, "schooling": 14118, "whisper": 7204, "##ability": 8010, "##logies": 21615, "consulate": 19972, "##eca": 19281, "duo": 6829, "antwerp": 14003, "rubber": 8903, "##phone": 9864, "##46": 21472, "##lls": 12718, "inquisition": 24638, "##zer": 6290, "##crats": 23423, "##leigh": 13615, "cemetery": 4528, "##owski": 15249, "##gar": 6843, "doubts": 13579, "##endra": 19524, "nr": 17212, "aces": 20232, "n": 1050, "##class": 26266, "viceroy": 19007, "reorganized": 14137, "##zed": 5422, "aux": 19554, "ollie": 25208, "egypt": 5279, "malcolm": 8861, "##rn": 6826, "sediment": 19671, "\u06a9": 1304, "##\u0111": 29671, "\u7684": 1916, "carries": 7883, "##ographic": 13705, "1804": 13140, "##jee": 16963, "guard": 3457, "spiked": 25362, "dynamic": 8790, "remix": 6136, "##eyer": 20211, "imminent": 17566, "realities": 22213, "outfit": 11018, "ow": 27593, "rodents": 28156, "barrister": 19805, "ours": 14635, "moons": 23377, "vinegar": 29387, "imperfect": 29238, "##therapy": 20900, "281": 22955, "##nard": 16564, "visibly": 19397, "younger": 3920, "spill": 14437, "derek": 7256, "##erson": 18617, "mentioned": 3855, "##quet": 12647, "intervention": 8830, "##lord": 19980, "##\u0438\u0438": 15414, "##boro": 12691, "pediatric": 23614, "scranton": 26123, "##position": 26994, "liberated": 19553, "interests": 5426, "lifetime": 6480, "indiana": 5242, "hedge": 17834, "##\u00a3": 29646, "governorate": 15162, "[unused102]": 107, "malicious": 24391, "lodging": 26859, "massachusetts": 4404, "[unused844]": 849, "member": 2266, "sweaty": 19889, "normal": 3671, "soothe": 28384, "267": 25491, "gustave": 27973, "[unused644]": 649, "##rand": 13033, "practically": 8134, "levine": 17780, "contra": 24528, "##la": 2721, "##hurst": 10510, "tipperary": 17333, "[unused57]": 58, "##\u00ab": 29654, "##hian": 14204, "qualifier": 10981, "often": 2411, "##filtration": 28674, "cm": 4642, "sipped": 17735, "cadet": 12738, "clemson": 25906, "telescope": 12772, "dough": 23126, "chapman": 11526, "vanuatu": 27625, "therefore": 3568, "ringo": 25589, "##asurable": 28329, "frown": 11330, "weary": 16040, "installed": 5361, "##tee": 17389, "[unused523]": 528, "toppled": 27251, "parcels": 28998, "fragrance": 24980, "##mina": 22311, "shooters": 28310, "emerge": 12636, "arabs": 14560, "##koto": 24886, "pact": 14790, "brien": 9848, "represented": 3421, "##ption": 16790, "boar": 24187, "##\u09b0": 29908, "coco": 25033, "##chemist": 24229, "begin": 4088, "punk": 7196, "##iro": 9711, "##bek": 24597, "##mony": 22847, "sims": 18135, ";": 1025, "kilometre": 13214, "winnipeg": 11093, "pharmaceutical": 13859, "legislatures": 27977, "batch": 14108, "validation": 27354, "encompasses": 13974, "modelled": 23364, "dollars": 6363, "##\u2217": 30125, "diva": 25992, "##ics": 6558, "##bad": 9024, "##\u110e": 30001, "##ster": 6238, "midland": 12240, "convert": 10463, "merchant": 6432, "breeding": 8119, "[unused886]": 891, "m\u00b3": 14241, "sauce": 12901, "repeatedly": 8385, "ambush": 15283, "explained": 4541, "egg": 8288, "paired": 12739, "withstand": 19319, "\u028b": 1133, "backgrounds": 15406, "wien": 22782, "##lz": 23858, "principal": 4054, "judicial": 8268, "handcuffs": 28338, "barley": 21569, "122": 13092, "217": 20335, "[unused742]": 747, "segregated": 24382, "flinched": 19201, "coincided": 18616, "toulon": 27160, "tentacles": 24719, "sleeping": 5777, "##rke": 25074, "alpine": 10348, "intently": 16170, "benjamin": 6425, "blackberry": 25935, "exploited": 18516, "worsened": 27622, "legs": 3456, "healthy": 7965, "bonnie": 12220, "runoff": 19550, "dealings": 24069, "cooper": 6201, "\u09c7": 1381, "isla": 25340, "fremont": 22550, "slaughter": 14574, "verbal": 12064, "##redo": 23417, "belarus": 12545, "8": 1022, "girlfriend": 6513, "psychological": 8317, "laird": 21964, "##eki": 26576, "contrast": 5688, "competitors": 10159, "praised": 5868, "##rnet": 26573, "hairy": 15892, "##uen": 24997, "finance": 5446, "quan": 24110, "beth": 7014, "texans": 23246, "[unused906]": 911, "friars": 24037, "288": 24841, "loudly": 9928, "##nity": 22758, "croydon": 21838, "##dus": 17619, "fabulous": 18783, "ito": 23333, "uk": 2866, "juno": 20788, "##real": 22852, "falls": 4212, "collecting": 9334, "1923": 4927, "\u03c9": 1179, "bounded": 10351, "influence": 3747, "##cy": 5666, "anders": 15387, "##shu": 14235, "haley": 16624, "##matic": 12644, "##\u2665": 30152, "gilles": 21717, "class": 2465, "very": 2200, "##tyn": 25680, "##\u00aa": 29653, "hemingway": 27299, "robotic": 20478, "##pl": 24759, "##sies": 14625, "[unused653]": 658, "1735": 26063, "manly": 19385, "\u2122": 1580, "rotten": 11083, "reaction": 4668, "larvae": 9673, "##ishly": 19983, "craven": 21232, "##gnant": 27881, "proprietor": 21584, "unesco": 12239, "glass": 3221, "shoot": 5607, "##uve": 22909, "classed": 27811, "jens": 25093, "inverness": 22937, "mocked": 24195, "reintroduced": 28263, "emails": 22028, "barnett": 20073, "\"": 1000, "sank": 7569, "herald": 9536, "snake": 7488, "##yo": 7677, "db": 16962, "ventured": 20510, "bundled": 24378, "springfield": 10493, "bail": 15358, "percent": 3867, "altogether": 10462, "wasn": 2347, "glacial": 17381, "discussion": 6594, "mythology": 11327, "wicked": 10433, "ounce": 19471, "##eli": 20806, "ode": 24040, "wink": 16837, "tension": 6980, "examines": 20798, "sited": 28603, "surged": 18852, "##op": 7361, "constituency": 5540, "##recht": 28109, "##sk": 6711, "##athic": 20972, "salman": 28542, "##isman": 20257, "##\u30bf": 30235, "\u308a": 1686, "pete": 6969, "chattanooga": 23351, "turnout": 15512, "consolidated": 10495, "\u524d": 1776, "pedro": 7707, "##berries": 20968, "##\u209b": 30098, "station": 2276, "randall": 12813, "personalities": 12857, "cooling": 11520, "##witz": 15362, "1832": 10212, "raul": 16720, "broadband": 19595, "westwood": 21730, "peeled": 20956, "necessitated": 29611, "intersections": 26540, "stink": 27136, "##nov": 16693, "pontiac": 24538, "chill": 10720, "##grapher": 18657, "woodrow": 23954, "dealt": 9411, "durga": 28746, "bonnet": 24367, "encouraged": 6628, "insurrection": 27860, "ritter": 23168, "projecting": 18398, "brewing": 16005, "\u6e05": 1903, "unfit": 29439, "##anu": 24076, "handel": 21465, "harald": 20966, "contiguous": 25177, "russian": 2845, "[unused951]": 956, "sadly": 13718, "dorm": 19568, "bruised": 18618, "rfc": 14645, "predicting": 29458, "##cut": 12690, "darius": 14861, "gardner": 11764, "##pina": 26787, "allied": 6035, "elevator": 7764, "231": 20304, "folks": 12455, "3d": 7605, "segunda": 19071, "lei": 26947, "earning": 7414, "bates": 11205, "aboriginal": 9757, "wipe": 13387, "prescription": 20422, "improve": 5335, "##jas": 17386, "guaranteed": 12361, "immense": 14269, "simmons": 13672, "##ych": 17994, "##uba": 19761, "bullshit": 14636, "blurted": 18751, "stung": 19280, "mali": 16007, "gary": 5639, "##mler": 18602, "landmark": 8637, "441": 28015, "amusing": 19142, "##edge": 24225, "1977": 3355, "granted": 4379, "##lin": 4115, "archibald": 15917, "swat": 25414, "adequately": 23613, "redesigned": 17051, "nest": 9089, "several": 2195, "hates": 16424, "asthma": 26180, "[unused490]": 495, "##gat": 20697, "missy": 25019, "mare": 11941, "##yer": 10532, "tune": 8694, "\u0f56": 1431, "rf": 21792, "conditioning": 14372, "hezbollah": 25713, "##\u1d64": 30044, "##dr": 13626, "##oma": 9626, "freelance": 15919, "spacious": 22445, "seat": 2835, "icc": 16461, "##\u301c": 30171, "easy": 3733, "##tries": 21011, "puebla": 27452, "pieces": 4109, "anchorage": 21086, "hurst": 26405, "receives": 8267, "patna": 29565, "lithuania": 9838, "detrimental": 29172, "##utter": 26878, "corresponding": 7978, "backpack": 13383, "##ow": 5004, "##ett": 6582, "electrified": 18042, "\u00bc": 1091, "selected": 3479, "jerk": 12181, "1880": 6756, "gershwin": 25600, "independent": 2981, "watching": 3666, "torment": 21741, "propped": 16863, "##ota": 17287, "guadalajara": 22887, "syed": 19740, "sincerity": 23997, "itunes": 11943, "##bau": 27773, "rabbis": 25602, "keynes": 22152, "pinyin": 9973, "##won": 19291, "##uck": 12722, "dolly": 19958, "destroys": 20735, "inability": 13720, "versions": 4617, "ec": 14925, "archdeacon": 21742, "motorcycles": 18580, "despised": 26626, "positioning": 19120, "mobilization": 25580, "equally": 8053, "workplace": 16165, "filipino": 10275, "feng": 19004, "##ro": 3217, "armchair": 29372, "\u221e": 1601, "[unused845]": 850, "droplets": 27126, "zachary": 19474, "beating": 6012, "expo": 16258, "##zhi": 19436, "smallpox": 25765, "##roving": 22046, "delegate": 11849, "greeks": 13176, "renal": 25125, "cpc": 28569, "slalom": 19617, "soared": 29127, "brigadier": 9900, "##orin": 28741, "manages": 9020, "suspicions": 17817, "easily": 4089, "##hr": 8093, "peyton": 17931, "calculate": 18422, "piedmont": 18873, "thorn": 16337, "analogous": 19639, "asbestos": 29191, "heritage": 4348, "altered": 8776, "##zel": 12638, "analog": 11698, "meaning": 3574, "##ial": 4818, "hearts": 8072, "93": 6109, "accompanying": 10860, "scenario": 11967, "surrender": 7806, "##loh": 24729, "dignitaries": 27960, "annual": 3296, "##ground": 16365, "##vas": 12044, "##osi": 20049, "##ulu": 20391, "riot": 11421, "livingstone": 27656, "vicki": 25424, "borders": 6645, "##24": 18827, "\u1109": 1461, "64": 4185, "surpassing": 27097, "basin": 6403, "kick": 5926, "speeds": 10898, "##\u2153": 30109, "benny": 11945, "[unused172]": 177, "starter": 11753, "grandson": 7631, "consume": 16678, "##tsu": 10422, "lurking": 24261, "670": 25535, "##scoe": 28147, "bollywood": 16046, "winds": 7266, "peoples": 7243, "vaccine": 17404, "sears": 18493, "##enberg": 11029, "carried": 3344, "hauled": 13161, "brightly": 14224, "##uca": 18100, "edwards": 7380, "##\\": 29635, "mixtape": 18713, "afrikaans": 28673, "beit": 28236, "colton": 21000, "##rts": 21217, "##link": 13767, "##\u65b9": 30389, "geneva": 9810, "##\uff09": 30514, "onwards": 9921, "afterward": 9707, "[unused483]": 488, "swiftly": 12128, "washed": 8871, "[unused572]": 577, "projected": 11310, "rye": 20926, "arthritis": 27641, "satisfy": 13225, "imperialism": 28087, "trainer": 10365, "rb": 21144, "risen": 13763, "granddaughter": 12787, "erwin": 22209, "[unused573]": 578, "pantry": 27796, "sneak": 13583, "intersects": 17349, "lenin": 17497, "receptor": 10769, "##forth": 15628, "\u03bd": 1167, "immaculate": 19532, "sanford": 21153, "##pheus": 22809, "tariffs": 26269, "miss": 3335, "issued": 3843, "persecuted": 27666, "cornice": 27848, "new": 2047, "##holders": 17794, "##\u1d50": 30038, "math": 8785, "17": 2459, "commerce": 6236, "fernando": 9158, "##geny": 17487, "seminary": 8705, "\u0e40": 1423, "1825": 11384, "bumped": 19030, "us": 2149, "revenue": 6599, "valentine": 10113, "##bel": 8671, "asa": 17306, "##fed": 25031, "liza": 20503, "helping": 5094, "ann": 5754, "eventually": 2776, "ba": 8670, "bookstore": 21785, "##sms": 19230, "##ini": 5498, "seville": 18983, "attract": 9958, "sweater": 14329, "walton": 14290, "helsinki": 12331, "##\u02b0": 29706, "gingerly": 26961, "forecast": 19939, "piano": 3682, "modification": 14080, "exempt": 11819, "finalist": 9914, "boris": 11235, "manipulating": 26242, "\u00b2": 1082, "[unused138]": 143, "etienne": 16821, "##emann": 17545, "lai": 21110, "expanse": 22944, "pali": 28619, "widen": 21255, "loses": 12386, "[unused170]": 175, "##\u1d47": 30033, "[unused988]": 993, "##\u0456": 29760, "negro": 12593, "arrive": 7180, "defend": 6985, "evil": 4763, "electronically": 28926, "argument": 6685, "##tor": 4263, "numerical": 15973, "hallway": 6797, "fangs": 11738, "vase": 18781, "exeter": 12869, "arctic": 10162, "circulating": 22458, "rowe": 20538, "panties": 12095, "bessie": 29298, "inevitable": 13418, "shifted": 5429, "ii": 2462, "##eria": 11610, "birth": 4182, "gotten": 5407, "shows": 3065, "substantial": 6937, "lincolnshire": 16628, "##landa": 24448, "fiancee": 19455, "cooperation": 6792, "cheeks": 6029, "resurrected": 23053, "gaga": 23332, "brawl": 23244, "[unused500]": 505, "spearheaded": 27721, "undertaker": 27568, "1893": 6489, "\u9752": 1975, "townland": 23635, "stephanie": 11496, "create": 3443, "slovak": 12747, "sponsors": 13162, "##200": 28332, "ranch": 8086, "emory": 25853, "turtle": 13170, "kosovo": 11491, "multinational": 20584, "clawed": 22544, "##meyer": 24344, "##gration": 29397, "##fi": 8873, "dictated": 23826, "gross": 7977, "tequila": 26791, "happier": 19366, "inflammation": 21733, "32nd": 20628, "basement": 8102, "##deck": 26547, "vows": 16495, "sampson": 22041, "experiment": 7551, "texted": 24637, "genome": 13458, "longest": 6493, "motorsports": 20711, "[unused958]": 963, "indy": 18214, "meals": 12278, "kv": 24888, "poses": 22382, "graduation": 7665, "murmurs": 22888, "##yne": 9654, "continental": 6803, "sumo": 28193, "\u266d": 1627, "back": 2067, "##elling": 23918, "picket": 28972, "##khand": 25910, "broker": 20138, "^": 1034, "turing": 28639, "cheerfully": 27403, "31": 2861, "239": 23688, "scotia": 9676, "\u207a": 1544, "definitely": 5791, "jock": 23407, "danes": 27476, "bending": 14457, "[unused287]": 292, "##sworth": 12255, "##\u5b80": 30344, "##kovic": 14733, "burton": 9658, "kamen": 22099, "pistons": 24399, "calmed": 20869, "sheriff": 6458, "dancer": 8033, "noticed": 4384, "bitten": 19026, "##ffen": 18032, "##so": 6499, "##app": 29098, "hunting": 5933, "##rred": 20529, "##yd": 25688, "egyptian": 6811, "unseen": 16100, "ox": 23060, "faithful": 11633, "bragg": 23678, "##het": 27065, "faded": 8105, "intersecting": 27294, "oppose": 15391, "\u0930": 1333, "clasped": 16763, "##ours": 22957, "##ibe": 20755, "multiple": 3674, "reveals": 7657, "immigrated": 17352, "denmark": 5842, "presentation": 8312, "journalist": 4988, "windmill": 25367, "##tre": 7913, "fran": 23151, "\u09a1": 1360, "[unused277]": 282, "##po": 6873, "adjunct": 20621, "harmful": 17631, "kade": 26159, "vernon": 11447, "berger": 16758, "##\u3078": 30201, "rolling": 5291, "comprehend": 22346, "ambient": 17093, "sculptures": 10801, "roanoke": 25899, "##vili": 21661, "exemplified": 28593, "##boy": 11097, "##\u2071": 30072, "sounds": 4165, "hamlets": 21631, "##long": 10052, "thornton": 14630, "explosions": 18217, "comrades": 19033, "##zzo": 12036, "edition": 3179, "signifies": 27353, "daphne": 16847, "##ffey": 24513, "willingly": 18110, "ritchie": 20404, "metre": 7924, "russell": 5735, "cords": 24551, "locomotive": 8098, "##vance": 21789, "hugged": 10308, "##pre": 28139, "rules": 3513, "hungry": 7501, "##lau": 17298, "shots": 7171, "showtime": 23811, "cesare": 26708, "##ave": 10696, "marvel": 8348, "age": 2287, "##pour": 27757, "\u00aa": 1076, "##\u00ba": 29662, "economists": 22171, "nightly": 22390, "commonly": 4141, "##w": 2860, "marked": 4417, "sociology": 11507, "punched": 11696, "orioles": 18893, "##screen": 18182, "camping": 13215, "confesses": 22826, "muddy": 15405, "existing": 4493, "##\u2212": 22543, "##fur": 27942, "triumphant": 25251, "##\u30ad": 30227, "##\u201a": 30057, "move": 2693, "delegates": 10284, "gma": 20917, "harold": 7157, "doctor": 3460, "refer": 6523, "bicycle": 10165, "proponents": 20401, "accent": 9669, "mined": 21846, "thump": 21324, "marshal": 8610, "motorized": 26172, "104": 9645, "fascinating": 17160, "meant": 3214, "epilogue": 24297, "initiation": 17890, "fears": 10069, "##ories": 18909, "[unused807]": 812, "grove": 7676, "philanthropy": 29291, "steelers": 15280, "##raction": 25533, "felt": 2371, "float": 14257, "##gu": 12193, "dept": 29466, "##\u00a2": 29645, "bedfordshire": 28430, "##ina": 3981, "##aq": 20784, "##with": 24415, "##\u2087": 30083, "##inatory": 28230, "holm": 28925, "dwellers": 28857, "geoff": 14915, "audition": 14597, "buffet": 28305, "reigning": 16323, "lastly": 22267, "foundry": 19853, "braid": 24148, "surprisingly": 10889, "venture": 6957, "##tern": 16451, "\u0252": 1111, "films": 3152, "fearless": 22518, "physiological": 19389, "cardinal": 7185, "surrounds": 20626, "banished": 21319, "prized": 25695, "##sin": 11493, "compressed": 16620, "cc": 10507, "incoming": 14932, "amplified": 26986, "galaxies": 21706, "care": 2729, "storey": 11676, "together": 2362, "antiquity": 16433, "guangdong": 21287, "toss": 10055, "mural": 15533, "sprint": 9043, "respecting": 27818, "brigades": 14589, "rescued": 10148, "surfing": 19967, "ellison": 21513, "taste": 5510, "##unt": 16671, "##\u2085": 30081, "\u1d35": 1493, "dillon": 14602, "lumpur": 17761, "identifiable": 27800, "orleans": 5979, "##mers": 16862, "clause": 11075, "##oons": 27174, "sail": 9498, "fleet": 4170, "##itive": 13043, "unionist": 17104, "\u0452": 1211, "barrow": 15355, "##outh": 17167, "nic": 27969, "##rosis": 29166, "##bourg": 20431, "belmont": 17449, "bakery": 18112, "debut": 2834, "owls": 22388, "rebound": 27755, "\u6cb3": 1899, "##scribe": 29234, "renee": 17400, "##eza": 28640, "residing": 7154, "bloc": 15984, "frustration": 9135, "intact": 10109, "hartford": 13381, "\u1167": 1474, "livery": 18475, "harassed": 28186, "proposal": 6378, "##ylus": 18871, "accompany": 12673, "##phine": 20738, "peasant": 14539, "offended": 15807, "liberals": 13350, "sets": 4520, "dail": 26181, "##mium": 27759, "ashland": 24346, "##oat": 16503, "route": 2799, "social": 2591, "journalists": 8845, "weep": 27874, "whimper": 28544, "mutter": 23457, "injuring": 22736, "cares": 14977, "susie": 23917, "fascinated": 15677, "psyche": 25774, "garments": 21902, "outspoken": 22430, "fun": 4569, "seriousness": 27994, "probable": 15596, "eighth": 5964, "ground": 2598, "##eme": 21382, "method": 4118, "fragmentation": 28424, "annie": 8194, "compliance": 12646, "ports": 8831, "hornets": 24855, "##\u6b66": 30415, "[unused189]": 194, "##itated": 15198, "throat": 3759, "stud": 16054, "arabian": 13771, "csi": 22174, "stillness": 29435, "bench": 6847, "booked": 17414, "##ante": 12956, "troupe": 16017, "governing": 8677, "##ado": 9365, "amnesia": 29222, "explodes": 27583, "somali": 16831, "tensed": 15225, "vfl": 13480, "baden": 12189, "fusiliers": 27207, "suppliers": 20141, "nellie": 25365, "hissing": 26386, "smallest": 10479, "##cross": 16458, "bond": 5416, "talbot": 14838, "stalks": 29594, "rainforest": 18951, "gospels": 24131, "##wc": 16526, "mariano": 22695, "fill": 6039, "\u539f": 1787, "##good": 24146, "grape": 14722, "bewildered": 24683, "##cken": 19766, "1884": 6988, "processes": 6194, "##mat": 18900, "convection": 23849, "##rst": 12096, "##sed": 6924, "\u10dd": 1450, "hitting": 7294, "complete": 3143, "lopez": 8685, "vampires": 6144, "roe": 20944, "##ack": 8684, "05": 5709, "marries": 19941, "##jah": 18878, "statesman": 17689, "concepcion": 27331, "##ify": 8757, "curriculum": 8882, "cabbage": 28540, "addressed": 8280, "##bit": 16313, "##ope": 17635, "barnes": 9957, "basically": 10468, "photon": 26383, "fiat": 18550, "neighbor": 11429, "munitions": 21061, "##50": 12376, "men": 2273, "1820": 11102, "##\u00e6": 29667, "drum": 6943, "proven": 10003, "\u7a7a": 1930, "available": 2800, "##alic": 27072, "ocean": 4153, "##\u0dc0": 29943, "princess": 4615, "remain": 3961, "nipples": 28124, "johnnie": 27716, "induce": 19653, "##\u30fc": 30265, "shares": 6661, "controversies": 25962, "parliamentary": 5768, "newtown": 26382, "explicitly": 12045, "capacities": 21157, "toured": 7255, "parameters": 11709, "sergey": 22703, "\u1d52": 1503, "rebelled": 25183, "\u5e73": 1839, "chopped": 24881, "##\u02c8": 29715, "frequent": 6976, "ic": 24582, "##oese": 23379, "fetal": 25972, "legion": 8009, "heated": 9685, "bob": 3960, "resolved": 10395, "nautical": 11339, "apartment": 4545, "##rud": 28121, "cal": 10250, "regimental": 17604, "lviv": 23814, "##fu": 11263, "brake": 13428, "##plane": 11751, "##fish": 7529, "blackwell": 18776, "committed": 5462, "cincinnati": 7797, "foreman": 18031, "shit": 4485, "siegel": 27996, "adding": 5815, "rash": 23438, "toes": 10393, "changed": 2904, "activity": 4023, "bailey": 8925, "dominating": 21949, "merger": 7660, "trim": 12241, "##lage": 20679, "gardens": 5822, "[unused365]": 370, "watts": 11042, "narrative": 7984, "sessions": 6521, "brunette": 27261, "northampton": 15944, "rustling": 29188, "hammering": 27883, "shortest": 20047, "lilly": 14765, "carolina": 3792, "sync": 26351, "incredible": 9788, "summoned": 11908, "fern": 20863, "magician": 16669, "stumbling": 19730, "yue": 27163, "traditional": 3151, "sniff": 27907, "bentley": 15988, "##uli": 15859, "heidi": 21372, "##nir": 29339, "sands": 13457, "adapt": 15581, "dose": 13004, "raids": 11217, "hindu": 7560, "##acy": 15719, "hanna": 10579, "strands": 14119, "##\u961d": 30496, "earnest": 17300, "prequel": 28280, "impending": 17945, "meaningful": 15902, "ambrose": 15675, "fairfax": 17833, "flags": 9245, "##tell": 23567, "wooded": 17172, "schumann": 29448, "\u0e19": 1413, "blocking": 10851, "soto": 22768, "\u03ba": 1164, "lexi": 16105, "caleb": 10185, "destruction": 6215, "switches": 15924, "[unused213]": 218, "resign": 12897, "\u208d": 1558, "##\u2030": 30065, "40th": 16541, "noir": 15587, "##sing": 7741, "denim": 26762, "##oides": 25064, "##bh": 23706, "feelings": 5346, "livelihood": 24585, "##ri": 3089, "peeking": 28222, "palace": 4186, "strip": 6167, "165": 13913, "blizzard": 21689, "swallows": 26436, "due": 2349, "##raf": 27528, "##\u306a": 30193, "fontaine": 25749, "##ginal": 24965, "topped": 9370, "denis": 11064, "denton": 23906, "togo": 23588, "norway": 5120, "internal": 4722, "commenting": 15591, "[unused812]": 817, "fullback": 21803, "lam": 16983, "sharply": 9249, "reactors": 22223, "milestone": 19199, "maya": 9815, "urged": 9720, "##iam": 25107, "wrestler": 10706, "challenger": 12932, "ipod": 26322, "pipeline": 13117, "chimed": 27460, "then": 2059, "got": 2288, "toilet": 11848, "sky": 3712, "\u0e23": 1417, "050": 28714, "backdrop": 18876, "##el": 2884, "vest": 17447, "latvian": 14698, "connell": 17199, "galilee": 28928, "outward": 15436, "279": 25745, "homme": 26574, "membranes": 24972, "jet": 6892, "apostles": 19178, "##\u062c": 29819, "lagos": 16738, "hesitation": 13431, "mix": 4666, "tours": 7562, "arousal": 18905, "posts": 8466, "##mus": 7606, "stammered": 28532, "centred": 16441, "hilltop": 25566, "squirrels": 29384, "##sier": 20236, "##osing": 18606, "208": 18512, "symmetric": 19490, "below": 2917, "nina": 9401, "ninth": 6619, "augustus": 11668, "passes": 5235, "involves": 7336, "osborne": 16732, "bacon": 11611, "[unused587]": 592, "rt": 19387, "##vent": 15338, "muffled": 15783, "fans": 4599, "caliber": 15977, "knee": 6181, "footballer": 4362, "buick": 28865, "##ated": 4383, "##late": 13806, "tuna": 24799, "voiced": 6126, "detail": 6987, "genocide": 14052, "irony": 19728, "cheered": 25471, "\u7acb": 1931, "kapoor": 17129, "veterinary": 15651, "october": 2255, "frequencies": 13139, "##ched": 7690, "liquids": 26820, "stands": 4832, "horticultural": 26235, "\u304b": 1651, "hardship": 26479, "##\u0434": 29742, "##ntal": 15758, "259": 25191, "sponsor": 10460, "##phs": 18757, "##test": 22199, "manufactures": 22027, "sherry": 22268, "howe": 13358, "eldest": 7310, "tremble": 20627, "##gp": 21600, "mechanized": 23387, "scrubbed": 27820, "lyrics": 4581, "machines": 6681, "flanks": 23547, "devoid": 22808, "nosed": 29338, "microscopic": 26396, "smiling": 5629, "insist": 18292, "isabel": 11648, "holders": 13304, "meath": 26856, "heath": 9895, "##phy": 21281, "\u0638": 1287, "broadcast": 3743, "##59": 28154, "featuring": 3794, "1770": 17711, "[unused322]": 327, "municipal": 4546, "archeological": 23005, "##wari": 20031, "##\u674e": 30403, "ha": 5292, "shelton": 22230, "holdings": 9583, "##utable": 23056, "##lden": 28476, "##iki": 17471, "libretto": 17621, "rare": 4678, "##oe": 8913, "##riding": 21930, "railways": 7111, "##opus": 24676, "sue": 9790, "gareth": 20243, "##\u266d": 24102, "adjustments": 24081, "doubted": 12979, "mer": 21442, "##naire": 20589, "dotted": 20384, "fact": 2755, "occult": 27906, "\u062a": 1273, "leningrad": 15930, "terry": 6609, "healer": 19783, "migrating": 28636, "bowed": 11489, "354": 27878, "edna": 21051, "permits": 14245, "dvd": 4966, "memo": 24443, "chiefs": 9058, "forests": 6138, "illustrating": 28252, "##cology": 19824, "seven": 2698, "mechanics": 9760, "type": 2828, "ashore": 16145, "hunted": 14682, "##pipe": 24548, "advisory": 7319, "##\u03b9\u03b1": 27432, "##dor": 7983, "arden": 26225, "knives": 13227, "brotherhood": 12865, "wow": 10166, "celeste": 21113, "vegetation": 10072, "1658": 28944, "techniques": 5461, "seating": 10747, "colliery": 19462, "[unused966]": 971, "acceleration": 16264, "collaborating": 20295, "clicking": 22042, "##tri": 18886, "##ignon": 24796, "##puram": 17809, "##ce": 3401, "graphic": 8425, "snatched": 14177, "234": 22018, "creeks": 24974, "towards": 2875, "vol": 5285, "refueling": 23026, "auditioned": 23008, "clouded": 26761, "irene": 12855, "\u0646": 1296, "frenzy": 21517, "residence": 5039, "##\u02e3": 29718, "server": 8241, "rocker": 24779, "bit": 2978, "pearls": 21944, "tenor": 9534, "##ng": 3070, "troops": 3629, "1903": 5778, "apart": 4237, "tapestry": 25213, "stairwell": 22109, "joel": 8963, "conserved": 19995, "pitted": 25895, "##acio": 21361, "[unused717]": 722, "1628": 28627, "comrade": 27661, "nothin": 24218, "battlefield": 11686, "mischief": 25166, "right": 2157, "##fires": 26332, "yankee": 17652, "##\u3086": 30209, "promises": 10659, "vatican": 12111, "jakarta": 14426, "##hearted": 27693, "trek": 10313, "songwriting": 14029, "webster": 11635, "starring": 4626, "consecrated": 12299, "##boat": 11975, "##dding": 27027, "montane": 21704, "ensuing": 13831, "##ices": 23522, "govt": 22410, "peaked": 6601, "eton": 21687, "hazard": 15559, "##\u4fdd": 30292, "albert": 4789, "archangel": 28185, "citation": 11091, "##ines": 10586, "mcc": 23680, "1200": 14840, "[unused181]": 186, "mtv": 8692, "papua": 13049, "aquatic": 13582, "##fia": 22749, "shenzhen": 26555, "backseat": 19978, "[unused827]": 832, "handled": 8971, "##zo": 6844, "\u0f62": 1434, "classmates": 19846, "carpet": 10135, "penn": 9502, "styled": 13650, "##yuan": 17236, "seats": 4272, "recommended": 6749, "##henko": 19767, "[unused436]": 441, "stereotypes": 22807, "index": 5950, "##llie": 23697, "##ount": 21723, "\u0442": 1197, "waltz": 17569, "##vating": 26477, "berkeley": 8256, "differ": 11234, "brooklyn": 6613, "1883": 7257, "energies": 19320, "elmer": 21464, "woman": 2450, "manuel": 7762, "larkin": 25570, "swell": 18370, "trance": 16588, "[unused191]": 196, "hammond": 11309, "privatization": 23966, "##\u884c": 30471, "seasons": 3692, "reflects": 11138, "middletown": 28747, "gala": 16122, "[unused120]": 125, "##has": 14949, "##psis": 18409, "\u116e": 1478, "detective": 6317, "##athan": 29246, "cyrillic": 15522, "darkly": 27148, "##10": 10790, "attempted": 4692, "ali": 4862, "\u51fa": 1774, "gripped": 9672, "\u961d": 1970, "elevated": 8319, "##nal": 12032, "albuquerque": 19334, "thayer": 25563, "##inger": 9912, "northumberland": 16205, "innate": 25605, "topographic": 24254, "distress": 12893, "incorporating": 13543, "##tm": 21246, "persuade": 13984, "editor": 3559, "maintaining": 8498, "##race": 22903, "[unused975]": 980, "fabrics": 25123, "grading": 26886, "touchdowns": 10183, "bolivia": 11645, "analyst": 12941, "philharmonic": 12355, "promoters": 26512, "hose": 21290, "##cking": 23177, "buddies": 24115, "islamabad": 26905, "##sons": 23345, "lay": 3913, "probation": 19703, "squealed": 26175, "squid": 26852, "##achi": 21046, "ignored": 6439, "cong": 26478, "##iver": 16402, "##tious": 20771, "[unused4]": 5, "##sley": 8002, "hardcore": 13076, "caesar": 11604, "specially": 11974, "limit": 5787, "addison": 18403, "##osta": 28696, "bees": 13734, "nacional": 10718, "##raine": 26456, "polling": 17888, "passion": 6896, "##ej": 20518, "##\u2660": 30150, "packs": 15173, "marilyn": 14749, "casey": 9036, "fa": 6904, "powerhouse": 24006, "documentaries": 15693, "##keeping": 18321, "galloway": 22372, "##ios": 10735, "susan": 6294, "familiar": 5220, "333": 21211, "inspired": 4427, "descriptive": 22726, "patrol": 6477, "shadowed": 25843, "uncover": 26944, "fai": 26208, "receptors": 13833, "working": 2551, "exotic": 12564, "yourself": 4426, "1921": 4885, "##\u03b5": 29723, "ipa": 24531, "painters": 12499, "emeritus": 12372, "##adan": 26335, "##lham": 25968, "\u0986": 1348, "1860": 7313, "faint": 8143, "325": 19652, "rotation": 9963, "dodgers": 13391, "thousand": 4595, "miner": 18594, "##\u221e": 30128, "disastrous": 16775, "vibe": 21209, "talents": 11725, "willy": 16172, "spies": 16794, "##ski": 5488, "masterpiece": 17743, "battling": 17773, "socrates": 26772, "##con": 8663, "awe": 15180, "sanitation": 18723, "darmstadt": 28381, "torino": 24737, "##qvist": 28705, "martial": 7761, "##\u116e": 30014, "ignition": 17446, "reinforcements": 14214, "sur": 7505, "greenfield": 26713, "tenderly": 26596, "austrian": 6161, "##il": 4014, "admitting": 17927, "planted": 8461, "ron": 6902, "denied": 6380, "##elia": 13902, "explores": 15102, "##yal": 21095, "th": 16215, "[unused635]": 640, "furnished": 19851, "holloway": 20977, "spawned": 18379, "stripped": 10040, "jones": 3557, "sporting": 7419, "medallion": 22541, "products": 3688, "attempt": 3535, "pluto": 26930, "chili": 20238, "pronouns": 26028, "##placed": 22829, "geometridae": 24687, "mobility": 12969, "##lers": 12910, "gaming": 10355, "ugly": 9200, "muse": 18437, "editions": 6572, "sarajevo": 18354, "nights": 6385, "refreshing": 27150, "transverse": 18323, "##ry": 2854, "convicts": 24948, "guild": 9054, "##rat": 8609, "##zyn": 23749, "##ata": 6790, "remnants": 11270, "malawi": 18137, "universite": 22176, "particular": 3327, "133": 14506, "composure": 23619, "##nified": 25201, "planetary": 17700, "fanny": 17813, "daring": 15236, "indian": 2796, "consultant": 8930, "\u0432": 1182, "retreating": 17512, "federico": 20493, "ears": 5551, "##75": 23352, "gasp": 12008, "foreigner": 29524, "edinburgh": 5928, "backing": 5150, "applies": 12033, "towed": 18948, "santo": 11685, "pianist": 9066, "hermann": 12224, "##nburg": 22642, "faith": 4752, "adoptive": 24787, "##sw": 26760, "friendship": 6860, "insulted": 23637, "heavyweight": 8366, "snowy": 20981, "appearances": 3922, "deceased": 10181, "whites": 12461, "mozart": 13177, "##dled": 20043, "participant": 13180, "##\u30cf": 30244, "buffalo": 6901, "grins": 20237, "emphasizes": 20618, "ludwig": 10302, "##ion": 3258, "\u0f51": 1428, "\u0997": 1355, "1908": 5316, "##cies": 9243, "brands": 9639, "afternoon": 5027, "##awa": 10830, "palazzo": 18482, "odi": 21045, "batteries": 10274, "unusually": 12890, "avery": 12140, "monkeys": 17059, "theatrical": 8900, "walled": 17692, "attorneys": 16214, "[unused286]": 291, "\u0cbe": 1402, "[unused49]": 50, "##01": 24096, "labyrinth": 24239, "mysore": 20761, "[unused529]": 534, "buddy": 8937, "breakaway": 26321, "berkshire": 15570, "instances": 12107, "paradox": 20506, "visiting": 5873, "armenia": 10110, "instructional": 23219, "##cts": 16649, "lark": 23404, "yves": 19687, "rosen": 21701, "\u03b6": 1160, "[unused143]": 148, "gypsy": 16006, "##aint": 22325, "avalon": 18973, "millions": 8817, "##sco": 9363, "alcoholism": 25519, "blurred": 18449, "activated": 8878, "##hh": 23644, "onward": 15834, "cochran": 28506, "1814": 10977, "edmund": 9493, "##sity": 17759, "penetrating": 22391, "birmingham": 6484, "trophies": 22236, "activist": 7423, "surrey": 9948, "tanzania": 11959, "didn": 2134, "sacred": 6730, "##\u702c": 30431, "slovakia": 10991, "grayson": 17556, "stool": 14708, "basalt": 26343, "##nya": 17238, "nouvelle": 25207, "goofy": 27243, "neoclassical": 22657, "guts": 18453, "##up": 6279, "resurgence": 26303, "##mple": 23344, "devices": 5733, "opinions": 10740, "pairs": 7689, "consciousness": 8298, "fate": 6580, "sly": 18230, "argyll": 27365, "292": 25797, "mccain": 19186, "1890s": 13678, "\u02e3": 1153, "slogan": 14558, "frankfurt": 9780, "booster": 23715, "bestseller": 24304, "nicaragua": 15448, "encourages": 16171, "exactly": 3599, "excellent": 6581, "messenger": 11981, "\u1161": 1470, "##tang": 26067, "sobbed": 25960, "jin": 9743, "blew": 8682, "##col": 25778, "furious": 9943, "addicted": 23042, "trauma": 12603, "advised": 9449, "promise": 4872, "isaac": 7527, "##gram": 13113, "307": 24559, "reelected": 20847, "acute": 11325, "buchanan": 14349, "##ese": 6810, "fixing": 15887, "feared": 8615, "vapor": 20064, "hydroelectric": 18541, "##iques": 19516, "breakdown": 12554, "hammersmith": 28420, "affiliated": 6989, "italian": 3059, "such": 2107, "##bic": 13592, "somethin": 27941, "1744": 25846, "rhythmic": 14797, "##\u11b7": 30023, "chapter": 3127, "independents": 23756, "considerably": 9839, "olympian": 25977, "meter": 8316, "and": 1998, "hatfield": 26853, "leads": 5260, "740": 25833, "gnu": 27004, "caste": 14542, "anniversary": 5315, "videos": 6876, "picture": 3861, "charlton": 17821, "capitol": 9424, "[unused496]": 501, "##ju": 9103, "extremely": 5186, "##bian": 15599, "remodeled": 27170, "##enity": 20693, "priorities": 18402, "\u044e": 1209, "banjo": 16698, "adjutant": 20690, "marta": 18950, "stu": 24646, "missouri": 5284, "elaborated": 25187, "gerhard": 21037, "lest": 26693, "sculpted": 19921, "tbs": 29584, "yorker": 19095, "##llis": 21711, "correct": 6149, "comparative": 12596, "##44": 22932, "explain": 4863, "reef": 12664, "biographies": 22056, "##uate": 20598, "##non": 8540, "russia": 3607, "[unused553]": 558, "##sum": 17421, "object": 4874, "prejudice": 18024, "##mie": 9856, "cracking": 15729, "mysteriously": 29239, "dorothy": 9984, "florian": 29517, "\u044a": 1205, "sonic": 12728, "380": 17014, "aryan": 26030, "sabrina": 21876, "##ior": 25346, "unaware": 11499, "groves": 21695, "speaker": 5882, "\u2089": 1556, "entertainment": 4024, "##pit": 23270, "politely": 16954, "assassination": 10102, "sloan": 19024, "##wave": 16535, "salvador": 10582, "atlanta": 5865, "struck": 4930, "##\u0ba4": 29921, "disturb": 22995, "zeus": 15208, "lau": 21360, "\u2012": 1515, "guilt": 8056, "saul": 16897, "larger": 3469, "\u099a": 1356, "##sities": 24279, "exact": 6635, "rhys": 13919, "slid": 4934, "420": 17442, "\u30de": 1723, "doug": 8788, "counselor": 17220, "##17": 16576, "\u0dc0": 1407, "outstanding": 5151, "trailing": 12542, "contain": 5383, "frey": 20068, "designing": 12697, "semifinals": 8565, "landslide": 20148, "hardware": 8051, "bruise": 24851, "fruits": 10962, "mom": 3566, "tae": 22297, "appalachian": 19682, "boogie": 21495, "brighton": 10309, "feature": 3444, "##erty": 15010, "incurred": 22667, "##uni": 19496, "swam": 16849, "##imeters": 28136, "serie": 8668, "progressive": 6555, "ciudad": 20759, "[unused263]": 268, "dungeons": 20264, "echoing": 17142, "healed": 15027, "dane": 14569, "refusal": 13948, "##ea": 5243, "decorate": 29460, "rhine": 10950, "reese": 15883, "alike": 11455, "headline": 17653, "heartland": 27399, "##rem": 28578, "254": 22234, "credited": 5827, "##da": 2850, "embroidery": 29507, "publications": 5523, "jana": 23341, "envelope": 11255, "jefferson": 7625, "oven": 17428, "##thed": 23816, "adhere": 25276, "bombardment": 10400, "##\u793a": 30449, "friction": 15012, "block": 3796, "hunt": 5690, "##\u2022": 30063, "glover": 20012, "coupled": 11211, "wavelengths": 29263, "statistics": 6747, "shut": 3844, "reggie": 17963, "\u0e01": 1409, "##jon": 14339, "accommodate": 8752, "rigid": 11841, "quartz": 20971, "traction": 16493, "##lani": 21141, "carousel": 27628, "plaintiffs": 23953, "lana": 16554, "babylonian": 26990, "secured": 7119, "petition": 9964, "hernandez": 13688, "bolsheviks": 28755, "online": 3784, "organize": 10939, "ben": 3841, "overtime": 12253, "\u2085": 1552, "##vn": 16022, "stats": 26319, "nuns": 16752, "baritone": 14458, "lennox": 21060, "vines": 16702, "[unused20]": 21, "burroughs": 25991, "compliment": 19394, "##nail": 25464, "ca": 6187, "escort": 8620, "rotor": 18929, "##arding": 29154, "unsafe": 25135, "aback": 26575, "threatening": 8701, "counterparts": 14562, "##\u116a": 30012, "blank": 8744, "promote": 5326, "intervening": 26623, "holstein": 18864, "trajectory": 22793, "modernized": 27140, "205": 16327, "##cp": 21906, "##sle": 25016, "brandy": 17951, "globally": 16452, "integrating": 22380, "\u0565": 1223, "strategies": 9942, "bark": 11286, "terraces": 25633, "##cta": 25572, "amused": 11770, "startling": 19828, "musica": 21137, "##\u6b62": 30413, "ghost": 5745, "1756": 22370, "america": 2637, "[unused109]": 114, "##eia": 27958, "##rgen": 25892, "##mata": 21022, "skate": 17260, "zebra": 29145, "milano": 21613, "imposing": 16625, "ottoman": 6188, "[unused215]": 220, "belongings": 20033, "auction": 10470, "encourage": 8627, "basil": 14732, "equipment": 3941, "unconscious": 9787, "quicker": 19059, "freaks": 29526, "icons": 18407, "otago": 21831, "sealed": 10203, "erection": 13760, "raider": 27826, "324": 27234, "##ead": 13775, "missing": 4394, "millimetres": 13388, "tape": 6823, "conform": 23758, "422": 29269, "consecutive": 5486, "hurled": 24025, "##ives": 24653, "chao": 22455, "appearing": 6037, "pub": 9047, "vincenzo": 24712, "lia": 22393, "solvent": 23735, "ky": 18712, "gustav": 13430, "messiah": 22112, "thrilled": 16082, "##lusion": 24117, "moi": 25175, "gunfire": 16978, "##gger": 13327, "immature": 26838, "motives": 17108, "jacqueline": 17551, "phyllis": 20328, "referenced": 14964, "nurses": 11500, "##sit": 28032, "helens": 24074, "trailer": 9117, "rebranded": 18233, "open": 2330, "##park": 14432, "[unused716]": 721, "withdrew": 6780, "##idad": 27893, "novice": 23131, "248": 24568, "ghz": 29066, "[unused80]": 81, "ol": 19330, "59": 5354, "architecture": 4294, "##pur": 5311, "kai": 11928, "##+": 29622, "mvp": 12041, "##cke": 19869, "##sko": 21590, "##inda": 23938, "##utz": 20267, "suarez": 22551, "\uff5e": 1995, "##\u00b4": 29658, "generating": 11717, "pleaded": 12254, "##rade": 13662, "cousins": 12334, "catastrophic": 23546, "charges": 5571, "##ats": 11149, "donation": 13445, "fk": 14352, "ostensibly": 23734, "twitch": 19435, "fields": 4249, "jed": 24401, "erika": 24900, "mein": 24182, "awaiting": 15497, "relocate": 20102, "prohibits": 25822, "kgb": 25467, "everyone": 3071, "col": 8902, "soloists": 27516, "##pper": 18620, "\u0ba4": 1385, "doctrines": 23252, "kent": 5982, "commissioned": 4837, "tyres": 24656, "[unused583]": 588, "[unused291]": 296, "cb": 17324, "spirited": 24462, "pic": 27263, "separating": 14443, "food": 2833, "throws": 11618, "##ience": 13684, "##nde": 13629, "##iac": 20469, "macintosh": 22228, "denver": 7573, "channel": 3149, "trip": 4440, "arboretum": 25197, "stallion": 19122, "##deh": 25383, "blair": 10503, "##claim": 25154, "libertarian": 19297, "saying": 3038, "nets": 16996, "marko": 28003, "homer": 11525, "casimir": 24701, "blood": 2668, "[unused237]": 242, "lingering": 15304, "##lina": 13786, "humanities": 11406, "memorandum": 20336, "spaceship": 25516, "mb": 16914, "##yme": 25219, "[unused339]": 344, "1971": 3411, "##shah": 25611, "pack": 5308, "##58": 27814, "reason": 3114, "speeches": 13867, "167": 16785, "rbi": 16929, "riddle": 21834, "andersson": 28643, "##zione": 20574, "von": 3854, "[unused160]": 165, "these": 2122, "##ified": 7810, "1703": 28366, "shipments": 24636, "##buro": 23670, "townsville": 27492, "gratitude": 15531, "peculiar": 14099, "bangkok": 12627, "##lights": 15733, "[unused381]": 386, "tanya": 19956, "##dern": 25888, "bae": 25818, "##pac": 19498, "##bag": 16078, "animals": 4176, "stops": 6762, "##gra": 17643, "##uven": 27346, "adjusted": 10426, "crystals": 14438, "set": 2275, "1755": 21417, "rca": 12639, "protocol": 8778, "skipper": 23249, "1540": 27536, "dos": 9998, "lakshmi": 21352, "bali": 20222, "breadth": 25291, "sewage": 19873, "danzig": 26669, "lena": 14229, "##np": 16275, "mutation": 16221, "throwing": 6886, "annexed": 13291, "##ants": 11390, "jenny": 8437, "[unused311]": 316, "direct": 3622, "nobleman": 18487, "##cht": 10143, "selector": 27000, "dispatched": 14501, "##vie": 13469, "timetable": 23839, "giorgio": 17697, "##opers": 27342, "multi": 4800, "fingerprints": 27556, "liege": 17766, "##ered": 6850, "##gos": 12333, "wb": 25610, "sends": 10255, "jessie": 10934, "kills": 8563, "mustafa": 19683, "ye": 6300, "mater": 16289, "##istle": 24242, "rainbow": 10098, "imperative": 23934, "ang": 17076, "sierra": 7838, "##train": 23654, "hotspur": 25985, "##;": 29628, "##fight": 20450, "shay": 18789, "domestically": 27143, "##all": 8095, "##wang": 16600, "##roi": 26692, "quarry": 12907, "##gent": 11461, "adjoining": 13562, "coarse": 20392, "spite": 8741, "bright": 4408, "greene": 11006, "discharge": 11889, "judith": 12924, "##oted": 27428, "##sc": 11020, "creator": 8543, "##\u207b": 30079, "000": 2199, "shout": 11245, "##mania": 27010, "realizes": 10919, "##hs": 7898, "maxi": 21510, "##free": 23301, "\u1d48": 1498, "differentiation": 20582, "representative": 4387, "##rize": 25709, "spent": 2985, "##fera": 27709, "##inn": 23111, "calhoun": 22982, "1a": 20720, "ae": 29347, "morrison": 9959, "plots": 14811, "khorasan": 23225, "limitation": 22718, "obey": 15470, "concerto": 10405, "rudd": 25298, "endurance": 14280, "punished": 14248, "##haya": 26115, "precautions": 29361, "story": 2466, "lac": 18749, "[unused916]": 921, "##sume": 23545, "##ocytes": 28788, "##qual": 26426, "accessible": 7801, "##oit": 28100, "##\u306f": 30198, "quilt": 27565, "750": 9683, "administratively": 23710, "[unused890]": 895, "morley": 20653, "beam": 7504, "momentum": 11071, "charm": 11084, "grenada": 29153, "##air": 11215, "picnic": 12695, "##llah": 18599, "##bai": 26068, "1946": 3918, "[unused648]": 653, "jagged": 18187, "eagerly": 17858, "astronomers": 26357, "sweeney": 21178, "insisting": 22604, "pba": 21563, "lancashire": 9638, "##nath": 16207, "mlb": 10901, "\u52a0": 1779, "##ught": 18533, "globalization": 24370, "offences": 18421, "rescue": 5343, "ravine": 23188, "decision": 3247, "##dates": 27122, "voting": 6830, "raiding": 23530, "exchange": 3863, "banning": 21029, "##gned": 19225, "counts": 9294, "##hardt": 13778, "alberto": 12007, "southland": 29121, "##no": 3630, "[unused386]": 391, "mcgrath": 23220, "##ilation": 29545, "sexy": 7916, "shielding": 25553, "gb": 16351, "respective": 7972, "boundaries": 7372, "duffy": 17971, "##holm": 18884, "congress": 3519, "\u306e": 1671, "chair": 3242, "ks": 29535, "goethe": 23173, "barrel": 8460, "acquiring": 13868, "evicted": 25777, "wiener": 25072, "unknown": 4242, "blind": 6397, "mcintosh": 29052, "secluded": 27044, "##cating": 18252, "winding": 12788, "characterised": 17253, "scans": 27404, "publishing": 4640, "encyclopedia": 12204, "stopping": 7458, "nh": 18699, "bowie": 14598, "broke": 3631, "\u5c07": 1828, "vendors": 17088, "[unused273]": 278, "underworld": 13607, "saxons": 28267, "[unused658]": 663, "collaborated": 8678, "compiled": 9227, "liturgical": 19246, "constraint": 27142, "camel": 19130, "karl": 6382, "[unused954]": 959, "1789": 13739, "academies": 20994, "##\u0261": 29682, "flinch": 23224, "##rner": 18703, "##her": 5886, "slides": 14816, "sicily": 12071, "##nder": 11563, "fights": 9590, "heel": 12073, "pensacola": 26073, "unofficial": 11982, "obe": 15578, "opening": 3098, "telecommunications": 12108, "purchase": 5309, "##\u30ef": 30262, "popularized": 20339, "##lun": 26896, "opens": 7480, "leopold": 12752, "\u590f": 1808, "##oire": 26250, "lt": 8318, "##music": 27275, "thorough": 16030, "##isson": 24077, "interacting": 21935, "##rney": 27114, "knotted": 27039, "brace": 17180, "iain": 24486, "##wire": 20357, "tam": 17214, "continents": 17846, "##ivation": 25761, "##eft": 29218, "sobs": 21503, "treatments": 13441, "##drop": 25711, "catholics": 10774, "saxe": 24937, "exaggerated": 16903, "copenhagen": 9664, "debris": 11385, "##uddin": 17375, "otis": 18899, "silas": 18553, "##pa": 4502, "1753": 23810, "crambidae": 21585, "[unused38]": 39, "embodied": 25405, "##vin": 6371, "whom": 3183, "virtues": 21560, "fractures": 28929, "grotesque": 27707, "osaka": 13000, "godfather": 23834, "raceway": 23018, "##schaft": 26527, "slade": 18048, "vh1": 26365, "##otti": 21325, "opposed": 4941, "sturdy": 23073, "prevailed": 19914, "this": 2023, "##ergy": 24395, "##\u30e9": 30257, "huang": 15469, "agrees": 10217, "ceded": 19705, "##rest": 28533, "disdain": 25134, "##idi": 28173, "[unused471]": 476, "garfield": 20170, "application": 4646, "570": 24902, "markers": 16387, "mainz": 19876, "obesity": 24552, "designate": 24414, "who": 2040, "invasions": 23536, "cambridge": 4729, "supplies": 6067, "[unused159]": 164, "columbus": 8912, "##lling": 13112, "inferior": 14092, "shutter": 28180, "##\u03c8": 29738, "genres": 11541, "physically": 8186, "flicker": 17909, "clean": 4550, "condemn": 28887, "nods": 11232, "[unused33]": 34, "##\u057f": 29783, "\u0e21": 1415, "soaking": 22721, "\u5dde": 1836, "##gara": 24864, "nix": 23330, "rains": 15811, "ff": 21461, "##eller": 24038, "##enstein": 21819, "christine": 10941, "readiness": 19822, "tack": 26997, "westphalia": 22952, "##esh": 9953, "madam": 21658, "socialist": 6102, "casting": 9179, "befriended": 23386, "##foil": 24323, "seth": 6662, "\u00ba": 1089, "lars": 16357, "##mouth": 14359, "clermont": 27956, "blackout": 26717, "##je": 6460, "bisexual": 22437, "##bt": 19279, "cradle": 18293, "rochelle": 25649, "authorities": 4614, "##7th": 27506, "russ": 18072, "prodigy": 28334, "##ception": 24422, "aids": 8387, "##ways": 14035, "saxophone": 8283, "flaps": 26570, "monkey": 10608, "trading": 6202, "saxon": 10038, "laboratory": 5911, "dodge": 11898, "quickly": 2855, "drinking": 5948, "46th": 27990, "breed": 8843, "structural": 8332, "##grade": 24170, "forbes": 10822, "juniors": 16651, "enterprise": 6960, "moe": 22078, "\u5742": 1803, "localized": 22574, "obsession": 17418, "##\u0e21": 29951, "930": 29359, "##ede": 14728, "renamed": 4096, "immunity": 15403, "shoulders": 4065, "[unused72]": 73, "mis": 28616, "\u03b8": 1162, "\u091c": 1319, "sixth": 4369, "##zh": 27922, "\u0f58": 1432, "##raya": 29539, "concussion": 23159, "##station": 20100, "hasty": 27151, "trial": 3979, "precedent": 20056, "proud": 7098, "galley": 27124, "basha": 26074, "influenza": 24442, "stroll": 27244, "##vir": 21663, "cold": 3147, "high": 2152, "stalled": 20659, "relentless": 21660, "##ule": 9307, "identifying": 12151, "serum": 20194, "conservatory": 11879, "awards": 2982, "alyssa": 26442, "unopposed": 17123, "##\u0575": 29777, "##\u30ca": 30241, "fisted": 28273, "[unused77]": 78, "torpedo": 9862, "spawn": 25645, "ever": 2412, "press": 2811, "coating": 18898, "[unused581]": 586, "thieves": 15862, "##uze": 20395, "##llon": 22179, "perspective": 7339, "##urai": 24804, "##baldi": 28807, "arises": 18653, "leave": 2681, "architect": 4944, "cardiff": 10149, "pauses": 19623, "rendering": 14259, "##fy": 12031, "preacher": 14512, "\u044b": 1206, "dart": 14957, "reduction": 7312, "##ax": 8528, "tara": 10225, "dublin": 5772, "pascal": 17878, "##thy": 16921, "beech": 21760, "[unused108]": 113, "##tail": 14162, "kuala": 15490, "downloadable": 26720, "##ev": 6777, "convoys": 23083, "elderly": 9750, "##kney": 26993, "grande": 9026, "adolph": 28564, "yells": 22114, "\u3009": 1638, "##lm": 13728, "dialect": 9329, "hailed": 16586, "1926": 4881, "priscilla": 25193, "menace": 19854, "traveller": 21916, "realises": 25924, "thoughts": 4301, "analysts": 18288, "learns": 10229, "thus": 2947, "coordinator": 10669, "relics": 16712, "ill": 5665, "##vot": 22994, "mathematics": 5597, "[unused821]": 826, "##analysis": 25902, "thorns": 28408, "1881": 7005, "neck": 3300, "##heimer": 18826, "promoter": 15543, "##ingen": 15542, "himalayas": 26779, "scenery": 17363, "munchen": 25802, "denise": 15339, "##wise": 14244, "elements": 3787, "andes": 18096, "lds": 17627, "620": 23612, "congregation": 7769, "influential": 6383, "##zuka": 22968, "soothing": 16684, "[unused45]": 46, "##hedral": 27310, "##az": 10936, "souza": 26598, "##\u0989": 29886, "country": 2406, "algae": 18670, "divinity": 16968, "putin": 22072, "[unused444]": 449, "democrat": 7672, "##\u8449": 30469, "slippery": 22274, "thomson": 11161, "##lbert": 23373, "shareholder": 18668, "[unused867]": 872, "largely": 4321, "drone": 18465, "jewel": 13713, "remembers": 17749, "linger": 26577, "exports": 14338, "gain": 5114, "divert": 27345, "##phones": 19093, "theme": 4323, "flour": 13724, "krakow": 14576, "penis": 19085, "##\u98df": 30504, "4th": 4343, "assistance": 5375, "##oza": 25036, "ghosts": 11277, "glazed": 19724, "##gie": 11239, "lucille": 28016, "##oga": 18170, "##\u05e9": 29812, "##49": 26224, "43rd": 25747, "diaries": 18707, "vega": 15942, "jorge": 10853, "augmented": 19335, "\u677e": 1880, "##irs": 18894, "sinister": 16491, "\u0291": 1137, "stationed": 8895, "realized": 3651, "samba": 29086, "section": 2930, "##ori": 10050, "scarf": 18982, "devout": 26092, "foothills": 18455, "frontal": 19124, "expectations": 10908, "##pus": 12207, "milton": 9660, "##gb": 18259, "twin": 5519, "##isen": 28992, "##go": 3995, "manga": 8952, "strategy": 5656, "bald": 13852, "photographic": 12416, "evidence": 3350, "hostility": 18258, "reproduce": 21376, "subconscious": 27952, "labels": 10873, "##\u304a": 30176, "specializing": 14055, "##rzy": 28534, "##work": 6198, "asturias": 26798, "##lysis": 26394, "[unused314]": 319, "##\u03bb": 29727, "skye": 16590, "sarawak": 21546, "ch": 10381,
[...]
