{"vocab": {"##ignant": 25593, "reputation": 5891, "stark": 9762, "crystalline": 24628, "neither": 4445, "facilitating": 25505, "placement": 11073, "##sman": 11512, "scout": 7464, "[unused627]": 632, "joining": 5241, "heron": 22914, "##bl": 16558, "petersen": 22615, "328": 25256, "##aka": 11905, "reigns": 23481, "gulped": 25411, "nothing": 2498, "80": 3770, "brigham": 22727, "trophies": 22236, "aisles": 25442, "mansion": 7330, "##americana": 27026, "battleship": 17224, "5": 1019, "muller": 12304, "risked": 22374, "startling": 19828, "leonid": 27316, "supervision": 10429, "vertically": 20018, "planetary": 17700, "geologist": 21334, "yd": 21076, "fated": 27442, "liza": 20503, "##\u4fe1": 30293, "mormon": 15111, "##ctable": 23576, "[unused74]": 75, "individual": 3265, "almighty": 26668, "terrorism": 10130, "pee": 21392, "1757": 22621, "##tream": 25379, "otherwise": 4728, "##\u20b1": 30103, "asked": 2356, "confinement": 21551, "##kia": 21128, "purported": 27023, "guatemala": 11779, "zhu": 15503, "scrubbed": 27820, "professions": 22797, "martinique": 29365, "produced": 2550, "landfall": 21042, "elevation": 6678, "doubled": 11515, "tequila": 26791, "wish": 4299, "unopposed": 17123, "rodney": 13898, "rapid": 5915, "contractor": 13666, "liberation": 7931, "femme": 26893, "manfred": 19149, "rouen": 27030, "[unused788]": 793, "seasonal": 12348, "##iring": 24771, "[unused386]": 391, "benefit": 5770, "firstly": 15847, "kim": 5035, "##cle": 14321, "2004": 2432, "ebony": 27680, "unfolded": 23959, "##\u00f8": 16415, "##lers": 12910, "screamed": 7210, "tropical": 5133, "feb": 13114, "ads": 14997, "suez": 21974, "companies": 3316, "clasped": 16763, "jared": 8334, "dirty": 6530, "den": 7939, "uniform": 6375, "##bers": 17198, "sava": 28350, "johnston": 10773, "gothic": 7788, "##bach": 7693, "liked": 4669, "physically": 8186, "##ta": 2696, "hydra": 26018, "##acker": 25418, "devastation": 25594, "cheating": 16789, "agriculture": 5237, "borders": 6645, "inclusion": 10502, "islander": 12544, "generates": 19421, "satisfied": 8510, "emptiness": 23397, "1931": 4739, "anxiously": 23403, "##rso": 25301, "blushed": 19370, "capture": 5425, "tasmania": 12343, "##rent": 22787, ",": 1010, "residency": 14079, "anwar": 28372, "nu": 16371, "adverse": 15316, "friars": 24037, "variables": 10857, "add": 5587, "faye": 19243, "dreadful": 21794, "polk": 20819, "##nology": 21020, "airports": 13586, "##cher": 7474, "push": 5245, "ut": 21183, "howled": 27489, "telephone": 7026, "102": 9402, "expulsion": 18272, "performs": 10438, "attendants": 26727, "national": 2120, "aus": 17151, "##wi": 9148, "\u751f": 1910, "yamaha": 24031, "aviator": 24035, "113": 12104, "renal": 25125, "regarded": 5240, "spoon": 15642, "universal": 5415, "think": 2228, "##ished": 13295, "theories": 8106, "packed": 8966, "democratic": 3537, "cairo": 11096, "sincerity": 23997, "royale": 24483, "surpassed": 15602, "disappear": 10436, "elf": 17163, "##amp": 16613, "mathias": 20494, "emails": 22028, "260": 13539, "##\u30fb": 30264, "##wai": 21547, "[unused624]": 629, "penny": 10647, "masovian": 23703, "operation": 3169, "could": 2071, "##itors": 27287, "hobby": 17792, "gao": 17377, "facilitates": 27777, "##ute": 10421, "abundance": 14531, "ab": 11113, "spectator": 21027, "miranda": 9392, "pharmaceuticals": 24797, "##mine": 11233, "forever": 5091, "cord": 11601, "agree": 5993, "piles": 18526, "crafted": 19275, "fluorescent": 22184, "165": 13913, "##oran": 18842, "1742": 25704, "martina": 23508, "##pen": 11837, "mechanic": 15893, "boating": 23639, "bonuses": 29563, "distinctive": 8200, "ernst": 10728, "algiers": 22947, "##iform": 22631, "advocating": 20324, "##\u00ba": 29662, "fontana": 27182, "fury": 8111, "antarctic": 10227, "softer": 19013, "##ulf": 21007, "galley": 27124, "ramps": 24943, "##\u0268": 29684, "jumper": 21097, "establishes": 21009, "##head": 4974, "aided": 11553, "industry": 3068, "statistical": 7778, "\u00a2": 1068, "fatima": 27596, "##otte": 28495, "restraining": 28285, "abbess": 28010, "inventory": 12612, "stairway": 21952, "climate": 4785, "forte": 24898, "[unused123]": 128, "vows": 16495, "verve": 29230, "[unused565]": 570, "##yya": 19903, "liability": 14000, "indeed": 5262, "victory": 3377, "blinked": 7948, "decorations": 14529, "##lini": 22153, "textbooks": 18841, "near": 2379, "##nton": 15104, "radial": 15255, "seeks": 11014, "##rda": 13639, "barony": 19365, "hana": 26048, "falcons": 14929, "scare": 12665, "georgia": 4108, "hosted": 4354, "##ajan": 28869, "\u1165": 1472, "kiel": 20963, "##sonic": 18585, "##yi": 10139, "\u1019": 1437, "##mon": 8202, "\u30a3": 1694, "##mail": 21397, "leland": 27134, "1813": 12169, "topped": 9370, "##nant": 16885, "##\u2609": 30149, "136": 15407, "rained": 28270, "##pressive": 27484, "shouldn": 5807, "##elle": 14774, "susquehanna": 26361, "##pina": 26787, "markham": 26197, "shed": 8328, "arrow": 8612, "##idad": 27893, "##dra": 7265, "carved": 7844, "join": 3693, "recognizable": 20123, "bats": 12236, "reborn": 24910, "##vi": 5737, "[unused872]": 877, "##oia": 25463, "toes": 10393, "numb": 15903, "gr": 24665, "lineup": 10515, "##nto": 13663, "movie": 3185, "##sf": 22747, "##lf": 10270, "raw": 6315, "sulawesi": 29078, "[unused212]": 217, "accountable": 26771, "member": 2266, "botanist": 17098, "1650": 21875, "##elia": 13902, "commemorating": 20646, "davenport": 16273, "battery": 6046, "lively": 17133, "##raya": 29539, "photographic": 12416, "##\u0b95": 29918, "patty": 17798, "faces": 5344, "##uni": 19496, "witnesses": 9390, "commemorative": 17524, "physics": 5584, "lectures": 8921, "pilot": 4405, "##raction": 25533, "monde": 23117, "dungeon": 16633, "initiatives": 11107, "voodoo": 21768, "##xie": 16898, "maharashtra": 12434, "2000": 2456, "syllables": 20732, "245": 21005, "##usia": 24118, "nearly": 3053, "reelection": 17648, "cod": 19429, "##\u0f0b": 29960, "mined": 21846, "critical": 4187, "absolutely": 7078, "confirmed": 4484, "[unused160]": 165, "expand": 7818, "cu": 12731, "##mona": 21781, "frigate": 15437, "muslim": 5152, "partner": 4256, "[unused107]": 112, "pregnancy": 10032, "restrictive": 25986, "##lash": 27067, "matthews": 12351, "execution": 7781, "\u25cf": 1619, "libertadores": 27968, "asking": 4851, "preschool": 23655, "[unused867]": 872, "handing": 13041, "exhibiting": 22922, "beverages": 21705, "[unused558]": 563, "bulky": 27446, "authored": 8786, "\u2075": 1539, "alta": 23647, "##\u7530": 30437, "1926": 4881, "sox": 9175, "jerk": 12181, "dig": 10667, "##\u0259": 29681, "elections": 3864, "##ga": 3654, "##ald": 19058, "##beau": 26401, "undisclosed": 18206, "[unused863]": 868, "housed": 7431, "warren": 6031, "declare": 13520, "doctrine": 8998, "bias": 13827, "fire": 2543, "chili": 20238, "concacaf": 22169, "behavioral": 14260, "advertisement": 15147, "##\u0965": 29881, "101": 7886, "eyebrow": 9522, "mohammed": 12619, "langley": 19094, "##lay": 8485, "groaned": 9655, "witnessed": 9741, "occupying": 13992, "consulate": 19972, "many": 2116, "send": 4604, "smashed": 14368, "iranian": 7726, "durga": 28746, "pained": 22295, "brigadier": 9900, "safe": 3647, "danes": 27476, "bucks": 14189, "reverse": 7901, "aston": 14327, "43": 4724, "ok": 7929, "canary": 17154, "##ulin": 18639, "divisional": 14167, "lace": 12922, "##\u093f": 29877, "##mbit": 28878, "lamps": 14186, "hire": 10887, "ecology": 13517, "minsk": 20790, "##rar": 19848, "lucknow": 23571, "blackwell": 18776, "##ates": 8520, "identical": 7235, "dividing": 16023, "\u5802": 1805, "racecourse": 15948, "donated": 6955, "hook": 8103, "helped": 3271, "throwing": 6886, "sequences": 10071, "steam": 5492, "thighs": 9222, "newspapers": 6399, "##tell": 23567, "frederick": 5406, "drunken": 15967, "1877": 7557, "caitlin": 27555, "\u304a": 1650, "carpathian": 26349, "starved": 26042, "proportions": 19173, "rovers": 9819, "capsule": 18269, "cupping": 25076, "fulfill": 13883, "piss": 18138, "excel": 24970, "\u6c38": 1896, "christie": 13144, "bosch": 25936, "risking": 26875, "diablo": 28841, "49ers": 18156, "jens": 25093, "##kin": 4939, "magnitude": 10194, "tandem": 18231, "documents": 5491, "recipe": 17974, "installment": 18932, "##vern": 23062, "1709": 28955, "door": 2341, "divine": 7746, "##rra": 11335, "fibers": 16662, "[unused8]": 9, "##kushima": 24917, "occupy": 11494, "welcomed": 10979, "##\u00a9": 29652, "americans": 4841, "adams": 5922, "kari": 27356, "respective": 7972, "kilda": 22633, "machines": 6681, "anti": 3424, "[unused1]": 2, "sawmill": 24744, "snarl": 24845, "sandwiches": 22094, "rides": 12271, "##\u00b7": 29661, "##ne": 2638, "konrad": 22958, "luxury": 9542, "##\u0bc7": 29934, "[unused601]": 606, "unlocked": 14058, "##ises": 13087, "subterranean": 28811, "profitable": 15282, "boroughs": 21413, "##\u02b3": 29708, "horsemen": 25431, "damp": 10620, "litigation": 15382, "settles": 27221, "admit": 6449, "workshops": 9656, "##nat": 19833, "blazing": 17162, "ferrara": 28635, "mastery": 26364, "carbonate": 26427, "1988": 2997, "##rdi": 17080, "seed": 6534, "psyche": 25774, "goa": 15244, "boeing": 10321, "speakers": 7492, "goose": 13020, "##tao": 28555, "spat": 14690, "afrikaans": 28673, "1851": 8792, "antibiotics": 24479, "obsidian": 29042, "chains": 8859, "disappears": 17144, "issued": 3843, "[unused256]": 261, "emirates": 14041, "gear": 6718, "sahara": 19604, "possibility": 6061, "bout": 10094, "tudor": 15588, "outspoken": 22430, "kendrick": 25341, "beetle": 7813, "calculated": 10174, "##weather": 28949, "149": 17332, "kelley": 19543, "francis": 4557, "degraded": 26131, "brenda": 15507, "irene": 12855, "crashed": 8007, "central": 2430, "dominique": 18165, "troop": 10123, "juarez": 25398, "cabaret": 19685, "##ense": 16700, "hallway": 6797, "##\u2070": 30071, "bars": 6963, "discs": 15303, "algebraic": 17390, "flinch": 23224, "reclaim": 24104, "302": 22060, "##27": 22907, "burkina": 23089, "updates": 14409, "activities": 3450, "##\u540d": 30321, "magistrate": 14351, "spur": 12996, "[unused221]": 226, "570": 24902, "lipstick": 22359, "##ght": 13900, "energetic": 18114, "bearing": 7682, "[unused200]": 205, "apartheid": 17862, "midday": 22878, "cinder": 29399, "semiconductor": 20681, "scanner": 26221, "lowe": 14086, "[unused355]": 360, "gripped": 9672, "indus": 27746, "enrolled": 8302, "shan": 17137, "offers": 4107, "stove": 16247, "brendan": 15039, "anymore": 4902, "butte": 25024, "##rit": 14778, "dundee": 14252, "##rai": 14995, "##ures": 14900, "mist": 11094, "[unused653]": 658, "##la": 2721, "##tino": 25690, "dakota": 7734, "##ater": 24932, "determined": 4340, "firms": 9786, "##duk": 28351, "jacksonville": 13057, "##ject": 20614, "orbiting": 26472, "jew": 16522, "##q": 4160, "\u1d40": 1495, "camden": 13267, "kent": 5982, "methodist": 8938, "picnic": 12695, "heels": 8265, "xinjiang": 25904, "poses": 22382, "1833": 11040, "##hema": 28433, "constituency": 5540, "shouts": 15701, "lip": 5423, "\u0575": 1230, "timer": 25309, "scowled": 17474, "undertook": 12543, "cowboy": 11762, "[unused947]": 952, "vow": 19076, "##yk": 15922, "spices": 21729, "sloppy": 28810, "martyrs": 18945, "accomplish": 14570, "price": 3976, "##lka": 26518, "engine": 3194, "##evic": 17726, "rushes": 18545, "rustling": 29188, "pu": 16405, "bulletin": 13146, "meiji": 23214, "doing": 2725, "bisexual": 22437, "prosperity": 14165, "drake": 7867, "outta": 24955, "midlands": 13256, "mustache": 28786, "joey": 9558, "rebuild": 14591, "temporary": 5741, "courier": 18092, "clinton": 7207, "western": 2530, "cylinder": 7956, "##mbe": 18552, "deliberately": 9969, "##ada": 8447, "[unused970]": 975, "divorce": 8179, "weekends": 13499, "twilight": 13132, "##gues": 22967, "finals": 4399, "criticized": 6367, "milky": 21582, "\u6d77": 1902, "sea": 2712, "townsville": 27492, "statement": 4861, "\u09b9": 1377, "widely": 4235, "seal": 7744, "gore": 13638, "##lynn": 27610, "boris": 11235, "[unused6]": 7, "craving": 26369, "ops": 23092, "preparations": 12929, "sonia": 16244, "masks": 15806, "outing": 26256, "hyderabad": 13624, "managing": 6605, "##acy": 15719, "podcast": 16110, "goodwill": 22875, "aspects": 5919, "##fers": 24396, "133": 14506, "syndicated": 13889, "##chai": 24925, "[unused965]": 970, "##tious": 20771, "shakespeare": 8101, "know": 2113, "puget": 27879, "jose": 4560, "edison": 17046, "kildare": 24275, "worcester": 12539, "##ticus": 29587, "saturn": 14784, "mortgage": 14344, "flare": 17748, "womb": 26578, "reminiscent": 14563, "cues": 23391, "fertile": 14946, "wars": 5233, "crouched": 14275, "##ular": 7934, "hardcover": 20990, "##skie": 23955, "penguin": 13987, "totaled": 23596, "protest": 6186, "rebuilding": 14584, "##ic": 2594, "japanese": 2887, "modeled": 14440, "1862": 6889, "surveyed": 12876, "magazine": 2932, "1860s": 15914, "granada": 16553, "##\u0906": 29848, "cents": 16653, "\u1d56": 1504, "consult": 23363, "citizens": 4480, "goods": 5350, "jihad": 24815, "perspective": 7339, "##lessly": 10895, "tend": 7166, "delle": 24121, "##aton": 22436, "traveler": 20174, "judith": 12924, "woodlands": 19268, "complicated": 8552, "staggering": 26233, "seventeen": 9171, "compiled": 9227, "ballistic": 19630, "confiscated": 17182, "yellowish": 17804, "fortified": 13313, "innovative": 9525, "1860": 7313, "##itive": 13043, "gleaming": 18242, "bitterly": 19248, "[unused611]": 616, "\u4e2d": 1746, "biking": 28899, "flavour": 28126, "##xton": 14226, "golf": 5439, "conceded": 15848, "extraordinary": 9313, "afghanistan": 7041, "284": 26871, "fierce": 9205, "slit": 18036, "tumbling": 21552, "background": 4281, "\u266d": 1627, "##osity": 25949, "ongoing": 7552, "##ares": 17933, "australian": 2827, "puerto": 5984, "representations": 15066, "direction": 3257, "pennsylvania": 3552, "wrestle": 25579, "tsar": 17608, "highly": 3811, "##ieri": 21939, "productions": 5453, "per": 2566, "frankly": 19597, "##ez": 9351, "utterly": 12580, "##eke": 23941, "cassandra": 15609, "battered": 17548, "fractured": 21726, "square": 2675, "apex": 13450, "pivotal": 20369, "scheduling": 19940, "queens": 8603, "commitment": 8426, "yue": 27163, "disasters": 18665, "chiefs": 9058, "voltage": 10004, "##yl": 8516, "##ine": 3170, "mbc": 27262, "reorganized": 14137, "\u30bb": 1708, "fantasia": 29203, "##oni": 10698, "##ni": 3490, "solitary": 14348, "crunch": 24514, "statutory": 15201, "maris": 23787, "orioles": 18893, "connections": 7264, "[unused119]": 124, "psychology": 6825, "flanking": 24958, "##;": 29628, "handwriting": 24149, "seton": 28796, "soap": 7815, "requirements": 5918, "##lip": 15000, "truck": 4744, "further": 2582, "jamal": 24132, "lunch": 6265, "involved": 2920, "rendered": 10155, "examples": 4973, "##uca": 18100, "##ves": 6961, "uploaded": 21345, "1983": 3172, "wept": 24966, "hawthorne": 23440, "##ape": 24065, "predators": 12630, "##vara": 24516, "##tlan": 28922, "##bham": 25522, "##nivorous": 29193, "peng": 26473, "finding": 4531, "##iae": 19001, "strict": 9384, "soy": 25176, "\u4e09": 1741, "squeezing": 15328, "##chfield": 22693, "[unused158]": 163, "symbols": 9255, "curl": 15390, "coughing": 21454, "##nz": 14191, "##sar": 10286, "fielded": 20988, "breaking": 4911, "vowel": 12710, "##sle": 25016, "connie": 16560, "##loid": 27710, "scars": 13521, "enabling": 12067, "[unused39]": 40, "##hyllum": 27750, "massif": 24875, "floods": 14295, "struggles": 11785, "\u2666": 1626, "\u306a": 1667, "denoted": 19537, "singular": 13048, "##nch": 12680, "1872": 7572, "##\u02e3": 29718, "##39": 23499, "##ik": 5480, "earthquakes": 17932, "##\u30af": 30228, "##et": 3388, "project": 2622, "terrifying": 17082, "layer": 6741, "stages": 5711, "rao": 10546, "whites": 12461, "##ador": 26467, "blogger": 28205, "given": 2445, "##felt": 26675, "academic": 3834, "ursula": 20449, "bald": 13852, "fat": 6638, "android": 11924, "deterioration": 26118, "tokyo": 5522, "bombardier": 29143, "crates": 27619, "##lls": 12718, "burke": 9894, "[unused99]": 104, "mcnamara": 28340, "cotton": 6557, "abruptly": 9225, "##ea": 5243, "winding": 12788, "corporal": 14265, "modelled": 23364, "injustice": 21321, "tay": 28117, "lizzie": 15860, "ares": 23631, "##jack": 17364, "quentin": 15969, "drawing": 5059, "yukon": 19898, "pseudo": 18404, "aggregation": 28041, "troy": 9553, "fireworks": 16080, "variable": 8023, "mccain": 19186, "##rlin": 19403, "then": 2059, "sleep": 3637, "bard": 22759, "moist": 11052, "brewster": 23009, "intellectual": 7789, "kwan": 27741, "concrete": 5509, "alterations": 16705, "screens": 12117, "specials": 19247, "##door": 23835, "proved": 4928, "gibson": 9406, "##partisan": 26053, "##dae": 6858, "savior": 24859, "intercity": 20651, "agitated": 21568, "shen": 21882, "circled": 14867, "##rl": 12190, "playhouse": 17408, "mp": 6131, "pigs": 14695, "\u0252": 1111, "nazi": 6394, "hazards": 22010, "##ration": 8156, "bodies": 4230, "##tag": 15900, "##yama": 11613, "suzy": 28722, "surgical": 11707, "[unused208]": 213, "assumed": 5071, "##grant": 18980, "roger": 5074, "chuckle": 15375, "reduced": 4359, "\u570b": 1800, "willed": 22705, "marie": 5032, "\u30a4": 1695, "yearly": 12142, "names": 3415, "linear": 7399, "primary": 3078, "blooms": 29037, "##ovsky": 21983, "monster": 6071, "amanda": 8282, "crazy": 4689, "treason": 14712, "capabilities": 9859, "stiffly": 27499, "casual": 10017, "hugs": 24459, "\u21cc": 1590, "replaces": 20736, "[unused449]": 454, "##iers": 10136, "##coll": 26895, "earthquake": 8372, "##athan": 29246, "[unused150]": 155, "edible": 21006, "ponce": 21085, "blanchard": 26870, "fear": 3571, "##itte": 27100, "49th": 25726, "sandy": 7525, "length": 3091, "##sley": 8002, "##ories": 18909, "reuben": 17294, "[unused766]": 771, "##raine": 26456, "lindsay": 12110, "##ingen": 15542, "unprecedented": 15741, "oakland": 9182, "[unused472]": 477, "settlement": 4093, "##nden": 25915, "constitution": 4552, "fl": 13109, "woven": 17374, "mari": 16266, "fifteenth": 16249, "browser": 16602, "chairs": 8397, "ironically": 18527, "##\u6cbb": 30426, "famed": 15607, "popularized": 20339, "dealers": 16743, "egypt": 5279, "vibrations": 22755, "barlow": 17803, "aristocratic": 19774, "riley": 7546, "liver": 11290, "humane": 23369, "constructive": 26157, "hodges": 19772, "##\u21cc": 30118, "forgetting": 17693, "li": 5622, "frog": 10729, "adrenaline": 14963, "siegel": 27996, "##hear": 26560, "fiona": 13073, "##ja": 3900, "\u300b": 1640, "disguise": 14249, "defeating": 6324, "representative": 4387, "pcs": 27019, "##ako": 20411, "##sus": 13203, "tremor": 27734, "flanagan": 26558, "blending": 23293, "accounted": 14729, "lsu": 21849, "[unused7]": 8, "##mar": 7849, "atrium": 26204, "affinity": 16730, "journalism": 8083, "teaser": 27071, "620": 23612, "immigrant": 11560, "range": 2846, "nicknamed": 9919, "unto": 19662, "tapes": 13324, "##issa": 21205, "smacked": 19203, "peeking": 28222, "damon": 11317, "accurate": 8321, "stains": 27094, "##gly": 25643, "rothschild": 19712, "flirt": 27978, "audible": 19525, "prof": 11268, "able": 2583, "indira": 28232, "spontaneously": 27491, "spray": 12509, "\u4f0a": 1762, "constructing": 15696, "mud": 8494, "[unused816]": 821, "hive": 26736, "nick": 4172, "marquess": 17391, "coaster": 16817, "ce": 8292, "waking": 12447, "transmitter": 11659, "patrice": 29527, "##\u05d4": 29128, "hartley": 20955, "##ettes": 26592, "transit": 6671, "oricon": 22237, "cartoonist": 19659, "trinity": 7124, "alyssa": 26442, "##puri": 24661, "dun": 24654, "piano": 3682, "noise": 5005, "[unused463]": 468, "turkey": 4977, "domestically": 27143, "[unused482]": 487, "hunters": 9624, "out": 2041, "121": 12606, "mortal": 9801, "##\u9593": 30495, "##ples": 21112, "facilitated": 19601, "honey": 6861, "##li": 3669, "andersen": 18308, "friday": 5958, "paz": 18183, "oh": 2821, "##aro": 10464, "initiating": 26616, "graph": 10629, "considerations": 16852, "##rd": 4103, "##yse": 23274, "##rr": 12171, "cornice": 27848, "##ami": 10631, "careful": 6176, "noses": 27518, "##es": 2229, "unfair": 15571, "fukuoka": 26998, "[unused110]": 115, "their": 2037, "##\u0430": 10260, "##lkirk": 23913, "sewing": 22746, "521": 26963, "regimes": 25228, "neighbourhood": 10971, "288": 24841, "\u0259": 1114, "##iidae": 15648, "republicans": 10643, "bud": 13007, "\u00b9\u2044\u2082": 18728, "dismissed": 7219, "##3d": 29097, "hi": 7632, "exploded": 9913, "wrapped": 5058, "vegetation": 10072, "genealogical": 29606, "##hae": 25293, "international": 2248, "netherlands": 4549, "tomb": 8136, "##ders": 13375, "programs": 3454, "awkwardly": 18822, "enslaved": 22216, "buds": 26734, "attacking": 7866, "plots": 14811, "hang": 6865, "##proof": 18907, "bowls": 15220, "beings": 9552, "romero": 18290, "##\u0997": 29891, "jet": 6892, "shaky": 15311, "##berman": 23991, "lucius": 15639, "next": 2279, "gunnery": 27919, "269": 25717, "electrification": 23679, "cup": 2452, "\u2660": 1623, "austrians": 28439, "\u706b": 1906, "blooded": 26064, "##zard": 26154, "\u00bf": 1094, "lukas": 23739, "heritage": 4348, "guido": 20239, "adjust": 14171, "##\u9fb8": 30509, "inhaled": 15938, "dream": 3959, "fay": 23201, "cavendish": 23570, "odi": 21045, "##aly": 20766, "##sos": 17063, "knots": 9439, "##\u091f": 29856, "##marine": 21966, "##\u0131": 11722, "swaying": 21826, "hierarchy": 12571, "[unused202]": 207, "##ra\u00dfe": 27807, "mentions": 9704, "necessitated": 29611, "canine": 28735, "aunt": 5916, "hallmark": 25812, "initiation": 17890, "##58": 27814, "empathy": 26452, "[unused478]": 483, "germain": 19192, "growled": 8881, "ellen": 9155, "fade": 12985, "emerge": 12636, "caused": 3303, "exhaustion": 15575, "spa": 12403, "elaborate": 9603, "##tera": 14621, "researched": 18800, "sewer": 22365, "1728": 26833, "loaded": 8209, "tired": 5458, "\u300a": 1639, "\u3086": 1683, "ebert": 22660, "element": 5783, "environments": 10058, "escorting": 23831, "##xa": 18684, "##lind": 27164, "undertaker": 27568, "[unused855]": 860, "##gned": 19225, "metre": 7924, "\"": 1000, "hour": 3178, "fantasy": 5913, "recreational": 10517, "##\u5f73": 30371, "tight": 4389, "mischievous": 25723, "consolidate": 24939, "violinist": 16609, "licence": 11172, "shower": 6457, "manifest": 19676, "quantitative": 20155, "mri": 27011, "skeptical": 18386, "interior": 4592, "oppressive": 28558, "dunkirk": 29467, "longtime": 11155, "##hui": 20552, "cove": 11821, "##stead": 25647, "none": 3904, "unusual": 5866, "balance": 5703, "posed": 13686, "crawford": 10554, "cautious": 17145, "enabled": 9124, "regan": 16964, "blackened": 25788, "greyish": 26916, "states": 2163, "ign": 16270, "##wing": 9328, "delays": 14350, "crashes": 19119, "phillies": 15711, "displaced": 12936, "bundled": 24378, "matt": 4717, "disqualification": 27782, "stiffened": 16090, "marrow": 24960, "inherit": 22490, "beta": 8247, "pancakes": 28470, "53": 5187, "elijah": 14063, "wholly": 12590, "[unused899]": 904, "martyr": 17216, "sentence": 6251, "baked": 17776, "psi": 17816, "aug": 15476, "##ywood": 26985, "indicted": 21801, "\u2098": 1567, "##\u20a4": 30100, "##\u2090": 30089, "wing": 3358, "##hell": 18223, "mondays": 28401, "portions": 8810, "program": 2565, "ud": 20904, "weaken": 23021, "figured": 6618, "mainly": 3701, "newton": 8446, "kitchens": 26051, "onward": 15834, "predominantly": 9197, "nationally": 9582, "730": 28004, "inner": 5110, "880": 26839, "charting": 17918, "icelandic": 14024, "irs": 25760, "prevailed": 19914, "tonight": 3892, "threw": 4711, "fk": 14352, "kanye": 29270, "##cars": 20745, "skier": 21294, "potentially": 9280, "neuroscience": 23700, "[unused352]": 357, "##mering": 27851, "luigi": 15153, "##ination": 12758, "sabres": 26969, "##escence": 28964, "\u306c": 1669, "functional": 8360, "fence": 8638, "schooner": 21567, "electronic": 4816, "hemingway": 27299, "[unused809]": 814, "##mour": 20360, "1400": 20652, "restart": 23818, "powerful": 3928, "circles": 7925, "[unused561]": 566, "zagreb": 12974, "fritz": 12880, "yan": 13619, "\u2194": 1587, "##ened": 6675, "##\u0279": 29691, "worthy": 11007, "operatives": 25631, "##tively": 25499, "semantic": 21641, "##basket": 25351, "##ion": 3258, "arturo": 20520, "##nall": 22270, "##eering": 20550, "filtered": 21839, "##inium": 27585, "aqua": 28319, "baptism": 18336, "[unused41]": 42, "##nko": 16107, "haydn": 25595, "misses": 22182, "infused": 29592, "churning": 26765, "drama": 3689, "expeditionary": 15372, "1804": 13140, "credibility": 21553, "shooter": 13108, "northamptonshire": 21367, "kraft": 26680, "cpu": 17368, "\u7684": 1916, "syndrome": 8715, "\u2609": 1622, "membership": 5779, "orleans": 5979, "moshe": 27123, "##_": 29638, "##nging": 22373, "##hir": 11961, "leafs": 21349, "##aba": 19736, "garments": 21902, "##oli": 10893, "##ntine": 26730, "mandir": 22700, "instituto": 22596, "uh": 7910, "addressed": 8280, "##\u6211": 30381, "192": 17613, "enigma": 26757, "brunette": 27261, "##vel": 15985, "attain": 18759, "coal": 5317, "\u03b4": 1158, "watched": 3427, "##pio": 22071, "recommendation": 12832, "##run": 15532, "\u0636": 1285, "jumping": 8660, "cancellation": 16990, "virgil": 17270, "behold": 27541, "emilia": 20417, "##alla": 25425, "1560": 29185, "perimeter": 13443, "kansas": 5111, "prophets": 23172, "cleared": 5985, "kelly": 5163, "bart": 12075, "eyeing": 19285, "silver": 3165, "offspring": 13195, "edition": 3179, "##tial": 20925, "supplemented": 20585, "##stadt": 21543, "##zation": 9276, "gamble": 18503, "kw": 6448, "lowry": 27281, "##te": 2618, "cracks": 15288, "web": 4773, "collaboration": 5792, "miss": 3335, "kgb": 25467, "champagne": 12327, "##mac": 22911, "##\u0441": 29747, "##rked": 19849, "cares": 14977, "delicately": 28814, "$": 1002, "\u5185": 1773, "wasn": 2347, "##rrigan": 28706, "mcdonnell": 23149, "[unused368]": 373, "##\u5b80": 30344, "##hort": 27794, "locked": 5299, "completely": 3294, "sky": 3712, "poster": 13082, "yunnan": 21607, "leveled": 22915, "##mable": 24088, "casualties": 8664, "##ksha": 28132, "pursued": 9505, "chihuahua": 28480, "##watch": 18866, "huntington": 16364, "ulrich": 19619, "[unused199]": 204, "glamour": 22439, "exasperated": 24379, "jesuit": 13840, "favoured": 16822, "ego": 13059, "\u00b4": 1084, "hebrew": 6836, "softened": 16573, "tobin": 28096, "albert": 4789, "endorsed": 11763, "madness": 12013, "sami": 17015, "waters": 5380, "mcintosh": 29052, "mule": 20568, "confederates": 24627, "[unused669]": 674, "mentor": 10779, "##zar": 9057, "olympian": 25977, "##fight": 20450, "gunther": 19384, "collects": 17427, "subdued": 20442, "[unused742]": 747, "rangers": 7181, "propeller": 15692, "1968": 3380, "ellington": 21630, "[unused25]": 26, "##rting": 24097, "##izer": 17629, "payton": 28666, "##iques": 19516, "tap": 11112, "target": 4539, "[unused569]": 574, "competed": 3879, "##plane": 11751, "##icide": 21752, "populated": 10357, "traveled": 6158, "fascism": 23779, "rubbing": 10137, "stole": 10312, "##rage": 24449, "faith": 4752, "##lding": 24573, "recalled": 7383, "exemplified": 28593, "google": 8224, "posthumous": 19086, "##13": 17134, "harvey": 7702, "sneakers": 28130, "radiating": 23229, "honorary": 5756, "\u20a9": 1573, "absorbing": 20998, "knocked": 6573, "lost": 2439, "implied": 13339, "##jou": 23099, "assassination": 10102, "scenario": 11967, "plunged": 16687, "clicking": 22042, "irritated": 15560, "evacuate": 22811, "calculus": 19276, "trams": 19216, "sickness": 15556, "enrichment": 27226, "##iction": 28097, "recreation": 8640, "fe": 10768, "##nor": 12131, "heaviest": 26858, "casper": 24602, "##\u3042": 30172, "savings": 10995, "undertake": 16617, "remind": 10825, "##xley": 20959, "boots": 6879, "##zer": 6290, "jericho": 17309, "##\u0f42": 29962, "brake": 13428, "interdisciplinary": 18593, "fellowships": 27298, "speak": 3713, "maddie": 17805, "jobs": 5841, "nino": 20801, "##uga": 16377, "roses": 10529, "##nb": 27698, "charlemagne": 27257, "coaches": 7850, "greer": 25939, "##u": 2226, "##with": 24415, "mori": 22993, "[unused516]": 521, "blu": 14154, "sights": 15925, "1": 1015, "reilly": 13875, "##\u03bd": 16177, "##vin": 6371, "atp": 12649, "marsh": 9409, "##\u110c": 30000, "lin": 11409, "##les": 4244, "\u10e0": 1451, "residential": 5647, "[unused951]": 956, "[unused159]": 164, "##alle": 24164, "greed": 22040, "confirming": 19195, "ranging": 7478, "billboard": 4908, "receipts": 28258, "buys": 23311, "\u5fe0": 1852, "familiar": 5220, "improved": 5301, "##uaries": 22579, "##shaft": 25679, "[unused161]": 166, "2500": 25108, "head": 2132, "whispered": 3990, "##\u9762": 30502, "regulator": 21618, "your": 2115, "ministers": 7767, "poisoning": 16149, "shopping": 6023, "basic": 3937, "townships": 13991, "geometry": 10988, "prisoners": 5895, "johnson": 3779, "pigeon": 16516, "panels": 9320, "\u2087": 1554, "armistice": 19125, "visuals": 26749, "rope": 8164, "smashing": 21105, "lawyers": 9559, "##\u0642": 29834, "wichita": 18614, "greek": 3306, "\u66f2": 1870, "ocean": 4153, "site": 2609, "##dates": 27122, "\u963f": 1971, "##rove": 17597, "jp": 16545, "choi": 18151, "card": 4003, "##mit": 22930, "figurative": 29407, "\u6c11": 1892, "1919": 4529, "molded": 27992, "birch": 16421, "2017": 2418, "winner": 3453, "##\u1d64": 30044, "alpine": 10348, "decatur": 27783, "fathers": 11397, "rocked": 14215, "giles": 13287, "damages": 12394, "1703": 28366, "upgrading": 25925, "pensacola": 26073, "czech": 5569, "##abe": 16336, "kia": 27005, "filled": 3561, "sarawak": 21546, "##\u27e8": 30155, "phd": 8065, "oak": 6116, "cyrillic": 15522, "participate": 5589, "beamed": 22587, "talmud": 24380, "##?": 29632, "enduring": 16762, "##vr": 19716, "complaining": 17949, "narrated": 17356, "##zam": 20722, "kerry": 11260, "\u0440": 1195, "hating": 22650, "##loading": 18570, "sichuan": 20980, "##hai": 10932, "ensuring": 12725, "mainstream": 7731, "during": 2076, "##hill": 7100, "lend": 18496, "vector": 9207, "asean": 27974, "hui": 17504, "##ov": 4492, "containing": 4820, "harassed": 28186, "conducting": 9283, "officer": 2961, "##ag": 8490, "enacted": 11955, "improving": 9229, "francisco": 3799, "hilbert": 27434, "grammy": 8922, "runaway": 19050, "phantom": 11588, "420": 17442, "elsa": 23452, "encompasses": 13974, "oklahoma": 5858, "##jong": 21958, "kingston": 9803, "##ster": 6238, "##it": 4183, "1893": 6489, "##ren": 7389, "appliances": 22449, "niall": 21889, "calculation": 17208, "bloomfield": 25584, "qb": 26171, "activation": 13791, "growling": 22413, "weathered": 28445, "##try": 11129, "\u2ebc": 1633, "phases": 12335, "refueling": 23026, "entrance": 4211, "honour": 6225, "1550": 26245, "code": 3642, "intentionally": 15734, "##fm": 16715, "peanut": 21443, "flow": 4834, "341": 28358, "launch": 4888, "woo": 15854, "enterprise": 6960, "perrin": 28106, "sardinia": 21594, "aleksandr": 24020, "eater": 28496, "[unused335]": 340, "mcgee": 22034, "trainee": 26758, "##\u0e15": 29947, "[unused854]": 859, "cong": 26478, "buddhist": 7992, "##sden": 27903, "lattice": 17779, "tack": 26997, "##\u2116": 30106, "grass": 5568, "citizen": 6926, "quote": 14686, "boot": 9573, "i": 1045, "piece": 3538, "intrusion": 24554, "##osi": 20049, "##\u0192": 29675, "##on": 2239, "quan": 24110, "drain": 12475, "##raf": 27528, "\u611b": 1853, "lucha": 25390, "##jan": 8405, "hussein": 16543, "christy": 21550, "ferrer": 28390, "metaphysical": 29081, "jem": 24193, "formulas": 25814, "motor": 5013, "520": 19611, "turret": 14493, "mutants": 23892, "\u00be": 1093, "401": 22649, "atlantic": 4448, "##ative": 8082, "[unused299]": 304, "panther": 15133, "##\u6c11": 30418, "##ru": 6820, "refers": 5218, "hastings": 12296, "big": 2502, "galician": 28830, "fixtures": 17407, "composition": 5512, "positions": 4460, "tracks": 3162, "spin": 6714, "finished": 2736, "##ogical": 20734, "presenter": 10044, "\u5bbf": 1826, "##\u516b": 30297, "withdrawing": 21779, "erased": 23516, "papers": 4981, "87": 6584, "madras": 12993, "vox": 29450, "##lights": 15733, "[unused111]": 116, "plum": 22088, "mahmoud": 27278, "shrewsbury": 18174, "killing": 4288, "comedic": 21699, "jock": 23407, "buster": 18396, "1625": 26263, "sixteenth": 14683, "pile": 8632, "##ssa": 11488, "assumes": 15980, "grandmaster": 27101, "[unused905]": 910, "technical": 4087, "##aster": 24268, "charms": 24044, "assured": 8916, "##brush": 18623, "[unused748]": 753, "saliva": 26308, "builders": 16472, "pedersen": 27409, "##\u30ec": 30260, "toronto": 4361, "ska": 24053, "girlfriends": 27408, "castillo": 19371, "##landa": 24448, "convenience": 15106, "clause": 11075, "\u0580": 1237, "##etz": 26327, "publications": 5523, "murdering": 21054, "schuster": 24253, "particularly": 3391, "##kumar": 18494, "boost": 12992, "centimeters": 18119, "[unused638]": 643, "philology": 29286, "##tip": 25101, "haunt": 24542, "italiana": 28059, "sa": 7842, "cemetery": 4528, "##ites": 7616, "##uber": 21436, "1716": 28204, "aquitaine": 24973, "diamond": 6323, "##dha": 17516, "\u0e23": 1417, "dwyer": 29394, "\u0964": 1344, "submerged": 13563, "##ichi": 11319, "[unused47]": 48, "shareholder": 18668, "marble": 7720, "designer": 5859, "twentieth": 9086, "##antly": 15706, "##eis": 17580, "##15": 16068, "##nin": 11483, "dishes": 10447, "relief": 4335, "domingo": 15586, "##orf": 16347, "demons": 7942, "terence": 22677, "##\u0e32": 29958, "structured": 14336, "psychic": 12663, "##ks": 5705, "fame": 4476, "meade": 26501, "its": 2049, "deficit": 15074, "reasoning": 13384, "sustaining": 22663, "##rogated": 26565, "##anu": 24076, "hagen": 24047, "##28": 22407, "evening": 3944, "everywhere": 7249, "thrive": 25220, "##\u0431": 29740, "overwhelmed": 13394, "crops": 8765, "##berto": 21201, "sierra": 7838, "980": 25195, "crew": 3626, "##ado": 9365, "driver": 4062, "conductor": 7589, "moses": 9952, "cuban": 9642, "##ologists": 16886, "470": 21064, "##uting": 20807, "##urgent": 27176, "mentally": 10597, "##hen": 10222, "saint": 3002, "driven": 5533, "##tad": 17713, "muse": 18437, "##\u20a9": 30101, "##\u2192": 30113, "um": 8529, "##rse": 22573, "ware": 16283, "phi": 13569, "automobile": 9935, "[unused68]": 69, "oblast": 10379, "##sal": 12002, "commodities": 21955, "##ast": 14083, "commits": 27791, "##dell": 12662, "chao": 22455, "bin": 8026, "##icient": 20132, "catalogue": 10161, "lush": 16299, "##\u5fe0": 30378, "bet": 6655, "swing": 7370, "juveniles": 25406, "feng": 19004, "##\u2076": 30075, "wig": 24405, "54": 5139, "father": 2269, "##\u062f": 15394, "\u10d4": 1442, "knees": 5042, "berber": 27514, "niagara": 15473, "definition": 6210, "wooden": 4799, "\u0982": 1346, "##enia": 19825, "opener": 16181, "sticking": 13423, "maia": 23478, "observing": 14158, "plurality": 29018, "worldwide": 4969, "tablet": 13855, "loosened": 22456, "molecules": 10737, "takeoff": 19744, "sedan": 15134, "electrons": 15057, "##\u0289": 29697, "witnessing": 24740, "moines": 23286, "##ides": 8621, "##hong": 19991, "behalf": 6852, "speeding": 21485, "padma": 23731, "alonso": 17649, "acclaimed": 10251, "375": 18034, "telescope": 12772, "comes": 3310, "pulls": 8005, "##ldon": 19932, "1773": 19916, "suitable": 7218, "producers": 6443, "groups": 2967, "parody": 12354, "ibm": 9980, "shocked": 7135, "dolores": 21544, "hind": 17666, "prank": 26418, "determination": 9128, "covers": 4472, "communicate": 10639, "fast": 3435, "cyprus": 9719, "integrate": 17409, "tribe": 5917, "downstream": 13248, "tires": 13310, "##xi": 9048, "escort": 8620, "trimmed": 21920, "crusader": 25237, "cairns": 21731, "##pm": 9737, "au": 8740, "tyne": 17742, "##\u05e5": 29808, "phillips": 8109, "\u2080": 1547, "jonathan": 5655, "[unused309]": 314, "scientology": 23845, "barges": 27712, "complete": 3143, "rutland": 27780, "turing": 28639, "##\u10d7": 29980, "uncomfortably": 22502, "steppe": 29096, "boilers": 20412, "expectation": 17626, "sony": 8412, "paradox": 20506, "joaquin": 16877, "print": 6140, "brings": 7545, "honest": 7481, "seemingly": 9428, "vp": 21210, "stella": 11894, "chalk": 16833, "1897": 6347, "transmitting": 23820, "blouse": 18149, "mace": 19382, "inquiries": 27050, "qualities": 11647, "processed": 13995, "hoop": 27669, "##kur": 18569, "org": 8917, "hazard": 15559, "solar": 5943, "turkish": 5037, "##ctric": 22601, "mid": 3054, "\u09c0": 1380, "ndp": 21915, "gi": 21025, "currie": 20667, "rooted": 15685, "##ache": 15395, "kazan": 22001, "##raus": 25965, "access": 3229, "compiling": 21953, "ipad": 25249, "patent": 7353, "##brate": 22008, "iihf": 26904, "##dun": 27584, "sophie": 8234, "##ned": 7228, "immortality": 20107, "prefer": 9544, "ventral": 23420, "##nated": 23854, "berg": 15214, "styx": 21856, "neglected": 15486, "mclaughlin": 23720, "backup": 10200, "liga": 8018, "doha": 26528, "approximation": 20167, "barn": 8659, "co\u2082": 20190, "##ox": 11636, "fragmented": 26872, "uninhabited": 24749, "calder": 19347, "butch": 17520, "##\u30bb": 30234, "programme": 4746, "ranked": 4396, "monastery": 6408, "kidnapping": 15071, "ag": 12943, "quicker": 19059, "dear": 6203, "impending": 17945, "enforcing": 27455, "zhang": 9327, "\u0cbe": 1402, "backpack": 13383, "swimmer": 13361, "hug": 8549, "arrested": 4727, "6th": 5351, "succeed": 9510, "byu": 23471, "napoleonic": 18813, "[unused868]": 873, "narrow": 4867, "training": 2731, "coldly": 24745, "gunner": 14850, "heidelberg": 16793, "af": 21358, "graeme": 21840, "holders": 13304, "attache": 29489, "##sch": 11624, "##avio": 28471, "skater": 18815, "erected": 7019, "oswald": 17411, "happier": 19366, "private": 2797, "##ffi": 26989, "lacrosse": 13488, "abbreviated": 12066, "download": 8816, "malik": 14360, "locomotives": 7830, "supporters": 6793, "##ture": 11244, "dated": 6052, "activated": 8878, "##ein": 12377, "projected": 11310, "platoon": 13799, "si": 9033, "valentine": 10113, "banging": 22255, "philanthropist": 15246, "lac": 18749, "[unused392]": 397, "gymnastics": 14002, "1797": 14112, "skin": 3096, "##rence": 24413, "hugely": 27564, "ecosystem": 16927, "##bee": 11306, "applied": 4162, "bent": 6260, "augusta": 13635, "grunt": 20696, "according": 2429, "punishments": 29115, "lecture": 8835, "perform": 4685, "ending": 4566, "khalid": 21828, "kiev": 12100, "favorable": 11119, "##\u0631": 17149, "apt": 26794, "bordering": 18299, "##atics": 17592, "crossings": 20975, "##ive": 3512, "trigger": 9495, "tingle": 25792, "discourage": 28085, "##not": 17048, "##ees": 10285, "##ife": 29323, "extras": 26279, "nme": 23770, "favorably": 27597, "redwood": 27552, "owning": 19273, "##ux": 5602, "creep": 19815, "lawson": 14577, "overture": 25052, "recommended": 6749, "flux": 19251, "clarke": 8359, "dmitri": 28316, "che": 18178, "completion": 6503, "autobiographical": 18534, "oasis": 18128, "monty": 18446, "amendment": 7450, "strips": 12970, "##\u00a3": 29646, "court": 2457, "grave": 6542, "oblivion": 24034, "utilizing": 16911, "yarmouth": 28792, "methane": 24481, "henry": 2888, "addresses": 11596, "[unused844]": 849, "restaurants": 7884, "correctional": 20873, "##lova": 24221, "[unused50]": 51, "ally": 9698, "##hil": 19466, "ee": 25212, "##sit": 28032, "##kovsky": 23829, "bonus": 6781, "somme": 25158, "passes": 5235, "homo": 24004, "routine": 9410, "terrible": 6659, "fanny": 17813, "ewing": 24023, "1955": 3982, "##unciation": 24101, "1679": 27924, "hamlet": 8429, "##ulates": 18969, "disdain": 25134, "nascar": 11838, "##eded": 19082, "mexico": 3290, "robot": 8957, "##shire": 7430, "sizes": 10826, "emergency": 5057, "dragging": 11920, "1961": 3777, "lou": 10223, "receive": 4374, "reporters": 12060, "borg": 28709, "##zai": 25290, "approval": 6226, "fit": 4906, "##\u21c4": 30117, "david": 2585, "furry": 28662, "kolkata": 13522, "[unused622]": 627, "wa": 11333, "##rwin": 27349, "\u1d52": 1503, "##\u3080": 30205, "ngos": 22165, "faults": 19399, "depth": 5995, "ecosystems": 20440, "##vocation": 19152, "scoop": 23348, "leroy": 19103, "##9": 2683, "illegitimate": 18102, "limiting": 14879, "tape": 6823, "1808": 13040, "newmarket": 22489, "crusade": 16282, "detailing": 17555, "correctly": 11178, "medallion": 22541, "##oka": 12352, "##tray": 28473, "drilled": 24311, "teenage": 9454, "sublime": 28341, "thomson": 11161, "1634": 28502, "opens": 7480, "investigate": 8556, "##\u00e6": 29667, "low": 2659, "##rk": 8024, "designated": 4351, "mic": 23025, "intelligence": 4454, "montagu": 26241, "relying": 18345, "vita": 19300, "facts": 8866, "##gua": 19696, "intended": 3832, "partnering": 27001, "chancel": 16482, "nordic": 13649, "##\u4ecb": 30285, "crowned": 10249, "la": 2474, "##heart": 22375, "ngo": 17895, "##\u00b2": 10701, "provider": 10802, "emerging": 8361, "##olo": 12898, "sharp": 4629, "key": 3145, "##oja": 22918, "##gley": 22971, "advent": 13896, "towns": 4865, "celebrated": 6334, "guests": 6368, "\u1d65": 1510, "hirsch": 28127, "sulfate": 26754, "trap": 8132, "protects": 18227, "veto": 22102, "joe": 3533, "1663": 29016, "bop": 29432, "dripped": 22526, "invoked": 24959, "dancers": 10487, "impatience": 28011, "teresa": 12409, "medina": 15761, "##ement": 13665, "##\u06a9": 29841, "##vus": 27500, "##\u11bc": 30025, "assets": 7045, "discomfort": 17964, "##bility": 8553, "survivor": 12084, "sd": 17371, "aw": 22091, "nfl": 5088, "grip": 6218, "shea": 16994, "cyril": 16049, "theodor": 21448, "[unused115]": 120, "coa": 28155, "[unused182]": 187, "pac": 14397, "mesa": 15797, "pale": 5122, "\u0e22": 1416, "resignation": 8172, "buddhism": 11388, "bash": 24234, "modeling": 11643, "338": 27908, "corpses": 18113, "trojan": 23445, "buckingham": 17836, "arrive": 7180, "denim": 26762, "##ont": 12162, "##att": 19321, "discouraged": 22585, "political": 2576, "in": 1999, "\u305d": 1660, "##viere": 27087, "awake": 8300, "spine": 8560, "##toy": 29578, "breathing": 5505, "smelling": 19773, "exceeding": 17003, "revoked": 22837, "yacht": 12187, "\u4e95": 1754, "sighing": 19381, "lange": 21395, "##\u0448": 29753, "legend": 5722, "carefully": 5362, "##urrent": 29264, "microscopic": 26396, "karlsruhe": 26660, "##haw": 14238, "acquisitions": 19530, "##dion": 29573, "brother": 2567, "jena": 27510, "begun": 5625, "piccolo": 29368, "shrubs": 18812, "led": 2419, "mv": 19842, "##uka": 15750, "nagar": 16395, "suspend": 28324, "faintly": 18587, "dept": 29466, "panted": 28149, "##ckey": 29183, "wartime": 12498, "disappeared": 5419, "domination": 17882, "willow": 11940, "jug": 26536, "collapses": 25938, "##rug": 26549, "\u09a1": 1360, "aft": 16638, "ezekiel": 28743, "superiors": 22983, "contend": 27481, "##sma": 26212, "sciences": 4163, "functioned": 20903, "shuffle": 23046, "quezon": 26564, "shields": 11824, "above": 2682, "expressive": 22570, "##dar": 7662, "tina": 11958, "##act": 18908, "tr": 19817, "solemnly": 26294, "lyon": 10241, "victorian": 6652, "##aj": 13006, "steered": 23424, "##iculate": 24153, "radiation": 8249, "abstraction": 24504, "barking": 19372, "indicated": 5393, "cheese": 8808, "con": 9530, "differences": 5966, "suspicious": 10027, "##sack": 25607, "melville": 20154, "selecting": 17739, "starvation": 22611, "##lch": 29358, "mouths": 15076, "161": 17365, "##bre": 13578, "arm": 2849, "##tm": 21246, "bra": 11655, "##meo": 26247, "ed": 3968, "fall": 2991, "weekend": 5353, "##une": 9816, "flop": 28583, "assignments": 14799, "coordinate": 13530, "gathers": 29438, "37th": 23027, "restore": 9239, "hindu": 7560, "waterfalls": 24236, "##\u0574": 29776, "gears": 19456, "##ography": 9888, "fabian": 21174, "forewings": 13211, "operations": 3136, "lounge": 11549, "javelin": 23426, "##feld": 8151, "color": 3609, "eligible": 7792, "alike": 11455, "sf": 16420, "[unused664]": 669, "found": 2179, "prey": 8336, "beach": 3509, "babylonian": 26990, "living": 2542, "trucks": 9322, "##phate": 24556, "\u308a": 1686, "[unused969]": 974, "wellington": 8409, "feldman": 26908, "timely": 23259, "quotes": 16614, "[unused760]": 765, "12": 2260, "cid": 28744, "ge": 16216, "\\": 1032, "[unused317]": 322, "swindon": 22350, "vicinity": 9884, "1659": 28288, "connacht": 27062, "horned": 26808, "communists": 13009, "hokkaido": 20826, "meyrick": 15228, "congenital": 27480, "cambridgeshire": 24197, "flipped": 9357, "hurley": 25124, "1769": 20663, "tactic": 19717, "princeton": 9173, "resurgence": 26303, "twice": 3807, "manitoba": 10512, "envy": 21103, "tensed": 15225, "curt": 20099, "\u00a3100": 27708, "libre": 21091, "elisa": 29490, "[unused921]": 926, "lockheed": 17646, "dark": 2601, "lehigh": 23241, "map": 4949, "tyrone": 18770, "bohemian": 18063, "horrors": 22812, "mild": 10256, "seven": 2698, "ref": 25416, "bellamy": 25544, "##nidae": 29135, "departure": 6712, "jain": 17136, "cam": 11503, "##zes": 11254, "tel": 10093, "mistakenly": 20706, "calcium": 13853, "jaenelle": 20757, "rosario": 17496, "featherweight": 27145, "trustee": 13209, "britannia": 24677, "fisherman": 19949, "##logical": 9966, "##pling": 14353, "astro": 28625, "yelling": 13175, "av": 20704, "global": 3795, "evil": 4763, "termed": 12061, "##hila": 26415, "[unused437]": 442, "theatres": 13166, "masterpiece": 17743, "mammoth": 23714, "1876": 7326, "huff": 21301, "clutches": 29497, "agitation": 22356, "lid": 11876, "campuses": 13696, "ist": 21541, "tags": 22073, "sited": 28603, "weightlifting": 29305, "[unused354]": 359, "tbs": 29584, "artistic": 6018, "livingstone": 27656, "handicap": 15822, "cincinnati": 7797, "##fold": 10371, "rasped": 28459, "budget": 5166, "motions": 15323, "edwin": 10049, "shankar": 17429, "negligence": 27988, "feminine": 12320, "1962": 3705, "1810": 11786, "cricketer": 9490, "baton": 15302, "fetch": 18584, "generated": 7013, "brooks": 8379, "aces": 20232, "propellers": 23405, "espionage": 21003, "##tr": 16344, "peculiar": 14099, "chen": 8802, "289": 27054, "hires": 28208, "prior": 3188, "scoffed": 26326, "fleeing": 14070, "grumbled": 17030, "motorsport": 21044, "glory": 8294, "angle": 6466, "bounty": 17284, "perfect": 3819, "cooks": 26929, "oil": 3514, "sobbing": 20040, "\u6797": 1881, "truman": 15237, "[unused779]": 784, "stryker": 25429, "tunnel": 5234, "ted": 6945, "experienced": 5281, "logs": 15664, "lacey": 16355, "heel": 12073, "glow": 8652, "[unused398]": 403, "bathrooms": 28942, "##erving": 25164, "inspiration": 7780, "institution": 5145, "fist": 7345, "wr": 23277, "reflections": 16055, "rented": 12524, "slips": 17433, "\u2261": 1607, "[unused369]": 374, "chemical": 5072, "1866": 7647, "atop": 10234, "253": 23254, "##\u3078": 30201, "aired": 4836, "operating": 4082, "##quin": 12519, "sonya": 27926, "pasta": 24857, "\u9999": 1979, "humanitarian": 11470, "legislative": 4884, "memo": 24443, "connection": 4434, "mba": 15038, "cappella": 23013, "ghanaian": 27202, "transaction": 12598, "charcoal": 18872, "drastic": 23956, "1761": 21364, "##kari": 20224, "pounds": 7038, "rm": 28549, "cheat": 21910, "##\u05de": 29801, "fluffy": 27036, "##\u1161": 30006, "mil": 23689, "fortunately": 14599, "psychologists": 25428, "##ckman": 24080, "jackets": 17764, "fiat": 18550, "[unused774]": 779, "constituents": 24355, "##piece": 11198, "spawn": 25645, "prague": 8634, "darkening": 27862, "dealer": 11033, "evergreen": 16899, "287": 23090, "employing": 15440, "e": 1041, "funnel": 25102, "23": 2603, "\uff0e": 1991, "##hang": 18003, "clubhouse": 22067, "##ricting": 28827, "com": 4012, "teased": 13074, "instrument": 6602, "asahi": 29465, "rotten": 11083, "schneider": 15159, "conventional": 7511, "attacker": 17346, "##\u00f0": 29668, "internacional": 27607, "forefront": 22870, "##ots": 12868, "liquids": 26820, "projecting": 18398, "\u795e": 1925, "novel": 3117, "352": 28906, "velvet": 10966, "micro": 12702, "tolerated": 25775, "canons": 21975, "to": 2000, "##dio": 20617, "marty": 12578, "[unused964]": 969, "older": 3080, "whitley": 27007, "soldier": 5268, "eaton": 17642, "schwarz": 29058, "lick": 15385, "##ons": 5644, "##y": 2100, "collegiate": 9234, "##s": 2015, "carol": 8594, "extend": 7949, "##than": 21604, "large": 2312, "motives": 17108, "grim": 11844, "voices": 5755, "proponent": 22488, "[unused406]": 411, "nominee": 9773, "deer": 8448, "\u0965": 1345, "##\u8c37": 30477, "##ulla": 22187, "pyramid": 11918, "##piration": 16781, "1720": 23535, "scandinavia": 20612, "nakamura": 23981, "403": 28203, "mood": 6888, "patterned": 25336, "##uance": 26620, "tyres": 24656, "item": 8875, "surprise": 4474, "lowering": 13845, "icao": 18055, "##rled": 27501, "andhra": 14065, "##iful": 18424, "vertigo": 28246, "iucn": 20333, "\u09c7": 1381, "startled": 9696, "##runa": 26605, "hardship": 26479, "learns": 10229, "[unused661]": 666, "##dgets": 28682, "latitude": 15250, "##rgos": 22280, "[unused933]": 938, "jelly": 20919, "##\u0292": 29704, "originals": 23728, "sigismund": 26748, "1654": 27445, "intentional": 21249, "1746": 24507, "dial": 13764, "sanskrit": 11353, "gavin": 9448, "intelligent": 9414, "attorney": 4905, "stiff": 10551, "betrayal": 14583, "##\u2098": 30096, "hd": 10751, "superhuman": 27061, "periodically": 18043, "##sons": 23345, "sweep": 11740, "##cide": 27082, "blinking": 15997, "neighbouring": 9632, "339": 28977, "610": 19827, "##\u208e": 30088, "raphael": 12551, "120": 6036, "commentators": 15957, "1914": 4554, "scary": 12459, "peasants": 13193, "extracts": 27059, "tempo": 13657, "based": 2241, "haynes": 21805, "yes": 2748, "##buck": 24204, "231": 20304, "##oes": 22504, "rt": 19387, "dwellers": 28857, "##rth": 15265, "malibu": 29047, "ann": 5754, "insisted": 7278, "cricket": 4533, "[unused151]": 156, "##pu": 14289, "coordinating": 19795, "gallery": 3916, "##ross": 25725, "pulsing": 23139, "mosaic": 16061, "##athing": 22314, "princess": 4615, "caressing": 25296, "1779": 17616, "freshmen": 26612, "brisk": 28022, "##bbling": 15343, "[unused108]": 113, "racist": 16939, "poultry": 22468, "stealing": 11065, "reviewing": 15252, "underside": 17313, "porcelain": 17767, "211": 19235, "comforting": 16334, "##ried": 11998, "mattered": 13836, "ulysses": 22784, "experts": 8519, "##kali": 28613, "construct": 9570, "philosophers": 17586, "##cating": 18252, "maitland": 25511, "noticed": 4384, "cello": 10145, "pausing": 20490, "##ben": 10609, "rescue": 5343, "worlds": 8484, "snorted": 15235, "sneaking": 20727, "pristine": 27375, "[unused238]": 243, "\u0e40": 1423, "swamp": 11963, "\u5742": 1803, "##mini": 25300, "oceanic": 18955, "devout": 26092, "tighter": 12347, "hissed": 11402, "seen": 2464, "primera": 14837, "slapped": 11159, "eileen": 20495, "rosa": 9508, "envisioned": 18035, "premiered": 5885, "sen": 12411, "##hal": 8865, "khorasan": 23225, "\u0435": 1185, "tracker": 27080, "\u203a": 1533, "ramirez": 15206, "polished": 12853, "bow": 6812, "##relli": 22948, "##sche": 22842, "voted": 5444, "palo": 24326, "moves": 5829, "##\u533a": 30308, "subtly": 28797, "katrina": 16864, "[unused331]": 336, "fatally": 26292, "bedford": 12003, "sheridan": 13243, "21st": 7398, "today": 2651, "attitude": 7729, "##rco": 29566, "##hing": 12053, "1879": 7449, "hart": 7530, "supposed": 4011, "sweeney": 21178, "gram": 13250, "surroundings": 11301, "6000": 25961, "informing": 21672, "##sca": 15782, "##\u045b": 29764, "cafe": 7668, "##genase": 28835, "propulsion": 16404, "##\u0153": 29674, "sorted": 19616, "[unused36]": 37, "flooded": 10361, "barren": 20225, "mcguire": 23872, "penned": 17430, "supervise": 28589, "##\u6b66": 30415, "skiing": 12701, "reins": 19222, "ir": 20868, "##actic": 28804, "ill": 5665, "1856": 8708, "wilton": 26407, "governing": 8677, "baku": 16807, "phrase": 7655, "##dened": 24589, "\u05da": 1251, "scottish": 4104, "instead": 2612, "pathetic": 17203, "##eg": 13910, "indictment": 24265, "[unused141]": 146, "fredrik": 25454, "enveloped": 25407, "distributions": 20611, "##ibar": 26656, "##dies": 18389, "daniel": 3817, "##etti": 18319, "ogden": 23203, "council": 2473, "stimulating": 27295, "bodyguard": 16174, "yi": 12316, "giacomo": 22873, "wagner": 10304, "mesopotamia": 25889, "philosophy": 4695, "otto": 8064, "vc": 18315, "asia": 4021, "pack": 5308, "temperature": 4860, "##game": 16650, "sara": 7354, "legislators": 22680, "arguably": 15835, "argue": 7475, "extinction": 14446, "donna": 10972, "suggestion": 10293, "enthusiast": 29550, "distribute": 16062, "[unused191]": 196, "salute": 17664, "##\u306d": 30196, "mckay": 16225, "dolphin": 17801, "##\u02b2": 29707, "[unused494]": 499, "linking": 11383, "##dden": 17101, "madhya": 20841, "##ezer": 25733, "concentrated": 8279, "20": 2322, "went": 2253, "##rdon": 28176, "##vre": 12229, "properties": 5144, "tee": 17170, "connect": 7532, "[unused870]": 875, "opium": 21075, "sudanese": 25603, "barrett": 12712, "oversized": 21698, "rhino": 24091, "##brates": 25258, "fighting": 3554, "spoil": 27594, "shamrock": 28782, "fullback": 21803, "##rooms": 29020, "##ives": 24653, "zeke": 18270, "314": 26257, "fitz": 27706, "baker": 6243, "multicultural": 27135, "##codes": 23237, "assigns": 24022, "sandals": 24617, "polo": 11037, "deliveries": 23534, "losses": 6409, "frantically": 16460, "earlier": 3041, "papua": 13049, "vimes": 28482, "heard": 2657, "levi": 11902, "shark": 11420, "corp": 13058, "##sen": 5054, "block": 3796, "shit": 4485, "satellite": 5871, "claw": 15020, "mk": 12395, "selects": 27034, "supervised": 13588, "\u624b": 1858, "absorb": 16888, "\u2020": 1526, "boasted": 23390, "\u0928": 1327, "##\u0921": 29857, "probability": 9723, "nrl": 20686, "[unused318]": 323, "denies": 23439, "hellenistic": 27464, "montgomery": 8482, "washed": 8871, "##zza": 20715, "informally": 21858, "soaring": 23990, "##ison": 10929, "double": 3313, "xp": 26726, "combat": 4337, "denver": 7573, "##alic": 27072, "##har": 8167, "committee": 2837, "##less": 3238, "\u2033": 1532, "painters": 12499, "##bolic": 18647, "thinkers": 24762, "##ige": 25538, "thoughtfully": 19897, "mumbled": 11567, "##ttes": 14581, "[unused723]": 728, "[unused525]": 530, "partnerships": 13797, "lone": 10459, "three": 2093, "paranoia": 27890, "came": 2234, "babe": 11561, "overdose": 26641, "##\u0630": 29822, "iata": 9833, "aftermath": 10530, "smiling": 5629, "airplane": 13297, "cream": 6949, "bump": 16906, "filling": 8110, "##\u30ed": 30261, "[unused211]": 216, "laurent": 14718, "continuation": 13633, "macquarie": 23903, "realising": 27504, "ambition": 16290, "##sibility": 28255, "december": 2285, "cycles": 12709, "grocery": 13025, "stacy": 18566, "wilhelm": 9070, "sports": 2998, "turnover": 20991, "##oop": 18589, "bowled": 19831, "expensive": 6450, "21": 2538, "where": 2073, "coupling": 19780, "welterweight": 20882, "instituted": 14948, "unseen": 16100, "uganda": 10031, "\u5b80": 1818, "faux": 29276, "fibre": 20962, "elise": 14251, "mankind": 14938, "475": 28245, "##chen": 8661, "excuses": 21917, "administrations": 27722, "\u6e05": 1903, "abortion": 11324, "allegheny": 21192, "accounting": 9529, "confrontation": 13111, "##eft": 29218, "composite": 12490, "affordable": 15184, "loose": 6065, "##\u11ab": 30021, "legitimate": 11476, "amazed": 15261, "decorated": 7429, "being": 2108, "\u0f51": 1428, "##vinsky": 27704, "\u09ac": 1368, "kills": 8563, "note": 3602, "interpretation": 7613, "singer": 3220, "bend": 8815, "\u300e": 1643, "real": 2613, "anaheim": 20835, "gliding": 20292, "booming": 24716, "##endez": 28787, "prefix": 17576, "cameo": 12081, "\u092e": 1331, "##dition": 20562, "alabama": 6041, "semitic": 20604, "shore": 5370, "##aling": 21682, "is": 2003, "offer": 3749, "##\u0ba4": 29921, "\u5bfa": 1827, "[unused244]": 249, "mansfield": 15352, "##hem": 29122, "riot": 11421, "bridges": 7346, "insignificant": 27018, "imply": 19515, "\u56d7": 1797, "\u0e21": 1415, "cornelius": 17354, "highness": 17114, "quoted": 9339, "[unused922]": 927, "circulation": 9141, "hearst": 25419, "##holz": 28094, "##gill": 19791, "fable": 28458, "quit": 8046, "economically": 15318, "dye": 18554, "zane": 6944, "cure": 9526, "notebook": 14960, "aba": 19557, "stocked": 24802, "##uring": 12228, "residents": 3901, "glasses": 7877, "eun": 26070, "headline": 17653, "entering": 5738, "##hita": 23935, "##\u5206": 30301, "##\u0438\u0438": 15414, "subjective": 20714, "ferris": 23202, "bethel": 19375, "lavish": 22689, "##uation": 14505, "godfather": 23834, "##\u043b": 29436, "convince": 8054, "upstate": 29530, "tianjin": 26216, "cautiously": 15151, "\u1d43": 1496, "##rta": 13320, "25th": 10965, "chick": 14556, "##mation": 28649, "##gler": 17420, "friar": 25287, "##ip": 11514, "\u7530": 1911, "ap": 9706, "##chs": 18069, "binary": 12441, "##stle": 22516, "##\u03b4": 29722, "southeast": 4643, "sellers": 19041, "adult": 4639, "disturbing": 14888, "mythological": 21637, "dodge": 11898, "approximately": 3155, "whoa": 23281, "960": 26637, "matteo": 24713, "waistband": 27553, "[unused713]": 718, "\u4ecb": 1759, "prepare": 7374, "[unused642]": 647, "highway": 3307, "##sc": 11020, "rockies": 22366, "scaled": 18953, "bonfire": 28698, "gunter": 27834, "excitement": 8277, "##kind": 18824, "##ro": 3217, "relating": 8800, "##minated": 26972, "tomas": 12675, "laboratory": 5911, "archaeology": 12009, "maxwell": 10691, "brood": 25565, "career": 2476, "##ts": 3215, "##ral": 7941, "##nate": 12556, "##cape": 19464, "borneo": 15688, "bonn": 19349, "spence": 22186, "around": 2105, "china": 2859, "cutter": 16343, "tendency": 11765, "bjorn": 24998, "\u0f54": 1430, "##kova": 18810, "##\u2122": 30108, "redeveloped": 28053, "sawyer": 13975, "gases": 15865, "47th": 28243, "2015": 2325, "1880": 6756, "cannon": 8854, "galloway": 22372, "##\u0939": 29875, "lamb": 12559, "barnett": 20073, "slaves": 7179, "commentator": 12268, "##litz": 24725, "overrun": 24672, "stellar": 17227, "rabbits": 20403, "cameroon": 13841, "damned": 9636, "fought": 4061, "delivers": 18058, "kissing": 7618, "scaling": 25169, "##lies": 11983, "voting": 6830, "##open": 26915, "playable": 16854, "[unused339]": 344, "##wang": 16600, "##cturing": 19159, "[unused405]": 410, "##rkin": 26891, "outlawed": 29131, "flew": 5520, "[unused535]": 540, "##board": 6277, "enzo": 26218, "spiritual": 6259, "[unused609]": 614, "##hesive": 21579, "academia": 16926, "##dham": 17661, "refit": 27070, "easily": 4089, "appropriate": 6413, "corridor": 7120, "religions": 11822, "allie": 16944, "regency": 15647, "gunpowder": 22220, "funded": 6787, "irritation": 17373, "communal": 15029, "##unced": 22392, "1903": 5778, "1760": 19096, "size": 2946, "chases": 29515, "authentication": 27280, "blow": 6271, "resolved": 10395, "##\u5c1a": 30356, "##stra\u00dfe": 24967, "##lain": 15987, "more": 2062, "allegro": 25319, "homeland": 10759, "senegal": 16028, "intermittent": 23852, "##bolt": 22803, "sensation": 8742, "demonstration": 10467, "harmonies": 28594, "curled": 8188, "arena": 5196, "stuck": 5881, "required": 3223, "seduce": 23199, "kidnap": 22590, "stories": 3441, "##mata": 21022, "paranormal": 20725, "ounce": 19471, "##rsten": 19020, "fault": 6346, "290": 17222, "nuns": 16752, "pressures": 15399, "##vina": 17948, "derive": 18547, "exhibition": 4538, "##rbin": 27366, "greyhound": 21220, "##\u2205": 30121, "[unused336]": 341, "builder": 12508, "omnibus": 27284, "alberto": 12007, "integrated": 6377, "##\u3046": 30174, "lengthy": 12401, "betting": 19244, "##gles": 17125, "##wine": 21924, "bowling": 9116, "skills": 4813, "##\u02e1": 29716, "saxophone": 8283, "students": 2493, "hooves": 28399, "##\u0628\u0627\u062f": 25799, "hamilton": 5226, "algorithms": 13792, "grimsby": 24470, "became": 2150, "##\u0291": 29703, "[unused577]": 582, "bouts": 23666, "##\u0565": 29770, "##nya": 17238, "##\u0996": 29890, "##pone": 29513, "margot": 29210, "perth": 9300, "friend": 2767, "demonstrated": 7645, "##fat": 27753, "located": 2284, "##pus": 12207, "imports": 17589, "[unused623]": 628, "##\u6b4c": 30412, "##\u30a8": 30224, "gwen": 11697, "rehab": 24497, "custody": 9968, "##erin": 23282, "monstrous": 21668, "cell": 3526, "wildcats": 19495, "southend": 26104, "trash": 11669, "ale": 15669, "grounded": 16764, "\u02b3": 1142, "investors": 9387, "##\u30aa": 30225, "documented": 8832, "happiness": 8404, "##\u79c0": 30454, "attended": 3230, "sustainability": 15169, "leases": 29597, "qaeda": 18659, "pixel": 22138, "br": 7987, "coincidence": 16507, "fulfilling": 21570, "brady": 10184, "aubrey": 18961, "different": 2367, "repay": 24565, "##\u0272": 29689, "jurgen": 23171, "ceramics": 17314, "27": 2676, "event": 2724, "bell": 4330, "rejection": 13893, "suburbs": 9435, "nope": 16780, "tripped": 21129, "pinned": 11807, "nephew": 7833, "85": 5594, "overseeing": 19642, "occurrence": 14404, "withdrawal": 10534, "regents": 22832, "miocene": 26926, "sync": 26351, "camel": 19130, "claremont": 23716, "##sett": 21678, "julia": 6423, "##ir": 4313, "minutes": 2781, "colorful": 14231, "cowan": 25752, "##istle": 24242, "nationalist": 8986, "achievements": 10106, "##ntly": 20630, "editing": 9260, "##ue": 5657, "mortimer": 17416, "jail": 7173, "mouth": 2677, "##cion": 10446, "vaccine": 17404, "turns": 4332, "##verse": 16070, "##pati": 24952, "##gor": 20255, "confirms": 23283, "kerman": 24500, "obviously": 5525, "alfredo": 19423, "[unused22]": 23, "##ego": 20265, "nightly": 22390, "seminars": 17239, "individually": 14258, "folk": 5154, "milan": 6954, "marshall": 5832, "indifferent": 24436, "fargo": 23054, "hayes": 10192, "\u0e01": 1409, "hampton": 11615, "employees": 5126, "\u2282": 1610, "126": 14010, "##acies": 20499, "march": 2233, "jam": 9389, "books": 2808, "receptions": 16466, "comte": 19758, "jace": 10352, "##nza": 16786, "##ischen": 24488, "mcleod": 25363, "ray": 4097, "##cel": 29109, "##ets": 8454, "durham": 9296, "incurred": 22667, "rand": 14566, "possessions": 13689, "hatch": 11300, "[unused121]": 126, "##kh": 10023, "situation": 3663, "election": 2602, "hiv": 9820, "azerbaijan": 8365, "\u79cb": 1929, "sire": 15785, "protege": 28567, "hawker": 23937, "lexi": 16105, "market": 3006, "##\u00a2": 29645, "eels": 29317, "##\u6b62": 30413, "emerges": 19391, "conduct": 6204, "anchors": 24674, "actress": 3883, "prep": 17463, "undoubtedly": 17319, "##tia": 10711, "spins": 23371, "abbreviation": 22498, "infirmary": 23453, "[unused682]": 687, "stormy": 24166, "gravitational": 19790, "##isk": 20573, "controversial": 6801, "wind": 3612, "clusters": 12906, "##gut": 27920, "whimpered": 26184, "##verted": 26686, "exchanges": 15800, "##sel": 11246, "##\u5c0f": 30355, "resigning": 24642, "moran": 17866, "##uch": 10875, "##id": 3593, "backing": 5150, "##aux": 13754, "custer": 28888, "forks": 19896, "##tf": 24475, "##gr": 16523, "##zyn": 23749, "prefect": 19402, "sneak": 13583, "hates": 16424, "finalized": 23575, "##mming": 25057, "radiant": 23751, "advantage": 5056, "amadeus": 27185, "##asa": 16782, "incorporation": 16935, "stairs": 5108, "catcher": 13795, "previous": 3025, "pilgrimage": 14741, "[unused509]": 514, "afl": 10028, "petite": 20146, "triangles": 27189, "[unused512]": 517, "recognise": 17614, "athenian": 26956, "canon": 9330, "##vah": 21927, "shaw": 8233, "inheritance": 12839, "landfill": 28382, "steele": 12872, "stored": 8250, "visit": 3942, "mayoral": 23578, "##\u3089": 30211, "wendy": 12815, "rewards": 19054, "divisions": 5908, "hospital": 2902, "adored": 28456, "brig": 16908, "jo": 8183, "worries": 15508, "##\u0f62": 29970, "owned": 3079, "crushed": 10560, "##mt": 20492, "##jali": 28948, "vertebrae": 25517, "leased": 12019, "##istic": 6553, "almeida": 29555, "fully": 3929, "[unused810]": 815, "scissors": 25806, "attending": 7052, "premio": 23031, "antonia": 24272, "reassuring": 21093, "spike": 9997, "bryn": 19904, "unused": 15171, "napoli": 29485, "mouse": 8000, "racism": 14398, "debuted": 6006, "sentencing": 23280, "ups": 11139, "inclusive": 18678, "artist": 3063, "##ooped": 20671, "\u897f": 1947, "##\u203a": 30068, "heating": 10808, "donkey": 20325, "##\u0562": 29767, "injected": 19737, "sells": 15187, "cromwell": 16759, "##aar": 26526, "failed": 3478, "##oslav": 23085, "junta": 22450, "##riam": 25557, "crimea": 21516, "competing": 6637, "19th": 3708, "socket": 22278, "forested": 15205, "rbis": 23583, "##\u00ab": 29654, "##dot": 27364, "airs": 14369, "again": 2153, "\u702c": 1905, "##witz": 15362, "reveal": 7487, "women": 2308, "testosterone": 25937, "civil": 2942, "wide": 2898, "tortricidae": 27683, "sails": 17553, "long": 2146, "colossal": 29523, "putting": 5128, "\u10e3": 1454, "colourful": 26102, "seo": 27457, "bumped": 19030, "myriad": 25028, "willy": 16172, "\u03c8": 1178, "promptly": 13364, "semifinals": 8565, "eighties": 27690, "assembled": 9240, "sizable": 25908, "sister": 2905, "engines": 5209, "birth": 4182, "amazement": 21606, "cv": 26226, "2003": 2494, "auditioned": 23008, "bragg": 23678, "wimbledon": 13411, "mimic": 23150, "handkerchief": 23975, "theorem": 9872, "lucille": 28016, "della": 8611, "##arian": 12199, "melanie": 13286, "federico": 20493, "plates": 7766, "gesellschaft": 27482, "fc": 4429, "flush": 13862, "##auer": 21126, "airspace": 29357, "polynomials": 28175, "##lga": 27887, "##sha": 7377, "consultants": 22283, "##bly": 6321, "drastically": 21040, "consistency": 18700, "rough": 5931, "##achi": 21046, "troll": 18792, "johnstone": 24160, "thrash": 27042, "exist": 4839, "rhine": 10950, "[unused130]": 135, "##zong": 13150, "shirts": 11344, "premise": 18458, "benoit": 21721, "name": 2171, "metallic": 12392, "echo": 9052, "hooper": 23717, "[unused466]": 471, "matched": 10349, "phone": 3042, "fixed": 4964, "psalm": 22728, "iowa": 5947, "suburb": 7575, "mathews": 23287, "##bat": 14479, "shale": 18488, "##gus": 12349, "margin": 7785, "backstroke": 28373, "remotely": 19512, "[unused2]": 3, "plastic": 6081, "something": 2242, "though": 2295, "choreographed": 23317, "merchants": 10310, "bo": 8945, "series": 2186, "appreciated": 12315, "##race": 22903, "izzy": 16699, "##aceous": 25560, "##leigh": 13615, "midway": 12213, "loan": 5414, "paranoid": 19810, "weapon": 5195, "##ries": 5134, "##hmi": 26837, "[unused177]": 182, "##\u026a": 29685, "kelsey": 21004, "[unused415]": 420, "ready": 3201, "##bags": 26813, "locations": 5269, "fights": 9590, "unpaid": 23850, "jack": 2990, "spanish": 3009, "##rong": 17583, "vigor": 24474, "traced": 9551, "bologna": 14102, "cheerfully": 27403, "active": 3161, "##\u0e19": 29949, "60s": 20341, "##cken": 19766, "caste": 14542, "##ivo": 20984, "[unused72]": 73, "dempsey": 28165, "retreating": 17512, "tatar": 29241, "##ffed": 15388, "##tom": 20389, "reelected": 20847, "sucking": 13475, "##ified": 7810, "rebellion": 7417, "exchanged": 10573, "[unused644]": 649, "remark": 17674, "##\u0640": 29832, "##ocation": 23909, "meteorological": 20557, "josh": 6498, "232": 20666, "retreat": 7822, "336": 27954, "1991": 2889, "greenfield": 26713, "spotting": 27963, "torres": 13101, "65": 3515, "biography": 8308, "rye": 20926, "elvis": 12280, "solution": 5576, "films": 3152, "chess": 7433, "##ffey": 24513, "innocent": 7036, "hungry": 7501, "toast": 15174, "stems": 12402, "inspired": 4427, "clapping": 27104, "incentive": 20438, "bullshit": 14636, "affairs": 3821, "##\u9673": 30498, "pork": 15960, "contestants": 10584, "puppet": 13997, "ripping": 17039, "reliance": 17975, "footing": 22849, "##rued": 28551, "disabled": 9776, "283": 25504, "cds": 14340, "jesuits": 20297, "\u09b0": 1372, "quarterback": 9074, "chicken": 7975, "unaffected": 24720, "eastward": 17318, "tighten": 21245, "\u5b97": 1821, "##lich": 18337, "clover": 25133, "[unused457]": 462, "electric": 3751, "mentoring": 29192, "tries": 5363, "er": 9413, "\u0649": 1299, "suppose": 6814, "parana": 28383, "godfrey": 18238, "##enberg": 11029, "dioceses": 26586, "electro": 16175, "##sie": 11741, "leaders": 4177, "vincent": 6320, "hardin": 27522, "fortifications": 14507, "##wo": 12155, "enzymes": 16285, "appropriations": 22713, "bender": 25386, "tightened": 8371, "blonde": 9081, "shatter": 27271, "founded": 2631, "completing": 7678, "subdivision": 12572, "\u266f": 1628, "necessarily": 9352, "homework": 19453, "galilee": 28928, "english": 2394, "asshole": 22052, "mistress": 10414, "participates": 17257, "resembles": 12950, "##\u7fa9": 30462, "anhalt": 27088, "##rella": 21835, "##\u00b4s": 21932, "tracking": 9651, "##tropical": 25528, "revelation": 11449, "constant": 5377, "hercules": 15067, "loss": 3279, "keynes": 22152, "themselves": 3209, "widowed": 22874, "##icated": 17872, "zone": 4224, "appreciate": 9120, "benefactor": 27398, "[unused807]": 812, "\u0909": 1313, "regiments": 10435, "harvesting": 21534, "hot": 2980, "twitched": 16767, "##tti": 6916, "scrolling": 28903, "##bled": 23242, "##tow": 18790, "##\u0570": 29775, "tug": 12888, "practitioners": 14617, "##ve": 3726, "##lad": 27266, "sworn": 10741, "##14": 16932, "rate": 3446, "##\u0e2a": 29956, "##wy": 18418, "rhodes": 10588, "##otype": 26305, "blinded": 20641, "liar": 16374, "[unused343]": 348, "panda": 25462, "\u0bbf": 1396, "##sham": 21010, "##rona": 26788, "his": 2010, "malayalam": 12998, "nasty": 11808, "sons": 4124, "##\u0f0d": 29961, "indie": 10271, "[unused423]": 428, "orchestral": 13533, "hellenic": 23122, "[unused322]": 327, "severn": 24753, "chrysler": 17714, "dauphin": 29102, "assignment": 8775, "group": 2177, "reversal": 23163, "##\u2089": 30085, "1980": 3150, "shaken": 16697, "selections": 16310, "intently": 16170, "mer": 21442, "sonar": 24609, "vogue": 17734, "kate": 5736, "licensing": 13202, "referred": 3615, "cypriot": 18543, "referendum": 9782, "aspirations": 22877, "reminded": 6966, "graphs": 19287, "symphonic": 18957, "birthplace": 14508, "##hun": 17157, "inched": 25330, "diocese": 5801, "##sque": 17729, "seek": 6148, "savanna": 22323, "removes": 20362, "moniker": 21937, "\u064a": 1300, "transferring": 14391, "sur": 7505, "deemed": 8357, "[unused95]": 96, "gripping": 13940, "##nism": 28113, "butterfly": 9112, "\u6625": 1867, "mess": 6752, "pickup": 15373, "aggregate": 9572, "engaging": 11973, "660": 20982, "##tica": 22723, "whitish": 16800, "1737": 26738, "\u53e3": 1788, "breadth": 25291, "[unused394]": 399, "[unused393]": 398, "species": 2427, "rocky": 6857, "encircled": 25759, "commodity": 19502, "##\u0582": 29785, "wireless": 9949, "##\u05e0": 29803, "##tha": 8322, "##cio": 9793, "##arth": 22425, "##{": 29640, "yank": 23178, "appalachian": 19682, "kilograms": 18857, "eldest": 7310, "##hora": 16977, "softness": 27012, "blowing": 11221, "loading": 10578, "##uin": 20023, "fleets": 25515, "strikes": 9326, "stylized": 19551, "instincts": 16160, "noah": 7240, "snap": 10245, "paler": 24489, "disclose": 26056, "monaco": 14497, "ml": 19875, "2010": 2230, "cane": 11942, "##vati": 20203, "nasa": 9274, "ito": 23333, "[unused220]": 225, "ob": 27885, "shawn": 13218, "##sable": 19150, "##uses": 25581, "exhaust": 15095, "junction": 5098, "alcohol": 6544, "description": 6412, "##west": 19650, "peoples": 7243, "##lat": 20051, "inflated": 29561, "paolo": 14174, "##dez": 24601, "sending": 6016, "##mc": 12458, "investigator": 14064, "resolutions": 18853, "superliga": 25922, "adrian": 7918, "spinal": 16492, "joins": 9794, "##vy": 10736, "taste": 5510, "appeared": 2596, "fix": 8081, "retention": 20125, "187": 19446, "##type": 13874, "mecklenburg": 22007, "##wark": 24298, "manufactures": 22027, "guts": 18453, "transferred": 4015, "wider": 7289, "##ago": 23692, "nudged": 18666, "disorder": 8761, "periodicals": 21855, "hangul": 19051, "##\u301c": 30171, "actresses": 19910, "before": 2077, "##ears": 26492, "disturb": 22995, "creators": 17277, "##ying": 14147, "##ach": 6776, "occupational": 16928, "##lford": 23211, "##rza": 24175, "##53": 22275, "chris": 3782, "territorial": 7894, "1858": 8517, "\u0e17": 1412, "costly": 17047, "division": 2407, "bullet": 7960, "##rates": 20370, "##rcus": 29006, "builds": 16473, "300": 3998, "##ntino": 25318, "[unused397]": 402, "snatched": 14177, "composed": 3605, "singleton": 28159, "##ier": 3771, "jed": 24401, "seizures": 25750, "wi": 15536, "inauguration": 17331, "microsoft": 7513, "##spar": 27694, "regatta": 26848, "coarse": 20392, "##66": 28756, "henrietta": 20775, "causeway": 23336, "kowalski": 28874, "rodrigo": 18943, "preceding": 11003, "##cend": 23865, "[unused140]": 145, "bolivia": 11645, "##tania": 21013, "directing": 9855, "jocelyn": 23786, "convoys": 23083, "luc": 12776, "1938": 4260, "##lto": 23223, "spaces": 7258, "sumner": 23922, "browns": 13240, "musee": 18070, "adjustments": 24081, "##agne": 25440, "kyrgyzstan": 23209, "luckily": 15798, "alphabet": 12440, "baptised": 28798, "mastering": 11495, "fundraiser": 28536, "coming": 2746, "cushion": 22936, "##uil": 19231, "bled": 23919, "noticeably": 25327, "new": 2047, "lottery": 15213, "cheltenham": 18763, "mel": 11463, "promising": 10015, "rods": 19485, "surrounded": 5129, "recipient": 7799, "wildly": 13544, "granville": 24926, "apr": 19804, "verse": 7893, "comb": 22863, "##\u0f58": 29968, "gunfire": 16978, "lining": 14834, "prized": 25695, "predatory": 21659, "thankful": 18836, "ellison": 21513, "ideal": 7812, "historians": 7862, "##ger": 4590, "##sol": 19454, "##jiang": 21786, "monroe": 9747, "##nut": 24072, "16": 2385, "1857": 8204, "##\u0924": 29859, "##ings": 8613, "consequences": 8465, "silence": 4223, "kill": 3102, "[unused962]": 967, "englishman": 25244, "together": 2362, "##uate": 20598, "ain": 7110, "chords": 18495, "falsely": 23123, "##zzled": 17269, "battling": 17773, "formats": 11630, "screenwriter": 11167, "##mento": 23065, "##eed": 13089, "drag": 8011, "subcommittee": 18052, "privacy": 9394, "forceful": 28552, "randy": 9744, "boats": 6242, "pl": 20228, "illegally": 17800, "paperback": 13611, "norte": 19931, "##ata": 6790, "instructed": 10290, "[unused35]": 36, "displacement": 13508, "sloane": 17558, "accordingly": 11914, "wisconsin": 5273, "##rick": 11285, "mare": 11941, "donnell": 18016, "##lin": 4115, "\u2030": 1530, "##ctors": 24817, "##\u0940": 29878, "squadron": 3704, "##ired": 27559, "acceptance": 9920, "lissa": 20244, "discoveries": 15636, "##cision": 28472, "grandparents": 14472, "##\u1da0": 30047, "cab": 9298, "2005": 2384, "##\u30bf": 30235, "karim": 25461, "580": 23712, "incident": 5043, "industrialist": 21691, "repulsed": 24571, "##pta": 22799, "discovering": 13648, "cubs": 12469, "edo": 18314, "embroidered": 23590, "[unused943]": 948, "##\u82b1": 30466, "##scia": 27210, "tatum": 25913, "wiping": 14612, "rumored": 22710, "trim": 12241, "peer": 8152, "##tone": 5524, "##henko": 19767, "linux": 11603, "clarinet": 12089, "scotia": 9676, "forts": 15421, "computed": 24806, "104": 9645, "shortest": 20047, "heck": 17752, "stares": 14020, "cathedral": 5040, "becca": 22140, "survives": 13655, "coroner": 22896, "meant": 3214, "constituted": 11846, "\u05d5": 1246, "unreleased": 13270, "detail": 6987, "berries": 22681, "bakery": 18112, "would": 2052, "nsa": 23971, "##ros": 7352, "industries": 6088, "##farlane": 23511, "regardless": 7539, "##pan": 9739, "michelangelo": 27701, "secure": 5851, "proof": 6947, "position": 2597, "dupont": 22848, "\u2089": 1556, "##ough": 10593, "simplest": 21304, "frowning": 14587, "sly": 18230, "goldman": 17765, "volcano": 12779, "1973": 3381, "##box": 8758, "thousands": 5190, "montpellier": 28153, "distributor": 16632, "idle": 18373, "ross": 5811, "[unused649]": 654, "[unused544]": 549, "discussed": 6936, "these": 2122, "filipino": 10275, "##ault": 23505, "1992": 2826, "##typical": 27086, "females": 3801, "##uda": 14066, "deception": 17575, "creates": 9005, "##\u25aa": 30145, "1a": 20720, "classmate": 23175, "suns": 19352, "pius": 14363, "councillor": 10674, "lenny": 19065, "##mer": 5017, "nyc": 16392, "adults": 6001, "talent": 5848, "showed": 3662, "sao": 7509, "markings": 13967, "menu": 12183, "bangalore": 14022, "destroyer": 9799, "quaker": 18844, "##walk": 17122, "chant": 16883, "doris": 15467, "pornographic": 26932, "##put": 18780, "voice": 2376, "quantities": 12450, "contrasted": 22085, "battle": 2645, "grandpa": 15310, "serialized": 27289, "##uria": 27703, "\u6b4c": 1886, "##oman": 20778, "originally": 2761, "delegate": 11849, "##yu": 10513, "graduation": 7665, "disappearing": 14489, "beneath": 4218, "massimo": 28080, "##ability": 8010, "akin": 17793, "sunglasses": 17072, "##inated": 15833, "gmina": 7061, "m3": 29061, "##gs": 5620, "humor": 8562, "dortmund": 23912, "ling": 17002, "##lah": 14431, "rammed": 27653, "moth": 5820, "ammonia": 25874, "##sation": 26652, "jewish": 3644, "contracts": 8311, "captive": 12481, "extended": 3668, "##vale": 17479, "poet": 4802, "conversation": 4512, "track": 2650, "odds": 10238, "whereabouts": 18913, "[unused501]": 506, "decreases": 17913, "recognizing": 14622, "hispanic": 6696, "toppled": 27251, "wrestling": 4843, "sends": 10255, "pose": 13382, "##firmed": 23141, "madrid": 6921, "retribution": 25928, "involve": 9125, "eds": 11985, "##zzi": 13793, "clancy": 24530, "instructors": 19922, "persian": 4723, "scheduled": 5115, "ravine": 23188, "illness": 7355, "trapped": 7567, "samba": 29086, "##\u2153": 30109, "uruguayan": 23464, "malls": 25943, "##asse": 27241, "sadness": 12039, "##rya": 20444, "which": 2029, "sidekick": 29240, "arousal": 18905, "berman": 29482, "riddle": 21834, "dia": 22939, "[unused818]": 823, "postdoctoral": 29272, "transformed": 8590, "##46": 21472, "##oon": 7828, "1801": 12410, "plans": 3488, "animator": 25132, "boyfriend": 6898, "conservatoire": 29233, "##st": 3367, "##lag": 17802, "minister": 2704, "paxton": 27765, "\u00bb": 1090, "bharatiya": 24243, "##\u110b": 29999, "beforehand": 25828, "insurrection": 27860, "roosevelt": 8573, "job": 3105, "possessing": 18840, "rivals": 9169, "\u062a": 1273, "2014": 2297, "scribe": 27789, "332": 29327, "##shore": 19208, "metz": 24424, "strength": 3997, "cremated": 28376, "wo": 24185, "hale": 13084, "[unused218]": 223, "panchayat": 20079, "##iary": 17302, "antigen": 28873, "angus": 13682, "curly": 17546, "causal": 28102, "[unused371]": 376, "\u6b63": 1888, "louisa": 15731, "bengals": 23227, "programmers": 28547, "temper": 12178, "##lani": 21141, "via": 3081, "scattering": 17501, "art": 2396, "unitarian": 25477, "lyons": 16642, "##tley": 18492, "prospect": 9824, "rays": 9938, "ends": 4515, "awkward": 9596, "41st": 24233, "antony": 16262, "thanking": 28638, "[unused800]": 805, "info": 18558, "mornings": 16956, "##oting": 20656, "linen": 17517, "##avian": 21654, "##iger": 17071, "##mute": 26746, "\u09be": 1378, "08": 5511, "invaded": 10836, "taylor": 4202, "twigs": 27964, "##print": 16550, "findings": 9556, "predicted": 10173, "conjecture": 22647, "##city": 12972, "##peed": 25599, "activists": 10134, "##hole": 11484, "occur": 5258, "detainees": 26485, "pair": 3940, "nationals": 10342, "##gau": 20420, "broad": 5041, "continents": 17846, "app": 10439, "dance": 3153, "##ilo": 22360, "##ator": 8844, "action": 2895, "riff": 24808, "error": 7561, "##ciency": 29125, "sanders": 12055, "[unused215]": 220, "thinks": 6732, "hips": 6700, "moving": 3048, "solved": 13332, "bleed": 19501, "##\u110f": 30002, "reformer": 24767, "doorway": 7086, "lady": 3203, "ff": 21461, "tacoma": 22954, "agile": 29003, "implicated": 20467, "inadequate": 14710, "bridget": 19218, "rights": 2916, "##word": 18351, "traditionally": 6964, "##bah": 24206, "breakdown": 12554, "valued": 11126, "grams": 20372, "habit": 10427, "servers": 14903, "##apple": 23804, "guerrillas": 26955, "boston": 3731, "frequency": 6075, "reds": 12281, "recounts": 23412, "filly": 22062, "macon": 20025, "bulk": 9625, "european": 2647, "romani": 23982, "##pro": 21572, "rom": 17083, "\u0985": 1347, "evicted": 25777, "inconsistent": 20316, "##tern": 16451, "knee": 6181, "filmed": 6361, "##umen": 27417, "##uw": 25974, "tanzania": 11959, "\u5fb7": 1848, "basins": 22739, "born": 2141, "abu": 8273, "beaumont": 16210, "[unused4]": 5, "tells": 4136, "fantastic": 10392, "##chev": 16179, "shards": 23327, "gary": 5639, "koreans": 24651, "##ify": 8757, "##ece": 26005, "supernatural": 11189, "##zak": 20685, "##urse": 28393, "killings": 16431, "rib": 19395, "commentaries": 21241, "##nator": 27413, "spreads": 20861, "technology": 2974, "pagoda": 27387, "oversees": 22558, "##pire": 20781, "huskies": 29471, "##making": 12614, "onions": 24444, "streamed": 18498, "##zko": 29002, "swarm": 21708, "reconciliation": 16088, "amalgamation": 21968, "scientific": 4045, "helpless": 13346, "employed": 4846, "##tem": 18532, "balfour": 27560, "##bella": 21700, "whether": 3251, "pauline": 15595, "wherein": 16726, "##copic": 26461, "because": 2138, "demolished": 7002, "balcony": 11673, "4000": 20143, "vice": 3580, "cougars": 26317, "##dant": 28210, "fits": 16142, "[unused519]": 524, "all": 2035, "slices": 25609, "\u00e6": 1097, "pavement": 14271, "mitchell": 6395, "[unused677]": 682, "1774": 17593, "traveling": 7118, "reset": 25141, "serial": 7642, "opted": 12132, "tailored": 21727, "liquor": 13207, "fungus": 16622, "##\u03b7\u03c2": 29155, "weather": 4633, "1951": 4131, "baltimore": 6222, "contemporary": 3824, "successors": 18530, "##\u00b5": 29659, "and": 1998, "875": 27658, "sharma": 14654, "ecumenical": 23540, "adopting": 16151, "muriel": 27616, "lifetime": 6480, "distillery": 24870, "al": 2632, "cameron": 7232, "##ingly": 15787, "buying": 9343, "\u057e": 1235, "ambulance": 10771, "[unused356]": 361, "reluctance": 21662, "regimental": 17604, "construction": 2810, "sylvester": 20016, "reasoned": 24557, "skirt": 9764, "##nse": 12325, "predictable": 21425, "bipolar": 29398, "confirm": 12210, "early": 2220, "pen": 7279, "##rran": 28327, "[unused790]": 795, "1836": 10081, "cute": 10140, "gia": 27699, "##ciful": 26336, "staff": 3095, "synthetic": 12553, "relocate": 20102, "##aran": 20486, "215": 17405, "consulted": 17535, "##nsor": 29577, "thing": 2518, "[unused490]": 495, "earle": 23888, "psycho": 18224, "seals": 13945, "yokohama": 20507, "saber": 25653, "\u662d": 1868, "bewildered": 24683, "scrapped": 14553, "easier": 6082, "rosen": 21701, "##dd": 14141, "##\u10db": 29984, "[unused971]": 976, "transcribed": 26223, "##\u3009": 30164, "homme": 26574, "pollution": 10796, "mythical": 19336, "##o": 2080, "resisting": 22363, "jonny": 26937, "jammed": 21601, "shorter": 7820, "shaded": 25273, "ponytail": 18865, "##imeters": 28136, "dollars": 6363, "grid": 8370, "linguistic": 12158, "addiction": 13449, "divide": 11443, "arches": 13540, "paradise": 9097, "recited": 24843, "banning": 21029, "percival": 27832, "smith": 3044, "digital": 3617, "##enne": 24336, "nest": 9089, "landscape": 5957, "139": 16621, "demand": 5157, "brittle": 24650, "intersections": 26540, "##\u6ca2": 30424, "##\u1d4f": 30037, "regulating": 21575, "outputs": 27852, "y": 1061, "invented": 8826, "concurrently": 15442, "published": 2405, "derivatives": 16942, "assembly": 3320, "spot": 3962, "piracy": 24386, "scholastic": 24105, "##istles": 28738, "##ntes": 17340, "##lal": 13837, "olson": 21583, "##\u0bc8": 29935, "ugly": 9200, "patricia": 10717, "##rti": 28228, "stephane": 26624, "strapped": 18019, "midfielder": 8850, "exhibits": 10637, "palazzo": 18482, "teeth": 4091, "reluctant": 11542, "recounted": 22906, "[unused745]": 750, "selangor": 28904, "##vitt": 28656, "francesco": 11400, "units": 3197, "pluto": 26930, "ionic": 24774, "developmental": 13908, "peeked": 18652, "elton": 19127, "&": 1004, "celebrities": 12330, "angeles": 3349, "325": 19652, "congratulations": 23156, "silesian": 20453, "##sia": 8464, "[unused464]": 469, "##plate": 15725, "town": 2237, "\u06af": 1305, "unknown": 4242, "\u062f": 1278, "ribbon": 10557, "gives": 3957, "##nova": 13455, "truly": 5621, "##nson": 15551, "externally": 27223, "needed": 2734, "plant": 3269, "bearded": 23905, "snuck": 24492, "poker": 11662, "[unused511]": 516, "injunction": 22928, "tingling": 23690, "##e": 2063, "sitcom": 13130, "jung": 11810, "##oor": 16506, "imposing": 16625, "independent": 2981, "##pani": 26569, "purely": 11850, "\u00bc": 1091, "##oms": 22225, "sal": 16183, "acacia": 24766, "gabled": 26182, "stint": 12116, "ruthless": 18101, "##suke": 16867, "hu": 15876, "##\u0445": 29750, "mercy": 8673, "##mad": 25666, "\u3092": 1690, "##wc": 16526, "1612": 29186, "feminism": 20050, "multiplied": 28608, "##rgeon": 28242, "embarrassment": 14325, "aberdeen": 12080, "verdict": 14392, "cb": 17324, "altitude": 7998, "obvious": 5793, "terrorists": 15554, "dancing": 5613, "[unused621]": 626, "receipt": 24306, "##wald": 11191, "wheeler": 12819, "##tics": 14606, "notoriety": 23215, "speechless": 25146, "neumann": 22860, "1702": 26776, "flicking": 26259, "mountains": 4020, "awe": 15180, "steamboat": 24897, "repeal": 21825, "belarusian": 15626, "resource": 7692, "nat": 14085, "manson": 21440, "currents": 14731, "contemporaries": 16682, "admiration": 17005, "repression": 22422, "railroad": 4296, "resisted": 13335, "##tung": 21847, "1656": 28434, "blindness": 26290, "amazingly": 29350, "##hc": 16257, "killer": 6359, "anywhere": 5973, "relaunched": 26391, "##drop": 25711, "jameson": 22324, "pere": 23976, "this": 2023, "##dict": 29201, "##aldo": 27318, "pomerania": 18631, "[unused659]": 664, "##\u0111": 29671, "sinking": 10186, "atom": 13787, "##dda": 25062, "harshly": 21052, "mine": 3067, "hermann": 12224, "usage": 8192, "luis": 6446, "swimmers": 21669, "altering": 22552, "foraging": 26912, "siding": 17326, "ascending": 22316, "+": 1009, "pope": 4831, "ditch": 14033, "landing": 4899, "geoff": 14915, "jacket": 6598, "investigative": 15025, "inspection": 10569, "[unused671]": 676, "##sto": 16033, "plaques": 28487, "copying": 24731, "converge": 28314, "##ood": 17139, "3000": 11910, "amongst": 5921, "##jar": 16084, "##gawa": 21188, "humour": 17211, "painfully": 16267, "##rnet": 26573, "88": 6070, "1868": 7582, "14th": 6400, "bhutan": 18768, "herbal": 27849, "spitting": 24307, "1752": 24736, "typed": 21189, "directions": 7826, "anna": 4698, "salad": 16521, "1937": 4347, "nuremberg": 19346, "##oic": 19419, "yong": 18999, "1665": 27676, "##\u05e8": 29811, "amherst": 19850, "##\u09bf": 29915, "daughters": 5727, "1911": 5184, "cooke": 16546, "[unused838]": 843, "marriott": 26490, "somali": 16831, "pasture": 20787, "norwich": 12634, "rents": 28206, "[unused271]": 276, "cache": 17053, "eat": 4521, "##acing": 26217, "##worm": 22769, "abc": 5925, "zinc": 15813, "manila": 9011, "##\u5343": 30310, "navigable": 28538, "##lz": 23858, "omaha": 12864, "\u0289": 1131, "cayman": 26164, "crawl": 13529, "demonstrating": 14313, "kunst": 28145, "##\u30ea": 30258, "restriction": 16840, "rat": 9350, "twain": 24421, "dell": 12418, "carnegie": 11298, "##rted": 17724, "showing": 4760, "approaching": 8455, "bassist": 9858, "commended": 22429, "tenants": 14665, "blizzard": 21689, "reason": 3114, "rower": 21984, "covent": 29456, "##kim": 21138, "##\uff01": 30512, "asserting": 27644, "sebastian": 6417, "##ley": 3051, "3rd": 3822, "disneyland": 25104, "shine": 12342, "fears": 10069, "##\u0280": 29693, "##\u2193": 30114, "usaf": 18531, "wiley": 18825, "##ellant": 24178, "journey": 4990, "circumstances": 6214, "##enham": 23580, "psychiatry": 18420, "warships": 15964, "afc": 10511, "jumped": 5598, "sirius": 23466, "mara": 13955, "\u306e": 1671, "drained": 11055, "classifications": 26739, "##sso": 24137, "prop": 17678, "##gled": 11533, "derry": 17455, "##rik": 15564, "taxonomic": 27691, "liaison": 14975, "coinage": 25396, "carver": 20163, "log": 8833, "calcutta": 13419, "inherited": 7900, "specifically": 4919, "[unused841]": 846, "clergy": 11646, "[unused364]": 369, "unpredictable": 21446, "\u0452": 1211, "yesterday": 7483, "##wk": 26291, "rendezvous": 20558, "##sell": 23836, "\u044b": 1206, "cocky": 24995, "reconcile": 21063, "\u8a9e": 1950, "cargo": 6636, "##loe": 26846, "poised": 22303, "livestock": 11468, "marvelous": 28851, "##cala": 25015, "martins": 19953, "##grate": 22780, "##hair": 26227, "glacial": 17381, "wants": 4122, "charles": 2798, "sai": 18952, "courtroom": 20747, "berlin": 4068, "sparks": 12300, "\u30a2": 1693, "committing": 16873, "181": 18596, "mana": 24951, "expectations": 10908, "helplessly": 24942, "applicant": 23761, "magnolia": 24659, "##ana": 5162, "distress": 12893, "churchyard": 19812, "mathematical": 8045, "segregation": 18771, "##tort": 25485, "pin": 9231, "eps": 20383, "inversion": 28527, "waste": 5949, "##sity": 17759, "arching": 27335, "shooters": 28310, "urged": 9720, "cot": 26046, "##comb": 18274, "seamen": 28671, "239": 23688, "babies": 10834, "been": 2042, "##am": 3286, "micah": 17665, "wires": 14666, "mechanized": 23387, "1900": 5141, "intersection": 6840, "pastoral": 13645, "schooling": 14118, "monks": 9978, "spherical": 18970, "strawberry": 16876, "wool": 12121, "##bing": 10472, "surround": 15161, "recognition": 5038, "oliveira": 24263, "[unused648]": 653, "socio": 17522, "[unused510]": 515, "##ido": 13820, "[unused889]": 894, "composers": 9929, "##\u5149": 30296, "[unused13]": 14, "cheers": 21250, "championships": 3219, "130": 7558, "someone": 2619, "mika": 27857, "forcibly": 20951, "##orted": 15613, "jeep": 14007, "lucie": 28831, "##tel": 9834, "binding": 8031, "##own": 12384, "##esis": 19009, "opera": 3850, "laps": 10876, "\u0bc8": 1399, "understands": 19821, "jiang": 20613, "authority": 3691, "##tron": 15312, "##ugh": 8953, "doubtful": 21888, "adaptation": 6789, "irwin": 17514, "infection": 8985, "##ports": 25378, "[unused267]": 272, "##tled": 14782, "burning": 5255, "##\u03b9\u03b1": 27432, "##er": 2121, "austen": 24177, "carrie": 13223, "##jon": 14339, "creole": 21414, "##bara": 20709, "##cker": 9102, "pitted": 25895, "##kato": 26020, "catering": 18640, "##raph": 24342, "domed": 29208, "phosphate": 17344, "patents": 13979, "cottages": 18918, "stained": 9702, "london": 2414, "term": 2744, "furnished": 19851, "gained": 4227, "chalmers": 29069, "ip": 12997, "streaming": 11058, "flung": 14016, "airfield": 9087, "fabulous": 18783, "crucial": 10232, "pad": 11687, "##bag": 16078, "305": 20405, "southward": 22161, "##\u4e0d": 30270, "1927": 4764, "##cis": 22987, "formula": 5675, "##lton": 13947, "[unused806]": 811, "##wled": 28365, "anand": 18887, "toby": 11291, "extreme": 6034, "simulated": 23599, "150": 5018, "breuning": 18177, "##\u4e16": 30271, "mazda": 25286, "antiquities": 21387, "[unused37]": 38, "changed": 2904, "marion": 10115, "##cia": 7405, "[unused94]": 95, "luther": 9678, "callum": 15229, "courts": 5434, "hesitant": 20221, "##her": 5886, "scraped": 20378, "platform": 4132, "yearning": 29479, "##mined": 25089, "saga": 12312, "##rp": 14536, "atv": 29108, "fan": 5470, "mutual": 8203, "buyer": 17634, "[unused805]": 810, "yamamoto": 28318, "fcc": 14420, "##cum": 24894, "arcadia": 25178, "cummings": 20750, "bc": 4647, "lazy": 13971, "wrath": 14532, "turnbull": 26439, "\ufb01": 1984, "bei": 21388, "asserts": 19514, "##rson": 17753, "tramway": 17050, "stepmother": 26959, "encoding": 17181, "acquire": 9878, "##lho": 28061, "crete": 19111, "expedition": 5590, "numbers": 3616, "offended": 15807, "##\u30f3": 30263, "climb": 7105, "culturally": 20547, "acquired": 3734, "drafted": 7462, "##mura": 16069, "##urity": 25137, "##kar": 6673, "representing": 5052, "vegetable": 15415, "grassroots": 23299, "##ras": 8180, "classical": 4556, "work": 2147, "contingent": 15445, "moe": 22078, "bone": 5923, "peach": 18237, "##buch": 25987, "slits": 29199, "[unused891]": 896, "griffiths": 21960, "parliamentary": 5768, "insistence": 20616, "brentford": 26550, "##cao": 20808, "lightning": 7407, "phase": 4403, "chung": 15972, "##\u0442": 22919, "##anta": 26802, "##lum": 12942, "[unused391]": 396, "malaria": 19132, "bit": 2978, "associated": 3378, "permanently": 8642, "mussolini": 22554, "417": 27519, "tierney": 26198, "react": 10509, "dry": 4318, "orphan": 18211, "karel": 28021, "##\u0578": 29779, "##57": 28311, "tunnels": 10633, "wizard": 10276, "beauty": 5053, "gough": 29124, "1649": 26538, "1811": 13086, "##tails": 22081, "##bib": 28065, "increased": 3445, "although": 2348, "drummond": 19266, "hides": 17382, "psychedelic": 18147, "bidding": 17534, "plantations": 14979, "##boards": 15271, "effectiveness": 12353, "padre": 28612, "##off": 7245, "survive": 5788, "adi": 27133, "##achal": 24409, "/": 1013, "embodied": 25405, "\u10d2": 1440, "irrational": 23179, "probe": 15113, "##hly": 27732, "politically": 10317, "homecoming": 20772, "##dhar": 25632, "j": 1046, "chairman": 3472, "buck": 10131, "articulated": 20742, "month": 3204, "rowing": 12037, "stripes": 13560, "idols": 24438, "\u2022": 1528, "ze": 27838, "##pressing": 24128, "\u3063": 1663, "\u30a1": 1692, "##ure": 5397, "configurations": 22354, "##\u1d48": 30034, "santo": 11685, "[unused17]": 18, "[unused938]": 943, "##yala": 28617, "insanity": 19272, "tko": 26537, "pine": 7222, "addicted": 23042, "marissa": 22767, "##yev": 17240, "\u2606": 1621, "##zo": 6844, "107": 10550, "schemes": 11683, "stumbled": 9845, "appearances": 3922, "\u7a7a": 1930, "##ndo": 15482, "##unes": 26639, "considering": 6195, "##tok": 18715, "tajikistan": 23538, "suited": 10897, "twist": 9792, "omar": 13192, "founders": 8759, "funk": 11962, "##ful": 3993, "\u0127": 1103, "apprenticeship": 20448, "seat": 2835, "royals": 15426, "inmates": 13187, "animation": 7284, "offensive": 5805, "reef": 12664, "airplay": 15341, "coughed": 19055, "serpent": 16517, "bedrock": 28272, "inspector": 7742, "courtship": 28592, "journal": 3485, "monarchy": 12078, "##chel": 15721, "mischief": 25166, "tournament": 2977, "nz": 20008, "[unused990]": 995, "cork": 8513, "port": 3417, "narrowed": 8061, "south": 2148, "torre": 22047, "saves": 13169, "##ttal": 28200, "stockings": 26412, "##n": 2078, "slopes": 10314, "ruling": 6996, "patch": 8983, "ter": 28774, "europe": 2885, "workings": 24884, "shadows": 6281, "surveyor": 17169, "arias": 25905, "fitted": 7130, "##cheon": 28099, "forearms": 27323, "##tained": 28055, "deceased": 10181, "examiner": 19684, "##osphere": 25444, "dramatic": 6918, "disposition": 22137, "sausage": 24165, "indians": 6505, "worry": 4737, "investments": 10518, "harmonica": 16527, "armchair": 29372, "##51": 22203, "100th": 16919, "allan": 8926, "recalls": 17722, "facial": 13268, "\u6751": 1878, "##42": 20958, "##stems": 29189, "criterion": 19229, "[unused101]": 106, "heroine": 18869, "laced": 17958, "lucrative": 21115, "lopez": 8685, "\u209c": 1571, "naples": 10553, "shropshire": 19322, "##hor": 16368, "interact": 11835, "\u5b89": 1820, "##tar": 7559, "wyoming": 10622, "spire": 19823, "bullock": 25200, "##zbek": 28733, "##life": 15509, "dans": 18033, "accompanied": 5642, "exchanging": 25620, "reassure": 24647, "mosque": 8806, "moor": 16808, "deleted": 17159, "rutherford": 18472, "tornado": 11352, "1889": 6478, "visible": 5710, "wellesley": 25658, "\u4e0a": 1742, "billie": 18210, "1883": 7257, "##lea": 19738, "ellis": 8547, "fashioned": 13405, "billionaire": 22301, "pulmonary": 21908, "religious": 3412, "comparing": 13599, "duplicate": 24473, "internal": 4722, "lenses": 15072, "##ddling": 21814, "##case": 18382, "against": 2114, "proceeded": 8979, "##eration": 16754, "reprint": 25364, "##ptive": 24971, "##rret": 27032, "protected": 5123, "##\u2227": 30129, "attend": 5463, "##tarian": 28897, "1867": 7517, "##imated": 20592, "swim": 9880, "cape": 4880, "sponsorship": 12026, "occurs": 5158, "chemistry": 6370, "purposely": 24680, "olive": 9724, "##kti": 22462, "swiped": 24452, "substitute": 7681, "messages": 7696, "woodland": 11051, "##opped": 27288, "empires": 23560, "##zier": 21548, "bradshaw": 23762, "bible": 6331, "inactivated": 15663, "##oj": 29147, "[unused679]": 684, "de": 2139, "yahoo": 20643, "angled": 18756, "brink": 20911, "beans": 13435, "commission": 3222, "youngest": 6587, "traditions": 7443, "examined": 8920, "wilkinson": 16237, "[unused710]": 715, "mia": 8764, "1664": 28485, "billions": 25501, "##ead": 13775, "##ggles": 24989, "ramon": 12716, "##gol": 24141, "##tical": 14656, "flown": 10583, "palms": 9486, "[unused62]": 63, "praying": 14488, "saxony": 13019, "##going": 26966, "murdered": 7129, "##\u03bb": 29727, "gallant": 26984, "worsened": 27622, "wages": 12678, "beef": 12486, "travelled": 7837, "##ahu": 21463, "republished": 24476, "\u56fd": 1799, "procedure": 7709, "intercepted": 16618, "##lik": 18393, "niccolo": 27033, "clear": 3154, "##ages": 13923, "rumble": 15658, "fest": 17037, "beaming": 27910, "ivan": 7332, "imagining": 16603, "\u4e8b": 1751, "teasing": 12216, "marketed": 11625, "slicing": 26514, "dinner": 4596, "consoles": 22659, "pneumonia": 18583, "mike": 3505, "##mat": 18900, "exact": 6635, "olympus": 26742, "kinetic": 20504, "buttons": 11287, "sage": 10878, "sunlight": 9325, "sandwich": 11642, "play": 2377, "application": 4646, "\u09b8": 1376, "beasts": 15109, "portrait": 6533, "barbara": 6437, "josef": 12947, "sebastien": 28328, "jozef": 23258, "hoffman": 15107, "bundle": 14012, "shaping": 20300, "porter": 8716, "pursuits": 23719, "proud": 7098, "beg": 11693, "absorption": 16326, "mort": 22294, "dialects": 11976, "glanced": 3887, "ton": 10228, "[unused752]": 757, "pond": 8644, "whatever": 3649, "wagons": 14525, "122": 13092, "strokes": 13692, "illnesses": 24757, "angola": 13491, "fuller": 12548, "ripe": 22503, "##llin": 21202, "responses": 10960, "konstantin": 23989, "##iad": 28665, "pit": 6770, "##\u028a": 29698, "kaye": 23686, "\u5b87": 1819, "friedrich": 8896, "tucson": 17478, "\u5c07": 1828, "bernhard": 21432, "[unused165]": 170, "sikhs": 26697, "chopra": 28826, "lama": 18832, "quinlan": 28451, "##\u2666": 30153, "gun": 3282, "##neuve": 28104, "nebula": 25677, "chronology": 17873, "suffrage": 15178, "[unused545]": 550, "evie": 26400, "##hana": 15788, "be": 2022, "espana": 20678, "warily": 23625, "lcd": 27662, "gran": 12604, "##foil": 24323, "spans": 14798, "engraving": 23501, "##inates": 28184, "##he": 5369, "##anger": 25121, "header": 20346, "trooper": 28224, "##is": 2483, "cuff": 26450, "ankara": 20312, "rappers": 28257, "seasons": 3692, "willard": 19138, "##nr": 16118, "[unused306]": 311, "sul": 21396, "##sing": 7741, "deacon": 14845, "117": 12567, "mast": 15429, "utility": 9710, "appointment": 6098, "amor": 16095, "##\u0dcf": 29944, "sprawled": 21212, "houses": 3506, "boardwalk": 29496, "quarries": 27069, "##rland": 18324, "critique": 16218, "sleeping": 5777, "punishment": 7750, "##wa": 4213, "##tra": 6494, "possess": 10295, "backdrop": 18876, "modular": 19160, "verses": 11086, "isabelle": 13942, "holt": 12621, "rely": 11160, "tract": 12859, "primetime": 18474, "randomly": 18154, "sherman": 11011, "[unused799]": 804, "blessings": 24618, "goal": 3125, "prussia": 10724, "wine": 4511, "luz": 26214, "progresses": 22901, "##dalen": 26414, "surprised": 4527, "##code": 16044, "##clops": 28659, "alarm": 8598, "ordered": 3641, "debts": 13930, "[unused843]": 848, "kali": 19924, "taluk": 23140, "policies": 6043, "friends": 2814, "kara": 13173, "thereby": 8558, "1600": 14883, "\u5289": 1777, "##gation": 12540, "unacceptable": 21873, "sud": 19219, "##cky": 17413, "gertrude": 18734, "esteem": 19593, "lump": 15116, "campus": 3721, "concerned": 4986, "illicit": 25049, "executions": 22679, "##neil": 27276, "mushroom": 18565, "rice": 5785, "detained": 14620, "shane": 8683, "windy": 27370, "karin": 24537, "1744": 25846, "tuscany": 23322, "##bright": 26614, "correlated": 23900, "draft": 4433, "ultra": 11087, "##ials": 26340, "[unused791]": 796, "supervisors": 22565, "while": 2096, "##ask": 19895, "turks": 12896, "fake": 8275, "##\u4e0b": 30269, "##version": 27774, "slap": 14308, "oz": 11472, "tampa": 9925, "##agi": 22974, "##mans": 15154, "evenings": 16241, "francesca": 15409, "1821": 11723, "drives": 9297, "##omi": 20936, "interpretations": 15931, "##\u706b": 30432, "maturity": 16736, "##heater": 27847, "foreword": 23059, "##ised": 5084, "vantage": 27274, "cardiff": 10149, "truce": 18415, "v6": 25275, "buckinghamshire": 21712, "\u5357": 1785, "luisa": 25412, "carpets": 27997, "[unused184]": 189, "weasel": 29268, "dmitry": 22141, "torino": 24737, "\u8c9d": 1952, "patterson": 12424, "flights": 7599, "treatise": 15326, "delilah": 23006, "educate": 16957, "##port": 6442, "pass": 3413, "vis": 25292, "rail": 4334, "##tam": 15464, "close": 2485, "##ack": 8684, "landscapes": 12793, "sources": 4216, "##flight": 28968, "[unused633]": 638, "[unused514]": 519, "speaking": 4092, "southland": 29121, "exploring": 11131, "correlation": 16902, "relocating": 26811, "buried": 3950, "bigger": 7046, "groves": 21695, "testified": 14914, "publicly": 7271, "beaux": 20290, "specialization": 28031, "##ero": 10624, "lists": 7201, "##f": 2546, "dartmouth": 16960, "fusion": 10077, "island": 2479, "cesare": 26708, "da": 4830, "appears": 3544, "weiss": 17889, "##boy": 11097, "##vat": 22879, "nissan": 16509, "wcw": 24215, "christensen": 24189, "##\u2018": 30055, "lurched": 21977, "[unused550]": 555, "attachment": 14449, "instructions": 8128, "lai": 21110, "##uez": 29488, "1843": 10075, "[unused210]": 215, "harvested": 22629, "contribute": 9002, "kathryn": 20484, "script": 5896, "pedestal": 24496, "chart": 3673, "wien": 22782, "##rating": 15172, "causes": 5320, "surgeons": 16804, "toxin": 29090, "letting": 5599, "breeders": 20823, "vitro": 25714, "shimmering": 22349, "illustrations": 11249, "189": 20500, "stud": 16054, "roof": 4412, "general": 2236, "olaf": 20514, "timeless": 27768, "amounted": 18779, "slightest": 15989, "topping": 22286, "##thal": 24090, "atkinson": 18646, "attack": 2886, "227": 21489, "becomes": 4150, "[unused453]": 458, "##emy": 26662, "rita": 11620, "\u05e2": 1259, "beck": 10272, "culminating": 16979, "andreas": 12460, "##enes": 28553, "hostess": 22566, "##aman": 23093, "tres": 24403, "##wyn": 11761, "\u026c": 1121, "carlo": 9758, "dumb": 12873, "taliban": 16597, "lexie": 24123, "anime": 8750, "prehistoric": 14491, "gallon": 25234, "[unused608]": 613, "parisian": 24262, "preached": 21491, "##virus": 23350, "##usly": 27191, "##bor": 12821, "cola": 15270, "israelis": 28363, "endelle": 29581, "##tonic": 25009, "##rano": 20770, "[unused69]": 70, "bells": 10118, "vaudeville": 19698, "insults": 23862, "pdf": 11135, "thursday": 9432, "##tituted": 29139, "compared": 4102, "smirked": 18775, "drip": 27304, "##\u529b": 30304, "albanian": 9408, "chinatown": 22321, "chet": 25157, "##gn": 16206, "##\u20ac": 30102, "nave": 12847, "occasionally": 5681, "scott": 3660, "##station": 20100, "blessing": 13301, "enrollment": 10316, "disorders": 10840, "learners": 26262, "showdown": 24419, "##rator": 16259, "emmett": 25685, "signalling": 21919, "harper": 8500, "heidi": 21372, "opinions": 10740, "left": 2187, "walton": 14290, "joanne": 23459, "brewer": 18710, "clap": 28618, "skeletons": 24365, "interval": 13483, "theorist": 24241, "not": 2025, "##vable": 12423, "##ologies": 20792, "stump": 22475, "prompt": 25732, "airmen": 29437, "medicine": 4200, "slash": 18296, "##hart": 10686, "incomplete": 12958, "bethlehem": 19360, "##ytic": 21252, "##\u30c4": 30238, "defendants": 16362, "enrique": 15769, "[unused960]": 965, "bobo": 27418, "gogh": 26603, "burton": 9658, "russia": 3607, "##gami": 26517, "corey": 18132, "kelvin": 24810, "op": 6728, "yawned": 27626, "gail": 18576, "harta": 26283, "##oue": 27872, "jurist": 22757, "venezuela": 8326, "segunda": 19071, "##\u76f8": 30445, "jolly": 22193, "lodged": 20451, "1976": 3299, "dragged": 7944, "rowland": 20539, "##ya": 3148, "pba": 21563, "gonzales": 24334, "java": 9262, "programmed": 16984, "sped": 16887, "extensive": 4866, "ransom": 16540, "covered": 3139, "##cote": 19800, "inspire": 18708, "560": 21267, "invitational": 20129, "weighed": 12781, "false": 6270, "cabins": 20321, "nouveau": 25272, "defence": 4721, "##\u10dd": 29986, "didn": 2134, "bride": 8959, "surname": 11988, "finishes": 12321, "jimi": 27624, "differed": 19541, "\u6a39": 1884, "##ams": 13596, "activity": 4023, "##falls": 28067, "jets": 9924, "capped": 13880, "valencia": 13083, "mystical": 17529, "##val": 10175, "burr": 22715, "restricted": 7775, "oilers": 19778, "small": 2235, "rumbled": 22257, "split": 3975, "##drich": 23335, "##rys": 24769, "ninety": 13568, "bandwidth": 20235, "wyatt": 12986, "comics": 5888, "eta": 27859, "spikes": 19547, "overview": 19184, "compound": 7328, "surgeon": 9431, "properly": 7919, "swam": 16849, "hired": 5086, "ryder": 11731, "saudi": 8174, "unfortunately": 6854, "##boot": 27927, "residing": 7154, "consent": 9619, "nails": 10063, "##grants": 27444, "1795": 13397, "##ding": 4667, "1855": 8492, "##mise": 28732, "broadband": 19595, "cannes": 14775, "wheelchair": 13204, "pockets": 10306, "terre": 25170, "unnatural": 21242, "bose": 21299, "researches": 27338, "\u0441": 1196, "rectangular": 10806, "##gated": 11644, "network": 2897, "##anum": 27975, "initiated": 7531, "miniatures": 28615, "sentenced": 7331, "bree": 21986, "orgasm": 13892, "drawer": 13065, "##eka": 19025, "vampire": 4393, "[unused524]": 529, "\u3055": 1656, "finnish": 6983, "twenty": 3174, "snooker": 26448, "condemning": 28525, "myers": 13854, "washington": 2899, "##\u1d2e": 30027, "storey": 11676, "copyright": 9385, "##bbies": 27982, "familiarity": 24666, "##dian": 11692, "\u4eee": 1761, "\u0436": 1186, "drumming": 22980, "align": 25705, "ice": 3256, "marc": 7871, "bates": 11205, "connects": 8539, "cheekbones": 27181, "croats": 26222, "expenditure": 20700, "##eit": 20175, "bases": 7888, "punished": 14248, "taxpayers": 26457, "##\u0686": 29840, "riding": 5559, "marry": 5914, "650": 13757, "##ssi": 18719, "drinks": 8974, "travelers": 15183, "vine": 15351, "hostel": 21071, "pinched": 18521, "nap": 18996, "demise": 13614, "manual": 6410, "roundabout": 22831, "##lun": 26896, "engineered": 13685, "aa": 9779, "lending": 18435, "pretended": 14688, "enthusiastic": 14727, "1880s": 12751, "f": 1042, "reveals": 7657, "\u306b": 1668, "six": 2416, "\u03b8": 1162, "yu": 9805, "ambitious": 12479, "enclosed": 10837, "domino": 23968, "characteristic": 8281, "andres": 15614, "vi": 6819, "264": 21611, "samurai": 16352, "unanimous": 13604, "carts": 25568, "squire": 21263, "barely": 4510, "clade": 21697, "##ong": 5063, "trail": 4446, "enzyme": 9007, "fraudulent": 27105, "1901": 5775, "outskirts": 12730, "oyster": 21480, "clifford": 13894, "mixture": 8150, "canadian": 3010, "##gard": 13444, "revealed": 3936, "[unused834]": 839, "1874": 7586, "services": 2578, "colby": 18650, "tokugawa": 22065, "feedback": 12247, "mcgill": 17919, "amore": 26297, "founding": 4889, "188": 19121, "fluids": 20989, "##lling": 13112, "ghana": 9701, "lacy": 19959, "hiss": 19074, "gaming": 10355, "commander": 3474, "oslo": 9977, "shy": 11004, "inscription": 9315, "mali": 16007, "banged": 22843, "disagreed": 18335, "##59": 28154, "train": 3345, "counters": 24094, "prohibit": 23469, "realms": 18814, "##ene": 8625, "##ring": 4892, "fined": 16981, "bahn": 17392, "indigo": 22472, "mm": 3461, "embracing": 23581, "badges": 23433, "adaptations": 17241, "wired": 17502, "trump": 8398, "officials": 4584, "pentagon": 20864, "gen": 8991, "dane": 14569, "jeff": 5076, "viewpoint": 21386, "##dley": 14232, "[unused528]": 533, "proves": 16481, "referring": 7727, "##pole": 15049, "[unused269]": 274, "mcdowell": 25005, "ns": 24978, "olympics": 3783, "unbeaten": 20458, "blackberry": 25935, "sacrificed": 20268, "generally": 3227, "vendor": 21431, "[unused572]": 577, "pursed": 21954, "arrangement": 6512, "##lan": 5802, "attempted": 4692, "denounced": 17787, "hopped": 17230, "summary": 12654, "##aca": 19629, "##\u2113": 30105, "##urus": 20089, "tolkien": 23602, "bwv": 23860, "spacecraft": 12076, "##so": 6499, "sar": 18906, "sneered": 28098, "##light": 7138, "forensic": 15359, "subsequently": 3525, "##fine": 23460, "##inas": 15227, "braid": 24148, "##nick": 13542, "[unused232]": 237, "[unused427]": 432, "requirement": 9095, "whoever": 9444, "nec": 26785, "##lot": 10994, "silesia": 21872, "genetically": 19345, "benz": 17770, "rocks": 5749, "##\u624b": 30384, "farms": 8623, "wynn": 25328, "relations": 4262, "crosby": 14282, "col": 8902, "##nikov": 22576, "1781": 16788, "it": 2009, "unnamed": 13294, "\u063a": 1289, "relation": 7189, "[unused681]": 686, "np": 27937, "##\u00aa": 29653, "apostolic": 11815, "tottenham": 18127, "bertrand": 20586, "##drik": 28730, "urgent": 13661, "##dication": 25027, "##kaya": 20718, "##duced": 28901, "belongings": 20033, "##pac": 19498, "colonization": 18962, "explaining": 9990, "##ouk": 27967, "##orno": 26295, "fellow": 3507, "careless": 23358, "ninth": 6619, "ao": 20118, "alternative": 4522, "partisan": 14254, "joined": 2587, "statute": 11671, "pilasters": 26752, "owens": 14824, "partition": 13571, "1780": 15051, "nitrogen": 14114, "diving": 9404, "reinstated": 18671, "##sive": 12742, "reduce": 5547, "peat": 23366, "[unused852]": 857, "stacey": 19997, "benito": 23595, "##ed": 2098, "refurbishment": 24478, "seized": 8243, "karl": 6382, "uci": 14504, "##uan": 13860, "##clusive": 23633, "nearest": 7205, "macbeth": 25182, "prostitutes": 20833, "explained": 4541, "somerset": 9198, "[unused175]": 180, "microphone": 15545, "222": 19015, "highlight": 12944, "202": 16798, "detection": 10788, "sexes": 21024, "##had": 16102, "terrorist": 9452, "lash": 25210, "sabotage": 20223, "neglect": 19046, "citizenship": 9068, "1500": 10347, "h\u2082o": 24833, "parking": 5581, "unlikely": 9832, "\u1103": 1457, "scream": 6978, "prominently": 14500, "tissues": 14095, "parish": 3583, "[unused82]": 83, "louvre": 25110, "township": 3545, "diagnosed": 11441, "estimated": 4358, "\u00b2": 1082, "authentic": 14469, "##imating": 22835, "regained": 11842, "diplomatic": 8041, "connolly": 21018, "latvia": 12429, "\u30e9": 1731, "[unused784]": 789, "intent": 7848, "moisture": 14098, "aromatic": 25496, "enormous": 8216, "manuscripts": 10485, "1989": 2960, "koln": 28306, "administrative": 3831, "correct": 6149, "grazed": 26627, "effort": 3947, "ticking": 28561, "##olis": 20872, "thou": 15223, "olsen": 18997, "mg": 11460, "immigrated": 17352, "issue": 3277, "apparent": 6835, "[unused388]": 393, "\u85e4": 1944, "outpost": 21080, "dickson": 22076, "decisive": 13079, "196": 20035, "501": 16202, "pudding": 29593, "reality": 4507, "torture": 8639, "walden": 24834, "painting": 4169, "reacts": 27325, "gunslinger": 29274, "opposition": 4559, "estadio": 14143, "oxide": 15772, "blog": 9927, "claudia": 13479, "awakening": 16936, "pradesh": 7970, "doncaster": 18895, "34th": 20460, "##hiti": 27798, "pirates": 8350, "repair": 7192, "employee": 7904, "1670": 26253, "glad": 5580, "##ner": 3678, "sprayed": 25401, "1764": 21488, "filmmaking": 24466, "respectable": 19416, "deeply": 6171, "1747": 24522, "cody": 13326, "##breaker": 21204, "ec": 14925, "organize": 10939, "vomiting": 24780, "orchid": 15573, "belgian": 6995, "wolff": 23498, "sash": 24511, "hypothesis": 10744, "hai": 15030, "\u10d8": 1445, "##hs": 7898, "mendoza": 18021, "comedies": 22092, "wasps": 23146, "excelled": 23081, "confusion": 6724, "##ines": 10586, "tnt": 24048, "huge": 4121, "nominated": 4222, "164": 17943, "combined": 4117, "##building": 25820, "128": 11899, "epilogue": 24297, "even": 2130, "\u0632": 1281, "##:": 29627, "\u30ea": 1732, "carolyn": 15611, "intrinsic": 23807, "##ifice": 23664, "##oda": 13390, "howard": 4922, "gentleman": 10170, "opined": 26084, "vicki": 25424, "ladies": 6456, "offices": 4822, "smoking": 9422, "hulk": 16009, "venus": 11691, "lyndon": 23037, "preaching": 17979, "pleistocene": 25080, "##ae": 6679, "##ulia": 20922, "bergen": 12674, "formulation": 20219, "accusation": 19238, "runner": 5479, "disappointed": 9364, "rna": 12987, "overnight": 11585, "gong": 17242, "astoria": 29285, "##\u03bf\u03c2": 15297, "gt": 14181, "sovereign": 11074, "##chee": 25923, "assassinated": 16370, "undermine": 25174, "mrna": 28848, "##ndra": 17670, "replay": 15712, "vancouver": 6930, "##tie": 9515, "councillors": 13189, "##rber": 20473, "accompanying": 10860, "##nesian": 20281, "##wheel": 22920, "##opsis": 22599, "##\u7248": 30433, "undo": 25672, "\u2085": 1552, "trilogy": 11544, "kuwait": 13085, "##17": 16576, "cereal": 20943, "##pts": 22798, "strange": 4326, "telegram": 23921, "molecule": 13922, "conspicuous": 19194, "\u2084": 1551, "ho": 7570, "[unused330]": 335, "dying": 5996, "harder": 6211, "idea": 2801, "utrecht": 18361, "ships": 3719, "coincidentally": 27542, "halt": 9190, "radical": 7490, "ranged": 15844, "russ": 18072, "sighs": 19906, "coloration": 28757, "fortunate": 19590, "indian": 2796, "gracie": 19005, "imaginative": 28575, "apocalyptic": 27660, "stoke": 13299, "##\u8033": 30463, "awarded": 3018, "hurled": 24025, "beit": 28236, "[unused26]": 27, "disabilities": 13597, "clarity": 15563, "inequality": 16440, "constraint": 27142, "jewellery": 21545, "##wil": 29602, "##jer": 20009, "gallantry": 22111, "sell": 5271, "flatly": 24295, "assassinate": 25683, "mini": 7163, "conversion": 7584, "volga": 26459, "breakers": 24742, "rann": 26312, "304": 23859, "\u6c35": 1894, "indefinite": 25617, "moonlight": 11986, "##ckle": 19250, "carter": 5708, "tinted": 25577, "dash": 11454, "[unused312]": 317, "pp": 4903, "rich": 4138, "##\uff5e": 30521, "mp3": 23378, "##\u0646": 15915, "commercial": 3293, "##iable": 19210, "##ret": 13465, "topics": 7832, "relates": 14623, "##nam": 13129, "kc": 21117, "samson": 18375, "##di": 4305, "variation": 8386, "gasp": 12008, "sipped": 17735, "armagh": 24678, "gibbons": 22194, "involuntary": 26097, "proposed": 3818, "limousine": 28012, "##crow": 24375, "\u9762": 1976, "bounce": 17523, "carrot": 25659, "impairment": 25172, "amc": 21962, "caine": 19881, "artists": 3324, "fires": 8769, "chilling": 27017, "huntsville": 28492, "##\u0f53": 29965, "website": 4037, "##est": 4355, "##com": 9006, "flint": 13493, "graphical": 20477, "fischer": 13042, "##dam": 17130, "turbines": 17396, "[unused268]": 273, "goats": 17977, "ease": 7496, "merton": 28169, "husky": 18758, "peninsular": 22682, "loyalty": 9721, "##zin": 17168, "intervened": 21116, "trough": 23389, "##rks": 19987, "hess": 23484, "##rion": 14772, "include": 2421, "personality": 6180, "ingredient": 21774, "sponge": 25742, "last": 2197, "freezing": 12809, "##\u10e1": 29988, "##mble": 19661, "collided": 17745, "disconnected": 23657, "iq": 26264, "malicious": 24391, "booker": 16674, "replication": 21647, "bros": 10243, "incompatible": 25876, "coco": 25033, "promotional": 10319, "##\u0638": 29829, "illustration": 14614, "\u3088": 1684, "90": 3938, "##\u092a": 29864, "concealed": 14091, "plaster": 15673, "palaces": 22763, "##logist": 10727, "poles": 10567, "massage": 21881, "garrison": 8427, "barley": 21569, "wears": 11651, "1628": 28627, "frey": 20068, "colleagues": 8628, "harris": 5671, "mohawk": 22338, "[unused988]": 993, "salt": 5474, "sq": 5490, "walt": 10598, "##bbly": 24200, "fees": 9883, "arrived": 3369, "musa": 23154, "inhibitors": 25456, "gesturing": 22317, "however": 2174, "##systems": 29390, "young": 2402, "mukherjee": 27040, "confuse": 28679, "humiliating": 28284, "cradle": 18293, "coral": 11034, "trumpet": 9368, "60th": 20928, "implements": 22164, "reportedly": 7283, "galveston": 26630, "##\u1169": 30011, "vr": 27830, "lion": 7006, "unlimited": 14668, "burns": 7641, "[unused598]": 603, "##veda": 28614, "vertex": 19449, "guidelines": 11594, "marquis": 13410, "carla": 17081, "undead": 17315, "havre": 28890, "varsity": 11710, "##linger": 23101, "chargers": 18649, "ball": 3608, "spectra": 29237, "##\u0b9a": 29919, "peered": 10757, "##vill": 26548, "blond": 8855, "corruption": 7897, "settle": 7392, "foam": 17952, "biennial": 20313, "##\u4e4b": 30275, "fares": 27092, "sessions": 6521, "notices": 14444, "##amen": 27245, "bi": 12170, "willis": 12688, "##cc": 9468, "probably": 2763, "##\u10d5": 29979, "enemy": 4099, "##missive": 27876, "ashamed": 14984, "##ain": 8113, "lined": 7732, "\u03c3": 1173, "storytelling": 20957, "logo": 8154, "doomed": 20076, "blah": 27984, "random": 6721, "over": 2058, "191": 19871, "##\u03c8": 29738, "haitian": 21404, "##\u3086": 30209, "##rst": 12096, "[unused984]": 989, "?": 1029, "\u4f8d": 1765, "thrown": 6908, "sampling": 16227, "conservation": 5680, "implementation": 7375, "seville": 18983, "##zhi": 19436, "##phs": 18757, "[unused315]": 320, "##ort": 11589, "beads": 17530, "dowager": 20508, "[unused253]": 258, "residences": 14094, "notable": 3862, "caliber": 15977, "dedicated": 4056, "[unused189]": 194, "sofa": 10682, "katz": 20729, "illustrating": 28252, "venerable": 24541, "mascot": 13314, "males": 3767, "##tablished": 28146, "supplied": 8127, "bautista": 27845, "spencer": 7084, "1715": 22606, "##ico": 11261, "gaines": 28645, "##do": 3527, "nedra": 28240, "blurted": 18751, "watts": 11042, "vatican": 12111, "menace": 19854, "1823": 12522, "heroes": 7348, "\u044a": 1205, "##beck": 12750, "frightened": 10363, "ina": 27118, "transfers": 15210, "##nes": 5267, "##combe": 14149, "##ovo": 16059, "gradually": 6360, "passages": 13768, "reaches": 6561, "coward": 16592, "##rned": 21119, "human": 2529, "buildings": 3121, "falkland": 25257, "chance": 3382, "parole": 17393, "##\u6c38": 30422, "forests": 6138, "dai": 18765, "elite": 7069, "##sies": 14625, "basalt": 26343, "collections": 6407, "mccall": 25790, "[unused344]": 349, "encore": 19493, "thematic": 23539, "mono": 18847, "official": 2880, "koppen": 20139, "austrian": 6161, "2020": 12609, "beethoven": 15461, "meng": 27955, "##\u057d": 29781, "##\uff1f": 30520, "decrees": 28966, "solicitor": 15468, "overgrown": 26433, "gunnar": 26138, "##may": 27871, "kashmir": 13329, "ancestors": 10748, "##plicity": 27293, "elliott": 9899, "annually": 6604, "arnold": 7779, "##gne": 10177, "synthesis": 10752, "primal": 22289, "lack": 3768, "enraged": 18835, "disqualified": 14209, "classroom": 9823, "educators": 19156, "geographical": 10056, "citing": 8951, "louie": 17438, "choice": 3601, "buddha": 11903, "should": 2323, "\u09b6": 1374, "halves": 23672, "##ably": 8231, "sphere": 10336, "\u03b2": 1156, "dispute": 7593, "halloween": 14414, "advertised": 17099, "kings": 5465, "coconut": 16027, "talked": 5720, "##kota": 27380, "submission": 12339, "nhl": 7097, "haunted": 11171, "federal": 2976, "extent": 6698, "serves": 4240, "research": 2470, "\u00b0": 1080, "##ee": 4402, "ear": 4540, "imported": 10964, "eel": 24315, "##pper": 18620, "\u1110": 1467, "ambushed": 22168, "##\ufb01": 30510, "ronnie": 11688, "ta": 11937, "rises": 9466, "logistics": 12708, "mcgrath": 23220, "trois": 25527, "curses": 23897, "1904": 5692, "##gli": 25394, "##cal": 9289, "reintroduced": 28263, "carleton": 22273, "overboard": 27089, "yoko": 28758, "module": 11336, "dangerously": 20754, "##lion": 18964, "insist": 18292, "fridays": 26587, "car": 2482, "caf": 24689, "reynolds": 9579, "##\u00dfe": 17499, "[unused786]": 791, "\u3008": 1637, "straightening": 27508, "greens": 15505, "soloist": 16504, "##cated": 12921, "cartridges": 22998, "vladimir": 8748, "gossip": 13761, "clerks": 26706, "tease": 18381, "##kong": 25460, "shrimp": 20130, "joking": 16644, "depend": 12530, "posthumously": 12770, "turnpike": 17116, "basin": 6403, "##itch": 20189, "daily": 3679, "dormant": 22170, "\u0142odz": 17814, "##dt": 11927, "##gi": 5856, "##dget": 24291, "##\u0e40": 29959, "##rgan": 16998, "##verance": 21998, "##ctic": 13306, "##merie": 28677, "\u3061": 1662, "dessert": 18064, "[unused715]": 720, "weren": 4694, "00": 4002, "serbia": 7238, "##\u0569": 29771, "straight": 3442, "keyboard": 9019, "rebels": 8431, "fabrication": 25884, "##urst": 29402, "revolt": 10073, "unconscious": 9787, "felony": 24648, "impromptu": 29213, "originating": 14802, "quota": 20563, "corrosion": 24625, "thee": 14992, "intercollegiate": 21587, "intimidation": 28973, "yale": 7996, "frenchman": 26529, "\u05d3": 1244, "##backs": 12221, "thirty": 4228, "geek": 29294, "meath": 26856, "##mbling": 29256, "operators": 9224, "permitting": 24523, "age": 2287, "scoring": 4577, "football": 2374, "similarly": 6660, "flawless": 27503, "opposite": 4500, "1672": 27253, "liu": 8607, "obey": 15470, "[unused396]": 401, "shelby": 15294, "islanders": 16422, "warned": 7420, "servant": 7947, "detonated": 28110, "clamped": 18597, "##11": 14526, "\u0627": 1270, "clara": 10254, "tufts": 25252, "##crest": 25313, "perhaps": 3383, "haste": 24748, "##\u00b6": 29660, "ii": 2462, "adorable": 23677, "carousel": 27628, "juris": 27551, "questioned": 8781, "##chemical": 15869, "rather": 2738, "##park": 14432, "il": 6335, "##bot": 18384, "peru": 7304, "leagues": 8121, "fulton": 17049, "nobel": 10501, "photos": 7760, "successes": 14152, "varies": 9783, "##lda": 15150, "[unused737]": 742, "retaining": 12823, "eireann": 29157, "archdeacon": 21742, "decker": 20946, "##bed": 8270, "webb": 10923, "\u533a": 1782, "vie": 20098, "easiest": 25551, "mandated": 16714, "##lings": 11227, "otago": 21831, "##grin": 24860, "##fighter": 20027, "phosphorus": 25473, "neighbourhoods": 27535, "lucy": 7004, "jay": 6108, "141": 15471, "wines": 14746, "slowed": 9784, "trombone": 13914, "cum": 13988, "turn": 2735, "[unused541]": 546, "##\u1106": 29995, "\u1175": 1483, "pointing": 7302, "splitting": 14541, "layne": 22452, "##\u793a": 30449, "foreman": 18031, "bust": 13950, "anthem": 11971, "\u6c34": 1893, "athens": 7571, "protection": 3860, "aquatic": 13582, "taboo": 27505, "goldstein": 25507, "fried": 13017, "moffat": 28528, "hawke": 24882, "cochran": 28506, "signatures": 16442, "audrey": 14166, "pastry": 27060, "##unas": 23904, "vulture": 27588, "communist": 4750, "excavated": 15199, "clyde": 12085, "iec": 24940, "steamer": 18027, "opponents": 7892, "lessons": 8220, "concludes": 14730, "##\u611b": 30379, "mortality": 13356, "alliance": 4707, "robert": 2728, "##bula": 28507, "observe": 11949, "impression": 8605, "dusseldorf": 18160, "rejected": 5837, "##ids": 9821, "livingston": 14109, "vacation": 10885, "autopsy": 24534, "wolverine": 22162, "done": 2589, "##wes": 18192, "ramos": 18882, "##wara": 11872, "max": 4098, "\u0f44": 1427, "1750": 18171, "analysis": 4106, "555": 29541, "pipe": 8667, "cooled": 12981, "wrestler": 10706, "[unused57]": 58, "##\u3063": 30189, "##miento": 28883, "emotionally": 14868, "##\u056c": 29773, "[unused563]": 568, "atmospheric": 12483, "claude": 8149, "##ora": 6525, "##pr": 18098, "bring": 3288, "interpreted": 10009, "renamed": 4096, "miles": 2661, "cheshire": 13789, "motorola": 29583, "roles": 4395, "rite": 14034, "\u04cf": 1218, "diamonds": 11719, "athletic": 5188, "fergus": 21023, "excluding": 13343, "##zen": 10431, "tilted": 9939, "[unused374]": 379, "##gas": 12617, "lindsey": 17518, "counties": 5721, "fujian": 29551, "204": 19627, "subcontinent": 26125, "##poo": 24667, "italy": 3304, "##crats": 23423, "rigorous": 20001, "##\u0905": 29847, "reformed": 9114, "monk": 8284, "emma": 5616, "highlights": 11637, "squeak": 29552, "weights": 15871, "centers": 6401, "##\u2096": 30094, "\u0639": 1288, "\u09a4": 1362, "##rrow": 28597, "##ged": 5999, "foo": 29379, "##ling": 2989, "##\u83ef": 30468, "irregularities": 28868, "[unused966]": 971, "zoo": 9201, "lark": 23404, "ford": 4811, "##ch": 2818, "sasha": 14673, "cambodia": 12899, "wwii": 25755, "##nem": 25832, "[unused243]": 248, "zurich": 10204, "nevada": 7756, "technologies": 6786, "indigenous": 6284, "boundary": 6192, "va": 12436, "recaptured": 23838, "hanson": 17179, "[unused370]": 375, "ariel": 16126, "cheney": 23745, "kenya": 7938, "##tension": 29048, "##urized": 28405, "erupted": 12591, "##ntal": 15758, "prepared": 4810, "##isse": 23491, "##nga": 13807, "pounded": 13750, "##ace": 10732, "tehsil": 20751, "telling": 4129, "veracruz": 23741, "acoustic": 6490, "stadiums": 28244, "generous": 12382, "reel": 15934, "guns": 4409, "##tative": 27453, "friction": 15012, "stevens": 8799, "nurse": 6821, "scots": 12196, "convertible": 22840, "predecessor": 8646, "thorne": 14296, "cupboard": 25337, "\u1d62": 1507, "foul": 12487, "##layer": 24314, "investigations": 9751, "##ing": 2075, "[unused932]": 937, "dade": 27647, "submit": 12040, "akira": 21616, "temperance": 23372, "baghdad": 13952, "##gan": 5289, "##4": 2549, "ruining": 27853, "purchase": 5309, "slab": 17584, "sheppard": 24976, "[unused252]": 257, "##fy": 12031, "empowered": 26480, "##ological": 10091, "##asia": 15396, "jump": 5376, "anglican": 9437, "infant": 10527, "klein": 12555, "enclosure": 17539, "england": 2563, "possibilities": 12020, "vanished": 9955, "biographies": 22056, "zombie": 11798, "175": 12862, "##dp": 18927, "moose": 17716, "##tail": 14162, "[unused823]": 828, "\u05d9": 1250, "aiden": 15086, "a2": 22441, "confederation": 11078, "lunar": 11926, "##\u0449": 29754, "##isa": 14268, "##\u660e": 30391, "promotes": 14067, "rb": 21144, "\u3044": 1647, "kitchen": 3829, "constabulary": 23791, "brutal": 12077, "corresponded": 27601, "##\u0438": 10325, "jason": 4463, "isn": 3475, "reginald": 14435, "witchcraft": 21599, "##\u6210": 30380, "stench": 21555, "\u067e": 1302, "suarez": 22551, "hammering": 27883, "september": 2244, "##\u306b": 30194, "asian": 4004, "[unused380]": 385, "hanover": 14393, "##ganj": 22738, "silenced": 25030, "currently": 2747, "hissing": 26386, "resort": 7001, "##overs": 24302, "infinity": 15579, "robin": 5863, "mag": 23848, "##ilde": 23891, "##ati": 10450, "jockey": 13989, "amateurs": 24361, "query": 23032, "1840s": 19308, "passion": 6896, "buddy": 8937, "##lium": 21816, "denote": 19090, "charts": 6093, "ingrid": 22093, "1861": 6863, "economic": 3171, "current": 2783, "[unused503]": 508, "mirrored": 22243, "retailers": 16629, "##path": 15069, "##lce": 23314, "##ulton": 22145, "terri": 26568, "saigon": 24001, "hummed": 26747, "seeking": 6224, "##\u099f": 29895, "bryant": 12471, "##\u300d": 30168, "##rey": 15202, "[unused839]": 844, "hawaiian": 12188, "bernardo": 21175, "devastating": 14886, "[unused153]": 158, "##sei": 20240, "phillip": 10852, "priorities": 18402, "treating": 12318, "horrible": 9202, "algorithm": 9896, "shift": 5670, "airship": 27636, "compressor": 29329, "disciplined": 28675, "##\u2606": 30148, "styled": 13650, "melodic": 17187, "discuss": 6848, "highlands": 11784, "##gaard": 18839, "scientists": 6529, "rio": 5673, "##ingdon": 29138, "sic": 14387, "consistent": 8335, "justification": 19777, "84": 6391, "enhancement": 22415, "##itaire": 29422, "portsmouth": 10913, "enclave": 25867, "life": 2166, "redhead": 26705, "##bbled": 12820, "tested": 7718, "##fan": 15143, "[unused222]": 227, "thirteen": 7093, "norse": 15342, "##\u062d": 29820, "##pol": 18155, "jokes": 13198, "spines": 20352, "hairs": 13606, "[unused65]": 66, "barrow": 15355, "sexual": 4424, "cognitive": 10699, "\u4fdd": 1766, "##bos": 15853, "civilians": 9272, "\u0935": 1335, "staffordshire": 17052, "wardrobe": 17828, "photograph": 9982, "hint": 9374, "##ieu": 17301, "##wire": 20357, "[unused769]": 774, "##rift": 16338, "124": 13412, "exploration": 8993, "joke": 8257, "##lia": 6632, "matrices": 21520, "yield": 10750, "netball": 25034, "fiscal": 10807, "550": 13274, "good": 2204, "influences": 8092, "fiba": 13651, "detectors": 25971, "##\u2088": 30084, "smack": 21526, "easter": 10957, "have": 2031, "tucked": 9332, "stratford": 17723, "[unused881]": 886, "\u2265": 1609, "busch": 15840, "530": 23523, "mix": 4666, "scripted": 22892, "candi": 27467, "\u03c7": 1177, "museum": 2688, "biceps": 27947, "[unused264]": 269, "25": 2423, "retirement": 5075, "inhabitants": 4864, "mega": 13164, "##vius": 26055, "tendencies": 20074, "##matic": 12644, "bladder": 24176, "slave": 6658, "steady": 6706, "##rmed": 29540, "anthropology": 12795, "commanded": 6311, "lines": 3210, "meters": 5563, "message": 4471, "interesting": 5875, "reindeer": 29495, "describe": 6235, "##gia": 10440, "tt": 23746, "1958": 3845, "veronica": 13133, "[unused120]": 125, "tanks": 7286, "stupidity": 28072, "cher": 24188, "conditions": 3785, "\u5bae": 1824, "caretaker": 17600, "avery": 12140, "cleric": 29307, "injuries": 6441, "glittering": 20332, "symphonies": 29355, "pleasing": 24820, "ensured": 16316, "mon": 12256, "chaotic": 19633, "insides": 19008, "debates": 14379, "treaties": 16013, "conner": 17639, "filing": 15242, "##pton": 15857, "roofs": 15753, "detector": 19034, "california": 2662, "##\u043d\u0430": 19865, "navarro": 23524, "##\u6e05": 30429, "formidable": 18085, "unrelated": 15142, "smile": 2868, "avalon": 18973, "balanced": 12042, "##sian": 17043, "affection": 12242, "#": 1001, "enhancing": 20226, "polka": 29499, "mets": 15253, "fascinating": 17160, "weighted": 18215, "mixtape": 18713, "lest": 26693, "edict": 24754, "refreshing": 27150, "8th": 5893, "hayward": 21506, "cabinet": 5239, "\u1da0": 1512, "lear": 26511, "calais": 23116, "liberal": 4314, "listing": 10328, "necessity": 13185, "##chi": 5428, "\u028e": 1135, "##eson": 21421, "##ia": 2401, "hurry": 9241, "hauling": 23113, "purity": 18433, "minneapolis": 11334, "pods": 26723, "lan": 17595, "enoch": 28178, "generations": 8213, "goodnight": 22708, "##ios": 10735, "amassed": 22151, "shaun": 16845, "1847": 9176, "batman": 8942, "expansion": 4935, "[unused73]": 74, "clenched": 8555, "sham": 25850, "deafening": 28840, "matilda": 17981, "dual": 7037, "\u884c": 1945, "blushing": 25771, "tang": 9745, "titanium": 23431, "selfish": 14337, "rams": 13456, "commuter": 14334, "keys": 6309, "actual": 5025, "contractual": 27948, "pardon": 14933, "##8": 2620, "670": 25535, "geschichte": 28299, "body": 2303, "law": 2375, "grown": 4961, "calvert": 24800, "geelong": 18664, "[unused49]": 50, "\u0454": 1212, "leah": 14188, "##rgen": 25892, "kingsley": 22819, "utter": 14395, "\u76f8": 1919, "martian": 20795, "broker": 20138, "##sms": 19230, "##\u201d": 30059, "##ners": 16912, "british": 2329, "exchequer": 28889, "ghostly": 24407, "##rock": 16901, "desperation": 15561, "graders": 23256, "beaufort": 23622, "[unused719]": 724, "dail": 26181, "river": 2314, "voyages": 21993, "eleanor": 10508, "adoptive": 24787, "seizing": 24681, "pamela": 17217, "boarded": 17383, "##lone": 27165, "##400": 29537, "sit": 4133, "ignores": 26663, "##block": 23467, "tailed": 14578, "jealous": 9981, "fascinated": 15677, "##thorpe": 22398, "constrained": 27570, "##\uff0d": 30516, "beers": 18007, "dictated": 23826, "kind": 2785, "rehearsals": 24760, "jerking": 22387, "breton": 16659, "coast": 3023, "\u76ee": 1918, "[unused408]": 413, "silhouette": 21776, "organization": 3029, "salisbury": 13817, "resulted": 4504, "encompassed": 24058, "alvarez": 16309, "noon": 11501, "thatcher": 21127, "autumn": 7114, "darmstadt": 28381, "hastily": 15789, "minnesota": 5135, "##ioned": 19798, "johann": 8968, "cramped": 22766, "[unused573]": 578, "constantly": 7887, "injuring": 22736, "edmond": 21773, "chesapeake": 20867, "amos": 13744, "mart": 20481, "evolving": 20607, "emperors": 19655, "experience": 3325, "skating": 10080, "vanity": 18736, "shape": 4338, "observes": 24451, "competitors": 10159, "undrafted": 21347, "##ncia": 22750, "##lika": 25421, "cassie": 8869, "unfamiliar": 16261, "jorge": 10853, "wigan": 15598, "[unused991]": 996, "##rge": 20800, "##kell": 18690, "markedly": 29295, "growing": 3652, "vietnam": 5148, "athena": 21880, "habsburg": 17486, "infringement": 20701, "soo": 17111, "supervising": 21238, "folks": 12455, "##has": 14949, "##haus": 13821, "##van": 6212, "247": 23380, "watery": 28259, "moderate": 8777, "jaws": 16113, "believes": 7164, "offered": 3253, "145": 13741, "blunt": 14969, "mojo": 28017, "hard": 2524, "countries": 3032, "jing": 21536, "##ble": 3468, "coupe": 15130, "mom": 3566, "##\u1166": 30009, "authoritative": 23949, "aimed": 6461, "volatile": 20606, "intellect": 24823, "pairs": 7689, "trips": 9109, "stir": 16130, "diagnosis": 11616, "kristen": 22435, "##1": 2487, "mandal": 24373, "dorothea": 24052, "##stis": 29472, "lithium": 22157, "aero": 18440, "\u3053": 1655, "##cede": 22119, "1948": 3882, "ronin": 29249, "##vid": 17258, "pilgrim": 21214, "\u044f": 1210, "fours": 23817, "genes": 9165, "old": 2214, "atoll": 22292, "plotting": 20699, "thy": 15177, "144": 14748, "\u5fc3": 1849, "dixie": 18910, "##\u0938": 29874, "ortega": 25859, "violate": 23640, "buffy": 18467, "brent": 12895, "truss": 24224, "sequel": 8297, "146": 16333, "assign": 23911, "sinks": 23462, "trunks": 20509, "reptiles": 20978, "culinary": 20560, "conversions": 25834, "greenwich": 13861, "nautical": 11339, "senate": 4001, "thorn": 16337, "interests": 5426, "\u524d": 1776, "partly": 6576, "winkler": 20472, "communications": 4806, "trance": 16588, "dirk": 17594, "trustees": 9360, "\u5b50": 1816, "break": 3338, "##air": 11215, "maternity": 23676, "locus": 25206, "pakistani": 9889, "q": 1053, "exceptions": 11790, "headlights": 18167, "method": 4118, "##chment": 22729, "[unused953]": 958, "##emann": 17545, "cleveland": 6044, "##kara": 16566, "come": 2272, "cries": 12842, "iii": 3523, "stephenson": 19789, "factual": 25854, "aarhus": 29173, "##uz": 17040, "progress": 5082, "hoisted": 27269, "\u9f8d": 1982, "funky": 24151, "armored": 10612, "johan": 13093, "hostilities": 17601, "latino": 7402, "standalone": 26609, "imperative": 23934, "wen": 19181, "sas": 21871, "magazines": 7298, "1964": 3546, "offset": 16396, "laird": 21964, "tub": 14366, "##or": 2953, "settled": 3876, "coalition": 6056, "declined": 6430, "phonetic": 26664, "whenever": 7188, "##till": 28345, "crept": 13147, "vamp": 20279, "##yam": 14852, "incarcerated": 23995, "contributor": 12130, "lineman": 24062, "practices": 6078, "len": 18798, "2007": 2289, "[unused188]": 193, "layout": 9621, "[unused288]": 293, "[unused931]": 936, "enable": 9585, "malmo": 23643, "held": 2218, "nora": 12306, "partridge": 26079, "decline": 6689, "##hue": 20169, "decreed": 28447, "midst": 12930, "##lizer": 28863, "baldwin": 10970, "jurisprudence": 24697, "##sed": 6924, "##\u057a": 29780, "grammatical": 24402, "she": 2016, "macintosh": 22228, "pearson": 12874, "busted": 23142, "manned": 15371, "races": 3837, "##oko": 16366, "blue": 2630, "##inking": 29377, "christmas": 4234, "##cter": 21162, "hiroshima": 20168, "nexus": 26041, "serum": 20194, "##igate": 28731, "advisor": 8619, "flourish": 24299, "pic": 27263, "identifiable": 27800, "narrower": 22546, "defend": 6985, "[unused195]": 200, "survival": 7691, "##tling": 15073, "west": 2225, "##\u0563": 29768, "holds": 4324, "bavaria": 11606, "##iano": 15668, "rv": 27634, "[unused691]": 696, "feast": 9831, "\u0dc0": 1407, "##fall": 13976, "opposing": 10078, "##mora": 22122, "chartered": 12443, "pod": 17491, "narayan": 24331, "gps": 14658, "exhaled": 16242, "climbs": 18881, "\u201a": 1522, "jogging": 28233, "dump": 15653, "##\u092d": 29866, "ago": 3283, "revived": 10570, "pratt": 13208, "[unused699]": 704, "homemade": 25628, "toured": 7255, "\u02bc": 1146, "cruiser": 10844, "nikita": 29106, "230": 11816, "##abi": 28518, "eyes": 2159, "marine": 3884, "##\u4eba": 30282, "favourite": 8837, "##tyn": 25680, "*": 1008, "\u1d30": 1492, "blogs": 23012, "representation": 6630, "octagonal": 22340, "##\u00bd": 13714, "mothers": 10756, "cables": 15196, "[unused917]": 922, "##onda": 29067, "contest": 5049, "inverse": 19262, "reservation": 11079, "rankings": 10385, "welcome": 6160, "analyzed": 16578, "bf": 28939, "periphery": 23275, "vietnamese": 9101, "ones": 3924, "poke": 26202, "director": 2472, "##nai": 26416, "parenting": 28586, "my": 2026, "fruits": 10962, "1906": 5518, "clasp": 23465, "waited": 4741, "402": 28048, "##ivating": 17441, "billy": 5006, "##asi": 21369, "cantor": 26519, "##\u05d6": 29793, "roaring": 17197, "[unused789]": 794, "pays": 12778, "signifies": 27353, "[unused375]": 380, "##gl": 23296, "clothes": 4253, "formation": 4195, "910": 27743, "environment": 4044, "electrical": 5992, "prc": 26141, "sarcastically": 23800, "pleas": 22512, "woody": 13703, "millions": 8817, "solve": 9611, "fey": 23864, "pipes": 12432, "mccartney": 15320, "66": 5764, "##logue": 24277, "eye": 3239, "shotgun": 13305, "[unused404]": 409, "impress": 17894, "leopold": 12752, "\u5ca1": 1832, "appointed": 2805, "##\u7ae0": 30458, "gotten": 5407, "rocket": 7596, "barnsley": 25139, "butler": 7055, "gorilla": 23526, "cosmic": 14448, "intrigued": 18896, "[unused290]": 295, "prescott": 20719, "##\u1d47": 30033, "oppose": 15391, "philipp": 20765, "##sov": 23230, "prizes": 11580, "sonny": 13584, "regulators": 25644, "encompassing": 19129, "refuge": 9277, "wilder": 18463, "[unused431]": 436, "violating": 20084, "##pin": 8091, "hobart": 14005, "deciding": 10561, "arte": 16185, "independents": 23756, "investigators": 14766, "ringo": 25589, "mindanao": 23669, "clench": 26753, "quarterly": 12174, "juliana": 24157, "bayer": 26367, "ardent": 25314, "##venting": 26703, "crows": 21623, "dormitory": 21538, "uk": 2866, "rink": 18416, "trial": 3979, "##dding": 27027, "portrayed": 6791, "soundtracks": 24245, "mighty": 10478, "##\u0bb3": 29929, "oxygen": 7722, "tilt": 17010, "abs": 14689, "##eet": 15558, "castile": 15656, "loren": 28779, "matches": 3503, "blaine": 20002, "winston": 10180, "raid": 8118, "offshore": 12195, "hedge": 17834, "ve": 2310, "ein": 16417, "glider": 18788, "dem": 17183, "exam": 11360, "philanthropy": 29291, "fog": 9666, "chanting": 22417, "frankie": 12784, "window": 3332, "bancroft": 29351, "dec": 11703, "amir": 18904, "suriname": 25050, "favored": 12287, "abel": 16768, "later": 2101, "##lar": 8017, "tanya": 19956, "pajamas": 27621, "##uity": 18518, "logic": 7961, "##\u2021": 30062, "groom": 18087, "sacrament": 28958, "nicky": 20158, "dummy": 24369, "##tre": 7913, "daemon": 12828, "recorder": 14520, "diminished": 15911, "roberts": 7031, "##\u1d50": 30038, "##nist": 26942, "##und": 8630, "tunes": 13281, "die": 3280, "integral": 9897, "st": 2358, "440": 17422, "aware": 5204, "torches": 24711, "disposed": 21866, "concerning": 7175, "\u10d9": 1446, "simplified": 11038, "spends": 15970, "larvae": 9673, "commanding": 7991, "trails": 9612, "##tile": 15286, "electoral": 6092, "311": 23532, "piled": 17835, "##rgh": 27172, "lao": 18805, "root": 7117, "brought": 2716, "posture": 16819, "gaining": 8550, "diaz": 12526, "threaten": 15686, "camp": 3409, "##ads": 19303, "features": 2838, "##ades": 18673, "quarterfinal": 29380, "##rol": 13153, "kabul": 21073, "##zuki": 24015, "randolph": 13031, "##sphere": 23874, "protectorate": 20394, "\u30b5": 1705, "##post": 19894, "complaint": 12087, "##osomal": 27642, "forster": 21316, "principles": 6481, "##kus": 22332, "representatives": 4505, "##odle": 26156, "shapes": 10466, "splendid": 21459, "taxis": 25964, "apache": 15895, "amman": 25703, "cassette": 13903, "psychiatrist": 18146, "corresponding": 7978, "mentioning": 18625, "apostle": 20121, "|": 1064, "\u9547": 1966, "rage": 7385, "overlap": 17702, "\u2095": 1564, "seaman": 21626, "\u539f": 1787, "##liga": 14715, "taps": 25316, "islamist": 27256, "choirs": 24743, "##lis": 6856, "texas": 3146, "##birds": 12887, "##tsky": 26824, "[unused517]": 522, "eruption": 17259, "lei": 26947, "##cene": 17968, "outright": 13848, "fifa": 5713, "advances": 9849, "operational": 6515, "club": 2252, "dh": 28144, "slipping": 11426, "ama": 25933, "dress": 4377, "forbes": 10822, "##pit": 23270, "##nl": 20554, "##tz": 5753, "\u00ac": 1078, "##feit": 21156, "##bek": 24597, "[unused323]": 328, "\u20a4": 1572, "mickey": 11021, "ming": 11861, "recreated": 29414, "million": 2454, "blockbuster": 27858, "directional": 20396, "whistling": 24350, "burst": 6532, "baptized": 19775, "entertained": 21474, "\u00b1": 1081, "derived": 5173, "##haya": 26115, "asserted": 13647, "oro": 20298, "##bay": 15907, "98": 5818, "question": 3160, "households": 3911, "whitehall": 28361, "whore": 17219, "##placed": 22829, "liquid": 6381, "girl": 2611, "[unused9]": 10, "alberta": 7649, "salem": 10389, "only": 2069, "efforts": 4073, "malaga": 27382, "laundry": 14533, "hee": 18235, "[unused860]": 865, "saw": 2387, "ukraine": 5924, "comment": 7615, "##uli": 15859, "terminate": 20320, "##ccus": 27631, "coe": 24873, "macmillan": 15434, "recruit": 13024, "presenting": 10886, "shelters": 17177, "assemble": 21365, "squinting": 29156, "##\u1d30": 30028, "levant": 24485, "bogota": 21240, "\u30cb": 1716, "daly": 18509, "designs": 5617, "giorgio": 17697, "\u307e": 1677, "##yang": 12198, "jacqueline": 17551, "\u30e2": 1727, "200": 3263, "thumbs": 16784, "brooke": 11535, "venture": 6957, "unwanted": 18162, "\u30a6": 1696, "##\u6797": 30407, "madeline": 16974, "\u092c": 1329, "\u5341": 1783, "rainfall": 10101, "##jos": 19929, "concordia": 24982, "bitterness": 22364, "faulty": 28927, "skins": 21049, "highest": 3284, "ferries": 20157, "paso": 17161, "spores": 23763, "horde": 21038, "decide": 5630, "##day": 10259, "misleading": 22369, "moreno": 17921, "shah": 7890, "chandler": 13814, "##omba": 24991, "logistical": 28961, "do": 2079, "motion": 4367, "##\u0561": 29766, "benjamin": 6425, "##\u0e07": 29946, "cadet": 12738, "clones": 24418, "dennis": 6877, "preach": 25250, "##elin": 18809, "resided": 12427, "mangrove": 29340, "ricky": 11184, "mikey": 25998, "mapping": 12375, "[unused986]": 991, "##aq": 20784, "by": 2011, "##`": 29639, "\u307f": 1678, "[unused549]": 554, "mollusk": 13269, "cutting": 6276, "cloudy": 24706, "trout": 13452, "\u0f63": 1435, "##borg": 11755, "ca": 6187, "strangers": 12358, "groaning": 24781, "protestants": 19592, "messiah": 22112, "##phile": 24862, "intuition": 26406, "##hiro": 18334, "lodges": 26767, "\u0292": 1138, "ignored": 6439, "proponents": 20401, "lansing": 22304, "tax": 4171, "170": 10894, "##sible": 19307, "fighters": 7299, "hbo": 14633, "speech": 4613, "tulsa": 16631, "monarchs": 19799, "terribly": 16668, "bothering": 17067, "gruff": 27038, "##his": 24158, "hazel": 14015, "rudder": 24049, "cyclist": 14199, "pathways": 16910, "any": 2151, "\u96c4": 1974, "nets": 16996, "sides": 3903, "fir": 21554, "quasi": 17982, "[unused821]": 826, "command": 3094, "[unused411]": 416, "maintained": 5224, "compares": 22963, "##gata": 26589, "flopped": 24723, "smoky": 20629, "alsace": 24922, "1653": 29309, "arrest": 6545, "##ded": 5732, "##\u03b8": 29725, "pathogen": 26835, "nuevo": 22250, "bessie": 29298, "##\u05d1": 29789, "##rsa": 22381, "respect": 4847, "1580": 28278, "1910s": 28088, "##onis": 27296, "##fies": 14213, "monterey": 19860, "nero": 19212, "##\u0454": 29759, "tobacco": 9098, "##\u52dd": 30306, "sufficient": 7182, "wagon": 9540, "uncredited": 8104, "##lau": 17298, "danced": 10948, "delight": 12208, "dutton": 28784, "[unused479]": 484, "tirana": 24631, "torah": 16297, "vast": 6565, "racehorse": 25068, "unhappy": 12511, "compassion": 15398, "\u05e3": 1260, "pantry": 27796, "##raz": 20409, "managers": 10489, "carmel": 19443, "rugby": 4043, "adversary": 27248, "1815": 10679, "##\u0283": 29696, "drink": 4392, "\u10e1": 1452, "dashboard": 24923, "138": 15028, "##dman": 21804, "rent": 9278, "squads": 20191, "##oria": 11069, "##boro": 12691, "##ck": 3600, "sings": 10955, "rid": 9436, "\u05dc": 1253, "magnum": 19691, "##mur": 20136, "litre": 16812, "erica": 19295, "axel": 18586, "rupert": 14641, "[unused16]": 17, "indiana": 5242, "##hol": 14854, "links": 6971, "fatty": 19101, "soccer": 4715, "##yard": 14132, "shadowed": 25843, "68": 6273, "memorial": 3986, "disused": 26958, "nikola": 24794, "explosive": 11355, "erskine": 27139, "listener": 19373, "ymca": 26866, "pillar": 14809, "sweetheart": 12074, "amara": 28599, "fuel": 4762, "curtis": 9195, "sleeps": 25126, "martial": 7761, "vigorous": 21813, "pulling": 4815, "##kulam": 28871, "##rice": 17599, "##vie": 13469, "justine": 26377, "jersey": 3933, "##rnier": 28484, "plotted": 27347, "##\u0e21": 29951, "unmarked": 25779, "inscriptions": 12920, "millionaire": 19965, "dismounted": 29580, "popular": 2759, "##hers": 22328, "battalion": 4123, "trevor": 8672, "diagonal": 19754, "priesthood": 17911, "arterial": 25543, "solidarity": 14657, "consumer": 7325, "waiter": 15610, "\u0bb5": 1394, "clubs": 4184, "congo": 9030, "shakes": 10854, "##ided": 14097, "controller": 11486, "fate": 6580, "strengths": 20828, "diffusion": 19241, "1731": 28446, "##hian": 14204, "za": 23564, "christina": 12657, "##ford": 3877, "422": 29269, "##ssed": 29417, "warsaw": 8199, "convincing": 13359, "object": 4874, "##2": 2475, "flag": 5210, "great": 2307, "buff": 23176, "casa": 14124, "excused": 28512, "midi": 22265, "cs": 20116, "thwarted": 28409, "elusive": 26475, "occupied": 4548, "##ditional": 27064, "##long": 10052, "popularity": 6217, "tens": 15295, "anatomical": 28141, "preoccupied": 23962, "\u667a": 1869, "hop": 6154, "ferguson": 11262, "denis": 11064, "lola": 15137, "episodes": 4178, "\u2015": 1518, "##ych": 17994, "[unused450]": 455, "jensen": 14857, "courthouse": 10816, "plane": 4946, "39": 4464, "costing": 22173, "[unused631]": 636, "##shima": 24772, "##set": 13462, "lifting": 8783, "miniseries": 13612, "alvin": 17348, "##llah": 18599, "lemon": 14380, "god": 2643, "930": 29359, "extinct": 8548, "specified": 9675, "chico": 22136, "censorship": 15657, "nightfall": 28018, "galactic": 21375, "peak": 4672, "alley": 8975, "engined": 21235, "narratives": 22143, "privilege": 14293, "superintendent": 9133, "mouthful": 28462, "pau": 29025, "mis": 28616, "novice": 23131, "organ": 5812, "subgenus": 25356, "weber": 13351, "[unused831]": 836, "1666": 27407, "kid": 4845, "##etto": 20082, "flickering": 20046, "shootout": 18297, "\u0642": 1292, "ollie": 25208, "##lace": 19217, "iraq": 5712, "capita": 8353, "##cott": 13124, "##storm": 19718, "stigma": 26453, "##ction": 7542, "##\u043e\u0432\u0438\u0447": 16198, "##nstein": 15493, "rip": 10973, "relieve": 15804, "prayed": 14283, "##onale": 22823, "zack": 13658, "##line": 4179, "feather": 15550, "##oth": 14573, "campaigns": 8008, "announce": 14970, "duane": 27319, "railroads": 16197, "##ial": 4818, "##iy": 28008, "swore": 12860, "served": 2366, "cheryl": 19431, "studio": 2996, "archibald": 15917, "cliff": 7656, "\u092d": 1330, "313": 22997, "deities": 17091, "##nier": 14862, "torpedoes": 18544, "\u6f22": 1904, "deployment": 10813, "incidents": 10444, "\u30fc": 1739, "kochi": 27603, "cleaner": 20133, "1786": 17436, "clawed": 22544, "bachelor": 5065, "goo": 27571, "##ishing": 21837, "##tive": 6024, "\u3089": 1685, "##sler": 20590, "##\u0627\u0646": 18511, "notified": 19488, "istanbul": 9960, "olds": 19457, "union": 2586, "##hima": 16369, "ponds": 16879, "stadium": 3346, "##erine": 24226, "77": 6255, "\u4f1a": 1763, "##naut": 24619, "edit": 10086, "##istan": 23137, "480": 17295, "##ucher": 22368, "##po": 6873, "benji": 27231, "duties": 5704, "wills": 17234, "sentiment": 15792, "##forms": 22694, "applies": 12033, "##uman": 19042, "<": 1026, "forearm": 16148, "combo": 25025, "lifted": 4196, "messengers": 28938, "lingered": 17645, ".": 1012, "arrondissement": 20522, "flashbacks": 28945, "typical": 5171, "##ikh": 28209, "worker": 7309, "chong": 24008, "willing": 5627, "separately": 10329, "##lberg": 22927, "\u30aa": 1699, "bouncing": 16361, "999": 25897, "hunts": 28526, "registry": 15584, "##uze": 20395, "ham": 10654, "ticked": 26019, "pagan": 14318, "cpc": 28569, "yuan": 11237, "##lb": 20850, "bargain": 17113, "disrepair": 27799, "canceled": 13261, "considers": 10592, "eventual": 9523, "]": 1033, "##\u0e01": 29945, "comfortable": 6625, "consul": 11801, "accumulated": 14830, "\u7fa9": 1936, "lobbying": 19670, "divert": 27345, "evolved": 7964, "alumnus": 19678, "militant": 16830, "formed": 2719, "fragrance": 24980, "chestnut": 15655, "##nd": 4859, "\u1166": 1473, "naturally": 8100, "1946": 3918, "statistics": 6747, "lough": 29504, "administering": 28965, "album": 2201, "##el": 2884, "##80": 17914, "[unused562]": 567, "abstracts": 29474, "underneath": 7650, "##manship": 21530, "quebec": 5447, "braden": 27232, "##rem": 28578, "paragraph": 20423, "shifted": 5429, "warlock": 28861, "roughly": 5560, "##eur": 11236, "juan": 5348, "lock": 5843, "palm": 5340, "adhere": 25276, "contrast": 5688, "[unused276]": 281, "michaels": 17784, "missiles": 10815, "heavily": 4600, "worked": 2499, "corvette": 22687, "chaplain": 14011, "##mut": 28120, "exiting": 22371, "burden": 10859, "##cke": 19869, "punjab": 9213, "nominate": 23388, "##break": 23890, "##nal": 12032, "statues": 11342, "[unused666]": 671, "##arm": 27292, "plaid": 26488, "whilst": 5819, "georgina": 27358, "rubble": 17538, "raider": 27826, "smallest": 10479, "dalai": 28511, "vibe": 21209, "maharaja": 21609, "intervene": 18793, "1722": 26689, "##hampton": 21946, "##ses": 8583, "misery": 14624, "christi": 21359, "habits": 14243, "teaches": 12011, "##uk": 6968, "keith": 6766, "##bruck": 28985, "1852": 8784, "swirled": 19171, "viii": 9937, "clare": 11152, "incidence": 18949, "nonsense": 14652, "soaked": 13077, "science": 2671, "chimney": 17321, "subsided": 26588, "explicitly": 12045, "ascribed": 28025, "straw": 13137, "inhibit": 26402, "eggs": 6763, "postal": 10690, "bradley": 8981, "imprisoned": 8580, "cai": 29080, "oceans": 17401, "text": 3793, "provoked": 19157, "junior": 3502, "##cha": 7507, "banned": 7917, "donetsk": 29151, "repetition": 23318, "customary": 16120, "##rne": 12119, "sylvia": 13378, "swedish": 4467, "\u1105": 1458, "complex": 3375, "ul": 17359, "cbc": 13581, "carpenter": 10533, "similarities": 12319, "deteriorated": 20111, "vile": 25047, "gandhi": 12338, "crown": 4410, "sniffing": 27646, "arrivals": 25470, "chaplin": 23331, "sooner": 10076, "##held": 24850, "prince": 3159, "\u043e": 1193, "stretched": 7121, "dashed": 18198, "squirrel": 18197, "fisted": 28273, "ur": 24471, "josie": 15293, "bond": 5416, "\u5b66": 1817, "adventurer": 29506, "finalists": 13527, "##\u0e1e": 29950, "kannada": 13873, "calendar": 8094, "declaring": 13752, "feud": 13552, "robotic": 20478, "ratified": 17673, "romney": 19615, "dining": 7759, "[unused522]": 527, "heraldic": 28867, "##oku": 21940, "novelist": 9974, "[unused946]": 951, "compton": 18592, "perfection": 15401, "embedded": 11157, "strategic": 6143, "\u4e00": 1740, "comeback": 12845, "263": 25246, "[unused440]": 445, "mostly": 3262, "banker": 13448, "##bc": 9818, "hole": 4920, "\u0997": 1355, "replacements": 23936, "1994": 2807, "westchester": 25489, "webster": 11635, "christians": 8135, "downloadable": 26720, "##\u304a": 30176, "modifying": 29226, "[unused980]": 985, "##\uff1a": 30519, "demeanor": 21745, "13": 2410, "sergio": 13983, "echoes": 17659, "europeans": 13481, "guides": 12468, "rouge": 12801, "fungi": 15289, "curves": 10543, "mahmud": 25886, "extends": 8908, "azerbaijani": 18325, "overturned": 17068, "local": 2334, "1949": 4085, "hash": 23325, "##nding": 15683, "orphans": 21478, "seminary": 8705, "peters": 12420, "creeping": 18266, "##haling": 23896, "rested": 8614, "reeves": 17891, "\u3048": 1649, "##hunter": 25629, "engraved": 16328, "radar": 7217, "euroleague": 26093, "lobby": 9568, "entrusted": 18011, "##rney": 27114, "\u5e74": 1840, "[unused438]": 443, "societies": 8384, "mt": 11047, "dinners": 29236, "did": 2106, "temperament": 26270, "stream": 5460, "nearby": 3518, "collaborated": 8678, "1920": 4444, "##yeh": 25673, "honneur": 28197, "##kos": 15710, "##lina": 13786, "putin": 22072, "\u30e5": 1729, "##bane": 27543, "belinda": 24574, "afraid": 4452, "##\u5bfa": 30353, "abroad": 6917, "##suka": 26544, "09": 5641, "therapy": 7242, "1800": 9807, "surfaced": 15791, "syndication": 26973, "guardian": 6697, "slogan": 14558, "##phic": 17926, "mage": 17454, "discourse": 15152, "investigation": 4812, "minus": 15718, "throbbing": 17061, "promotions": 15365, "soils": 13622, "gnome": 25781, "landmarks": 16209, "alumni": 9441, "stared": 3592, "m\u00b2": 7030, "\u093e": 1340, "bread": 7852, "confederacy": 18179, "melancholy": 22247, "205": 16327, "##\u043e": 14150, "slamming": 15209, "[unused196]": 201, "alternating": 15122, "flesh": 5771, "goes": 3632, "##uc": 14194, "anomaly": 28685, "qing": 13282, "##kam": 27052, "scratching": 20291, "nate": 8253, "hornets": 24855, "awful": 9643, "hum": 14910, "theresa": 14781, "remy": 22712, "legs": 3456, "wylie": 29152, "dude": 12043, "\u301c": 1645, "somehow": 5064, "chopped": 24881, "clouds": 8044, "##\u0e2d": 29957, "revolver": 17863, "photographed": 16164, "mars": 7733, "##tana": 20496, "##enas": 26474, "drawers": 22497, "##listic": 27348, "stops": 6762, "synonymous": 22594, "stuffing": 28652, "wounded": 5303, "##turn": 22299, "##ved": 7178, "conquest": 9187, "concentrations": 14061, "camouflage": 21356, "hush": 20261, "judicial": 8268, "under": 2104, "rags": 26346, "##ous": 3560, "##\u5065": 30294, "scrolls": 23074, "##ln": 19666, "whistled": 26265, "toilet": 11848, "nominal": 15087, "motel": 14901, "\u0432": 1182, "##hler": 13620, "compromised": 20419, "##bino": 21891, "assassin": 12025, "[unused233]": 238, "uncertain": 9662, "whaling": 23687, "##asian": 24145, "interacting": 21935, "installed": 5361, "dickens": 19675, "digest": 17886, "##iser": 17288, "astronomer": 15211, "optimization": 20600, "ft": 3027, "chilled": 23362, "mathematicians": 29374, "ducked": 13781, "prototype": 8773, "##hua": 14691, "sits": 7719, "temperate": 16868, "yards": 4210, "##ino": 5740, "frontman": 21597, "30th": 13293, "turning": 3810, "valid": 9398, "##\u0434": 29742, "##stand": 21515, "heinrich": 10952, "##\u0641": 29833, "electricity": 6451, "##quet": 12647, "cruel": 10311, "possible": 2825, "reflective": 21346, "made": 2081, "dominic": 11282, "##tist": 16774, "outsiders": 22361, "nos": 16839, "stagecoach": 26025, "marge": 25532, "wooded": 17172, "##berry": 9766, "##reate": 29313, "##tale": 22059, "attitudes": 13818, "healer": 19783, "genuinely": 15958, "##ike": 17339, "sharon": 10666, "##water": 5880, "esther": 14631, "luca": 15604, "peshawar": 28777, "reproduce": 21376, "serra": 22737, "sv": 17917, "##jured": 26949, "arenas": 26434, "mtv": 8692, "fraternity": 13577, "maximus": 21692, "etc": 4385, "pea": 26034, "smooth": 5744, "blinds": 28279, "snakes": 12971, "participating": 8019, "legislation": 6094, "ye": 6300, "wallet": 15882, "cascade": 16690, "shallow": 8467, "\u03c9": 1179, "knight": 5000, "struck": 4930, "271": 25103, "tow": 15805, "composure": 23619, "organizing": 10863, "perched": 17335, "jordanian": 26276, "##jean": 27687, "##bf": 29292, "[unused625]": 630, "##\u3002": 30162, "322": 23768, "ruby": 10090, "\u0987": 1349, "parental": 18643, "uneasy": 15491, "##made": 21565, "rosemary": 18040, "that": 2008, "##nea": 22084, "1714": 25241, "##\u2085": 30081, "##escu": 19434, "greensboro": 27905, "[unused168]": 173, "sundance": 20140, "highways": 10292, "dissemination": 28170, "alzheimer": 21901, "thickness": 14983, "##\u8c9d": 30478, "kicks": 14590, "springsteen": 26002, "explored": 10641, "sarcastic": 22473, "employment": 6107, "fuels": 20145, "##em": 6633, "anastasia": 19447, "dried": 9550, "abrams": 23063, "indicate": 5769, "jacobite": 28725, "pre": 3653, "philosophical": 9569, "rest": 2717, "padded": 20633, "nerves": 10627, "marseille": 16766, "sloping": 24724, "earrings": 27212, "idaho": 9795, "dt": 26718, "##ina": 3981, "outlet": 13307, "##del": 9247, "jones": 3557, "biting": 12344, "moons": 23377, "precisely": 10785, "manipulating": 26242, "reactive": 22643, "##cence": 29320, "zac": 29250, "registered": 5068, "burnley": 23028, "guernsey": 24640, "bangor": 21895, "particular": 3327, "weddings": 20429, "##vb": 26493, "##ega": 29107, "liberia": 18039, "##bus": 8286, "stony": 16104, "##champ": 25450, "bucket": 13610, "##iere": 21253, "hair": 2606, "grazing": 15400, "bowler": 14999, "implications": 13494, "weed": 17901, "##rio": 9488, "70th": 26934, "##\u30ad": 30227, "##cture": 14890, "bafta": 22284, "cited": 6563, "\u2081": 1548, "reconciled": 28348, "dwell": 23120, "mechanism": 7337, "med": 19960, "inducted": 8120, "proportional": 14267, "advance": 5083, "brian": 4422, "peasant": 14539, "blossom": 20593, "cement": 11297, "bartholomew": 19866, "meg": 12669, "charter": 6111, "grossed": 17500, "scarcely": 20071, "##iff": 13355, "claudius": 25017, "##\u060c": 29814, "instances": 12107, "##lby": 14510, "intro": 17174, "brien": 9848, "##llet": 22592, "gleamed": 25224, "invaders": 17347, "\u014b": 1106, "1826": 11931, "##ally": 3973, "catherine": 6615, "additions": 13134, "drops": 9010, "fledged": 26712, "wales": 3575, "notes": 3964, "##nge": 15465, "replaced": 2999, "illinois": 4307, "##\u5ca1": 30358, "andersson": 28643, "interviews": 7636, "##uted": 12926, "##cci": 14693, "satisfactory": 23045, "##\u5d0e": 30360, "hannover": 29209, "role": 2535, "##unce": 17457, "##pack": 23947, "[unused859]": 864, "subtle": 11259, "##tzer": 29546, "##\u535a": 30312, "denying": 16039, "airport": 3199, "himself": 2370, "parkinson": 20310, "speeds": 10898, "contributing": 8020, "penetrating": 22391, "nearing": 23454, "1683": 27414, "##sat": 16846, "pious": 25020, "##\u27e9": 30156, "costumes": 12703, "##saka": 29289, "untitled": 24819, "[unused283]": 288, "eaten": 8828, "triumphant": 25251, "chop": 24494, "tung": 27079, "por": 18499, "commerce": 6236, "somewhat": 5399, "##\u0964": 29880, "nobleman": 18487, "substrates": 23725, "plus": 4606, "appetite": 18923, "coop": 21859, "rag": 17768, "rates": 6165, "##ragan": 28905, "##thesis": 25078, "may": 2089, "sid": 15765, "disrupt": 23217, "\u52dd": 1780, "knock": 7324, "duchy": 11068, "rn": 29300, "transplant": 22291, "caroline": 7981, "##nail": 25464, "weight": 3635, "##udy": 20217, "gerhard": 21037, "##ently": 28198, "syed": 19740, "norwegian": 5046, "simulcast": 20525, "perfectly": 6669, "950": 20317, "##\u30db": 30248, "african": 3060, "##ardo": 24649, "xiii": 15031, "\u056f": 1227, "postseason": 17525, "others": 2500, "193": 19984, "unity": 8499, "threads": 16457, "##cycle": 23490, "suites": 19796, "pronounced": 8793, "[unused173]": 178, "auditory": 28042, "##rew": 15603, "\u767a": 1914, "scale": 4094, "\u043d": 1192, "iss": 26354, "vanish": 25887, "follower": 22399, "##ctum": 27272, "stan": 9761, "blessed": 10190, "chicago": 3190, "renaissance": 8028, "oskar": 28626, "##\u2030": 30065, "once": 2320, "mcdonald": 9383, "\u6cd5": 1901, "introduces": 13999, "interrupted": 7153, "\u057d": 1234, "scientist": 7155, "##\u0bae": 29925, "donations": 11440, "applicants": 17362, "marlins": 27055, "maurice": 7994, "nature": 3267, "##region": 23784, "patches": 13864, "##sari": 22740, "##fest": 14081, "breathe": 7200, "##\u05e3": 29806, "clutch": 15357, "##ich": 7033, "##ide": 5178, "imprisonment": 10219, "focusing": 7995, "##bina": 21114, "2010s": 26817, "atkins": 21087, "canals": 17263, "##erus": 21608, "ali": 4862, "staying": 6595, "##\u30e9": 30257, "hat": 6045, "11th": 6252, "comedians": 25119, "##tility": 18724, "##var": 10755, "sacrifice": 8688, "musically": 21385, "amsterdam": 7598, "trafford": 26894, "knocks": 21145, "productive": 13318, "forthcoming": 16875, "##lysis": 26394, "northernmost": 22037, "fulbright": 26695, "behave": 16582, "##ot": 4140, "royalist": 20796, "vikram": 29063, "slowing": 18068, "198": 20003, "##sky": 5874, "seeded": 13916, "##iance": 28335, "accidents": 13436, "crush": 10188, "oboe": 22523, "certified": 7378, "distortion": 20870, "\u20b1": 1575, "attacked": 4457, "whereas": 6168, "communism": 15523, "cleavage": 28691, "##\u207f": 30080, "1793": 12387, "reissued": 14805, "ethernet": 26110, "mao": 15158, "chateau": 11874, "loses": 12386, "152": 15017, "settler": 18556, "insulting": 23979, "portico": 23104, "philharmonic": 12355, "signage": 29404, "witch": 6965, "phenomenon": 9575, "few": 2261, "##/": 29626, "thrusts": 25842, "beyond": 3458, "##imov": 25299, "session": 5219, "holstein": 18864, "entirely": 4498, "##\u79be": 30453, "bitten": 19026, "nair": 22525, "##rred": 20529, "\u0923": 1322, "##jhl": 29001, "uniformly": 27423, "order": 2344, "deluxe": 15203, "\u300f": 1644, "operatic": 22534, "kin": 12631, "watershed": 12547, "independently": 9174, "veteran": 8003, "spend": 5247, "putnam": 20230, "gateway": 11909, "civilizations": 24784, "[unused763]": 768, "streaked": 21276, "telescopes": 28026, "bottles": 11015, "lieu": 22470, "freaks": 29526, "enjoyment": 20195, "\u0e15": 1411, "docked": 25727, "hostage": 13446, "cinnamon": 21229, "audi": 20075, "marker": 12115, "rotating": 13618, "used": 2109, "dug": 8655, "rang": 8369, "[unused589]": 594, "ri": 15544, "cap": 6178, "pyrenees": 22696, "ochreous": 23474, "firing": 7493, "repetitive": 23563, "##\u05d2": 29790, "##swick": 27720, "driveway": 11202, "guitars": 7334, "moment": 2617, "pension": 11550, "##eck": 11012, "pace": 6393, "absolute": 7619, "entrances": 18084, "##dara": 25329, "leipzig": 11222, "playstation": 9160, "##jian": 27685, "mannheim": 25116, "presided": 15506, "dimensions": 9646, "##vc": 25465, "##ange": 22043, "aback": 26575, "booths": 27612, "multi": 4800, "\u53f2": 1790, "##vani": 27760, "debate": 5981, "chambers": 8477, "##\u0438\u044f": 23483, "suspense": 23873, "stu": 24646, "[unused148]": 153, "pr": 10975, "##foot": 13064, "cue": 16091, "se": 7367, "##patient": 24343, "rear": 4373, "clenching": 23970, "##kle": 19099, "retail": 7027, "hand": 2192, "clapped": 18310, "thirds": 12263, "salamanca": 29608, "peers": 12746, "newly": 4397, "deliberate": 15063, "skip": 13558, "boiler": 15635, "crap": 10231, "girls": 3057, "sven": 21313, "stefan": 8852, "senior": 3026, "##nda": 8943, "spiral": 12313, "1807": 13206, "demetrius": 28367, "gown": 11739, "rotation": 9963, "##\u064a": 14498, "lu": 11320, "eleven": 5408, "clipped": 20144, "##3": 2509, "manifesto": 17124, "chiefly": 15897, "bass": 3321, "1890s": 13678, "glimpse": 12185, "descends": 23328, "berth": 17064, "sketch": 11080, "prism": 26113, "neo": 9253, "leaps": 29195, "headwaters": 25345, "maud": 21696, "lo": 8840, "lc": 29215, "snarled": 15022, "institutional": 12148, "impulse": 14982, "opposed": 4941, "gallagher": 17297, "hitler": 8042, "entrepreneur": 10670, "fertility": 17376, "[unused982]": 987, "emeritus": 12372, "[unused993]": 998, "template": 23561, "jurisdictions": 17370, "##ma": 2863, "##pipe": 24548, "beginning": 2927, "presidential": 4883, "arkansas": 6751, "##skaya": 23070, "exhibit": 8327, "mating": 15100, "preparatory": 13485, "godzilla": 26631, "basically": 10468, "##oid": 9314, "##hd": 14945, "mir": 14719, "citrus": 20418, "[unused928]": 933, "antwerp": 14003, "instinct": 12753, "deco": 21933, "routing": 16972, "romans": 10900, "caucasian": 23368, "[unused492]": 497, "primaries": 27419, "deported": 17929, "##rvis": 29074, "##anov": 25417, "[unused926]": 931, "tip": 5955, "##aa": 11057, "villa": 6992, "logging": 15899, "floyd": 12305, "angular": 16108, "##nee": 24045, "[unused307]": 312, "##inia": 23309, "circulated": 17640, "##lund": 18028, "##shi": 6182, "cinematographer": 19245, "ix": 11814, "sutherland": 14274, "contemplated": 23133, "##rum": 6824, "kidding": 12489, "davis": 4482, "##guard": 18405, "uniformed": 25189, "keating": 25865, "##tary": 18219, "blanca": 27538, "exercise": 6912, "promoters": 26512, "openings": 16556, "florian": 29517, "kai": 11928, "quest": 8795, "##roller": 26611, "silicon": 13773, "educator": 11490, "guitar": 2858, "##lena": 20844, "mommy": 20565, "receiving": 4909, "spy": 8645, "lie": 4682, "##using": 18161, "fired": 5045, "hosting": 9936, "red": 2417, "##\u53e3": 30314, "exhausted": 9069, "mattress": 13342, "grace": 4519, "parent": 6687, "natalia": 21521, "breaststroke": 28164, "##oc": 10085, "brandt": 19407, "disrupted": 20275, "gustav": 13430, "##ods": 20620, "##\u308d": 30215, "##rogate": 21799, "alfonso": 13591, "tribunal": 12152, "pumpkin": 25730, "seats": 4272, "silly": 10021, "##uated": 16453, "##ila": 11733, "[unused526]": 531, "barked": 17554, "banks": 5085, "brutally": 23197, "##bles": 13510, "##cite": 17847, "designed": 2881, "cordoba": 17986, "##meyer": 24344, "haired": 10681, "overlooking": 12549, "studying": 5702, "[unused712]": 717, "tuned": 15757, "preseason": 20038, "rob": 6487, "byzantine": 8734, "1830s": 20400, "timor": 19746, "viewing": 10523, "belonged": 6272, "drones": 24633, "uses": 3594, "##bn": 24700, "regret": 9038, "pleased": 7537, "##rani": 21578, "##dilly": 28832, "##can": 9336, "breaker": 24733, "optimal": 15502, "messaging": 24732, "shetland": 25552, "parkway": 12602, "monkeys": 17059, "quietly": 5168, "regis": 20588, "monitored": 17785, "nh": 18699, "[unused820]": 825, "baja": 19497, "850": 15678, "inducing": 29290, "routines": 23964, "##\u09b8": 29912, "freelance": 15919, "shia": 20474, "louisville": 11577, "dramatically": 12099, "germanic": 15139, "weary": 16040, "v8": 15754, "tabitha": 21581, "##laze": 24472, "rolf": 23381, "##pas": 19707, "##factory": 21450, "scully": 25686, "##\u304d": 30178, "steering": 9602, "burnham": 25295, "moths": 14885, "novi": 21574, "escalated": 26814, "estates": 8707, "\u0564": 1222, "leo": 6688, "converted": 4991, "license": 6105, "compensate": 19079, "humiliated": 26608, "admiralty": 14179, "mediated": 19872, "carriages": 17744, "profound": 13769, "##fp": 22540, "eu": 7327, "##rac": 22648, "viktor": 13489, "subway": 10798, "launches": 18989, "losers": 23160, "##uising": 28580, "reduces": 13416, "dolly": 19958, "steward": 17946, "##ota": 17287, "artwork": 8266, "##etched": 29574, "unitary": 22127, "dropped": 3333, "unusually": 12890, "huffed": 25014, "##dev": 24844, "fridge": 16716, "beliefs": 9029, "bestseller": 24304, "suspects": 13172, "tonnes": 11000, "aidan": 12643, "jaw": 5730, "decommissioned": 14394, "##isen": 28992, "1990": 2901, "##cl": 20464, "taekwondo": 28529, "##ural": 11137, "gabriel": 6127, "investigating": 11538, "consular": 27326, "boca": 22765, "leopard": 16240, "bleak": 21657, "spirit": 4382, "supporter": 10129, "1809": 12861, "steamed": 21734, "##urities": 29366, "elaborated": 25187, "seismic": 22630, "imam": 17189, "matrix": 8185, "analyst": 12941, "##erate": 22139, "dogs": 6077, "browne": 15005, "[unused543]": 548, "patterns": 7060, "lily": 7094, "chevalier": 22019, "duncan": 7343, "bodied": 22549, "##inen": 21820, "##otted": 26174, "priory": 14284, "plush": 27729, "norton": 10770, "##ssee": 29522, "happens": 6433, "vibrant": 17026, "pang": 20657, "hearing": 4994, "treats": 18452, "pali": 28619, "1971": 3411, "ought": 11276, "##chemist": 24229, "placed": 2872, "stephanie": 11496, "##enbach": 21409, "[unused136]": 141, "scattered": 7932, "##erian": 27549, "fighter": 4959, "255": 20637, "upland": 25770, "cook": 5660, "dynamic": 8790, "##tta": 5946, "macau": 16878, "##lein": 19856, "##ova": 7103, "chores": 27091, "jayne": 24408, "achilles": 23167, "naughty": 20355, "[unused557]": 562, "headlines": 19377, "conceal": 19819, "hartford": 13381, "mae": 11530, "lance": 9993, "bulb": 20581, "##vert": 16874, "##nig": 25518, "defaulted": 17265, "culminated": 16943, "##cuting": 29163, "##utable": 23056, "filtering": 22910, "##lle": 6216, "\u2092": 1562, "silvia": 27827, "wishes": 8996, "##kee": 20553, "pressing": 7827, "gibbs": 15659, "hesse": 16399, "tribes": 6946, "discharged": 14374, "flowering": 10902, "201": 16345, "returns": 5651, "breed": 8843, "[unused201]": 206, "[unused126]": 131, "##\u5357": 30311, "beloved": 11419, "adjunct": 20621, "versailles": 18346, "sprang": 15627, "\u8a01": 1949, "deformation": 29130, "pharaoh": 22089, "metric": 12046, "champion": 3410, "installing": 23658, "economists": 22171, "nesting": 21016, "protecting": 8650, "seoul": 10884, "casts": 23942, "##dic": 14808, "[unused776]": 781, "sima": 26769, "albion": 13392, "412": 25873, "diseases": 7870, "grimace": 25898, "##wani": 29092, "flores": 17343, "campbell": 6063, "commissioner": 5849, "singh": 5960, "indicator": 17245, "astronauts": 25881, "##tched": 28265, "tenor": 9534, "##sz": 17112, "\u0458": 1214, "\u09a3": 1361, "bodo": 28137, "scarred": 21985, "views": 5328, "householder": 7536, "avila": 29079, "incorporates": 12374, "[unused163]": 168, "nash": 10594, "aim": 6614, "peyton": 17931, "advanced": 3935, "possessed": 8679, "emile": 17127, "robertson": 9923, "laude": 21602, "shoreline": 17721, "wheeled": 17320, "trapping": 22977, "slower": 12430, "holmes": 9106, "titles": 4486, "vectors": 19019, "sufi": 21845, "flip": 11238, "##uru": 14129, "amplitude": 22261, "superstar": 18795, "anxious": 11480, "susannah": 20471, "anchor": 8133, "introduced": 3107, "ass": 4632, "outcomes": 13105, "qualify": 7515, "##ost": 14122, "exposition": 13080, "##\u00fe": 29670, "lombard": 23441, "cozy": 26931, "[unused326]": 331, "rippled": 26862, "[unused61]": 62, "barak": 27739, "joo": 28576, "indirectly": 17351, "##\u207b": 30079, "fight": 2954, "make": 2191, "substantially": 12381, "liable": 20090, "sienna": 20210, "##dm": 22117, "recurring": 10694, "un": 4895, "the": 1996, "judo": 19083, "newport": 9464, "programmes": 8497, "bilbao": 25427, "##\u5e7f": 30368, "conor": 20545, "governments": 6867, "##ela": 10581, "design": 2640, "gustave": 27973, "flying": 3909, "##hea": 20192, "penetrate": 19136, "villain": 12700, "breakaway": 26321, "[unused897]": 902, "grassy": 22221, "cub": 21987, "heroism": 27117, "##rral": 24988, "94": 6365, "##glia": 20011, "##ola": 6030, "mgm": 15418, "1790": 13393, "boer": 19945, "hesitate": 16390, "declining": 13993, "philip": 5170, "guided": 8546, "hyun": 21108, "committees": 9528, "mata": 22640, "suffers": 17567, "##oper": 25918, "larry": 6554, "[unused848]": 853, "##\u6708": 30398, "mirror": 5259, "gotham": 22814, "306": 24622, "##\u53f8": 30317, "concerns": 5936, "##rous": 13288, "carson": 9806, "biblical": 10213, "accelerate": 23306, "belize": 18867, "descriptive": 22726, "detrimental": 29172, "lunged": 17755, "##mics": 22924, "kei": 26679, "virginity": 26970, "##pur": 5311, "##gies": 17252, "[unused462]": 467, "##\u30e7": 30256, "counts": 9294, "niger": 16842, "1605": 28202, "1762": 20827, "garbage": 13044, "captain": 2952, "##\u0576": 29778, "1718": 26995, "\u6771": 1879, "##cek": 25368, "symbolism": 22050, "\u5f73": 1845, "jaime": 14519, "feat": 8658, "\u116a": 1476, "csa": 27804, "##\u1d49": 30035, "leaves": 3727, "heaved": 19970, "fitzpatrick": 26249, "bruises": 18438, "instantly": 6880, "wanda": 20848, "##puted": 29462, "lovers": 10205, "jewels": 15565, "slacks": 27786, "posted": 6866, "baseball": 3598, "columbus": 8912, "495": 29302, "[unused916]": 921, "vida": 19830, "##rte": 19731, "##\u00f7": 29669, "presumed": 14609, "radically": 25796, "lens": 10014, "diversified": 24908, "##\u03c5": 29735, "7th": 5504, "1828": 11517, "cavalier": 28778, "kuala": 15490, "##vating": 26477, "understood": 5319, "palatine": 22202, "##ote": 12184, "shaved": 20665, "\u099f": 1359, "\u0578": 1232, "czechoslovak": 21282, "garnered": 13056, "wolf": 4702, "mig": 19117, "raja": 10164, "documentary": 4516, "##oise": 23565, "##vu": 19722, "judah": 23022, "embarrassed": 10339, "poured": 8542, "requesting": 17942, "concussion": 23159, "odin": 26195, "crab": 18081, "stop": 2644, "\u3051": 1654, "wander": 17677, "##resses": 25932, "clifton": 16271, "dorothy": 9984, "cockpit": 13828, "stayed": 4370, "orson": 25026, "##65": 26187, "spear": 12341, "twenties": 18946, "blitz": 22312, "333": 21211, "mueller": 26774, "obeyed": 22665, "##dation": 20207, "##star": 14117, "stocks": 15768, "refuse": 10214, "contributors": 16884, "##zee": 23940, "nevertheless": 6600, "crouch": 21676, "resolution": 5813, "##ti": 3775, "sanity": 20039, "fewer": 8491, "fresh": 4840, "cornered": 25878, "##sco": 9363, "13th": 6122, "dimension": 9812, "adopted": 4233, "turbulence": 29083, "largely": 4321, "annapolis": 24889, "priestess": 27677, "physiological": 19389, "##cans": 26642, "og": 13958, "singles": 3895, "rochdale": 26109, "defensive": 5600, "92": 6227, "##worthy": 13966, "greg": 6754, "##at": 4017, "##l": 2140, "techno": 21416, "stature": 21120, "460": 17267, "clauses": 24059, "hammer": 8691, "blackness": 19573, "delicate": 10059, "advocate": 8175, "katharine": 25739, "##ggy": 22772, "regretted": 18991, "c": 1039, "secession": 22965, "kramer": 16322, "fielding": 15452, "absorbed": 9063, "sleepy": 17056, "1717": 27525, "influence": 3747, "nirvana": 26530, "cross": 2892, "##\u0627": 25573, "##yles": 26274, "guyana": 18786, "cigarette": 9907, "patented": 16719, "\u00aa": 1076, "\u5409": 1793, "##rmin": 27512, "substances": 13978, "shuttle": 10382, "relax": 9483, "essen": 29032, "defective": 28829, "##lard": 20822, "[unused571]": 576, "##christ": 26654, "##unk": 16814, "detached": 12230, "108": 10715, "pandora": 19066, "##54": 27009, "syriac": 24109, "classed": 27811, "mariano": 22695, "down": 2091, "practiced": 9051, "fringe": 13548, "utilization": 27891, "harding": 15456, "humboldt": 19249, "##eased": 25063, "injury": 4544, "para": 11498, "vocals": 2955, "yin": 18208, "flanders": 13998, "[unused610]": 615, "##lander": 22691, "##gc": 18195, "indirect": 14958, "\u3084": 1682, "doo": 20160, "teaming": 27025, "\u9ad8": 1981, "verify": 20410, "\u535a": 1786, "gardener": 19785, "croydon": 21838, "streetcar": 21420, "migrants": 16836, "playing": 2652, "chopin": 25479, "cheered": 25471, "welding": 23604, "fluttering": 25001, "modernization": 20181, "paws": 24392, "instructional": 23219, "makeup": 5789, "cn": 27166, "##enstein": 21819, "hilly": 22800, "celtic": 8730, "\u0927": 1326, "less": 2625, "controllers": 21257, "##ign": 23773, "grain": 8982, "##\u2297": 30140, "there": 2045, "bodily": 20445, "compensation": 9430, "tone": 4309, "supply": 4425, "logos": 25571, "matching": 9844, "##ple": 10814, "hysterical": 25614, "giggling": 21783, "oils": 20631, "continue": 3613, "\u624c": 1859, "224": 19711, "##gio": 11411, "corners": 8413, "answers": 6998, "validity": 16406, "unearthed": 27422, "malcolm": 8861, "fork": 9292, "halftime": 22589, "oriented": 8048, "indifference": 25920, "##yes": 23147, "vip": 21722, "divided": 4055, "comply": 14037, "##\u5dde": 30362, "tertiary": 13553, "cbs": 6568, "evangelical": 11295, "austro": 16951, "noel": 10716, "\u0443": 1198, "##icides": 22698, "mapped": 17715, "warner": 6654, "tripoli": 21841, "##vered": 25896, "lacks": 14087, "guy": 3124, "tapped": 10410, "sponsor": 10460, "##$": 29615, "nr": 17212, "##ressed": 16119, "weekday": 16904, "collaborate": 20880, "interfering": 24324, "[unused255]": 260, "premises": 10345, "receiver": 8393, "##zzle": 17644, "pill": 17357, "underworld": 13607, "math": 8785, "tattooed": 26464, "##scent": 27654, "shadow": 5192, "##\u2212": 22543, "jakarta": 14426, "environmental": 4483, "reinforce": 19444, "##21": 17465, "\uff0c": 1989, "hurst": 26405, "##\u767a": 30440, "##\u307b": 30202, "[unused758]": 763, "##\u307e": 30203, "##hedral": 27310, "laser": 9138, "##vic": 7903, "multinational": 20584, "hughes": 8099, "sturdy": 23073, "1956": 3838, "\u6587": 1861, "liner": 11197, "unsuccessful": 7736, "vascular": 21449, "displays": 8834, "##nais": 28020, "gag": 18201, "uniting": 26112, "##upt": 29441, "brigades": 14589, "quick": 4248, "\u0e25": 1418, "filming": 7467, "late": 2397, "particles": 9309, "specializes": 16997, "\u09b7": 1375, "philadelphia": 4407, "butterflies": 15023, "connector": 19400, "richie": 14411, "hassan": 13222, "patriot": 16419, "center": 2415, "gambling": 12219, "patting": 26085, "image": 3746, "vhs": 17550, "##dle": 10362, "richter": 20105, "scotch": 18937, "bequeathed": 27180, "www": 7479, "[unused229]": 234, "milling": 22491, "fry": 14744, "revolution": 4329, "quite": 3243, "[unused698]": 703, "berwick": 24957, "npr": 21411, "##schaft": 26527, "roc": 21326, "eliminated": 5892, "##eti": 20624, "[unused55]": 56, "nmi": 22484, "seize": 15126, "##furt": 24428, "##ental": 21050, "individuals": 3633, "herbs": 17561, "inherently": 26096, "##one": 5643, "##lang": 25023, "[unused796]": 801, "affiliation": 12912, "promote": 5326, "##ans": 6962, "sounded": 5015, "[unused308]": 313, "subsp": 24807, "##age": 4270, "levin": 20206, "evident": 10358, "alto": 10766, "##holder": 14528, "##\u0bbf": 29932, "\u2ea9": 1632, "johnny": 5206, "organizers": 18829, "noticeable": 17725, "anyone": 3087, "pep": 27233, "abusive": 20676, "idol": 10282, "squares": 14320, "nazis": 13157, "cousins": 12334, "##base": 15058, "1699": 28718, "sterling": 10933, "##ade": 9648, "richly": 26502, "brunswick": 9192, "medieval": 5781, "wu": 8814, "reminds": 15537, "available": 2800, "[unused882]": 887, "##ite": 4221, "mania": 29310, "legacy": 8027, "guo": 22720, "characters": 3494, "behaved": 26979, "equally": 8053, "deserves": 17210, "[unused413]": 418, "golden": 3585, "flashes": 16121, "account": 4070, "counter": 4675, "##\u674e": 30403, "##drick": 24092, "\ufb02": 1985, "highs": 26836, "insert": 19274, "novak": 19580, "jj": 29017, "iain": 24486, "stuffed": 11812, "compliant": 24577, "##d": 2094, "mandates": 25979, "\u30c8": 1714, "depicted": 8212, "nasal": 19077, "manifestation": 24491, "news": 2739, "\u306d": 1670, "prosecutors": 19608, "denny": 14465, "interred": 13917, "contender": 20127, "comet": 15699, "surf": 14175, "karma": 19902, "sentiments": 23541, "fairbanks": 24502, "gottingen": 23607, "antennas": 26315, "detect": 11487, "factories": 11123, "begins": 4269, "planted": 8461, "hundreds": 5606, "choked": 12444, "densely": 19441, "##wear": 16689, "luminous": 25567, "governorate": 15162, "berkshire": 15570, "collarbone": 29600, "stretching": 10917, "elevated": 8319, "systemic": 22575, "acclaim": 10761, "##zone": 15975, "limit": 5787, "habitat": 6552, "##jad": 27875, "##usa": 10383, "jae": 22770, "tributary": 8914, "##\u0e17": 29948, "restraint": 19355, "ozone": 26443, "remarks": 12629, "##khar": 22510, "19": 2539, "##ented": 14088, "earning": 7414, "asylum": 11386, "galway": 14370, "unesco": 12239, "refugees": 8711, "associate": 5482, "highlanders": 22672, "tonic": 28157, "padua": 24941, "galaxies": 21706, "le": 3393, "hillsborough": 29330, "airlines": 7608, "##mei": 26432, "threats": 8767, "often": 2411, "issues": 3314, "collaborating": 20295, "sri": 5185, "penguins": 18134, "complexity": 11619, "decks": 19963, "restored": 5854, "panties": 12095, "salim": 27490, "ev": 23408, "##gai": 23805, "parsons": 13505, "landings": 16805, "ferrari": 13632, "lure": 17256, "gastropod": 10953, "apply": 6611, "##bies": 20536, "middlesex": 13654, "orb": 19607, "[unused507]": 512, "##\u3092": 30216, "finley": 29194, "[unused657]": 662, "franco": 9341, "##sitor": 28307, "[unused785]": 790, "##man": 2386, "teatro": 16038, "evolution": 6622, "##\u2099": 19110, "ek": 23969, "rooney": 24246, "telecommunication": 25958, "facility": 4322, "denise": 15339, "buckled": 26368, "navarre": 21260, "special": 2569, "\u062b": 1274, "witness": 7409, "fundamentally": 24670, "animated": 6579, "optics": 21026, "generator": 13103, "playwright": 11170, "cemeteries": 20973, "across": 2408, "160": 8148, "##year": 29100, "bolt": 10053, "##wski": 10344, "salvation": 12611, "motif": 16226, "lap": 5001, "realised": 11323, "darkest": 23036, "##tops": 25181, "[unused282]": 287, "307": 24559, "scenic": 12916, "##cz": 27966, "thirteenth": 14725, "[unused630]": 635, "\u221a": 1600, "ins": 16021, "ancient": 3418, "improvised": 19641, "qualification": 8263, "##lier": 14355, "##phones": 19093, "##\u9580": 30494, "fluttered": 18360, "conventions": 12472, "[unused446]": 451, "##ram": 6444, "devices": 5733, "interaction": 8290, "montrose": 24990, "inhabited": 9613, "disclosed": 21362, "fingernails": 21243, "sabah": 22515, "invading": 17657, "##rden": 18246, "##\u0447": 29752, "[unused718]": 723, "##\u091a": 29854, "##pg": 26952, "shiny": 12538, "770": 29065, "\u11bc": 1489, "learning": 4083, "listeners": 13810, "[unused486]": 491, "flavors": 26389, "driving": 4439, "##hman": 13890, "cactus": 23265, "355": 26271, "legal": 3423, "##tas": 10230, "calderon": 28129, "bowl": 4605, "list": 2862, "mason": 6701, "reader": 8068, "patient": 5776, "crescent": 13152, "stationed": 8895, "semi": 4100, "\u30db": 1722, "\u3081": 1680, "##\u592b": 30339, "fund": 4636, "##erson": 18617, "susie": 23917, "##\u4e00": 30266, "[unused414]": 419, "ashford": 26545, "bp": 17531, "\u00f8": 1100, "##buro": 23670, "323": 25392, "frustrating": 25198, "efficient": 8114, "korea": 4420, "minute": 3371, "##\u0916": 29852, "comparative": 12596, "##iste": 27870, "1922": 4798, "unified": 10562, "bk": 23923, "##ogan": 21131, "[unused942]": 947, "##lam": 10278, "##ard": 4232, "##hoff": 17896, "trends": 12878, "##\u30b1": 30229, "brennan": 13962, "##mmer": 15810, "concourse": 28571, "##\u300c": 30167, "capable": 5214, "affirmed": 19768, "ribs": 10335, "##iga": 13340, "wise": 7968, "swapped": 29176, "##hin": 10606, "bjp": 24954, "##rou": 22494, "##dur": 24979, "augusto": 29085, "\u305b": 1659, "[unused567]": 572, "##llan": 19036, "lodge": 7410, "regulate": 15176, "samples": 8168, "own": 2219, "##ilia": 27861, "colombo": 16224, "\uff0f": 1992, "phoenix": 6708, "hiring": 14763, "##uba": 19761, "##gman": 25494, "closing": 5494, "[unused32]": 33, "rap": 9680, "wrong": 3308, "nodes": 14164, "depict": 17120, "mining": 5471, "dj": 6520, "glaciers": 21193, "springfield": 10493, "hawkins": 13835, "##frey": 22586, "orton": 25161, "strikeouts": 20813, "recapture": 27639, "antibodies": 22931, "##yria": 20379, "fai": 26208, "##ographic": 13705, "muttered": 6250, "bean": 14068, "awarding": 21467, "comrade": 27661, "statewide": 13486, "restructuring": 18322, "netting": 26909, "neighbors": 10638, "spending": 5938, "faced": 4320, "pharmaceutical": 13859, "kilkenny": 17131, "##ifies": 14144, "patients": 5022, "##mana": 24805, "##yson": 25385, "clemson": 25906, "\u028a": 1132, "##nar": 11802, "owner": 3954, "desk": 4624, "falling": 4634, "love": 2293, "captained": 16041, "pilgrims": 17992, "tian": 23401, "operator": 6872, "tuning": 17372, "##llo": 7174, "tulane": 27437, "##\u771f": 30447, "denied": 6380, "diagnostic": 16474, "grains": 17588, "##th": 2705, "masonry": 18103, "pontiac": 24538, "##drum": 21884, "impressive": 8052, "thus": 2947, "variants": 10176, "rivers": 5485, "dictionary": 9206, "goddard": 22547, "vocational": 13099, "migrated": 13447, "sql": 29296, "41": 4601, "##tically": 25084, "hanged": 17818, "##aina": 27971, "##smith": 21405, "strictly": 9975, "parchment": 22433, "richmond": 6713, "gujarat": 14288, "##con": 8663, "stimuli": 22239, "effective": 4621, "charlton": 17821, "##\u5dff": 30363, "331": 27533, "dominance": 13811, "##\u0459": 29762, "dotted": 20384, "kb": 21677, "thousand": 4595, "euro": 9944, "annabelle": 24722, "prophet": 12168, "shortened": 12641, "##dad": 14697, "harriet": 14207, "281": 22955, "writers": 4898, "\u4e45": 1748, "##ythe": 26688, "04": 5840, "##cate": 16280, "managerial": 24465, "deals": 9144, "recipes": 19328, "amber": 8994, "911": 19989, "apologize": 12134, "cite": 21893, "strongly": 6118, "engulfed": 24692, "devastated": 13879, "##sville": 9337, "bark": 11286, "additive": 29167, "leaped": 16900, "erwin": 22209, "breeze": 9478, "710": 27671, "clown": 15912, "hamas": 22129, "cop": 8872, "##gic": 12863, "symposium": 17899, "##\u093e": 29876, "berger": 16758, "defenders": 12534, "adler": 17969, "nadia": 14942, "nationality": 10662, "wheels": 7787, "bared": 23485, "tangle": 24453, "misty": 15167, "rev": 7065, "lilith": 25576, "pereira": 23857, "syracuse": 11736, "trumpeter": 28220, "bal": 28352, "hydraulic": 14761, "usher": 20774, "decades": 5109, "doctors": 7435, "chang": 11132, "whatsoever": 18971, "##isi": 17417, "[unused21]": 22, "dictator": 21237, "federer": 28294, "chu": 14684, "##tek": 23125, "zee": 23727, "##j": 3501, "rolling": 5291, "tournaments": 8504, "[unused584]": 589, "\u05df": 1256, "literacy": 8433, "rohan": 28605, "claus": 19118, "##\u1174": 30018, "steer": 20634, "^": 1034, "\u02b8": 1144, "regal": 21279, "founder": 3910, "##\u0564": 29769, "resembling": 15525, "plucked": 20780, "tolerant": 23691, "efficiency": 8122, "decade": 5476, "malaysia": 6027, "##\u7f8e": 30461, "[unused51]": 52, "partially": 6822, "ministries": 16410, "##hire": 20908, "##ians": 7066, "claire": 6249, "organism": 15923, "alarms": 29034, "##ride": 15637, "lands": 4915, "##quette": 29416, "##\u6b63": 30414, "folded": 6999, "sha": 21146, "continues": 4247, "rfc": 14645, "##pod": 27633, "cutler": 24975, "landlord": 18196, "##ule": 9307, "aye": 13442, "##\u3051": 30180, "revolutionary": 6208, "cupped": 13740, "silently": 8601, "##mist": 23738, "##hia": 12995, "yugoslav": 12292, "uncle": 4470, "dunne": 26553, "epsilon": 28038, "secretly": 10082, "preserving": 15224, "endorsement": 20380, "shaggy": 25741, "[unused216]": 221, "sacked": 14159, "##heard": 26362, "##\u2095": 30093, "ernie": 14637, "##\u2093": 30092, "[unused53]": 54, "sequels": 25815, "jerseys": 28772, "heart": 2540, "hence": 6516, "##\u2075": 30074, "##avs": 29553, "##bbs": 17226, "afar": 28978, "##ry": 2854, "##stituting": 21532, "ernesto": 22428, "##yat": 26139, "federation": 4657, "intervals": 14025, "\u1169": 1475, "hartman": 26766, "inappropriate": 15884, "unlike": 4406, "cf": 12935, "ian": 4775, "engagements": 20583, "##pants": 27578, "##aver": 22208, "298": 27240, "nationalists": 17934, "##\u4e45": 30274, "shirt": 3797, "##tma": 29418, "covering": 5266, "##inkles": 28562, "[unused118]": 123, "regime": 6939, "unaware": 11499, "novgorod": 24338, "##power": 11452, "\u208e": 1559, "blurred": 18449, "brothel": 27308, "##him": 14341, "seafood": 23621, "podium": 14502, "##hari": 18428, "##tya": 21426, "carpet": 10135, "needle": 12201, "##\u5341": 30309, "invitations": 29492, "\u2502": 1616, "stab": 17079, "##nzo": 25650, "##acion": 21736, "parentheses": 27393, "unharmed": 28150, "high": 2152, "cops": 10558, "twists": 21438, "##100": 18613, "[unused234]": 239, "punch": 8595, "character": 2839, "straightforward": 19647, "##isan": 29196, "lil": 13451, "accomplished": 8885, "defected": 26330, "relational": 28771, "clair": 17936, "##ici": 28775, "knows": 4282, "vans": 21994, "crop": 10416, "##ht": 11039, "awareness": 7073, "popularly": 16071, "biologist": 21477, "tyrol": 27193, "rotor": 18929, "ussr": 10331, "brodie": 27379, "war": 2162, "telecommunications": 12108, "prem": 26563, "##wide": 22517, "lexington": 14521, "attained": 12754, "##\u091c": 29855, "liberals": 13350, "86": 6564, "sixteen": 7032, "chuckled": 10252, "aquatics": 26649, "helps": 7126, "feasible": 22945, "harmonic": 19452, "##hom": 23393, "growth": 3930, "##np": 16275, "systems": 3001, "assessment": 7667, "broader": 12368, "juniors": 16651, "pun": 26136, "into": 2046, "##ient": 11638, ";": 1025, "affectionately": 28734, "accepts": 13385, "moors": 24812, "##\u09a3": 29897, "united": 2142, "police": 2610, "##eza": 28640, "##ophone": 25232, "prominence": 12144, "\u0648": 1298, "divinity": 16968, "u": 1057, "##hiko": 22204, "[unused402]": 407, "philippe": 11169, "printers": 23557, "ownership": 6095, "##washed": 27283, "ballard": 21896, "690": 28066, "bombings": 20109, "theatrical": 8900, "36": 4029, "humphrey": 15462, "ra": 10958, "##\u3081": 30206, "anglia": 24217, "optic": 22816, "tar": 16985, "entertain": 20432, "##\u2ea9": 30158, "##eau": 10207, "lucivar": 21401, "leaks": 29324, "strangely": 13939, "##ashi": 12914, "rarely": 6524, "largest": 2922, "greene": 11006, "judy": 12120, "militants": 17671, "files": 6764, "[unused651]": 656, "tran": 25283, "languages": 4155, "\u0431": 1181, "installations": 14111, "\u516b": 1771, "murder": 4028, "sunday": 4465, "spears": 13957, "was": 2001, "handbook": 14812, "maximize": 25845, "nietzsche": 28898, "devotees": 22707, "##che": 5403, "antennae": 28624, "##ogenic": 24278, "kobe": 24113, "parents": 3008, "\u8857": 1946, "embroidery": 29507, "themed": 11773, "\u09a7": 1365, "wonderland": 20365, "blade": 6085, "jc": 29175, "v": 1058, "curtiss": 26431, "humming": 20364, "forcing": 6932, "limestone": 9771, "introductions": 25795, "hearth": 22885, "molecular": 8382, "sink": 7752, "consisting": 5398, "longer": 2936, "elves": 16980, "1978": 3301, "gods": 5932, "gloves": 11875, "flashlight": 15257, "conrad": 10931, "spd": 23772, "[unused738]": 743, "galileo": 21514, "sins": 15516, "illustrated": 7203, "service": 2326, "sl": 22889, "\u4ee3": 1760, "looting": 29367, "##tric": 12412, "classes": 4280, "reluctantly": 11206, "albanians": 25267, "knighted": 19572, "voss": 24878, "[unused888]": 893, "##nus": 10182, "struggling": 8084, "caribbean": 7139, "missing": 4394, "\u0e27": 1419, "maroon": 22222, "##\u5929": 30337, "regent": 11315, "##aday": 28039, "[UNK]": 100, "burned": 5296, "limited": 3132, "secondary": 3905, "hereford": 21136, "\u5e78": 1841, "##\u062c": 29819, "jenny": 8437, "farmhouse": 16870, "hydrogen": 9732, "humid": 14178, "humble": 15716, "melting": 13721, "##\u5b66": 30343, "hansen": 13328, "29th": 16318, "cards": 5329, "elderly": 9750, "amnesia": 29222, "championed": 28683, "##static": 16677, "remain": 3961, "\u5916": 1809, "\u05d8": 1249, "antiques": 27763, "garde": 14535, "chill": 10720, "grenade": 17038, "brasil": 21133, "##pled": 21132, "concluded": 5531, "executed": 6472, "biennale": 21140, "bram": 20839, "bourbon": 15477, "##icus": 14239, "gazing": 16448, "bing": 17620, "donovan": 12729, "hillary": 18520, "valley": 3028, "sequencing": 24558, "highland": 10983, "%": 1003, "nuts": 12264, "bitch": 7743, "scraping": 23704, "##\u3059": 30184, "contenders": 27236, "princely": 22771, "barry": 6287, "garlic": 20548, "decreasing": 16922, "\u10d0": 1438, "##riety": 27840, "##ando": 28574, "##sius": 24721, "stick": 6293, "##\u624c": 30385, "moments": 5312, "bishops": 8414, "barnes": 9957, "costa": 6849, "creamy": 24519, "novo": 24576, "1765": 20797, "territories": 6500, "occupation": 6139, "leukemia": 25468, "asbestos": 29191, "confidently": 28415, "\u6238": 1857, "##gra": 17643, "1934": 4579, "samoa": 15075, "invention": 11028, "refer": 6523, "translations": 11913, "##bir": 17706, "shifter": 18189, "taiwan": 6629, "cushions": 27205, "gable": 13733, "candidacy": 17057, "##rank": 26763, "\u09aa": 1367, "notwithstanding": 26206, "##roving": 22046, "trust": 3404, "pedro": 7707, "disturbances": 24535, "blended": 19803, "trieste": 25199, "##pool": 16869, "societal": 23382, "kenny": 8888, "administered": 8564, "peg": 25039, "entertainer": 21751, "cottage": 9151, "##ely": 26006, "appropriated": 29223, "\u0f60": 1433, "##\u03c0": 29731, "##uma": 12248, "automatically": 8073, "showcases": 27397, "abolitionist": 29554, "##\u98a8": 30503, "[unused187]": 192, "directly": 3495, "commissioned": 4837, "jefferson": 7625, "capitol": 9424, "ipod": 26322, "##ishly": 19983, "insect": 14211, "nomadic": 21702, "freshly": 20229, "clearly": 4415, "symphony": 6189, "installation": 8272, "brahms": 28419, "##op": 7361, "madden": 24890, "marching": 10998, "##tara": 27115, "hue": 20639, "taft": 19911, "roi": 25223, "larsen": 20094, "fleet": 4170, "##neck": 18278, "mhz": 11413, "forgiveness": 17213, "rests": 16626, "##pha": 21890, "[unused11]": 12, "[unused475]": 480, "orion": 18747, "prisoner": 7267, "aligned": 13115, "##nob": 25083, "\u9593": 1969, "interface": 8278, "doom": 12677, "generals": 11593, "nuclei": 23767, "210": 12875, "excellent": 6581, "auto": 8285, "cain": 11557, "[unused351]": 356, "[unused835]": 840, "archeological": 23005, "[unused190]": 195, "kentucky": 5612, "realities": 22213, "##\u2044\u2084": 27392, "pictures": 4620, "\u8033": 1937, "ds": 16233, "ira": 11209, "\u4fe1": 1767, "shared": 4207, "lower": 2896, "biochemistry": 22419, "monday": 6928, "involving": 5994, "reliability": 15258, "domes": 26193, "confident": 9657, "gan": 25957, "bis": 20377, "deutsche": 11605, "reuters": 26665, "##nesia": 21509, "subsidies": 21762, "##uder": 29190, "obstruction": 27208, "ethiopian": 15101, "ensembles": 21528, "immediate": 6234, "viola": 10482, "emblem": 16199, "portugal": 5978, "##\u063a": 29831, "ship": 2911, "cooperative": 10791, "mirrors": 13536, "redemption": 18434, "darius": 14861, "##fles": 28331, "breathed": 8726, "##\u1100": 29991, "clone": 17598, "brew": 24702, "[unused690]": 695, "nigeria": 7387, "cheap": 10036, "##\u3088": 30210, "internationally": 7587, "##lei": 23057, "traction": 16493, "##lde": 17920, "dom": 14383, "rings": 7635, "von": 3854, "bang": 9748, "##rba": 28483, "##bha": 22655, "parochial": 28773, "databases": 17881, "##uth": 14317, "melvin": 20993, "##wala": 23877, "zombies": 14106, "recommend": 16755, "numerous": 3365, "chapters": 9159, "uno": 27776, "##koff": 26126, "cessna": 27664, "penang": 21812, "##tton": 15474, "shelley": 15828, "lakers": 18264, "dissatisfaction": 28237, "\u2665": 1625, "fraser": 9443, "##lor": 10626, "##fires": 26332, "\u65b0": 1862, "hit": 2718, "##low": 8261, "hamburg": 8719, "composing": 16572, "##gt": 13512, "greenwood": 16827, "ankles": 15392, "\u091f": 1320, "helmets": 22674, "##physics": 15638, "tal": 21368, "spent": 2985, "pablo": 11623, "##vies": 25929, "simplicity": 17839, "compilations": 22754, "brethren": 17937, "pop": 3769, "holocaust": 11513, "areas": 2752, "communities": 4279, "##oed": 29099, "dinosaurs": 18148, "##cr": 26775, "realises": 25924, "##yen": 20684, "from": 2013, "maine": 7081, "upside": 14961, "iconic": 14430, "woodrow": 23954, "headlined": 25214, "gigantic": 20193, "saxons": 28267, "leighton": 26873, "country": 2406, "maui": 28566, "##\u2022": 30063, "implement": 10408, "strengthened": 13949, "##ados": 28118, "pan": 6090, "##nn": 10695, "disciplinary": 17972, "inside": 2503, "##rin": 6657, "##pf": 14376, "dozen": 6474, "helmet": 10412, "extensions": 14305, "corpus": 13931, "##200": 28332, "##90": 21057, "burial": 8940, "soothing": 16684, "lethal": 12765, "\uff09": 1988, "albania": 10407, "1864": 6717, "##oud": 19224, "[unused285]": 290, "cancel": 17542, "##\u221a": 30127, "[unused656]": 661, "foods": 9440, "byrd": 17845, "endemic": 7320, "##eum": 14820, "##hta": 22893, "synagogue": 13067, "gregory": 7296, "astonishment": 23819, "gardiner": 21143, "chunk": 20000, "fremont": 22550, "explains": 7607, "sheng": 25981, "shows": 3065, "buffet": 28305, "##\u53e4": 30315, "##au": 4887, "pleading": 16418, "\u043f": 1194, "barrel": 8460, "hose": 21290, "arts": 2840, "internally": 16058, "stefano": 19618, "soyuz": 29412, "\u0679": 1301, "##ony": 16585, "mclaren": 18590, "bonds": 9547, "gardner": 11764, "herbert": 7253, "commodore": 12957, "[unused128]": 133, "catch": 4608, "quad": 17718, "waterfall": 14297, "important": 2590, "\u6cb3": 1899, "lakeside": 28701, "serviced": 22858, "rallied": 24356, "becoming": 3352, "##bery": 22509, "kaitlyn": 28584, "##\u671d": 30400, "kimberly": 23729, "read": 3191, "thereafter": 6920, "seneca": 21224, "rhyme": 20622, "reign": 5853, "restoration": 6418, "night": 2305, "##see": 19763, "discarded": 15105, "promoting": 7694, "isbn": 3175, "\u0e07": 1410, "interrogation": 16871, "hugh": 6621, "honoring": 21494, "##like": 10359, "spurs": 18205, "1870": 6940, "import": 12324, "telecast": 28803, "entertaining": 14036, "pump": 10216, "##wal": 13476, "sp": 11867, "##bau": 27773, "stool": 14708, "2a": 23409, "##elial": 24587, "rigid": 11841, "weaponry": 22711, "reprinted": 13603, "##top": 14399, "rodgers": 15652, "diffuse": 28105, "##\u2092": 30091, "teller": 21322, "winfield": 24739, "flaming": 19091, "scratch": 11969, "excavation": 16456, "expects": 24273, "##ath": 8988, "shipment": 22613, "answer": 3437, "projectile": 25921, "turtle": 13170, "##suit": 28880, "jarrett": 24503, "beetles": 14538, "staunch": 26355, "purcell": 26429, "freaking": 13847, "burgundy": 18383, "##script": 22483, "secretive": 28607, "damn": 4365, "buren": 29470, "[unused429]": 434, "##list": 9863, "##zia": 12871, "egyptians": 23437, "summons": 24814, "[unused987]": 992, "[unused497]": 502, "expressway": 11720, "fourteenth": 15276, "developments": 8973, "component": 6922, "##amine": 19915, "clears": 28837, "[unused893]": 898, "[unused729]": 734, "embassy": 8408, "companion": 7452, "williamsburg": 26366, "lancaster": 10237, "sourced": 23184, "bus": 3902, "bananas": 26191, "deed": 15046, "##\u30e2": 30253, "creditors": 23112, "tuberculosis": 15877, "##iard": 14619, "ha": 5292, "contribution": 6691, "##\u10d9": 29982, "drawings": 9254, "downs": 12482, "##aire": 14737, "millennium": 10144, "seychelles": 27438, "consecrated": 12299, "[unused532]": 537, "##unds": 26698, "honolulu": 16598, "savoy": 16394, "addison": 18403, "needy": 23927, "brutality": 24083, "climates": 24734, "suspension": 8636, "294": 28135, "gas": 3806, "kitchener": 27154, "beneficial": 15189, "usb": 18833, "sentinel": 16074, "55": 4583, "teens": 13496, "##alo": 23067, "hooked": 13322, "mum": 12954, "\u043a": 1189, "robbers": 28019, "require": 5478, "harmful": 17631, "briefcase": 21793, "[unused534]": 539, "fitch": 26062, "kan": 22827, "1754": 22593, "compatible": 11892, "future": 2925, "##ification": 9031, "##tism": 17456, "bulging": 27569, "footballers": 27784, "lust": 11516, "basque": 13915, "mixer": 23228, "##mian": 20924, "1618": 29029, "##nel": 11877, "badly": 6649, "finds": 4858, "inland": 9514, "selection": 4989, "##nce": 5897, "networking": 14048, "dunedin": 22020, "julien": 19290, "messed": 18358, "##centric": 22461, "examinations": 14912, "am": 2572, "graduating": 6800, "##ze": 4371, "undergraduate": 8324, "maya": 9815, "miniature": 12973, "stirred": 13551, "empirical": 17537, "agatha": 23863, "##hone": 27406, "candles": 14006, "inch": 4960, "christoph": 21428, "screen": 3898, "##ull": 18083, "##edging": 28002, "energies": 19320, "nottinghamshire": 20126, "sherlock": 20052, "admitted": 4914, "broadcasters": 18706, "wearing": 4147, "h": 1044, "buckley": 17898, "##riz": 21885, "differently": 11543, "wally": 18202, "borough": 5538, "cigar": 19135, "##nham": 20465, "haul": 14655, "dialect": 9329, "critic": 6232, "meteor": 23879, "1688": 24082, "amended": 13266, "ms": 5796, "wake": 5256, "feature": 3444, "unspoken": 25982, "emission": 15760, "professionally": 12145, "lookout": 19052, "bulldog": 28628, "##gui": 25698, "emery": 24294, "cabbage": 28540, "airline": 8582, "enforced": 16348, "celebration": 7401, "registering": 25719, "ground": 2598, "\u0294": 1139, "derivation": 29280, "##tson": 25656, "##eborg": 27614, "##pathy": 20166, "boxing": 8362, "forms": 3596, "##\u5ba3": 30349, "transylvania": 20816, "ropes": 14607, "stating": 5517, "##ists": 5130, "overlook": 27590, "synthesizer": 13564, "bending": 14457, "antioch": 19078, "essex": 8862, "interfere": 15115, "suggested": 4081, "august": 2257, "[unused783]": 788, "##tation": 12516, "[unused410]": 415, "corrected": 13371, "deposed": 18298, "##kel": 11705, "1844": 9730, "win": 2663, "tunic": 23002, "trading": 6202, "##eman": 16704, "cows": 17188, "1604": 28754, "lancashire": 9638, "##\u5e78": 30367, "cared": 8725, "enter": 4607, "[unused645]": 650, "addressing": 12786, "##gos": 12333, "songwriters": 20602, "##ex": 10288, "sidney": 11430, "\u7f8e": 1935, "##ution": 13700, "kensington": 17775, "hurriedly": 23878, "primate": 25662, "ryan": 4575, "lodging": 26859, "output": 6434, "genus": 3562, "##lateral": 28277, "era": 3690, "##oun": 23709, "famously": 18172, "acton": 28794, "outdated": 25963, "schleswig": 21173, "contexts": 18046, "measuring": 9854, "##\u1103": 29993, "loyola": 21580, "##isman": 20257, "[unused240]": 245, "dent": 21418, "hewitt": 19482, "##igen": 29206, "joel": 8963, "##ply": 22086, "perception": 10617, "pulse": 8187, "##ated": 4383, "##dome": 26173, "##\u2077": 30076, "triassic": 29529, "##lbert": 23373, "forrest": 16319, "perceive": 23084, "cannot": 3685, "couple": 3232, "wreckage": 21056, "arc": 8115, "hurt": 3480, "winnipeg": 11093, "widening": 17973, "delta": 7160, "grounds": 5286, "onslaught": 28644, "appellate": 23240, "receptors": 13833, "devi": 14386, "##idia": 29342, "assortment": 26285, "##mp": 8737, "##\u4e8b": 30277, "lies": 3658, "monique": 26194, "##\u05e9": 29812, "striker": 11854, "geographically": 20969, "herds": 28822, "crimean": 20516, "\u27e9": 1630, "##emi": 23238, "1905": 5497, "##hala": 19531, "##plify": 28250, "policy": 3343, "##\u02bc": 29712, "announcement": 8874, "manufacturing": 5814, "emory": 25853, "factor": 5387, "ley": 25866, "iran": 4238, "written": 2517, "s": 1055, "palermo": 18705, "adam": 4205, "kayla": 26491, "reunite": 25372, "loudly": 9928, "lonely": 9479, "##nh": 25311, "victoria": 3848, "escape": 4019, "##ctions": 22014, "storing": 23977, "rumor": 19075, "\u0629": 1272, "horst": 28565, "petersburg": 8062, "matter": 3043, "implant": 27159, "1635": 27426, "appreciation": 12284, "battista": 28422, "charlie": 4918, "balkans": 19733, "##\u209b": 30098, "puzzles": 19672, "jana": 23341, "smoothed": 17966, "exposed": 6086, "receivers": 19278, "explode": 15044, "24th": 13386, "isaac": 7527, "inflicted": 17303, "nosed": 29338, "##ices": 23522, "##andra": 29159, "##kit": 23615, "##\u099c": 29894, "1630": 24994, "considered": 2641, "rocker": 24779, "snow": 4586, "unrest": 16591, "##igan": 10762, "harrisburg": 24569, "forest": 3224, "review": 3319, "methods": 4725, "advises": 25453, "favorite": 5440, "heirs": 15891, "compulsion": 27638, "shake": 6073, "yates": 20356, "##gu": 12193, "nursery": 13640, "cesar": 14923, "##row": 10524, "##\u02c8": 29715, "mat": 13523, "##50": 12376, "proceed": 10838, "[unused753]": 758, "turin": 13667, "tractor": 16358, "enjoys": 15646, "##anna": 25789, "deepest": 17578, "traffic": 4026, "genoa": 15771, "oclc": 12258, "multiplayer": 17762, "statutes": 18574, "beats": 10299, "chandra": 16469, "asthma": 26180, "##mide": 24284, "kiss": 3610, "merger": 7660, "simpsons": 19047, "pi": 14255, "uncomfortable": 8796, "errors": 10697, "sure": 2469, "[unused895]": 900, "created": 2580, "##\u09a5": 29899, "##cious": 18436, "##nock": 18057, "premium": 12882, "##ml": 19968, "interstate": 7553, "nah": 20976, "##udged": 27066, "[unused436]": 441, "capability": 10673, "soluble": 24345, "airfields": 25278, "writing": 3015, "250": 5539, "coliseum": 18338, "##\u2248": 30133, "upscale": 28276, "freed": 10650, "hunger": 9012, "loch": 14941, "pointe": 26119, "georgian": 9166, "biomedical": 20906, "##neo": 23585, "\u208a": 1557, "##dh": 16425, "seduction": 26962, "hail": 16889, "##athy": 17308, "documentaries": 15693, "lund": 21860, "##\u5973": 30341, "consort": 13440, "decent": 11519, "pupil": 11136, "magdalena": 23984, "hacking": 23707, "lutheran": 10034, "snapping": 15790, "cooking": 8434, "\u58eb": 1807, "##gration": 29397, "up": 2039, "1950s": 4856, "doubling": 19383, "recording": 3405, "kv": 24888, "basha": 26074, "madman": 28441, "urges": 23876, "somethin": 27941, "poem": 5961, "##mps": 25370, "doctor": 3460, "ryu": 19367, "daryl": 22514, "1832": 10212,
[...]
