{"vocab": {"buccaneers": 21629, "##\u0905": 29847, "payment": 7909, "log": 8833, "withdraw": 10632, "commando": 15054, "which": 2029, "540": 20263, "eventual": 9523, "zac": 29250, "dinosaurs": 18148, "donor": 15009, "##ase": 11022, "100": 2531, "##apple": 23804, "forbid": 27206, "mei": 19734, "slaves": 7179, "puppet": 13997, "straining": 21366, "blanca": 27538, "##edge": 24225, "opt": 23569, "proper": 5372, "spaghetti": 26666, "extinguished": 27705, "discovered": 3603, "\u0e19": 1413, "clockwise": 22839, "##slin": 22908, "intending": 16533, "indifference": 25920, "rubbing": 10137, "musician": 5455, "punishments": 29115, "fellowships": 27298, "cricketer": 9490, "convicted": 7979, "westphalia": 22952, "##ulously": 21227, "arousal": 18905, "terra": 14403, "enthusiasm": 12024, "bellowed": 27386, "##imus": 19315, "associated": 3378, "##brates": 25258, "lexington": 14521, "morrow": 19084, "pajamas": 27621, "economic": 3171, "supplying": 17731, "\u3055": 1656, "evenings": 16241, "grandfather": 5615, "aaron": 7158, "##zuki": 24015, "##\u0452": 29758, "reviewed": 8182, "generator": 13103, "##eries": 28077, "windows": 3645, "crowds": 12783, "persisted": 19035, "universite": 22176, "reacting": 24868, "tractors": 28292, "wave": 4400, "mute": 20101, "scout": 7464, "extend": 7949, "prostitution": 15016, "##\u0251": 29677, "federer": 28294, "uncovered": 14486, "def": 13366, "psycho": 18224, "earned": 3687, "##rra": 11335, "guadalupe": 23529, "##\u0254": 29679, "\u0bc1": 1397, "##wall": 9628, "lie": 4682, "\u5f8c": 1846, "accomplishments": 17571, "arguing": 9177, "188": 19121, "emmanuel": 14459, "raked": 22438, "[unused983]": 988, "brodie": 27379, "##ido": 13820, "conservative": 4603, "tournament": 2977, "definite": 15298, "fearing": 14892, "##hang": 18003, "theory": 3399, "splinter": 27546, "renal": 25125, "lips": 2970, "quarrel": 26260, "studied": 3273, "encompass": 25281, "stalls": 19753, "[unused767]": 772, "[unused106]": 111, "identified": 4453, "constraints": 14679, "cage": 7980, "nato": 10079, "##rring": 18807, "collaborated": 8678, "rower": 21984, "resembling": 15525, "dewey": 20309, "[unused572]": 577, "invade": 18445, "standalone": 26609, "specialty": 12233, "archway": 28189, "1656": 28434, "##ssa": 11488, "highly": 3811, "crucial": 10232, "foundry": 19853, "kilda": 22633, "criticised": 10648, "allocation": 16169, "[unused948]": 953, "8": 1022, "defended": 8047, "##gal": 9692, "isbn": 3175, "harder": 6211, "vikram": 29063, "##ics": 6558, "##gui": 25698, "[unused322]": 327, "bessie": 29298, "mysterious": 8075, "shake": 6073, "sneered": 28098, "transporting": 18276, "intense": 6387, "1744": 25846, "corruption": 7897, "ur": 24471, "collectors": 14256, "1560": 29185, "carleton": 22273, "gall": 26033, "reorganization": 17118, "immigrant": 11560, "##ep": 13699, "##vita": 28403, "wines": 14746, "kappa": 16000, "339": 28977, "jones": 3557, "endelle": 29581, "consumed": 10202, "##ap": 9331, "rotation": 9963, "police": 2610, "aided": 11553, "knocks": 21145, "rattled": 19252, "disciplinary": 17972, "licked": 11181, "coven": 25248, "nasty": 11808, "junk": 18015, "landmark": 8637, "[unused304]": 309, "honourable": 17164, "constructed": 3833, "testing": 5604, "commitment": 8426, "steward": 17946, "1987": 3055, "manor": 6952, "corporations": 11578, "recognize": 6807, "conde": 24707, "179": 20311, "lasts": 16180, "##dles": 27822, "cabaret": 19685, "[unused284]": 289, "##wd": 21724, "upwards": 14873, "manfred": 19149, "ancient": 3418, "picking": 8130, "##\u00b4s": 21932, "##gis": 17701, "##terol": 27833, "\u0923": 1322, "hymn": 14825, "junction": 5098, "\u30cb": 1716, "pepper": 11565, "desmond": 16192, "lodged": 20451, "obsessed": 15896, "\u4fdd": 1766, "\u0935": 1335, "##ivo": 20984, "syriac": 24109, "hello": 7592, "fitzroy": 21870, "benin": 21164, "##\u062b": 29818, "jenks": 15119, "1946": 3918, "glitter": 27566, "cooked": 12984, "\u5929": 1811, "degrees": 5445, "encourages": 16171, "sms": 22434, "##vr": 19716, "louisiana": 5773, "represented": 3421, "egyptians": 23437, "mrs": 3680, "shift": 5670, "##\u30a3": 30220, "germanic": 15139, "talking": 3331, "counterattack": 27835, "galileo": 21514, "[unused205]": 210, "aroused": 18391, "##manship": 21530, "elevator": 7764, "reinstated": 18671, "##itas": 24317, "[unused952]": 957, "comeback": 12845, "confidently": 28415, "silence": 4223, "1897": 6347, "##orn": 9691, "agile": 29003, "strategically": 23972, "##earing": 27242, "augustus": 11668, "##rase": 23797, "##isson": 24077, "baltic": 11275, "bruce": 5503, "clearance": 14860, "gently": 5251, "ensuing": 13831, "eve": 6574, "parallel": 5903, "shipped": 12057, "pilgrim": 21214, "greenwood": 16827, "minimal": 10124, "recess": 28290, "remembering": 10397, "punch": 8595, "teen": 9458, "\u0e23": 1417, "blasted": 18461, "tuned": 15757, "great": 2307, "##fast": 24333, "fest": 17037, "\u09bf": 1379, "proponents": 20401, "##dav": 29045, "reflections": 16055, "tim": 5199, "faded": 8105, "rourke": 24400, "migrants": 16836, "starr": 14330, "\u00b7": 1087, "##fect": 25969, "induction": 15946, "##ogen": 23924, "dawson": 11026, "drunken": 15967, "perpendicular": 19581, "##omorphic": 28503, "telangana": 23764, "##lea": 19738, "hardest": 18263, "##christ": 26654, "trend": 9874, "poland": 3735, "futsal": 21921, "birthday": 5798, "masked": 16520, "##was": 17311, "implementation": 7375, "enhanced": 9412, "[unused778]": 783, "congenital": 27480, "lana": 16554, "aside": 4998, "poke": 26202, "suspicious": 10027, "##lib": 29521, "quarries": 27069, "##\u7701": 30446, "finished": 2736, "naturalist": 19176, "##nus": 10182, "allowed": 3039, "stalked": 15858, "##ally": 3973, "loyalty": 9721, "##uate": 20598, "##\u7fa9": 30462, "##zes": 11254, "christina": 12657, "russian": 2845, "mosquito": 22529, "##tsky": 26824, "christopher": 5696, "henry": 2888, "monk": 8284, "##roved": 26251, "learners": 26262, "##\u2082": 8229, "ja": 14855, "##runa": 26605, "morrison": 9959, "##bina": 21114, "trinity": 7124, "##kes": 9681, "##scia": 27210, "claims": 4447, "relative": 5816, "senegal": 16028, "td": 14595, "lukas": 23739, "navy": 3212, "commended": 22429, "supportive": 16408, "radcliffe": 22603, "magician": 16669, "fullback": 21803, "romance": 7472, "frontier": 8880, "cookie": 17387, "priority": 9470, "spurred": 22464, "##\uff0e": 30517, "comment": 7615, "decca": 21079, "barbados": 16893, "##\u4e5f": 30276, "##crats": 23423, "myth": 10661, "##stra\u00dfe": 24967, "celtic": 8730, "##heart": 22375, "forgot": 9471, "caucasus": 16512, "amalgamated": 17143, "[unused478]": 483, "untitled": 24819, "dessert": 18064, "grossed": 17500, "##ger": 4590, "[unused597]": 602, "oakley": 28876, "##sant": 22341, "joined": 2587, "1977": 3355, "histories": 15215, "happily": 11361, "conquest": 9187, "gloss": 27068, "sung": 7042, "cw": 19296, "withdrawing": 21779, "kang": 16073, "jiangsu": 28091, "darkened": 13755, "sylvester": 20016, "[unused287]": 292, "##ak": 4817, "##rva": 19146, "negotiating": 18875, "sweetly": 22557, "jozef": 23258, "##sions": 27466, "lame": 20342, "pairs": 7689, "anthony": 4938, "kapoor": 17129, "daring": 15236, "adept": 26398, "circulating": 22458, "mathew": 25436, "1735": 26063, "bradshaw": 23762, "effective": 4621, "ex": 4654, "groaned": 9655, "establishing": 7411, "prohibit": 23469, "[unused315]": 320, "event": 2724, "supplied": 8127, "sumo": 28193, "##lifting": 26644, "sly": 18230, "##\u03bf\u03c2": 15297, "paralympic": 17029, "##ayo": 28852, "lucas": 6326, "main": 2364, "caliphate": 28034, "freight": 8441, "raids": 11217, "lacks": 14087, "altitudes": 21973, "##tein": 9589, "hauled": 13161, "breaststroke": 28164, "bend": 8815, "waiter": 15610, "##chuk": 26516, "\u1173": 1481, "processed": 13995, "wb": 25610, "##\u3042": 30172, "consecration": 24730, "warming": 12959, "vitro": 25714, "kindly": 19045, "abel": 16768, "offensive": 5805, "##kong": 25460, "infectious": 16514, "piracy": 24386, "percival": 27832, "mayoral": 23578, "information": 2592, "ghz": 29066, "that": 2008, "terminus": 7342, "##esa": 22447, "functioning": 12285, "might": 2453, "spies": 16794, "insists": 16818, "cried": 6639, "marxist": 15511, "holdings": 9583, "existed": 5839, "##\u56fd": 30325, "cpc": 28569, "##ly": 2135, "##osing": 18606, "livestock": 11468, "week": 2733, "daemon": 12828, "file": 5371, "##ahl": 28083, "boat": 4049, "##ceptive": 28687, "pressured": 25227, "##lit": 15909, "sends": 10255, "commuted": 26704, "presence": 3739, "##lind": 27164, "ferguson": 11262, "transit": 6671, "corbett": 24119, "failing": 7989, "60": 3438, "larkin": 25570, "youth": 3360, "connecticut": 6117, "theology": 8006, "grandma": 13055, "obesity": 24552, "sequence": 5537, "##\u09a6": 29900, "singh": 5960, "##eto": 18903, "266": 25162, "##kyu": 23076, "##xide": 19491, "shafts": 20542, "heresy": 28354, "pound": 9044, "##zu": 9759, "cornered": 25878, "##grate": 22780, "##udence": 29424, "vehicle": 4316, "policeman": 14460, "subdistrict": 24150, "malabar": 28785, "##\u3092": 30216, "##loe": 26846, "device": 5080, "##games": 26393, "buckley": 17898, "struck": 4930, "77": 6255, "lancaster": 10237, "producing": 5155, "palestinians": 21524, "disturbances": 24535, "puzzled": 14909, "argue": 7475, "29": 2756, "psychiatry": 18420, "isabelle": 13942, "instant": 7107, "1965": 3551, "##thy": 16921, "[unused703]": 708, "showing": 4760, "louder": 10989, "mccain": 19186, "##bahn": 16052, "stumbled": 9845, "analytics": 25095, "hardly": 6684, "excerpts": 24962, "judiciary": 14814, "sebastian": 6417, "toes": 10393, "orchard": 15623, "carpathian": 26349, "[unused214]": 219, "stadium": 3346, "textiles": 18762, "##\u2076": 30075, "barber": 13362, "##growth": 26982, "fda": 17473, "[unused570]": 575, "##my": 8029, "##lines": 12735, "priory": 14284, "dominance": 13811, "tequila": 26791, "lei": 26947, "mobilization": 25580, "ardent": 25314, "politely": 16954, "discouraged": 22585, "faculty": 4513, "##hort": 27794, "dna": 6064, "macbeth": 25182, "158": 17696, "operation": 3169, "scully": 25686, "dismissed": 7219, "revered": 23886, "prints": 11204, "##sty": 21756, "pencil": 14745, "derry": 17455, "browser": 16602, "attending": 7052, "argues": 9251, "impaired": 18234, "[unused857]": 862, "nightstand": 23135, "1890": 6193, "beings": 9552, "rightful": 27167, "racks": 27259, "hot": 2980, "insulation": 25710, "bounds": 19202, "##lman": 12624, "##fr": 19699, "##\u3088": 30210, "equivalent": 5662, "motionless": 19917, "graded": 21976, "pharmaceuticals": 24797, "schedule": 6134, "##ske": 17140, "draws": 9891, "campus": 3721, "casinos": 27300, "km": 2463, "##hta": 22893, "##ried": 11998, "##chet": 20318, "parades": 26635, "\u3081": 1680, "312": 21036, "trauma": 12603, "pakistan": 4501, "regimental": 17604, "##lad": 27266, "sergei": 14543, "##dra": 7265, "##11": 14526, "terri": 26568, "1714": 25241, "scrape": 26988, "xi": 8418, "matter": 3043, "ph": 6887, "ely": 20779, "infected": 10372, "delaney": 22101, "quarry": 12907, "##bula": 28507, "emerald": 14110, "templar": 27850, "##iculate": 24153, "checks": 14148, "loved": 3866, "mystery": 6547, "[unused145]": 150, "peaks": 11373, "civilized": 25825, "panorama": 23652, "luck": 6735, "cb": 17324, "ashes": 11289, "lifeless": 22185, "clinical": 6612, "holstein": 18864, "ying": 20879, "baron": 5797, "greene": 11006, "##vance": 21789, "grammy": 8922, "##fus": 25608, "dragons": 8626, "fastened": 24009, "contests": 15795, "intimately": 29024, "resemblance": 14062, "##ford": 3877, "[unused879]": 884, "802": 23908, "lamar": 19756, "##gizing": 28660, "vicinity": 9884, "##sing": 7741, "ash": 6683, "olive": 9724, "conclusions": 15306, "beginnings": 16508, "hides": 17382, "impetus": 27961, "blinding": 19709, "1870s": 14896, "coordination": 12016, "court": 2457, "##giri": 23243, "##mates": 15416, "jae": 22770, "january": 2254, "confluence": 13693, "##\u03b3": 29721, "93": 6109, "staten": 24161, "designers": 11216, "##ogy": 15707, "149": 17332, "crops": 8765, "##plin": 28296, "1818": 12094, "smile": 2868, "prosecuted": 21651, "rocking": 14934, "contain": 5383, "##nad": 25389, "kincaid": 24510, "##urne": 21737, "accord": 15802, "prowess": 26120, "cab": 9298, "merchants": 10310, "##tier": 17579, "##utz": 20267, "busted": 23142, "wedge": 17632, "tall": 4206, "filled": 3561, "lure": 17256, "champion": 3410, "royce": 14789, "##omba": 24991, "inconsistent": 20316, "sketches": 12741, "##icus": 14239, "##t": 2102, "moroccan": 17494, "renovated": 10601, "mollusk": 13269, "##version": 27774, "##bei": 19205, "too": 2205, "constantine": 12790, "\u6cb3": 1899, "##rds": 17811, "denied": 6380, "rocks": 5749, "barracks": 10492, "holds": 4324, "wreck": 12006, "tao": 20216, "chickens": 21868, "lexie": 24123, "##ey": 3240, "##edging": 28002, "zhao": 15634, "vinyl": 8877, "\u0254": 1112, "aqueduct": 24016, "notre": 10289, "gi": 21025, "##cape": 19464, "presents": 7534, "knives": 13227, "##\u5fe0": 30378, "become": 2468, "sega": 16562, "charismatic": 23916, "1967": 3476, "##\u5e73": 30365, "implements": 22164, "agent": 4005, "arboretum": 25197, "leah": 14188, "\u026f": 1122, "ruler": 7786, "scandinavia": 20612, "fearless": 22518, "##upt": 29441, "\u03bc": 1166, "folklore": 13104, "lea": 12203, "attract": 9958, "[unused85]": 86, "chancel": 16482, "boca": 22765, "defunct": 11984, "ems": 29031, "powers": 4204, "pornography": 19378, "showcase": 13398, "loosen": 29476, "cabbage": 28540, "beneath": 4218, "pursued": 9505, "botanical": 13194, "kenneth": 8856, "earn": 7796, "posted": 6866, "##till": 28345, "individual": 3265, "##ator": 8844, "spitfire": 28323, "bop": 29432, "tab": 21628, "finale": 9599, "georgina": 27358, "pit": 6770, "study": 2817, "edith": 13257, "desperate": 7143, "contains": 3397, "##lmer": 23398, "expressions": 11423, "##tray": 28473, "menacing": 24060, "\u5dde": 1836, "militant": 16830, "\u4e5f": 1750, "##oy": 6977, "pulling": 4815, "##bas": 22083, "apart": 4237, "##hend": 22342, "evil": 4763, "duet": 11979, "##helm": 24546, "biodiversity": 17194, "mentions": 9704, "coptic": 27672, "admire": 19837, "flashbacks": 28945, "finalized": 23575, "joker": 19318, "[unused309]": 314, "nora": 12306, "stresses": 23253, "##bular": 28808, "future": 2925, "commemoration": 22377, "limo": 23338, "ware": 16283, "shipyard": 13858, "##isance": 28138, "##rt": 5339, "podcast": 16110, "raceway": 23018, "afl": 10028, "gloucestershire": 15905, "viscount": 12182, "##bol": 14956, "[unused283]": 288, "rc": 22110, "lengthy": 12401, "botanic": 27761, "bombed": 18897, "patricia": 10717, "tame": 24763, "who": 2040, "\u8a9e": 1950, "\u535a": 1786, "oleg": 25841, "surfaces": 9972, "lock": 5843, "##ists": 5130, "##one": 5643, "inexperienced": 26252, "additive": 29167, "characters": 3494, "tre": 29461, "\u0637": 1286, "andres": 15614, "##neil": 27276, "cl": 18856, "suzuki": 14278, "papa": 13008, "cp": 18133, "subtly": 28797, "preserve": 7969, "mick": 10872, "##eyer": 20211, "##elling": 23918, "hinges": 25484, "mercantile": 25420, "cramer": 29433, "nutritional": 28268, "altitude": 7998, "\u30a8": 1698, "##eras": 24140, "hamburger": 24575, "solids": 26778, "tweed": 26922, "guilt": 8056, "##bee": 11306, "manpower": 22039, "proficiency": 26293, "##zzo": 12036, "electronically": 28926, "dramatic": 6918, "smallest": 10479, "[unused785]": 790, "este": 28517, "restless": 15035, "caucus": 13965, "raging": 17559, "andy": 5557, "sinatra": 19643, "2018": 2760, "hum": 14910, "grand": 2882, "eurasian": 23399, "tucking": 25056, "dow": 23268, "devout": 26092, "sweeney": 21178, "props": 24387, "halloween": 14414, "##illon": 20343, "ruthless": 18101, "hong": 4291, "freeman": 11462, "oblivion": 24034, "magazine": 2932, "cylinder": 7956, "marketing": 5821, "surprised": 4527, "johnstone": 24160, "[unused197]": 202, "dear": 6203, "chromosome": 16706, "mccann": 28641, "confident": 9657, "velocity": 10146, "advises": 25453, "artillery": 4893, "##kota": 27380, "##uce": 18796, "##shire": 7430, "##stellar": 29028, "chances": 9592, "[unused63]": 64, "renault": 14605, "wah": 22894, "\u53f8": 1791, "frame": 4853, "toward": 2646, "clemens": 27277, "fueled": 17999, "given": 2445, "charges": 5571, "boroughs": 21413, "inducted": 8120, "##oration": 21223, "seoul": 10884, "loss": 3279, "\u98df": 1978, "hurdles": 18608, "booking": 21725, "halftime": 22589, "mets": 15253, "attained": 12754, "screenings": 25437, "trooper": 28224, "dickson": 22076, "[unused720]": 725, "##static": 16677, "syndicate": 16229, "melville": 20154, "goddess": 7804, "inspect": 22459, "daytime": 12217, "narrator": 11185, "diamonds": 11719, "##felt": 26675, "eyelids": 16544, "seeking": 6224, "collingwood": 20044, "looks": 3504, "##fp": 22540, "cover": 3104, "siege": 6859, "45": 3429, "geraldine": 26987, "identical": 7235, "pricing": 20874, "mustache": 28786, "\u110a": 1462, "fails": 11896, "debated": 15268, "##oz": 18153, "disks": 23999, "telecommunication": 25958, "ada": 15262, "refreshing": 27150, "designation": 8259, "barrington": 26469, "##\u68ee": 30408, "franklin": 5951, "##eses": 23072, "\u0639": 1288, "moments": 5312, "rowing": 12037, "starters": 29400, "##ogo": 22844, "grunt": 20696, "standards": 4781, "astor": 25159, "spoil": 27594, "ry": 29431, "claudius": 25017, "planners": 27155, "sanitary": 25480, "outfits": 22054, "lydia": 14076, "tingle": 25792, "##llis": 21711, "##maker": 8571, "operatic": 22534, "coding": 16861, "##bbling": 15343, "volcanic": 10942, "paints": 23262, "##\u30d8": 30247, "recounted": 22906, "1761": 21364, "tense": 9049, "specially": 11974, "##geny": 17487, "rayon": 26810, "marlon": 25861, "burnham": 25295, "##36": 21619, "##very": 27900, "christie": 13144, "northernmost": 22037, "rothschild": 19712, "risked": 22374, "invaded": 10836, "royalist": 20796, "pristine": 27375, "##lak": 23451, "##uz": 17040, "\u0580": 1237, "refers": 5218, "clones": 24418, "helens": 24074, "##\u0f53": 29965, "correspondent": 11370, "kara": 13173, "congratulations": 23156, "\u793a": 1923, "accents": 24947, "party": 2283, "lagoon": 15825, "phase": 4403, "teaching": 4252, "##belle": 25766, "johanna": 21498, "endless": 10866, "resumed": 7943, "force": 2486, "harp": 14601, "whichever": 29221, "hound": 19598, "usa": 3915, "1984": 3118, "corpus": 13931, "##craft": 10419, "quay": 21048, "discussed": 6936, "\u2088": 1555, "##/": 29626, "##hips": 19801, "##yal": 21095, "attacking": 7866, "let": 2292, "##ocytes": 28788, "##xt": 18413, "day": 2154, "catholicism": 16138, "gotham": 22814, "faculties": 18658, "##cino": 21081, "##\u540c": 30320, "economist": 11708, "investor": 14316, "palmer": 8809, "happened": 3047, "fortifications": 14507, "lesser": 8276, "\u0940": 1342, "automatic": 6882, "\u6c34": 1893, "ferrari": 13632, "apache": 15895, "hash": 23325, "##bard": 21458, "smyth": 28103, "##tist": 16774, "##ile": 9463, "[unused878]": 883, "crank": 27987, "##box": 8758, "##train": 23654, "##cats": 19588, "expectations": 10908, "##rg": 10623, "colored": 6910, "reflective": 21346, "potatoes": 14629, "consultancy": 24853, "dynamics": 10949, "antilles": 27695, "prix": 5431, "cu": 12731, "bin": 8026, "subunit": 24312, "eucalyptus": 27111, "navarro": 23524, "##zman": 24340, "skinned": 19937, "humanitarian": 11470, "##\u0444": 29749, "##\u2265": 30136, "emmett": 25685, "glare": 10982, "##smith": 21405, "invest": 15697, "92": 6227, "quality": 3737, "1933": 4537, "reversed": 11674, "dog": 3899, "galactic": 21375, "debate": 5981, "rooster": 27681, "equations": 11380, "spice": 17688, "172": 18253, "kinase": 21903, "intimidated": 28028, "darts": 17493, "cap": 6178, "almeida": 29555, "malley": 25271, "feud": 13552, "retention": 20125, "##ues": 15808, "meek": 28997, "##inger": 9912, "##\u306c": 30195, "lazarus": 23623, "analysis": 4106, "zoning": 27462, "##lled": 11001, "feathers": 12261, "awarded": 3018, "[unused528]": 533, "bathurst": 21897, "prosecution": 11537, "lung": 11192, "endeavour": 26911, "quantities": 12450, "tariffs": 26269, "aboard": 7548, "##eye": 17683, "boilers": 20412, "ajax": 18176, "requesting": 17942, "[unused413]": 418, "##lum": 12942, "announcing": 13856, "centre": 2803, "depression": 6245, "169": 18582, "flows": 6223, "##cology": 19824, "wanda": 20848, "explore": 8849, "hurts": 13403, "singing": 4823, "[unused4]": 5, "[unused263]": 268, "og": 13958, "taboo": 27505, "tyres": 24656, "\u90e1": 1959, "##boats": 19468, "male": 3287, "fox": 4419, "##loaded": 17468, "##lar": 8017, "##st": 3367, "ratification": 27369, "operates": 5748, "encouraged": 6628, "relieved": 7653, "derivative": 13819, "exile": 8340, "lexi": 16105, "anand": 18887, "##athic": 20972, "winnipeg": 11093, "##cal": 9289, "##up": 6279, "stimulating": 27295, "boutique": 24611, "##rod": 14127, "angered": 18748, "dangers": 16796, "##ored": 19574, "switch": 6942, "mined": 21846, "##hong": 19991, "##uary": 24384, "invalid": 19528, "porch": 7424, "chao": 22455, "firth": 25138, "appropriate": 6413, "47": 4700, "guangdong": 21287, "[unused289]": 294, "anywhere": 5973, "curious": 8025, "city": 2103, "hospitals": 8323, "fiji": 11464, "##\u0646": 15915, "[unused80]": 81, "sham": 25850, "253": 23254, "mar": 9388, "1850s": 16488, "chloe": 9318, "england": 2563, "operate": 5452, "kettle": 22421, "streams": 9199, "[unused225]": 230, "trader": 17667, "##ar": 2906, "splashed": 22055, "bark": 11286, "sunk": 10417, "multiplication": 24856, "labourers": 24043, "##\u57ce": 30330, "underlying": 10318, "collections": 6407, "nj": 19193, "sparkled": 28092, "willoughby": 24919, "plants": 4264, "lingered": 17645, "accredited": 11459, "graphics": 8389, "kitchens": 26051, "##hem": 29122, "enduring": 16762, "samuel": 5212, "policies": 6043, "espn": 10978, "nintendo": 10022, "agnes": 11166, "yiddish": 20112, "woven": 17374, "inspirational": 28676, "assessed": 14155, "##\u2248": 30133, "needle": 12201, "whistling": 24350, "greyhound": 21220, "yesterday": 7483, "handy": 18801, "complete": 3143, "##lists": 27103, "1745": 21809, "devotees": 22707, "trials": 7012, "principally": 16552, "dialects": 11976, "explosions": 18217, "soldier": 5268, "[unused318]": 323, "insistence": 20616, "skye": 16590, "##une": 9816, "worthless": 22692, "[unused521]": 526, "continually": 14678, "prayer": 7083, "##ej": 20518, "gt": 14181, "spence": 22186, "forerunner": 23993, "richer": 26108, "##\u00a5": 29648, "perennial": 14638, "##dson": 25112, "##bari": 25990, "cathy": 18305, "liga": 8018, "correctional": 20873, "[unused628]": 633, "##\u09ad": 29905, "curls": 14484, "##ffi": 26989, "wife": 2564, "roses": 10529, "pottery": 11378, "pastry": 27060, "jumping": 8660, "1852": 8784, "\u30a3": 1694, "clever": 12266, "anxiety": 10089, "##kumar": 18494, "1737": 26738, "lied": 9828, "##garh": 13484, "turing": 28639, "##tained": 28055, "\u21c4": 1589, "casts": 23942, "spirits": 8633, "stokes": 18716, "invite": 13260, "14": 2403, "[unused156]": 161, "drainage": 11987, "crowley": 20748, "phillips": 8109, "result": 2765, "##gus": 12349, "[unused393]": 398, "gardiner": 21143, "ingredient": 21774, "charlemagne": 27257, "yunnan": 21607, "kaiser": 15676, "wadi": 28380, "##igen": 29206, "##\u30fb": 30264, "entertained": 21474, "officials": 4584, "wolverine": 22162, "destruction": 6215, "executive": 3237, "oppose": 15391, "##\u9577": 30493, "[unused382]": 387, "##nz": 14191, "mcdonnell": 23149, "pali": 28619, "[unused698]": 703, "foster": 6469, "vengeance": 14096, "praising": 15838, "##nais": 28020, "##oco": 24163, "##\u8fb6": 30482, "##dding": 27027, "sahib": 23513, "1670": 26253, "tide": 10401, "##rter": 19418, "##\u098f": 29887, "mausoleum": 19049, "ravens": 17272, "pop": 3769, "culinary": 20560, "among": 2426, "veterans": 8244, "##\u8a9e": 30476, "bullock": 25200, "##\u5ba3": 30349, "grocery": 13025, "storm": 4040, "relic": 24933, "##\u5357": 30311, "manipulation": 16924, "specialist": 8325, "kate": 5736, "##tight": 26143, "choking": 18329, "militia": 8396, "rehearsals": 24760, "terminal": 5536, "ethanol": 22886, "charm": 11084, "cords": 24551, "##ale": 9453, "[unused987]": 992, "##wee": 28394, "attested": 18470, "disclosure": 19380, "wealthiest": 27809, "reassure": 24647, "unopposed": 17123, "attacks": 4491, "##ha": 3270, "##rani": 21578, "leaked": 15748, "240": 11212, "sat": 2938, "##ino": 5740, "baroness": 21479, "compulsory": 14770, "favorites": 20672, "mob": 11240, "raja": 10164, "virtue": 11870, "pseudo": 18404, "glory": 8294, "ali": 4862, "##ono": 17175, "botswana": 19414, "elk": 18995, "convened": 19596, "videos": 6876, "##cular": 15431, "\u05e0": 1257, "##\u0290": 29702, "billing": 25640, "selecting": 17739, "1300": 19527, "armament": 14410, "microscopic": 26396, "consultants": 22283, "##tok": 18715, "##rn": 6826, "intimidation": 28973, "##port": 6442, "mace": 19382, "hoax": 28520, "misleading": 22369, "quarterfinal": 29380, "360": 9475, "##rise": 29346, "##\u5b9a": 30348, "outskirts": 12730, "##uld": 21285, "utc": 11396, "accessible": 7801, "mad": 5506, "ruth": 7920, "1792": 13414, "##\u2093": 30092, "[unused397]": 402, "##acies": 20499, "valves": 17355, "giants": 7230, "paced": 13823, "revolver": 17863, "##sha": 7377, "harvard": 5765, "tan": 9092, "deserts": 28858, "brush": 8248, "430": 19540, "arranged": 5412, "proposition": 14848, "##hly": 27732, "##ische": 13719, "##rated": 9250, "provision": 9347, "benefactor": 27398, "payments": 10504, "fought": 4061, "underground": 5230, "laughing": 5870, "##hered": 27190, "stellar": 17227, "sockets": 27540, "parts": 3033, "backdrop": 18876, "shack": 22200, "square": 2675, "pt": 13866, "again": 2153, "monthly": 7058, "loch": 14941, "versa": 18601, "reminding": 15906, "bonnet": 24367, "\u209b": 1570, "##ags": 26454, "\u2297": 1613, "\u0928": 1327, "frankfurt": 9780, "repertory": 21099, "jets": 9924, "##vd": 16872, "transparency": 16987, "272": 24231, "fl": 13109, "vastly": 24821, "hermann": 12224, "stalin": 13125, "corey": 18132, "councillors": 13189, "##\u2205": 30121, "reviews": 4391, "barefoot": 22985, "somalia": 14717, "adrian": 7918, "##ency": 11916, "[unused590]": 595, "\uff09": 1988, "411": 27517, "##virus": 23350, "flank": 12205, "chefs": 27828, "hazards": 22010, "##ers": 2545, "electrified": 18042, "cocoa": 22940, "[unused810]": 815, "inclined": 13050, "##\u2663": 30151, "growing": 3652, "[unused385]": 390, "##tto": 9284, "bergen": 12674, "portuguese": 5077, "revolving": 24135, "themes": 6991, "instability": 18549, "wheeled": 17320, "racers": 25791, "##uram": 27618, "##pin": 8091, "apologize": 12134, "##dial": 27184, "demolished": 7002, "disappears": 17144, "squads": 20191, "arrive": 7180, "ah": 6289, "[unused786]": 791, "reigns": 23481, "ml": 19875, "katrina": 16864, "##oris": 21239, "routing": 16972, "##kel": 11705, "1817": 12529, "rubber": 8903, "cozy": 26931, "470": 21064, "differences": 5966, "sparsely": 24961, "reza": 26323, "unmarked": 25779, "cullen": 19925, "blow": 6271, "##dick": 24066, "##rud": 28121, "pledged": 16970, "xv": 15566, "abdul": 10298, "##\u0274": 29690, "##weight": 11179, "domed": 29208, "prussia": 10724, "expanse": 22944, "crowe": 25657, "winchester": 12841, "observing": 14158, "##yard": 14132, "##pes": 10374, "##=": 29630, "mitchell": 6395, "casting": 9179, "nair": 22525, "hilda": 21589, "##ulu": 20391, "satisfactory": 23045, "trondheim": 26331, "hips": 6700, "##din": 8718, "superior": 6020, "scarlet": 11862, "genetic": 7403, "arterial": 25543, "dale": 8512, "##\u0964": 29880, "##lz": 23858, "fitness": 10516, "progressively": 20519, "shocks": 28215, "bangladesh": 7269, "legged": 15817, "excitedly": 23885, "trusting": 19836, "wyatt": 12986, "##nir": 29339, "couple": 3232, "rubin": 20524, "##fen": 18940, "broad": 5041, "##ipe": 15457, "spirit": 4382, "stool": 14708, "neighbourhood": 10971, "dam": 5477, "irrelevant": 22537, "dans": 18033, "##ffed": 15388, "##mbling": 29256, "unpublished": 19106, "gearbox": 22227, "industry": 3068, "##amina": 27651, "\u092f": 1332, "averaged": 11398, "fielding": 15452, "aka": 9875, "hk": 22563, "independent": 2981, "wardrobe": 17828, "##\u03c3": 29733, "negative": 4997, "alarm": 8598, "installment": 18932, "##uch": 10875, "monasteries": 15947, "automobile": 9935, "##lined": 18194, "native": 3128, "drifted": 10070, "crow": 11465, "critic": 6232, "congo": 9030, "oxidation": 19577, "potion": 26722, "torch": 12723, "##\u057a": 29780, "briefcase": 21793, "ether": 28855, "[unused183]": 188, "vertices": 18984, "final": 2345, "##gged": 15567, "jury": 6467, "determined": 4340, "##ctric": 22601, "risky": 19188, "exited": 15284, "feminine": 12320, "milestone": 19199, "unnecessary": 14203, "##mc": 12458, "late": 2397, "chariot": 23507, "beside": 3875, "##nel": 11877, "coup": 8648, "possessed": 8679, "noctuidae": 24893, "##\u6cd5": 30427, "\u79cb": 1929, "1940": 3878, "##35": 19481, "chico": 22136, "shore": 5370, "[unused249]": 254, "##asco": 28187, "cardiff": 10149, "philips": 19087, "skirmish": 27264, "##zhou": 9791, "##word": 18351, "##bate": 20179, "terror": 7404, "charleston": 10907, "blue": 2630, "##enham": 23580, "miniature": 12973, "##oting": 20656, "freaking": 13847, "26th": 14935, "pontifical": 22362, "##sov": 23230, "shaded": 25273, "[unused272]": 277, "[unused238]": 243, "##py": 7685, "dan": 4907, "voters": 7206, "swiftly": 12128, "##boro": 12691, "skipper": 23249, "##gny": 19393, "[unused419]": 424, "ned": 12311, "consulting": 10552, "\u0905": 1311, "##vant": 18941, "##ntino": 25318, "##hei": 26036, "agreeing": 16191, "abigail": 15983, "mara": 13955, "thirteen": 7093, "##yre": 16363, "honduras": 14373, "paternal": 15112, "correction": 18140, "able": 2583, "zagreb": 12974, "appear": 3711, "obedience": 22645, "slim": 11754, "angled": 18756, "excused": 28512, "registration": 8819, "##frame": 15643, "expulsion": 18272, "contracted": 11016, "acknowledging": 21894, "trident": 26515, "im": 10047, "kentucky": 5612, "clue": 9789, "southampton": 11833, "shoved": 7468, "deserves": 17210, "##forth": 15628, "elmer": 21464, "tattoo": 11660, "1632": 28216, "guernsey": 24640, "catching": 9105, "##ysis": 20960, "strand": 11226, "jeremy": 7441, "##\u0641": 29833, "severe": 5729, "lionel": 14377, "resembled": 15881, "##ward": 7652, "hardy": 9532, "sentenced": 7331, "superiority": 19113, "invariably": 26597, "##gp": 21600, "[unused574]": 579, "horses": 5194, "ec": 14925, "rajasthan": 16815, "gentleman": 10170, "stormed": 16201, "biology": 7366, "pilgrimage": 14741, "flow": 4834, "incredible": 9788, "flickered": 15999, "closed": 2701, "fisherman": 19949, "comparison": 7831, "##hur": 24572, "##da": 2850, "bloody": 6703, "proficient": 27029, "cent": 9358, "persistence": 28297, "fang": 15197, "others": 2500, "##gt": 13512, "##hearted": 27693, "giorgio": 17697, "ivy": 7768, "lead": 2599, "crimean": 20516, "hitler": 8042, "respecting": 27818, "##onne": 18256, "higher": 3020, "favour": 7927, "wroc\u0142aw": 25160, "##tsu": 10422, "holocaust": 11513, "##nic": 8713, "prevents": 16263, "quarterback": 9074, "##\u00b7": 29661, "[unused641]": 646, "goals": 3289, "grossing": 18244, "[unused650]": 655, "hapoel": 24208, "cup": 2452, "[unused840]": 845, "waller": 23550, "regaining": 28657, "ceramic": 14692, "incorrectly": 19721, "132": 14078, "##tangle": 23395, "outnumbered": 21943, "inspector": 7742, "ken": 6358, "shreveport": 23740, "##\u09af": 29907, "arcadia": 25178, "charms": 24044, "ruse": 26307, "azerbaijani": 18325, "bag": 4524, "hissing": 26386, "[unused664]": 669, "register": 4236, "pitch": 6510, "mandatory": 10915, "nationale": 17360, "percentage": 7017, "founding": 4889, "acknowledges": 28049, "##hetic": 20086, "cleric": 29307, "pass": 3413, "capacities": 21157, "mostly": 3262, "jared": 8334, "##rya": 20444, "218": 20741, "tyler": 7482, "operating": 4082, "unity": 8499, "##hale": 15238, "interacting": 21935, "kemp": 20441, "battled": 19787, "compliment": 19394, "##sson": 7092, "##ddle": 20338, "miami": 5631, "[unused438]": 443, "##\u2116": 30106, "amulet": 25087, "##thesis": 25078, "nitrogen": 14114, "dishes": 10447, "##urrent": 29264, "stainless": 18676, "furnished": 19851, "\u02b3": 1142, "debt": 7016, "medals": 6665, "unmanned": 24075, "##cede": 22119, "##\u6c0f": 30417, "##physics": 15638, "chemotherapy": 27144, "manager": 3208, "rei": 24964, "geologic": 22125, "seas": 11915, "gas": 3806, "familiarity": 24666, "rented": 12524, "cuban": 9642, "pleas": 22512, "pau": 29025, "interact": 11835, "##54": 27009, "bharatiya": 24243, "folded": 6999, "ronnie": 11688, "interviewed": 10263, "##rus": 7946, "wine": 4511, "halifax": 10475, "annum": 28907, "caretaker": 17600, "outcome": 9560, "subway": 10798, "everton": 18022, "[unused876]": 881, "nascar": 11838, "portray": 17279, "sar": 18906, "1747": 24522, "flagship": 10565, "kellogg": 26129, "##ban": 8193, "wasps": 23146, "##haya": 26115, "##rail": 15118, "pd": 22851, "displaced": 12936, "acc": 16222, "##\u5b87": 30345, "rape": 9040, "weaponry": 22711, "corrections": 20983, "detached": 12230, "emily": 6253, "westwood": 21730, "##rley": 12866, "rancho": 18123, "extraordinary": 9313, "\u00a35": 27813, "prayed": 14283, "homeland": 10759, "##cea": 21456, "relocation": 18344, "unfair": 15571, "##text": 18209, "##rate": 11657, "##lett": 20897, "governor": 3099, "##pate": 17585, "purported": 27023, "\u5065": 1768, "[unused303]": 308, "conqueror": 25466, "temperature": 4860, "prolonged": 15330, "decides": 7288, "edged": 13011, "[unused884]": 889, "understands": 19821, "contributor": 12130, "positioning": 19120, "lifelong": 13506, "\u0e21": 1415, "departmental": 28912, "##gie": 11239, "ludwig": 10302, "moderate": 8777, "##itaire": 29422, "tung": 27079, "diaries": 18707, "##genase": 28835, "leasing": 26707, "manifested": 24906, "[unused888]": 893, "##force": 14821, "leon": 6506, "650": 13757, "when": 2043, "dj": 6520, "surge": 12058, "\u91d1": 1964, "transformations": 21865, "owes": 24381, "amusement": 9778, "dos": 9998, "clergyman": 22232, "license": 6105, "rutgers": 18607, "sync": 26351, "veil": 15562, "greenish": 23753, "limitations": 12546, "lucivar": 21401, "bugs": 12883, "asking": 4851, "balancing": 20120, "[unused630]": 635, "[unused496]": 501, "##24": 18827, "planned": 3740, "pro": 4013, "rpg": 22531, "##mare": 24376, "##wai": 21547, "sho": 26822, "marx": 13518, "brink": 20911, "br": 7987, "##khov": 25495, "recently": 3728, "las": 5869, "characterized": 7356, "##vus": 27500, "trance": 16588, "[unused231]": 236, "audi": 20075, "elevated": 8319, "accelerator": 23468, "predicting": 29458, "baha": 13253, "continuous": 7142, "whoa": 23281, "fronts": 21430, "evolution": 6622, "practised": 20439, "answered": 4660, "shaun": 16845, "smell": 5437, "fa": 6904, "sniff": 27907, "bandits": 19088, "smiled": 3281, "##claiming": 27640, "##code": 16044, "zoom": 24095, "results": 3463, "survival": 7691, "criteria": 9181, "attends": 23933, "barbarians": 28056, "[": 1031, "biggest": 5221, "anna": 4698, "##yt": 22123, "niall": 21889, "repay": 24565, "hospitality": 15961, "maru": 26280, "##unda": 18426, "like": 2066, "\u2286": 1611, "421": 29403, "reacts": 27325, "abrupt": 18772, "raj": 11948, "amusing": 19142, "procession": 14385, "dropped": 3333, "billie": 18210, "steadily": 11328, "dissatisfied": 25956, "135": 11502, "maxwell": 10691, "97": 5989, "1943": 3826, "reason": 3114, "height": 4578, "kenji": 25894, "droplets": 27126, "\u30de": 1723, "lean": 8155, "plans": 3488, "legends": 9489, "zach": 12397, "helicopters": 12400, "property": 3200, "targets": 7889, "##lash": 27067, "collisions": 28820, "forces": 2749, "realize": 5382, "foo": 29379, "throne": 6106, "rhys": 13919, "##sphere": 23874, "nationwide": 9053, "vhs": 17550, "##ttering": 19567, "elisa": 29490, "picturesque": 23273, "induce": 19653, "publicity": 11845, "perkins": 13601, "bonaparte": 20830, "upbringing": 24615, "110": 7287, "\u09ac": 1368, "shape": 4338, "affiliate": 8727, "jun": 12022, "links": 6971, "\u09a8": 1366, "[unused783]": 788, "autopsy": 24534, "hush": 20261, "##as": 3022, "usaf": 18531, "husbands": 19089, "1625": 26263, "categories": 7236, "##ave": 10696, "transforming": 17903, "[unused577]": 582, "whale": 13156, "generating": 11717, "draining": 19689, "sugarcane": 28910, "##iling": 16281, "cia": 9915, "##mbre": 19908, "##aghan": 26685, "acquired": 3734, "lotus": 13030, "fletcher": 10589, "##\u043c": 29745, "partnership": 5386, "flora": 10088, "vivid": 14954, "malone": 16321, "hate": 5223, "##el": 2884, "##lee": 10559, "aggressive": 9376, "##\u624b": 30384, "render": 17552, "basha": 26074, "[unused244]": 249, "previously": 3130, "revoked": 22837, "parties": 4243, "##lative": 26255, "\u0447": 1202, "cologne": 10918, "##used": 13901, "constellation": 15300, "infinite": 10709, "grid": 8370, "abuses": 21078, "airing": 10499, "fiery": 15443, "legal": 3423, "sooner": 10076, "500": 3156, "scratches": 25980, "tentacles": 24719, "buzzing": 20386, "##\u767d": 30441, "rash": 23438, "crocodile": 21843, "specified": 9675, "##nto": 13663, "resolved": 10395, "idol": 10282, "standing": 3061, "\u09a5": 1363, "forts": 15421, "alarmed": 19260, "scale": 4094, "stevenson": 13636, "##wives": 23744, "throw": 5466, "##inae": 16414, "reaction": 4668, "breeds": 15910, "obviously": 5525, "emphasize": 17902, "##vot": 22994, "##ola": 6030, "1853": 8933, "squid": 26852, "1960": 3624, "]": 1033, "##rey": 15202, "bertie": 20743, "cnn": 13229, "prisoners": 5895, "relevance": 21923, "morphology": 19476, "##\u0252": 29678, "easter": 10957, "part": 2112, "pitchers": 23232, "##\u7537": 30438, "bastard": 8444, "archibald": 15917, "##tern": 16451, "overture": 25052, "emma": 5616, "publisher": 6674, "##\u5e1d": 30364, "organisations": 8593, "##ute": 10421, "hygiene": 19548, "##elman": 23830, "leased": 12019, "##ops": 11923, "##sie": 11741, "illusions": 24883, "subdivisions": 22095, "lowell": 15521, "dummy": 24369, "smiling": 5629, "76": 6146, "surrender": 7806, "purchasing": 13131, "delay": 8536, "\u1d52": 1503, "possesses": 14882, "dude": 12043, "writing": 3015, "##nium": 14907, "ninth": 6619, "full": 2440, "replay": 15712, "choreographed": 23317, "##vert": 16874, "##vsky": 15904, "siena": 23754, "glided": 26936, "couples": 6062, "seismic": 22630, "20s": 27074, "hardcover": 20990, "corrosion": 24625, "duplicate": 24473, "aiden": 15086, "goodman": 14514, "ton": 10228, "##rer": 14544, "airborne": 10519, "branched": 21648, "##ag": 8490, "building": 2311, "##oes": 22504, "specifically": 4919, "filmmakers": 16587, "liang": 16982, "according": 2429, "alfred": 6152, "##ake": 13808, "inquisition": 24638, "drastically": 21040, "##uta": 13210, "opaque": 28670, "costa": 6849, "##itic": 18291, "routed": 19578, "##cured": 19405, "hat": 6045, "economically": 15318, "##0": 2692, "ecstasy": 19069, "aluminum": 13061, "leeds": 7873, "invasion": 5274, "lion": 7006, "##physical": 23302, "overseeing": 19642, "exiled": 14146, "##\u05d1": 29789, "pokemon": 20421, "##cript": 23235, "astro": 28625, "irritated": 15560, "phylogenetic": 23192, "athenian": 26956, "frightened": 10363, "##koff": 26126, "spit": 13183, "penetration": 20015, "[unused608]": 613, "walkway": 19467, "intend": 13566, "suburb": 7575, "garner": 18661, "chevy": 29009, "montrose": 24990, "zone": 4224, "offered": 3253, "moore": 5405, "utilization": 27891, "somerville": 27209, "##ifiers": 28295, "##aia": 27131, "390": 20024, "relatives": 9064, "differentiation": 20582, "consists": 3774, "##tor": 4263, "\u3064": 1664, "lectured": 19206, "amadeus": 27185, "skies": 15717, "shivered": 13927, "[unused15]": 16, "##\u0449": 29754, "wilder": 18463, "promise": 4872, "bonuses": 29563, "\u884c": 1945, "continuously": 10843, "##pose": 20688, "saturn": 14784, "shattering": 21797, "##encia": 27742, "what": 2054, "berries": 22681, "wilhelm": 9070, "\u6c38": 1896, "cody": 13326, "gratitude": 15531, "repair": 7192, "hamas": 22129, "treatments": 13441, "charities": 15430, "##anum": 27975, "##wright": 26460, "deposition": 19806, "recognizing": 14622, "[unused79]": 80, "sociologist": 25106, "##ow": 5004, "describing": 7851, "##grants": 27444, "pig": 10369, "remastered": 19484, "interpretation": 7613, "ski": 8301, "wylie": 29152, "electrification": 23679, "##eum": 14820, "\u540d": 1795, "buick": 28865, "herzegovina": 11453, "disbanded": 8532, "lena": 14229, "##mun": 23041, "institution": 5145, "silly": 10021, "manufacturing": 5814, "enzyme": 9007, "##hre": 28362, "620": 23612, "interfered": 28976, "darby": 25844, "revenue": 6599, "##mmer": 15810, "stanton": 15845, "exhibits": 10637, "djs": 23837, "##iot": 25185, "demonic": 23170, "109": 11518, "##\u2014": 30052, "velvet": 10966, "##forms": 22694, "\u30ec": 1734, "indigo": 22472, "[unused191]": 196, "andrea": 8657, "dimitri": 15953, "objected": 15959, "articulated": 20742, "olsen": 18997, "astonishment": 23819, "convection": 23849, "##rf": 12881, "##yle": 12844, "arrangements": 7565, "[unused16]": 17, "races": 3837, "##ntation": 23436, "equilibrium": 14442, "walnut": 18489, "##head": 4974, "moors": 24812, "competition": 2971, "spanish": 3009, "plum": 22088, "loser": 10916, "pinned": 11807, "camille": 16675, "##sund": 25168, "dividing": 16023, "##jou": 23099, "quinlan": 28451, "unfolded": 23959, "justices": 19867, "##ito": 9956, "##xia": 14787, "dug": 8655, "beforehand": 25828, "lakeside": 28701, "cannabis": 17985, "carving": 18441, "tires": 13310, "marriages": 12743, "fried": 13017, "feeder": 21429, "##lby": 14510, "originals": 23728, "104": 9645, "ulrich": 19619, "##vn": 16022, "##iani": 25443, "ottomans": 17774, "actual": 5025, "programme": 4746, "wisdom": 9866, "players": 2867, "grab": 6723, "##sar": 10286, "##rma": 17830, "compass": 16681, "##org": 21759, "hodges": 19772, "morality": 16561, "911": 19989, "[unused125]": 130, "##\u06ba": 29843, "examine": 11628, "success": 3112, "kicker": 22652, "michelle": 9393, "##ums": 18163, "##1": 2487, "exploring": 11131, "##kell": 18690, "thorpe": 20249, "##lwyn": 29287, "steal": 8954, "downstairs": 10025, "##cute": 26869, "##landa": 24448, "guessed": 11445, "access": 3229, "bays": 13933, "critically": 11321, "##\u10e0": 29987, "traitor": 17328, "##gno": 26745, "baxter": 14664, "short": 2460, "##\u1167": 30010, "combine": 11506, "##cera": 19357, "##af": 10354, "\u00a6": 1072, "##bat": 14479, "filmmaker": 12127, "133": 14506, "\u9577": 1967, "ruined": 9868, "287": 23090, "bottle": 5835, "avatar": 22128, "##ined": 21280, "unanimous": 13604, "folks": 12455, "mueller": 26774, "\u2022": 1528, "overcame": 26463, "newfoundland": 11944, "1652": 28853, "##xin": 20303, "gravel": 11127, "sousa": 28535, "mississippi": 5900, "##\u03bf\u03c5": 26789, "devoid": 22808, "influx": 18050, "raced": 8255, "gage": 10012, "##enter": 29110, "reapers": 27733, "advance": 5083, "barn": 8659, "##nko": 16107, "var": 13075, "##che": 5403, "dislike": 18959, "##rchy": 29389, "mature": 9677, "jimmy": 5261, "jane": 4869, "threaded": 26583, "karachi": 15381, "interested": 4699, "##sm": 6491, "##zziness": 29212, "healthcare": 9871, "caliph": 22733, "widening": 17973, "discontent": 27648, "##mist": 23738, "remaining": 3588, "##iti": 25090, "farmhouse": 16870, "##lm": 13728, "\u2089": 1556, "stopping": 7458, "\u5bfa": 1827, "[unused212]": 217, "##\u11bc": 30025, "huddled": 20258, "inclusive": 18678, "lifestyle": 9580, "pakistani": 9889, "leiden": 20329, "findings": 9556, "skyscraper": 24581, "veteran": 8003, "advising": 23875, "vantage": 27274, "chest": 3108, "doorway": 7086, "altered": 8776, "medicines": 20233, "hawk": 9881, "sc": 8040, "blaze": 15347, "##ckle": 19250, "algiers": 22947, "3d": 7605, "##tory": 7062, "##\u30ea": 30258, "experiment": 7551, "1550": 26245, "##isto": 20483, "[unused924]": 929, "innsbruck": 28914, "thirteenth": 14725, "patent": 7353, "##air": 11215, "lawsuit": 9870, "isolate": 27152, "sterling": 10933, "##anna": 25789, "parenting": 28586, "1086": 28196, "geese": 28519, "discussing": 10537, "##mo": 5302, "fathers": 11397, "privileges": 14310, "elle": 15317, "##\u05da": 29797, "mole": 16709, "entries": 10445, "##rdi": 17080, "devi": 14386, "novo": 24576, "chihuahua": 28480, "gigantic": 20193, "##wash": 28556, "##\u5149": 30296, "amounted": 18779, "[unused296]": 301, "##uber": 21436, "perform": 4685, "distributed": 5500, "dukes": 16606, "experimented": 20918, "bundled": 24378, "crawford": 10554, "ind": 27427, "defines": 11859, "admiral": 5902, "abusive": 20676, "sadler": 29012, "##antly": 15706, "forbidden": 10386, "blinds": 28279, "plunging": 29059, "extends": 8908, "cameras": 8629, "pages": 5530, "\u3086": 1683, "awareness": 7073, "ally": 9698, "##slow": 26338, "concession": 16427, "barnet": 26864, "1916": 4947, "muscles": 6650, "paler": 24489, "sonic": 12728, "dail": 26181, "\u0635": 1284, "[unused831]": 836, "##dicated": 26022, "palo": 24326, "petit": 17268, "found": 2179, "francais": 22357, "obeyed": 22665, "tasted": 12595, "ashton": 13772, "##how": 14406, "forensic": 15359, "ein": 16417, "valley": 3028, "anton": 9865, "shit": 4485, "instinctively": 16607, "##ndon": 19333, "madden": 24890, "objections": 17304, "metabolic": 21453, "prize": 3396, "##pressing": 24128, "falls": 4212, "##yria": 20379, "\u7a7a": 1930, "penal": 18476, "costs": 5366, "##set": 13462, "unpaid": 23850, "##izer": 17629, "scenic": 12916, "##sho": 22231, "nearer": 20388, "violently": 14196, "[unused741]": 746, "subcommittee": 18052, "##\u2208": 30124, "##hun": 17157, "\u0f42": 1426, "yearbook": 24803, "cleaning": 9344, "sting": 12072, "[unused958]": 963, "##anga": 18222, "##ignant": 25593, "typically": 4050, "ambition": 16290, "natives": 12493, "##dalen": 26414, "##tically": 25084, "dance": 3153, "##\u4f1a": 30289, "wight": 20945, "maximal": 29160, "spy": 8645, "##hini": 20535, "developments": 8973, "##uter": 19901, "hope": 3246, "carson": 9806, "barnsley": 25139, "settlers": 7322, "farming": 7876, "braced": 15515, "\u0153": 1107, "##gger": 13327, "##iss": 14643, "[unused941]": 946, "##orum": 20527, "feather": 15550, "422": 29269, "##ln": 19666, "drawn": 4567, "radar": 7217, "[unused69]": 70, "nord": 13926, "##bit": 16313, "2500": 25108, "129": 14378, "waterford": 17769, "shouting": 11273, "##xton": 14226, "##ality": 23732, "13th": 6122, "circa": 12800, "inform": 12367, "oldham": 18285, "consolation": 24831, "joshi": 26645, "commandos": 25144, "disperse": 28736, "##lita": 27606, "mariana": 22097, "song": 2299, "availability": 11343, "semantic": 21641, "_": 1035, "originates": 16896, "activities": 3450, "keepers": 24018, "brackets": 19719, "marshes": 19257, "##$": 29615, "croix": 18733, "[unused621]": 626, "##hawk": 17998, "waterway": 23668, "dubois": 26258, "healed": 15027, "rediscovered": 26733, "berlin": 4068, "chairman": 3472, "susie": 23917, "##rnik": 26437, "youtube": 7858, "secretly": 10082, "\u2081": 1548, "inferior": 14092, "##alo": 23067, "reuters": 26665, "mort": 22294, "curled": 8188, "\u0930": 1333, "conversation": 4512, "abandoning": 19816, "increases": 7457, "respond": 6869, "hits": 4978, "cordoba": 17986, "lyons": 16642, "##laus": 28128, "lions": 7212, "[unused695]": 700, "launching": 12106, "designed": 2881, "##\u7687": 30443, "biologist": 21477, "braid": 24148, "clients": 7846, "recognised": 7843, "##\u660e": 30391, "encounter": 8087, "proud": 7098, "stern": 8665, "##bos": 15853, "##\u0563": 29768, "writ": 25697, "agreement": 3820, "\u2217": 1598, "##\u05d6": 29793, "##zko": 29002, "paralympics": 15600, "\u0646": 1296, "arbitration": 18010, "sargent": 27599, "brewster": 23009, "1755": 21417, "##iam": 25107, "style": 2806, "\u2248": 1606, "classification": 5579, "lurking": 24261, "tenants": 14665, "##unds": 26698, "smoothing": 27045, "illegal": 6206, "##\u057f": 29783, "##rip": 29443, "coliseum": 18338, "leads": 5260, "publishers": 8544, "fireworks": 16080, "gale": 14554, "nairobi": 21124, "comic": 5021, "panzer": 16946, "##icle": 25128, "circus": 9661, "vacuum": 11641, "##werk": 29548, "groaning": 24781, "greens": 15505, "##cast": 10526, "imports": 17589, "stemming": 29217, "subdivision": 12572, "scala": 26743, "thyroid": 29610, "[unused23]": 24, "brunswick": 9192, "ignored": 6439, "##\u03b2": 29720, "hayes": 10192, "campo": 22339, "loco": 28046, "purge": 24694, "##\u0564": 29769, "continue": 3613, "postgraduate": 15438, "hacked": 28719, "##500": 29345, "yusuf": 23495, "abdullah": 14093, "hurricanes": 17035, "arsenal": 9433, "\u2026": 1529, "contractual": 27948, "dex": 20647, "denying": 16039, "tran": 25283, "maguire": 26196, "proliferation": 20250, "[unused913]": 918, "spat": 14690, "powerplant": 19526, "clerk": 7805, "cub": 21987, "sphinx": 27311, "##\u099a": 29892, "snowfall": 26043, "fitting": 11414, "\u674e": 1877, "\u7592": 1913, "sensual": 18753, "##icative": 25184, "##sper": 17668, "departing": 15971, "c": 1039, "\u201d": 1524, "##cation": 10719, "azure": 24296, "lecturer": 9162, "majors": 15279, "gracie": 19005, "bratislava": 22992, "quite": 3243, "halle": 19769, "identities": 15702, "movies": 5691, "called": 2170, "[unused818]": 823, "silicon": 13773, "macedonian": 13037, "int": 20014, "##ands": 29560, "councils": 10784, "piazza": 22463, "revolutions": 25239, "detectives": 18145, "lizzie": 15860, "1807": 13206, "##ooping": 29046, "front": 2392, "rig": 19838, "flicked": 12777, "emission": 15760, "[unused971]": 976, "bankruptcy": 10528, "wurttemberg": 16346, "domingo": 15586, "gibbs": 15659, "staging": 15308, "poses": 22382, "hierarchy": 12571, "saigon": 24001, "hu": 15876, "conduct": 6204, "rubbish": 29132, "doors": 4303, "kira": 15163, "##cter": 21162, "auditory": 28042, "##sities": 24279, "baccalaureate": 27802, "[unused933]": 938, "##zen": 10431, "##tlement": 24007, "mounts": 19363, "pleasure": 5165, "glad": 5580, "containing": 4820, "##sable": 19150, "humorous": 14742, "des": 4078, "absently": 21284, "photos": 7760, "expert": 6739, "professionally": 12145, "mohamed": 14467, "lyon": 10241, "whirled": 17097, "fowler": 14990, "##\u307b": 30202, "##dler": 21222, "##\u03b7": 24824, "champaign": 28843, "coordinated": 14206, "flooded": 10361, "agra": 29542, "56th": 29087, "[unused267]": 272, "cite": 21893, "##comb": 18274, "garnered": 13056, "bosses": 23029, "rust": 18399, "mel": 11463, "bust": 13950, "ai": 9932, "##lithic": 28508, "keynes": 22152, "##abe": 16336, "ci": 25022, "parchment": 22433, "congregation": 7769, "\u9547": 1966, "turin": 13667, "##gill": 19791, "gerald": 9659, "nutrition": 14266, "##*": 29621, "##\u045a": 29763, "bartender": 15812, "indication": 12407, "gem": 17070, "tang": 9745, "establishment": 5069, "##lles": 20434, "##otide": 26601, "magnitude": 10194, "##kor": 21815, "website": 4037, "cut": 3013, "##itch": 20189, "conical": 24750, "luxembourg": 10765, "engine": 3194, "bright": 4408, "sandwich": 11642, "statute": 11671, "\u1019": 1437, "augmented": 19335, "locomotives": 7830, "infamous": 14429, "35": 3486, "[unused368]": 373, "##\u5948": 30340, "##ical": 7476, "vidhan": 28590, "[unused105]": 110, "irony": 19728, "simultaneously": 7453, "bartholomew": 19866, "observers": 14009, "##rnier": 28484, "brains": 14332, "##\u897f": 30473, "interfere": 15115, "##\u2190": 30111, "awake": 8300, "##arts": 20591, "drastic": 23956, "##ivated": 21967, "huge": 4121, "whom": 3183, "greet": 17021, "surveying": 19654, "kota": 23856, "casimir": 24701, "coinage": 25396, "##hani": 23573, "##eer": 11510, "antagonist": 17379, "org": 8917, "taxi": 10095, "sees": 5927, "hermitage": 24708, "##wald": 11191, "flores": 17343, "lisa": 7059, "ethnicity": 18240, "grenade": 17038, "brigadier": 9900, "##havan": 24652, "liberated": 19553, "cyprus": 9719, "##\u8857": 30472, "ric": 26220, "middleton": 17756, "interpret": 17841, "930": 29359, "convert": 10463, "silvio": 28107, "achievements": 10106, "supermarket": 17006, "gardening": 21529, "resonance": 17011, "kid": 4845, "385": 24429, "nudged": 18666, "endorsement": 20380, "jaguar": 16490, "realm": 8391, "##aine": 18175, "##lling": 13112, "print": 6140, "##31": 21486, "capita": 8353, "lose": 4558, "newscast": 20306, "pba": 21563, "##breakers": 27623, "[unused771]": 776, "nut": 17490, "balfour": 27560, "especially": 2926, "slate": 12796, "geography": 10505, "##ection": 18491, "flawed": 25077, "\u529b": 1778, "pi": 14255, "martini": 24480, "curb": 13730, "##np": 16275, "nam": 15125, "##lat": 20051, "##udged": 27066, "alcoholic": 14813, "physician": 7522, "1779": 17616, "process": 2832, "papal": 12156, "##mussen": 29134, "##ah": 4430, "jamal": 24132, "##nery": 27415, "expectation": 17626, "climax": 14463, "flip": 11238, "intent": 7848, "induced": 10572, "docks": 15093, "##ably": 8231, "elf": 17163, "##ith": 8939, "##ype": 18863, "helpless": 13346, "socrates": 26772, "##pment": 24073, "pre": 3653, "##\u30c3": 30237, "##pal": 12952, "##combe": 14149, "celeste": 21113, "mlb": 10901, "##ced": 11788, "wage": 11897, "struggled": 6915, "saturated": 23489, "feeling": 3110, "tammy": 19971, "insulting": 23979, "distributing": 20083, "initiative": 6349, "interchange": 8989, "fin": 10346, "bounced": 13605, "[unused852]": 857, "##otto": 23052, "dump": 15653, "vision": 4432, "returning": 4192, "democrat": 7672, "asserted": 13647, "narayan": 24331, "##carbon": 26190, "\u0e01": 1409, "alley": 8975, "chad": 9796, "oven": 17428, "seats": 4272, "night": 2305, "douglas": 5203, "occupational": 16928, "stroll": 27244, "floods": 14295, "adopted": 4233, "decreased": 10548, "sparhawk": 13709, "lina": 27022, "ideally": 28946, "jacques": 7445, "[unused598]": 603, "mound": 12048, "emphasis": 7902, "uncomfortable": 8796, "fc": 4429, "propeller": 15692, "247": 23380, "whisper": 7204, "##tia": 10711, "philip": 5170, "computers": 7588, "someplace": 24956, "flint": 13493, "recalling": 21195, "nov": 13292, "nakamura": 23981, "wholesale": 17264, "mendoza": 18021, "[unused451]": 456, "##26": 23833, "[unused940]": 945, "##fia": 22749, "ours": 14635, "##tze": 23102, "wigan": 15598, "heightened": 21106, "outlet": 13307, "pavement": 14271, "consecrated": 12299, "legislature": 6372, "[unused666]": 671, "trusted": 9480, "range": 2846, "##pa": 4502, "ceremonial": 12961, "crust": 19116, "sharif": 20351, "behavioral": 14260, "snatch": 23365, "component": 6922, "announcement": 8874, "dungeon": 16633, "whitney": 9809, "commissioners": 12396, "ten": 2702, "loyola": 21580, "gibraltar": 12272, "[unused748]": 753, "##co": 3597, "fifties": 25942, "##uding": 24539, "zeta": 23870, "1876": 7326, "cornice": 27848, "lieutenant": 3812, "gus": 12670, "hugely": 27564, "exponential": 27258, "machines": 6681, "unpredictable": 21446, "##\u570b": 30326, "somewhat": 5399, "\u5fc3": 1849, "tehran": 13503, "weekday": 16904, "1866": 7647, "##ja": 3900, "digging": 10443, "flexed": 24244, "[unused14]": 15, "tingling": 23690, "##sco": 9363, "##ut": 4904, "cared": 8725, "injuring": 22736, "sm": 15488, "pearl": 7247, "reece": 24227, "explores": 15102, "##arium": 17285, "senator": 5205, "santa": 4203, "##ih": 19190, "quick": 4248, "burr": 22715, "vow": 19076, "##zers": 16750, "secondly": 16378, "##ieving": 25587, "arrest": 6545, "dyke": 22212, "##ilis": 24411, "kitchener": 27154, "coloured": 11401, "##wise": 14244, "1985": 3106, "liberation": 7931, "vincent": 6320, "surroundings": 11301, "sh": 14021, "battles": 7465, "scandals": 29609, "##mori": 24610, "laurent": 14718, "symmetric": 19490, "##tone": 5524, "27th": 15045, "inside": 2503, "humphrey": 15462, "indian": 2796, "##\u9752": 30501, "picket": 28972, "hasty": 27151, "geological": 9843, "##atus": 15590, "auditorium": 11448, "aegean": 27198, "cosmopolitan": 24686, "follows": 4076, "reflected": 7686, "belinda": 24574, "[unused86]": 87, "gael": 28151, "##sch": 11624, "rises": 9466, "compensated": 29258, "elias": 14579, "##ley": 3051, "celebrated": 6334, "scenery": 17363, "wr": 23277, "##cca": 16665, "##iana": 11410, "agenda": 11376, "2007": 2289, "resistance": 5012, "dot": 11089, "extraction": 14676, "##ad": 4215, "praying": 14488, "archeological": 23005, "experimentation": 21470, "handing": 13041, "sweating": 18972, "similarity": 14402, "leveled": 22915, "philharmonic": 12355, "##ida": 8524, "\u0281": 1128, "##nology": 21020, "thoughtfully": 19897, "slot": 10453, "sulfur": 17864, "meteorological": 20557, "[unused919]": 924, "##tura": 27431, "jake": 5180, "fruit": 5909, "enigma": 26757, "249": 23628, "##tc": 13535, "olympian": 25977, "establishes": 21009, "##(": 29619, "##gina": 20876, "[unused348]": 353, "germans": 7074, "##ulous": 16203, "samples": 8168, "[UNK]": 100, "spelling": 11379, "involvement": 6624, "eastman": 24252, "##\u7cf9": 30460, "browne": 15005, "mls": 16287, "volley": 28073, "230": 11816, "[unused173]": 178, "highness": 17114, "\u5c0f": 1829, "shrink": 22802, "apprentice": 13357, "ellison": 21513, "idaho": 9795, "##\u207a": 12744, "jasmine": 14032, "footsteps": 9717, "##\u0f63": 29971, "purse": 8722, "turkish": 5037, "##oge": 23884, "soothing": 16684, "[unused966]": 971, "perhaps": 3383, "disclose": 26056, "hayden": 13872, "ptolemy": 23517, "e": 1041, "journalists": 8845, "tr": 19817, "distribution": 4353, "arabian": 13771, "##\u05d4": 29128, "conviction": 10652, "projectile": 25921, "20": 2322, "[unused174]": 179, "overcoming": 27363, "gaelic": 11196, "danzig": 26669, "merchant": 6432, "rapper": 10687, "yes": 2748, "vegetarian": 23566, "appalled": 29279, "cough": 19340, "gathering": 7215, "##dim": 22172, "epithet": 19626, "pyrenees": 22696, "eighth": 5964, "brno": 28634, "pathology": 19314, "2015": 2325, "candy": 9485, "unconscious": 9787, "##lord": 19980, "[unused972]": 977, "expense": 10961, "skater": 18815, "unusually": 12890, "##stad": 16917, "##fully": 7699, "summons": 24814, "21": 2538, "roster": 9238, "tipperary": 17333, "##\u571f": 30327, "northampton": 15944, "##ever": 22507, "score": 3556, "[unused918]": 923, "welcome": 6160, "cash": 5356, "assumptions": 17568, "possible": 2825, "risen": 13763, "keith": 6766, "afghanistan": 7041, "xiao": 19523, "fatalities": 20871, "accompanied": 5642, "larger": 3469, "considerably": 9839, "gustavo": 24801, "windy": 27370, "##\uff1a": 30519, "chapters": 9159, "curator": 13023, "worcestershire": 20218, "protest": 6186, "##jing": 29518, "hunters": 9624, "gate": 4796, "referee": 5330, "onwards": 9921, "rai": 15547, "spheres": 19885, "sponsoring": 29396, "chambers": 8477, "campaigned": 16196, "thorns": 28408, "k": 1047, "##\u0250": 29676, "bing": 17620, "wheel": 5217, "hunched": 20498, "concourse": 28571, "byrne": 14928, "innocent": 7036, "berwick": 24957, "uniformed": 25189, "jobs": 5841, "convoy": 9549, "kurdish": 15553, "reprise": 16851, "##plex": 19386, "provider": 10802, "slipped": 5707, "sabrina": 21876, ")": 1007, "##xa": 18684, "coordinate": 13530, "##scoe": 28147, "italians": 16773, "[unused386]": 391, "penetrate": 19136, "colours": 8604, "supervisor": 12366, "privateer": 26790, "indoor": 7169, "mandated": 16714, "diane": 12082, "implied": 13339, "hires": 28208, "##\u00b0": 7737, "jing": 21536, "battlefield": 11686, "reykjavik": 28559, "bromwich": 27888, "graduated": 3852, "sanctioned": 14755, "guise": 21980, "lahore": 15036, "##\u5b50": 30342, "raleigh": 15842, "new": 2047, "care": 2729, "marrying": 13516, "##rsk": 27472, "##ii": 6137, "matthews": 12351, "cummings": 20750, "##hrer": 17875, "##\u307e": 30203, "meng": 27955, "##\u0bae": 29925, "##hell": 18223, "##kha": 15256, "decent": 11519, "1716": 28204, "either": 2593, "halo": 17201, "##\u10da": 29983, "sudbury": 26487, "steppe": 29096, "[unused555]": 560, "##\u2ea9": 30158, "wars": 5233, "greta": 26111, "assurance": 16375, "castillo": 19371, "habits": 14243, "flash": 5956, "divisions": 5908, "lbs": 20702, "apartheid": 17862, "expression": 3670, "patrons": 13497, "vibrations": 22755, "yard": 4220, "dir": 16101, "prohibiting": 26325, "##arable": 25236, "harness": 17445, "providence": 11293, "eu": 7327, "goth": 25976, "advancing": 10787, "##jana": 18803, "silva": 11183, "seldom": 15839, "rotary": 16933, "##ergy": 24395, "anchors": 24674, "liam": 8230, "consonants": 19694, "leighton": 26873, "dwarves": 29281, "##bians": 26376, "swayed": 20122, "ankle": 10792, "inhuman": 29582, "neutron": 20393, "amar": 23204, "shea": 16994, "##lay": 8485, "casualties": 8664, "344": 29386, "[unused886]": 891, "intern": 25204, "##iec": 23783, "excitement": 8277, "##elli": 13348, "shrines": 22562, "safari": 23591, "borough": 5538, "##\u5d0e": 30360, "pet": 9004, "crystalline": 24628, "loretta": 28493, "slowed": 9784, "##onte": 28040, "ideological": 17859, "antibiotics": 24479, "politics": 4331, "consonant": 18265, "\u057d": 1234, "tc": 22975, "dart": 14957, "remorse": 23124, "##vity": 24872, "[unused640]": 645, "elder": 6422, "irwin": 17514, "optimism": 27451, "snack": 19782, "##kow": 24144, "salem": 10389, "##buck": 24204, "harper": 8500, "braves": 13980, "choose": 5454, "moor": 16808, "plotted": 27347, "colour": 6120, "impatient": 17380, "koch": 15259, "passes": 5235, "demand": 5157, "##mack": 26945, "cable": 5830, "cod": 19429, "##oids": 17086, "troops": 3629, "trick": 7577, "ferris": 23202, "dedication": 12276, "##ana": 5162, "capsule": 18269, "##\u30c6": 30239, "rom": 17083, "pedersen": 27409, "artefacts": 25762, "swing": 7370, "adjective": 24931, "histoire": 20088, "sympathy": 11883, "##asurable": 28329, "##laze": 24472, "downloadable": 26720, "##church": 22743, "exiting": 22371, "rearview": 28726, "midfield": 23071, "circulation": 9141, "submit": 12040, "aa": 9779, "590": 25186, "nielsen": 13188, "[unused661]": 666, "sheppard": 24976, "alvaro": 24892, "##bbs": 17226, "embrace": 9979, "voyage": 8774, "sire": 15785, "sadness": 12039, "##pathic": 25940, "##\u10d9": 29982, "maternity": 23676, "freshwater": 12573, "comments": 7928, "veterinary": 15651, "email": 10373, "##ss": 4757, "packing": 14743, "active": 3161, "tangible": 24600, "##ua": 6692, "##sner": 20479, "##\u1d50": 30038, "##tures": 22662, "burned": 5296, "buckinghamshire": 21712, "##holes": 19990, "marker": 12115, "lashed": 25694, "agrarian": 23226, "conferred": 15186, "inflammatory": 20187, "rabbits": 20403, "liv": 22135, "##bling": 9709, "guggenheim": 20402, "brody": 19631, "revolution": 4329, "because": 2138, "diego": 5277, "italianate": 25302, "fractured": 21726, "sacks": 14918, "feasibility": 24010, "mortals": 23844, "\u30d5": 1720, "ineligible": 22023, "dover": 13985, "##\u4e0a": 30268, "barges": 27712, "##deh": 25383, "1952": 3999, "tooth": 11868, "regularly": 5570, "##nging": 22373, "mortal": 9801, "##yck": 28377, "perceived": 8690, "inability": 13720, "dormant": 22170, "##chase": 26300, "[unused418]": 423, "sous": 27411, "loneliness": 20334, "\u307f": 1678, "fig": 20965, "albums": 4042, "breach": 12510, "payload": 18093, "reactive": 22643, "baldwin": 10970, "oblast": 10379, "##hmi": 26837, "##eu": 13765, "chorale": 26561, "afi": 28697, "prepare": 7374, "##\u0e27": 29955, "##away": 9497, "laser": 9138, "draped": 15098, "aden": 16298, "porn": 22555, "slaughtered": 23044, "convince": 8054, "\u795e": 1925, "fortunate": 19590, "threw": 4711, "##nock": 18057, "downfall": 22252, "1911": 5184, "principal": 4054, "homecoming": 20772, "qualities": 11647, "##\u5802": 30331, "employers": 12433, "\u028e": 1135, "peacefully": 21614, "remembers": 17749, "\u65b9": 1863, "bjp": 24954, "\u8eca": 1954, "favors": 21191, "amino": 13096, "reasonable": 9608, "##\u02bc": 29712, "140": 8574, "satire": 18312, "emptiness": 23397, "amendments": 16051, "colossal": 29523, "caesar": 11604, "we": 2057, "wilbur": 26151, "[unused122]": 127, "lamb": 12559, "jayne": 24408, "resurrected": 23053, "##\u6211": 30381, "trusts": 20278, "112": 11176, "palaces": 22763, "[unused203]": 208, "tissues": 14095, "arrangement": 6512, "##lessness": 24913, "realities": 22213, "hopefully": 11504, "laughed": 4191, "criticized": 6367, "cranes": 27083, "##rien": 23144, "ukraine": 5924, "complementary": 21053, "spoon": 15642, "tha": 22794, "1016": 28707, "chuckled": 10252, "software": 4007, "parliamentary": 5768, "medina": 15761, "kite": 20497, "calcium": 13853, "concentrating": 16966, "usual": 5156, "faithful": 11633, "unrest": 16591, "##n": 2078, "mimic": 23150, "conform": 23758, "chieftain": 26625, "definitely": 5791, "1918": 4271, "##cheon": 28099, "baroque": 10456, "munro": 20923, "##kov": 7724, "rid": 9436, "ducks": 14875, "constitution": 4552, "deed": 15046, "\u0987": 1349, "ambitions": 19509, "##drop": 25711, "haunting": 20161, "##main": 24238, "asturias": 26798, "\u6f22": 1904, "drinks": 8974, "markus": 23030, "##rosis": 29166, "squad": 4686, "vhf": 27527, "cox": 9574, "\uff0e": 1991, "wheelbase": 29141, "quotes": 16614, "utilizing": 16911, "malice": 28238, "bodies": 4230, "##\u11b8": 30024, "percent": 3867, "cautiously": 15151, "tex": 16060, "cantor": 26519, "programmer": 20273, "collaborators": 21315, "increased": 3445, "processors": 18017, "speeding": 21485, "ctv": 28720, "select": 7276, "rejoin": 25261, "hushed": 24033, "understood": 5319, "[unused169]": 174, "400": 4278, "thwarted": 28409, "##omi": 20936, "shrine": 9571, "performed": 2864, "while": 2096, "cinder": 29399, "ellie": 10707, "lifting": 8783, "##kla": 26086, "disconnected": 23657, "hidden": 5023, "##oned": 17799, "vacant": 10030, "sculptor": 10160, "weber": 13351, "343": 27810, "minogue": 27736, "##\u208d": 30087, "subtle": 11259, "timeless": 27768, "##glio": 29480, "##och": 11663, "paddington": 26318, "six": 2416, "informed": 6727, "medical": 2966, "panties": 12095, "marcel": 13389, "purchases": 17402, "##ques": 10997, "##nc": 12273, "slip": 7540, "##0s": 16223, "ominous": 23504, "\u6c37": 1895, "plural": 13994, "owned": 3079, "volunteered": 14382, "bain": 28477, "provided": 3024, "##iente": 25099, "gates": 6733, "contest": 5049, "##wc": 16526, "modernization": 20181, "wants": 4122, "reynolds": 9579, "traits": 12955, "sheikh": 12840, "kimball": 26659, "wait": 3524, "enterprises": 9926, "hurriedly": 23878, "andersson": 28643, "robe": 11111, "endemic": 7320, "hesitated": 9369, "gossip": 13761, "prostate": 25086, "##ary": 5649, "fled": 6783, "mir": 14719, "pembroke": 21457, "mackenzie": 11407, "impossible": 5263, "##cule": 21225, "groundbreaking": 23222, "##iform": 22631, "gran": 12604, "robust": 15873, "clare": 11152, "illicit": 25049, "##orous": 25373, "##mental": 26901, "vice": 3580, "##jah": 18878, "futuristic": 28971, "fascinated": 15677, "fountains": 23497, "##pins": 27915, "ordinance": 16692, "##king": 6834, "ascending": 22316, "snail": 10879, "##kti": 22462, "\u03b2": 1156, "commendation": 23039, "\u7687": 1917, "robson": 23698, "gabe": 12900, "##gel": 12439, "##rick": 11285, "eaten": 8828, "educators": 19156, "sheets": 8697, "eastbound": 24773, "obliged": 14723, "vaccine": 17404, "heidi": 21372, "242": 22431, "##lings": 11227, "##sume": 23545, "harrison": 6676, "frequent": 6976, "##icient": 20132, "parapet": 27372, "##oning": 13369, "edward": 3487, "##aan": 14634, "hem": 19610, "hypothesis": 10744, "successor": 6332, "aromatic": 25496, "##bag": 16078, "lecture": 8835, "casino": 9270, "reach": 3362, "mercury": 8714, "##pine": 19265, "##bery": 22509, "rebuilding": 14584, "hint": 9374, "[unused593]": 598, "trust": 3404, "outfit": 11018, "terry": 6609, "fabio": 25616, "diplomacy": 17610, "\u03ba": 1164, "bukit": 29007, "owed": 12232, "##lice": 13231, "goodwill": 22875, "nuclei": 23767, "decreed": 28447, "guidance": 8606, "[unused685]": 690, "distinct": 5664, "##pile": 22090, "musically": 21385, "freighter": 27945, "canterbury": 9976, "affection": 12242, "##.": 29625, "1992": 2826, "scholarly": 12683, "underwear": 14236, "\u4e0d": 1744, "importantly": 14780, "##nse": 12325, "liquids": 26820, "classmate": 23175, "applause": 20737, "passports": 19494, "##\u0916": 29852, "asserts": 19514, "neck": 3300, "martinez": 10337, "##hiko": 22204, "verdict": 14392, "sisters": 5208, "densely": 19441, "reinforced": 11013, "saga": 12312, "##tail": 14162, "freelance": 15919, "##viere": 27087, "##wes": 18192, "##ctus": 22675, "bulge": 23708, "ting": 28642, "##nsk": 25564, "buffer": 17698, "##uer": 13094, "hal": 11085, "##nan": 7229, "##op": 7361, "hannah": 8410, "brandon": 8825, "buildings": 3121, "overwhelmed": 13394, "claudia": 13479, "bloomington": 26372, "generated": 7013, "recapture": 27639, "robots": 13507, "psi": 17816, "[unused36]": 37, "750": 9683, "defeating": 6324, "weave": 25308, "##ury": 13098, "chris": 3782, "hank": 9180, "castes": 26254, "##ck": 3600, "banks": 5085, "wonders": 16278, "granville": 24926, "mma": 21021, "salamanca": 29608, "163": 17867, "jacobite": 28725, "##avian": 21654, "locate": 12453, "\u2f65": 1634, "##\u2192": 30113, "##lev": 20414, "earnings": 16565, "flawless": 27503, "entrance": 4211, "fluids": 20989, "##ea": 5243, "bladder": 24176, "conclude": 16519, "sells": 15187, "notes": 3964, "multiplayer": 17762, "##egorical": 27203, "##station": 20100, "##nds": 18376, "bloomfield": 25584, "[unused742]": 747, "marko": 28003, "oriented": 8048, "mojo": 28017, "hotels": 9275, "##night": 15864, "magazines": 7298, "fund": 4636, "wright": 6119, "##ald": 19058, "[unused580]": 585, "beaufort": 23622, "landmarks": 16209, "composers": 9929, "##mba": 11201, "directing": 9855, "pigeons": 27567, "assured": 8916, "learns": 10229, "cumulative": 23260, "theorists": 28442, "kellan": 19697, "##cide": 27082, "experience": 3325, "conducted": 4146, "\u751f": 1910, "suppress": 16081, "stabilize": 27790, "breaks": 7807, "jacob": 6213, "##bala": 25060, "sullivan": 7624, "##erson": 18617, "spawning": 27957, "exit": 6164, "ecosystems": 20440, "concrete": 5509, "racial": 5762, "sq": 5490, "##\u0bc1": 29933, "chicago": 3190, "withdrew": 6780, "toulon": 27160, "pistol": 8779, "excursion": 26144, "funk": 11962, "bergman": 24544, "\u0430": 1180, "lo": 8840, "hostilities": 17601, "[unused199]": 204, "##shot": 19040, "1645": 26081, "lover": 7089, "codex": 15763, "noises": 14950, "washing": 12699, "erection": 13760, "beating": 6012, "anatolia": 23747, "insulted": 23637, "##\u0d9a": 29939, "puget": 27879, "##thes": 24138, "collaborating": 20295, "1655": 28438, "tests": 5852, "boxer": 10423, "mocking": 19545, "##ailed": 17440, "handled": 8971, "parasites": 23996, "pigs": 14695, "bet": 6655, "271": 25103, "##fted": 18915, "##ler": 3917, "vegetable": 15415, "inhibition": 23586, "roaring": 17197, "precious": 9062, "lighter": 9442, "corners": 8413, "##script": 22483, "##ens": 6132, "bao": 25945, "network": 2897, "leipzig": 11222, "##tle": 9286, "faced": 4320, "builder": 12508, "california": 2662, "danny": 6266, "##nsor": 29577, "netting": 26909, "bedford": 12003, "start": 2707, "1921": 4885, "leather": 5898, "karnataka": 12092, "##eiro": 17166, "wand": 23967, "1975": 3339, "deny": 9772, "[unused564]": 569, "##\u03c6": 29736, "novella": 20674, "tyne": 17742, "zhang": 9327, "##lete": 25890, "rebuilt": 7183, "[unused687]": 692, "provisional": 10864, "cumberland": 12310, "curtain": 11002, "orgasm": 13892, "qualifications": 15644, "boarded": 17383, "30": 2382, "wouldn": 2876, "infants": 16725, "##kker": 23793, "##\u30c8": 30240, "hire": 10887, "##tension": 29048, "competed": 3879, "reverse": 7901, "##him": 14341, "##64": 21084, "##fall": 13976, "packard": 24100, "[unused533]": 538, "progresses": 22901, "amor": 16095, "chose": 4900, "[unused343]": 348, "##mbs": 29232, "aren": 4995, "canning": 24549, "##rlin": 19403, "tunnel": 5234, "gliding": 20292, "topology": 19587, "berkshire": 15570, "unreleased": 13270, "quarterfinals": 9237, "strauss": 16423, "##bl": 16558, "##cens": 19023, "ourselves": 9731, "den": 7939, "hoop": 27669, "richest": 18429, "completed": 2949, "contemplating": 25247, "\u0993": 1352, "luisa": 25412, "admissions": 20247, "##cloth": 23095, "quaker": 18844, "abbas": 17532, "##raf": 27528, "23rd": 13928, "derbyshire": 15207, "resurrection": 15218, "##chel": 15721, "people": 2111, "##ential": 24271, "##cd": 19797, "admits": 14456, "dancers": 10487, "1707": 25029, "fencing": 15962, "##hiff": 25798, "##io": 3695, "verve": 29230, "misery": 14624, "\uff0c": 1989, "fundraiser": 28536, "bombardier": 29143, "mascara": 27700, "chord": 13924, "citizen": 6926, "dorian": 16092, "eldest": 7310, "rook": 28620, "thou": 15223, "1869": 7845, "252": 22898, "323": 25392, "sunshine": 9609, "volume": 3872, "handling": 8304, "##urse": 28393, "##5": 2629, "knesset": 27899, "da": 4830, "barnard": 22266, "##\u6b62": 30413, "sino": 19432, "caribbean": 7139, "appointment": 6098, "1889": 6478, "goes": 3632, "specifications": 15480, "intervening": 26623, "intercontinental": 18725, "shareholders": 15337, "manual": 6410, "wta": 21925, "outrage": 19006, "touching": 7244, "##rooms": 29020, "film": 2143, "performs": 10438, "pays": 12778, "byte": 24880, "##olved": 16116, "##hic": 16066, "acid": 5648, "potentially": 9280, "photography": 5855, "waiting": 3403, "unmarried": 17204, "intercollegiate": 21587, "##oa": 10441, "prayers": 12583, "[unused275]": 280, "##ologists": 16886, "fist": 7345, "blended": 19803, "saving": 7494, "stairwell": 22109, "perfect": 3819, "vr": 27830, "martinique": 29365, "ssr": 20896, "##stead": 25647, "finally": 2633, "##mt": 20492, "miracle": 9727, "feral": 18993, "nodding": 11863, "reducing": 8161, "refurbished": 18662, "round": 2461, "awhile": 19511, "[unused513]": 518, "[unused266]": 271, "##wich": 12414, "celebration": 7401, "roth": 12211, "facility": 4322, "oxfordshire": 20124, "##\u8c37": 30477, "##\u0997": 29891, "##rst": 12096, "##bach": 7693, "handkerchief": 23975, "unbeaten": 20458, "ngos": 22165, "08": 5511, "##gni": 29076, "chosen": 4217, "roman": 3142, "##oh": 11631, "apes": 27754, "readily": 12192, "##laise": 25122, "sponsor": 10460, "rely": 11160, "morgan": 5253, "pubs": 23598, "corridor": 7120, "leukemia": 25468, "rumbling": 26670, "abdominal": 21419, "jumps": 14523, "logistical": 28961, "##real": 22852, "##\u05e4": 29807, "wiped": 8342, "biographies": 22056, "administrator": 8911, "\u06be": 1307, "barbara": 6437, "##ppet": 29519, "denoted": 19537, "mint": 12927, "##birds": 12887, "attendance": 5270, "gave": 2435, "avila": 29079, "##\u1169": 30011, "\u0192": 1108, "294": 28135, "1860s": 15914, "##typic": 23186, "nietzsche": 28898, "##\u0440": 16856, "nick": 4172, "disqualification": 27782, "decorated": 7429, "[unused481]": 486, "executing": 23448, "\u043b": 1190, "206": 18744, "stripe": 18247, "mumbled": 11567, "idf": 24011, "accompanying": 10860, "peasant": 14539, "innovative": 9525, "extremely": 5186, "era": 3690, "voluntarily": 17912, "twigs": 27964, "facebook": 9130, "##\u00bb": 29663, "navigation": 9163, "hearth": 22885, "sleeper": 24372, "##tya": 21426, "nunez": 28454, "nate": 8253, "##ari": 8486, "##hl": 7317, "sheep": 8351, "album": 2201, "damaged": 5591, "employing": 15440, "montgomery": 8482, "attitude": 7729, "rodrigo": 18943, "weep": 27874, "mediterranean": 7095, "disguise": 14249, "consequences": 8465, "nominee": 9773, "varying": 9671, "##raus": 25965, "warring": 28509, "##tom": 20389, "celia": 18020, "dominic": 11282, "perished": 23181, "\u0561": 1219, "##dr": 13626, "notoriety": 23215, "##db": 18939, "blitz": 22312, "286": 24921, "baird": 20866, "##ives": 24653, "entrepreneurship": 20213, "fossil": 10725, "\u7cf9": 1934, "advisers": 24205, "screen": 3898, "puddle": 25081, "matilda": 17981, "stirring": 18385, "raven": 10000, "\u2097": 1566, "##wyn": 11761, "devin": 23601, "fleeing": 14070, "fumbled": 20054, "purdue": 19749, "albion": 13392, "crate": 27297, "##cine": 16567, "plastics": 26166, "dent": 21418, "date": 3058, "[unused415]": 420, "stall": 13498, "cherry": 9115, "\u060c": 1268, "digits": 16648, "alsace": 24922, "whitaker": 27049, "threat": 5081, "fragmented": 26872, "client": 7396, "##tag": 15900, "suns": 19352, "asia": 4021, "##ern": 11795, "swamp": 11963, "restrictions": 9259, "cost": 3465, "##aring": 22397, "remnants": 11270, "lawn": 10168, "softball": 12585, "hooper": 23717, "\u20b9": 1576, "departure": 6712, ".": 1012, "##wana": 21761, "fates": 26417, "298": 27240, "examination": 7749, "##onate": 21149, "gunfire": 16978, "spirited": 24462, "##\uff1f": 30520, "banquet": 19032, "##dlow": 27002, "##igan": 10762, "countryside": 10833, "ian": 4775, "distinction": 7835, "completing": 7678, "duct": 23245, "enrico": 21982, "strapped": 18019, "##cott": 13124, "##urian": 29091, "finalists": 13527, "assembled": 9240, "replaced": 2999, "captured": 4110, "dynamo": 17205, "##cture": 14890, "maxim": 20446, "journey": 4990, "haynes": 21805, "rehabilitation": 11252, "hull": 6738, "phrase": 7655, "##ux": 5602, "##hwa": 18663, "275": 17528, "trailer": 9117, "##\u22c5": 30141, "marquez": 27320, "inspire": 18708, "##ence": 10127, "tong": 15740, "enclosed": 10837, "federico": 20493, "lola": 15137, "##em": 6633, "fast": 3435, "shame": 9467, "adjustable": 26404, "something": 2242, "##wala": 23877, "nilsson": 29376, "##ide": 5178, "margarita": 24570, "##nch": 12680, "\u02b8": 1144, "49th": 25726, "injustice": 21321, "##\u22121": 27944, "juris": 27551, "nero": 19212, "willie": 9893, "cuff": 26450, "watched": 3427, "intensified": 15767, "staffordshire": 17052, "\u4f50": 1764, "##laid": 24393, "takeoff": 19744, "[unused553]": 558, "listed": 3205, "##cent": 13013, "##rca": 18992, "1a": 20720, "offspring": 13195, "rake": 26008, "vc": 18315, "squared": 19942, "arresting": 28427, "assessments": 20794, "pulse": 8187, "traveled": 6158, "gag": 18201, "tko": 26537, "pamphlet": 19899, "torment": 21741, "garrison": 8427, "john": 2198, "mauritius": 18004, "bernard": 6795, "##tama": 28282, "branding": 16140, "conductors": 23396, "##rable": 16670, "##psy": 18075, "slab": 17584, "amman": 25703, "communists": 13009, "sevilla": 29363, "visit": 3942, "560": 21267, "marina": 9985, "dialogue": 7982, "##xon": 22500, "both": 2119, "##yr": 12541, "resides": 11665, "jang": 23769, "crescent": 13152, "spanned": 18212, "eric": 4388, "energy": 2943, "slogan": 14558, "hansen": 13328, "impulse": 14982, "##see": 19763, "##coll": 26895, "proposals": 10340, "##ro": 3217, "query": 23032, "vita": 19300, "does": 2515, "brooklyn": 6613, "\u03be": 1168, "divided": 4055, "xavier": 10062, "##ope": 17635, "##iser": 17288, "worse": 4788, "##erving": 25164, "1683": 27414, "invading": 17657, "\u0dba": 1404, "britain": 3725, "##llins": 26655, "brilliant": 8235, "tate": 9902, "visits": 7879, "alt": 12456, "cabin": 6644, "##uche": 19140, "##git": 23806, "##aneous": 17191, "kidnapping": 15071, "##hunter": 25629, "##\u72ac": 30434, "iced": 28248, "convent": 10664, "underway": 14128, "khz": 17737, "##cha": 7507, "residue": 21755, "\u099b": 1357, "rainer": 28035, "reinforcement": 23895, "##group": 17058, "secrets": 7800, "colourful": 26102, "vacated": 15348, "##\u02e3": 29718, "boulders": 22177, "wo": 24185, "\u1d47": 1497, "555": 29541, "smoking": 9422, "year": 2095, "##dian": 11692, "compilation": 6268, "49ers": 18156, "##llet": 22592, "warn": 11582, "pearls": 21944, "##uy": 26230, "##nberger": 28825, "goats": 17977, "ambassador": 6059, "##uze": 20395, "edgar": 9586, "intellect": 24823, "max": 4098, "[unused835]": 840, "jammu": 21433, "mcgregor": 23023, "disorders": 10840, "exercised": 17747, "shivering": 19197, "applicant": 23761, "##lf": 10270, "divorced": 9196, "[unused366]": 371, "interstate": 7553, "ice": 3256, "rot": 18672, "##anial": 27532, "advantage": 5056, "spray": 12509, "austen": 24177, "maj": 16686, "\u2206": 1594, "\u056c": 1226, "[unused9]": 10, "blocked": 8534, "##boards": 15271, "newmarket": 22489, "padma": 23731, "flowed": 13230, "exercises": 11110, "glove": 15913, "\u0686": 1303, "decisive": 13079, "marijuana": 16204, "formulated": 19788, "gifted": 12785, "farther": 8736, "bobbed": 29579, "swap": 19948, "##page": 13704, "[unused260]": 265, "spending": 5938, "bell": 4330, "pablo": 11623, "franco": 9341, "[PAD]": 0, "warships": 15964, "tunes": 13281, "##tham": 22536, "halt": 9190, "surpassed": 15602, "##ays": 22916, "protector": 16167, "leicestershire": 20034, "integration": 8346, "elders": 13376, "espionage": 21003, "hosts": 6184, "stranded": 15577, "bigger": 7046, "marcia": 22548, "banded": 25264, "cornish": 17797, "consequently": 8821, "birch": 16421, "##tate": 12259, "caden": 23600, "ideas": 4784, "stunning": 14726, "##irs": 18894, "##sus": 13203, "mechanically": 27846, "##lho": 28061, "segment": 6903, "derivatives": 16942, "reproduce": 21376, "minas": 21750, "pointe": 26119, "pam": 14089, "gambling": 12219, "vila": 23840, "dona": 24260, "##wski": 10344, "##nessy": 25441, "miles": 2661, "##bbon": 27684, "attraction": 8432, "mri": 27011, "differing": 16965, "manuscripts": 10485, "mass": 3742, "mitch": 11857, "steaming": 19986, "[unused49]": 50, "coastal": 5780, "##ath": 8988, "attracted": 6296, "##cote": 19800, "[unused98]": 99, "seizure": 18634, "list": 2862, "jackson": 4027, "##\u05e0": 29803, "passageway": 27336, "##\u2019": 30056, "subsidies": 21762, "##orro": 29459, "thursday": 9432, "mclaren": 18590, "deluxe": 15203, "##pee": 28084, "eliot": 16292, "236": 23593, "upper": 3356, "##zawa": 19708, "artemis": 19063, "##yd": 25688, "construction": 2810, "prone": 13047, "dead": 2757, "arguments": 9918, "dun": 24654, "merrill": 16239, "##vu": 19722, "permitted": 7936, "cities": 3655, "phoenix": 6708, "##hosis": 25229, "##ginal": 24965, "ismail": 19214, "whaling": 23687, "competence": 22219, "funnel": 25102, "grins": 20237, "households": 3911, "##sca": 15782, "1773": 19916, "inspections": 29589, "regency": 15647, "layered": 21323, "songwriters": 20602, "average": 2779, "compensate": 19079, "dreadful": 21794, "[unused241]": 246, "enough": 2438, "hill": 2940, "mundo": 25989, "stripped": 10040, "instincts": 16160, "newer": 10947, "exploited": 18516, "1679": 27924, "goofy": 27243, "kobayashi": 28930, "arturo": 20520, "boomed": 28908, "sister": 2905, "cam": 11503, "sourced": 23184, "nutrients": 20435, "greeks": 13176, "actually": 2941, "beer": 5404, "julius": 10396, "gust": 26903, "pennsylvania": 3552, "336": 27954, "vicente": 17280, "!": 999, "justified": 15123, "angela": 10413, "eyre": 26975, "trent": 7990, "sharply": 9249, "bolsheviks": 28755, "1": 1015, "##\u056f": 29774, "##monium": 26387, "fivb": 28423, "rd": 16428, "\u2500": 1615, "limits": 6537, "sg": 22214, "##\u6d77": 30428, "ceremonies": 10912, "diablo": 28841, "[unused719]": 724, "185": 15376, "##kled": 19859, "instinct": 12753, "ufo": 24321, "introducing": 10449, "football": 2374, "natasha": 17399, "stripes": 13560, "##ool": 13669, "##phobia": 24920, "##athing": 22314, "vegas": 7136, "##jal": 25787, "rattling": 26347, "expresses": 16783, "##\u52a0": 30305, "inspectors": 28421, "##\u3081": 30206, "installed": 5361, "etched": 20286, "samantha": 11415, "##\u2071": 30072, "spans": 14798, "##riam": 25557, "symbols": 9255, "##olate": 19425, "theoretically": 22634, "supervisory": 26653, "pacific": 3534, "physically": 8186, "careers": 10922, "directorate": 13634, "##around": 24490, "summoned": 11908, "parody": 12354, "normally": 5373, "neighbourhoods": 27535, "humidity": 18213, "\u9593": 1969, "beck": 10272, "1929": 4612, "cruelty": 18186, "resident": 6319, "essen": 29032, "tombstone": 26671, "emery": 24294, "nordic": 13649, "classrooms": 12463, "##lberg": 22927, "santana": 21158, "##pressive": 27484, "wallis": 24029, "flexible": 12379, "softened": 16573, "opposes": 29158, "acton": 28794, "roads": 4925, "extreme": 6034, "##bin": 8428, "##dome": 26173, "trumpets": 26506, "panchayat": 20079, "[unused515]": 520, "stunned": 9860, "##uating": 24133, "radiating": 23229, "denton": 23906, "currency": 9598, "hare": 14263, "voluntary": 10758, "\u0437": 1187, "blake": 6511, "[unused285]": 290, "rode": 8469, "##burn": 8022, "##ft": 6199, "seasonal": 12348, "100th": 16919, "##vier": 14356, "macon": 20025, "##46": 21472, "##ods": 20620, "oswald": 17411, "315": 22904, "##tism": 17456, "clear": 3154, "raaf": 22709, "dodge": 11898, "tibetan": 11953, "amend": 27950, "hazardous": 17760, "bundle": 14012, "61": 6079, "flu": 19857, "snuck": 24492, "authoritarian": 27246, "313": 22997, "accommodated": 28959, "hatred": 11150, "bartlett": 20081, "[unused697]": 702, "dissipated": 22572, "swept": 7260, "spiral": 12313, "communities": 4279, "vectors": 19019, "probability": 9723, "algebraic": 17390, "witnessing": 24740, "##utter": 26878, "goodness": 15003, "hailed": 16586, "cooking": 8434, "climbing": 8218, "disagree": 21090, "cafeteria": 16673, "##ook": 14659, "weighs": 21094, "astoria": 29285, "yankee": 17652, "ethical": 12962, "concealed": 14091, "saved": 5552, "christmas": 4234, "##dock": 14647, "##ogical": 20734, "emotions": 6699, "inter": 6970, "vertebrae": 25517, "attacker": 17346, "chess": 7433, "\u3078": 1675, "advisors": 18934, "je": 15333, "buff": 23176, "bucks": 14189, "\u2019": 1521, "[unused273]": 278, "##founded": 21001, "broadcaster": 11995, "globe": 7595, "clothing": 5929, "##lation": 13490, "\u8033": 1937, "haired": 10681, "signature": 8085, "[unused849]": 854, "##ango": 23422, "##rce": 19170, "taluk": 23140, "buenos": 9204, "brendan": 15039, "rounding": 26939, "had": 2018, "scoffed": 26326, "schultz": 22378, "klan": 26613, "blinked": 7948, "board": 2604, "\u30c6": 1713, "mcpherson": 24332, "##chu": 20760, "deception": 17575, "hastings": 12296, "sponsors": 13162, "honolulu": 16598, "sad": 6517, "[unused219]": 224, "gaze": 3657, "##eson": 21421, "blank": 8744, "roughly": 5560, "quake": 27785, "studying": 5702, "##s": 2015, "conditional": 18462, "##\u2212": 22543, "honneur": 28197, "evaluation": 9312, "frequently": 4703, "knit": 22404, "##mada": 23574, "loses": 12386, "overturned": 17068, "urging": 14328, "guaranteed": 12361, "\u5185": 1773, "values": 5300, "coyote": 20457, "livingstone": 27656, "[unused632]": 637, "1924": 4814, "amy": 6864, "##iel": 9257, "editions": 6572, "registers": 18687, "\u30b7": 1706, "customized": 28749, "lease": 10084, "nl": 17953, "sidewalk": 11996, "phenomena": 13352, "1847": 9176, "ongoing": 7552, "collin": 22180, "zeus": 15208, "##lovic": 29356, "kolkata": 13522, "##log": 21197, "lorraine": 13895, "\u3009": 1638, "timetable": 23839, "##fan": 15143, "dynamite": 21719, "[unused307]": 312, "darker": 9904, "cai": 29080, "##tten": 25970, "wiley": 18825, "michelangelo": 27701, "dundee": 14252, "##bah": 24206, "livelihood": 24585, "##oder": 27381, "joy": 6569, "comical": 29257, "solos": 24339, "alexis": 13573, "custom": 7661, "mating": 15100, "suicide": 5920, "nixon": 11296, "allegro": 25319, "fill": 6039, "##washed": 27283, "[unused622]": 627, "[unused776]": 781, "aback": 26575, "##adi": 17190, "mandate": 11405, "moths": 14885, "strength": 3997, "spines": 20352, "erupted": 12591, "feeds": 14172, "70th": 26934, "mammoth": 23714, "[unused499]": 504, "solved": 13332, "ticked": 26019, "[unused644]": 649, "transactions": 11817, "rios": 25836, "##agger": 27609, "spill": 14437, "regions": 4655, "imprisonment": 10219, "occupying": 13992, "graphical": 20477, "ventura": 21151, "placed": 2872, "##ako": 20411, "##erated": 16848, "suppose": 6814, "teresa": 12409, "1830": 9500, "##\u2077": 30076, "##isch": 19946, "simulcast": 20525, "inherent": 16112, "masterpiece": 17743, "database": 7809, "drifting": 15013, "taps": 25316, "##\u09c0": 29916, "##borough": 10235, "muted": 22124, "eruption": 17259, "bangalore": 14022, "##aud": 19513, "clocks": 20940, "toronto": 4361, "\u044c": 1207, "clemson": 25906, "emotionally": 14868, "sign": 3696, "masculine": 14818, "1630": 24994, "##eth": 11031, "exceptions": 11790, "[unused914]": 919, "lavish": 22689, "intelligent": 9414, "sponsored": 6485, "##owe": 29385, "##rde": 25547, "[unused910]": 915, "sturdy": 23073, "dual": 7037, "\u116e": 1478, "orson": 25026, "ft": 3027, "career": 2476, "stimulus": 19220, "references": 7604, "spends": 15970, "41st": 24233, "theta": 23963, "positions": 4460, "renaissance": 8028, "baku": 16807, "##nington": 23155, "loft": 19459, "looting": 29367, "##hner": 28989, "##izations": 22318, "kirby": 15129, "##sma": 26212, "wives": 10403, "fruits": 10962, "##\u093f": 29877, "nike": 18368, "\u00d7": 1095, "##ough": 10593, "lounge": 11549, "cluster": 9324, "diagnosed": 11441, "nipple": 14298, "knowing": 4209, "##witz": 15362, "sharks": 12004, "rectory": 24606, "drag": 8011, "libre": 21091, "rainbow": 10098, "otherwise": 4728, "suspect": 8343, "\u062a": 1273, "1867": 7517, "dolores": 21544, "continuum": 22961, "planted": 8461, "[unused963]": 968, "spark": 12125, "managed": 3266, "posture": 16819, "\u0f66": 1436, "##itated": 15198, "box": 3482, "parlor": 18746, "303": 19988, "socially": 14286, "gaulle": 28724, "groan": 13001, "silent": 4333, "resented": 27188, "[unused868]": 873, "##ound": 28819, "##\u306d": 30196, "proceeding": 18207, "hugs": 24459, "carefully": 5362, "freeway": 10846, "tanzania": 11959, "\u5c71": 1831, "machinery": 10394, "annapolis": 24889, "##tec": 26557, "becca": 22140, "crowded": 10789, "##fine": 23460, "rate": 3446, "academic": 3834, "exaggerated": 16903, "portfolio": 11103, "persuade": 13984, "forested": 15205, "##shima": 24772, "jessie": 10934, "pry": 29198, "glowing": 10156, "\u2ea9": 1632, "athletic": 5188, "##sal": 12002, "upton": 26900, "scratch": 11969, "border": 3675, "centenary": 17705, "panic": 6634, "[unused67]": 68, "##cco": 21408, "##bis": 18477, "##\u7ae0": 30458, "filling": 8110, "mergers": 28585, "##\u03c4": 29734, "promotional": 10319, "truss": 24224, "ban": 7221, "optimal": 15502, "doctoral": 11316, "##\u0280": 29693, "directive": 16449, "thong": 27468, "decade": 5476, "##\u0642": 29834, "paved": 12308, "##lving": 25780, "83": 6640, "##\u0636": 29827, "ligue": 18374, "jong": 18528, "adopting": 16151, "providers": 11670, "pumpkin": 25730, "encyclopedia": 12204, "skinner": 17451, "##orra": 24285, "triggering": 29170, "tito": 20712, "##stan": 12693, "affiliation": 12912, "interrogation": 16871, "##qi": 14702, "ot": 27178, "counting": 10320, "##say": 24322, "security": 3036, "headwaters": 25345, "##zin": 17168, "boots": 6879, "relaunched": 26391, "weapon": 5195, "##zzle": 17644, "fixtures": 17407, "characteristic": 8281, "embassy": 8408, "##bbled": 12820, "defenders": 12534, "mine": 3067, "het": 21770, "naacp": 26155, "unincorporated": 7754, "european": 2647, "pulitzer": 17618, "journalism": 8083, "##sily": 26863, "pius": 14363, "first": 2034, "soundtracks": 24245, "suit": 4848, "##usions": 22016, "woody": 13703, "looted": 27775, "37th": 23027, "meta": 18804, "vietnam": 5148, "##dom": 9527, "hooker": 17074, "labs": 13625, "faust": 24021, "procurement": 21423, "decommissioned": 14394, "##trom": 13887, "worst": 5409, "##tance": 26897, "winkler": 20472, "vigorously": 22400, "amplitude": 22261, "budget": 5166, "method": 4118, "grady": 19011, "950": 20317, "##\u0bb2": 29928, "compressed": 16620, "approaches": 8107, "genres": 11541, "demons": 7942, "stat": 28093, "##ym": 24335, "1603": 25625, "[unused554]": 559, "thorne": 14296, "hills": 4564, "pasadena": 18880, "\u1100": 1455, "scores": 7644, "airbus": 20901, "##nding": 15683, "[unused659]": 664, "siam": 25583, "bunk": 25277, "##\u4eac": 30281, "nuns": 16752, "service": 2326, "bazaar": 22774, "turk": 22883, "\u03b1": 1155, "swapped": 29176, "commercial": 3293, "##hay": 24180, "cavendish": 23570, "\u85e4": 1944, "\u30e9": 1731, "higgins": 13466, "contend": 27481, "boar": 24187, "warmer": 16676, "##uh": 27225, "##wave": 16535, "##itarian": 25691, "amc": 21962, "ventral": 23420, "kelley": 19543, "evangelical": 11295, "inaccurate": 24949, "tobin": 28096, "[unused282]": 287, "boon": 23264, "trustees": 9360, "rudder": 24049, "deterioration": 26118, "\u2071": 1537, "[unused967]": 972, "beaches": 12212, "caste": 14542, "leg": 4190, "tribute": 7050, "##furt": 24428, "bribes": 29117, "\u03b8": 1162, "waitress": 13877, "orchid": 15573, "fluttering": 25001, "lowlands": 26411, "##\u0640": 29832, "plunge": 25912, "##lage": 20679, "sequel": 8297, "##books": 17470, "casablanca": 24592, "##44": 22932, "##kir": 23630, "##sett": 21678, "guarded": 13802, "protagonists": 21989, "aquarium": 18257, "sorbonne": 28452, "akbar": 20730, "[unused596]": 601, "##\u6625": 30393, "athena": 21880, "rue": 13413, "hp": 6522, "l": 1048, "cmll": 25395, "collarbone": 29600, "egyptian": 6811, "\u0261": 1116, "geometric": 14965, "modes": 11583, "encouragement": 15846, "##\u0430\u043d": 28995, "[unused672]": 677, "##\u05e9": 29812, "calvert": 24800, "royal": 2548, "qur": 23183, "inning": 12994, "1934": 4579, "visible": 5710, "seriously": 5667, "contacted": 11925, "duluth": 28218, "adequately": 23613, "teach": 6570, "sas": 21871, "moderately": 17844, "##\u25cf": 30146, "scratched": 15047, "montreal": 5548, "boating": 23639, "erase": 22505, "napoleonic": 18813, "psyche": 25774, "instrumental": 6150, "onion": 20949, "forget": 5293, "heterosexual": 28229, "##flower": 14156, "set": 2275, "decisions": 6567, "##now": 19779, "winnie": 27125, "specify": 20648, "comes": 3310, "rewarded": 14610, "##tel": 9834, "jew": 16522, "weird": 6881, "lunch": 6265, "[unused259]": 264, "negotiated": 13630, "gritted": 17307, "incomes": 29373, "counts": 9294, "unofficial": 11982, "wren": 16255, "wayne": 6159, "cochrane": 22329, "modular": 19160, "##gar": 6843, "##heim": 8049, "mines": 7134, "humiliated": 26608, "moniker": 21937, "victorian": 6652, "distinctly": 19517, "code": 3642, "##ctive": 15277, "##hole": 11484, "pic": 27263, "##dm": 22117, "europe": 2885, "clears": 28837, "##56": 26976, "taxation": 14952, "completes": 28123, "sp": 11867, "sin": 8254, "strong": 2844, "##arty": 23871, "piper": 11939, "\u208d": 1558, "incompatible": 25876, "chiba": 27368, "covering": 5266, "##\u2092": 30091, "argyll": 27365, "partly": 6576, "dominion": 13738, "renee": 17400, "slicing": 26514, "triggered": 13330, "receipt": 24306, "epoch": 25492, "kong": 4290, "torpedo": 9862, "considered": 2641, "loan": 5414, "schedules": 20283, "barge": 19398, "welding": 23604, "peacock": 18931, "##phus": 25255, "scouting": 14299, "fluorescent": 22184, "trembled": 14823, "ease": 7496, "##sation": 26652, "laguna": 18169, "mckenzie": 18506, "2019": 10476, "throwing": 6886, "underwent": 9601, "sensors": 13907, "favourites": 28271, "shen": 21882, "##tort": 25485, "cockpit": 13828, "samson": 18375, "details": 4751, "ie": 29464, "hadley": 21681, "myself": 2870, "##\u5927": 30336, "coca": 16787, "scottish": 4104, "millions": 8817, "44": 4008, "stored": 8250, "etudes": 25041, "dev": 16475, "una": 14477, "careless": 23358, "[unused442]": 447, "journal": 3485, "##ciation": 23247, "replies": 14054, "artisans": 26818, "lenses": 15072, "suzy": 28722, "dispersed": 15484, "##\uff08": 30513, "tensed": 15225, "jess": 12245, "classes": 4280, "stalled": 20659, "television": 2547, "benefit": 5770, "bay": 3016, "staple": 18785, "jennie": 27557, "age": 2287, "reconstruction": 8735, "##raphic": 20721, "[unused229]": 234, "enforce": 16306, "\u05d6": 1247, "various": 2536, "\u2192": 1585, "ads": 14997, "##evsky": 27015, "simon": 4079, "commerce": 6236, "dante": 9649, "##gli": 25394, "judd": 20128, "mast": 15429, "rani": 21617, "gabrielle": 16988, "##taka": 28412, "##kers": 11451, "picasso": 22457, "##ability": 8010, "worried": 5191, "sociological": 24846, "borne": 15356, "##ans": 6962, "oblique": 20658, "judith": 12924, "genus": 3562, "##dant": 28210, "134": 15170, "##olt": 27914, "spotting": 27963, "freed": 10650, "##tech": 15007, "[unused35]": 36, "gravity": 8992, "occur": 5258, "artery": 16749, "jeremiah": 17526, "stable": 6540, "reading": 3752, "##imo": 16339, "fleming": 13779, "spears": 13957, "literal": 18204, "combat": 4337, "renowned": 8228, "gora": 26967, "popcorn": 24593, "mis": 28616, "breakfast": 6350, "regression": 26237, "cheung": 22632, "[unused717]": 722, "whatever": 3649, "natalie": 10829, "##owa": 21293, "vomiting": 24780, "wires": 14666, "divers": 18612, "delightful": 26380, "experimenting": 23781, "tome": 21269, "##las": 8523, "fk": 14352, "##front": 12792, "vows": 16495, "quiet": 4251, "##sman": 11512, "rogue": 12406, "bodily": 20445, "##rle": 20927, "vault": 11632, "##ciful": 26336, "[unused951]": 956, "ignacio": 22988, "##eland": 25689, "aged": 4793, "##2": 2475, "tongue": 4416, "intersections": 26540, "starvation": 22611, "humour": 17211, "plasma": 12123, "nantes": 25387, "##43": 23777, "unlimited": 14668, "sauce": 12901, "schumann": 29448, "doesn": 2987, "colorado": 5169, "earth": 3011, "##\u3053": 30181, "comply": 14037, "technical": 4087, "##\u30aa": 30225, "##hedral": 27310, "muffled": 15783, "selects": 27034, "burnley": 23028, "procedural": 24508, "presiding": 18131, "thin": 4857, "[unused115]": 120, "##cting": 11873, "narrative": 7984, "publishing": 4640, "element": 5783, "##lewood": 26580, "arrange": 13621, "karen": 8129, "[unused381]": 386, "whisky": 21265, "fished": 26281, "benji": 27231, "regain": 12452, "subject": 3395, "##47": 22610, "piccolo": 29368, "##ven": 8159, "importance": 5197, "convictions": 20488, "whites": 12461, "##\u03c7": 29737, "[unused168]": 173, "outlaw": 19104, "vancouver": 6930, "grabs": 13273, "plate": 5127, "stanford": 8422, "enlarged": 11792, "triassic": 29529, "parliament": 3323, "describes": 5577, "undergone": 17215, "##idad": 27893, "1873": 7612, "requests": 11186, "science": 2671, "tunisian": 22946, "dangerously": 20754, "lass": 27333, "maze": 15079, "determination": 9128, "##gin": 11528, "##vez": 26132, "epidemic": 16311, "observation": 8089, "peaking": 13015, "sampled": 18925, "coward": 16592, "play": 2377, "chunk": 20000, "strewn": 25259, "##\u06be": 29844, "covered": 3139, "viewers": 7193, "donnie": 28486, "janeiro": 11497, "[unused380]": 385, "transmitter": 11659, "brisbane": 7717, "hicks": 17221, "longevity": 26906, "##tify": 27351, "##hardt": 13778, "logistics": 12708, "foreman": 18031, "thoroughly": 12246, "stone": 2962, "bones": 5944, "[unused112]": 117, "##kr": 21638, "trip": 4440, "##oux": 28700, "furious": 9943, "##estra": 26199, "yucatan": 28631, "##nism": 28113, "overgrown": 26433, "garbage": 13044, "##\u1d49": 30035, "craig": 7010, "regent": 11315, "watches": 12197, "##\u308d": 30215, "flirt": 27978, "\u06c1": 1308, "communal": 15029, "kahn": 19361, "sabine": 18578, "decorations": 14529, "cara": 14418, "bce": 10705, "sane": 22856, "prentice": 23429, "contingent": 15445, "deliver": 8116, "evan": 9340, "##cing": 6129, "iaaf": 21259, "bethel": 19375, "slalom": 19617, "pinched": 18521, "softly": 5238, "\u099f": 1359, "resemble": 13014, "325": 19652, "lucia": 12337, "litres": 25783, "##\u4e2d": 30272, "cote": 17155, "16": 2385, "\u2194": 1587, "otago": 21831, "harmful": 17631, "itf": 27682, "bristol": 7067, "election": 2602, "born": 2141, "\u3084": 1682, "imposing": 16625, "intro": 17174, "civilization": 10585, "granny": 19794, "werewolves": 18306, "\u706b": 1906, "##\u0272": 29689, "##\u7acb": 30457, "telecom": 18126, "\u5948": 1814, "1976": 3299, "bowler": 14999, "duly": 25073, "evaluating": 23208, "##mx": 22984, "voting": 6830, "sheds": 25999, "training": 2731, "mattress": 13342, "reluctant": 11542, "##land": 3122, "losing": 3974, "metals": 11970, "romano": 22070, "##lc": 15472, "tow": 15805, "antonia": 24272, "1877": 7557, "##\u4ebb": 30283, "canned": 27141, "\u043d": 1192, "reserves": 8269, "bernhard": 21432, "1699": 28718, "##eti": 20624, "rapidly": 5901, "[unused441]": 446, "##torium": 24390, "offerings": 14927, "1650": 21875, "##ingly": 15787, "checked": 7039, "##lica": 19341, "##ilised": 21758, "wheels": 7787, "\u30e1": 1726, "compares": 22963, "history": 2381, "sai": 18952, "becoming": 3352, "##cross": 16458, "relieve": 15804, "investigate": 8556, "arriving": 7194, "timbers": 26238, "dhaka": 16479, "travelling": 8932, "##\u1d63": 30043, "drive": 3298, "known": 2124, "[unused323]": 328, "blocking": 10851, "appropriations": 22713, "safely": 9689, "ridden": 15230, "[unused602]": 607, "elaborated": 25187, "mabel": 19486, "netflix": 20907, "same": 2168, "donnell": 18016, "f": 1042, "early": 2220, "##ira": 7895, "achieving": 10910, "[unused890]": 895, "##teacher": 24741, "##sen": 5054, "crusaders": 18831, "specialised": 17009, "paul": 2703, "1781": 16788, "storyline": 9994, "##awa": 10830, "hewitt": 19482, "groningen": 29070, "pipe": 8667, "##eter": 15141, "tajikistan": 23538, "quakers": 28301, "[unused853]": 858, "##en": 2368, "\u3044": 1647, "katie": 9734, "biochemistry": 22419, "##agh": 17988, "##cl": 20464, "clasped": 16763, "replacement": 6110, "seventies": 26232, "##\u0bc7": 29934, "\u3057": 1657, "paddle": 20890, "latham": 28737, "twitch": 19435, "##lity": 18605, "ipa": 24531, "oro": 20298, "electronic": 4816, "1922": 4798, "##don": 5280, "view": 3193, "rooney": 24246, "limousine": 28012, "administrations": 27722, "december": 2285, "writes": 7009, "\u05d2": 1243, "naomi": 12806, "escorts": 24877, "paradise": 9097, "story": 2466, "##ticus": 29587, "stevens": 8799, "hardened": 15015, "swansea": 16085, "rabbis": 25602, "ligand": 27854, "prism": 26113, "remington": 25282, "##sche": 22842, "admission": 9634, "##ease": 19500, "luxurious": 20783, "bees": 13734, "4a": 26424, "\u4e00": 1740, "##dina": 18979, "aircraft": 2948, "biscuits": 27529, "[unused922]": 927, "residing": 7154, "futile": 24495, "qin": 19781, "##board": 6277, "medium": 5396, "damian": 19507, "marilyn": 14749, "48": 4466, "##logical": 9966, "turtle": 13170, "##\u0574": 29776, "##iv": 12848, "to": 2000, "stalker": 23883, "mocked": 24195, "treasury": 9837, "knowles": 22815, "\u0569": 1224, "confessed": 14312, "straight": 3442, "##riz": 21885, "receivers": 19278, "uttered": 20947, "##by": 3762, "springsteen": 26002, "traders": 13066, "##tore": 19277, "task": 4708, "##\u5fd7": 30377, "[unused774]": 779, "acres": 4631, "maker": 9338, "##sas": 20939, "erratic": 24122, "unharmed": 28150, "##sher": 19603, "abrams": 23063, "paterson": 19162, "plunged": 16687, "##sp": 13102, "\u2265": 1609, "juarez": 25398, "dental": 11394, "aquatics": 26649, "occasion": 6686, "rigorous": 20001, "##\u00ab": 29654, "##hala": 19531, "stafford": 15064, "84": 6391, "textile": 12437, "renumbered": 27855, "develops": 11791, "italia": 13052, "fewer": 8491, "toy": 9121, "scattering": 17501, "goo": 27571, "poorer": 27196, "bleeding": 9524, "\"": 1000, "##nam": 13129, "mounted": 5614, "visual": 5107, "##tracted": 24301, "1957": 3890, "wen": 19181, "sufficient": 7182, "##onda": 29067, "1200": 14840, "##ac": 6305, "charley": 20430, "perceptions": 23271, "notable": 3862, "crime": 4126, "bahamas": 17094, "##55": 24087, "##\u201c": 30058, "tested": 7718, "endeavor": 23855, "dept": 29466, "creators": 17277, "tributary": 8914, "stinging": 22748, "eruptions": 28448, "hazy": 26710, "kgb": 25467, "ability": 3754, "\u0259": 1114, "##baldi": 28807, "improved": 5301, "stockings": 26412, "redhead": 26705, "vivo": 24269, "asthma": 26180, "encountered": 8567, "nes": 24524, "##ty": 3723, "beaten": 7854, "agitated": 21568, "\u10e2": 1453, "sergeant": 6722, "observations": 9420, "prestige": 14653, "olympic": 4386, "communes": 16569, "precinct": 18761, "##ross": 25725, "annoyed": 11654, "methyl": 25003, "##omic": 22026, "351": 28474, "quote": 14686, "aqua": 28319, "brien": 9848, "tram": 12517, "##\u66f2": 30396, "reserve": 3914, "organize": 10939, "translating": 22969, "ranger": 11505, "##aurus": 17342, "trough": 23389, "million": 2454, "interruption": 24191, "paramilitary": 22258, "culminated": 16943, "rule": 3627, "dolphins": 13600, "skipped": 16791, "produces": 7137, "##ain": 8113, "florida": 3516, "coarse": 20392, "choked": 12444, "updates": 14409, "guitarists": 28523, "exchange": 3863, "spear": 12341, "focal": 15918, "##tt": 4779, "##iable": 19210, "hole": 4920, "##load": 11066, "solitude": 22560, "widen": 21255, "notch": 18624, "cid": 28744, "foreigner": 29524, "poultry": 22468, "sneakers": 28130, "closely": 4876, "octave": 21817, "blurred": 18449, "weighing": 15243, "emitted": 22627, "cad": 28353, "abyss": 22159, "alexandre": 16971, "##pipe": 24548, "barrage": 19359, "hey": 4931, "bonds": 9547, "franchise": 6329, "thirty": 4228, "undead": 17315, "##eva": 13331, "roma": 12836, "[unused394]": 399, "pious": 25020, "\u0131": 1104, "wherein": 16726, "monsoon": 19183, "scratching": 20291, "births": 18250, "happier": 19366, "##9th": 25660, "songwriting": 14029, "complain": 17612, "meadows": 13524, "rectangular": 10806, "benson": 11999, "salvage": 18340, "furniture": 7390, "passionate": 13459, "marketplace": 18086, "uninhabited": 24749, "westfield": 26584, "##ette": 7585, "##mer": 5017, "forms": 3596, "##ille": 10484, "illnesses": 24757, "chat": 11834, "##\u00f8": 16415, "solitary": 14348, "orr": 26914, "\u91ce": 1963, "126": 14010, "evaluate": 16157, "india": 2634, "programming": 4730, "\u2020": 1526, "separated": 5459, "dripping": 14309, "southwestern": 8772, "fine": 2986, "flavors": 26389, "lightweight": 12038, "crater": 11351, "##den": 4181, "filthy": 18294, "m\u00b3": 14241, "entrusted": 18011, "barred": 15605, "positively": 13567, "playable": 16854, "quarters": 7728, "allan": 8926, "over": 2058, "rum": 19379, "##stic": 10074, "kicked": 6476, "##uli": 15859, "rosa": 9508, "clarinet": 12089, "threatening": 8701, "\u091a": 1318, "accusations": 13519, "czech": 5569, "relate": 14396, "organizes": 22013, "[unused277]": 282, "kent": 5982, "users": 5198, "##hot": 12326, "\u028c": 1134, "rotating": 13618, "translator": 11403, "ng": 12835, "justify": 16114, "clarence": 11805, "brutal": 12077, "stirling": 15597, "bradford": 9999, "frederick": 5406, "jax": 13118, "\u90fd": 1961, "approximation": 20167, "purchase": 5309, "hiram": 27410, "##nia": 6200, "burgundy": 18383, "continued": 2506, "##light": 7138, "branches": 5628, "downed": 20164, "edna": 21051, "autism": 19465, "churches": 5231, "1620": 24259, "##tford": 26341, "202": 16798, "recruits": 15024, "tanned": 25973, "butt": 10007, "vitamin": 17663, "colorful": 14231, "courtyard": 10119, "##zar": 9057, "##logic": 27179, "stupidity": 28072, "##ssed": 29417, "jerseys": 28772, "##enstein": 21819, "480": 17295, "interaction": 8290, "harbour": 7440, "##lux": 25148, "colliery": 19462, "toe": 11756, "newell": 28052, "correct": 6149, "##foot": 13064, "##taking": 17904, "disdain": 25134, "grinning": 11478, "feel": 2514, "##men": 3549, "##uation": 14505, "##fighter": 20027, "premio": 23031, "powered": 6113, "blonde": 9081, "appearing": 6037, "rats": 11432, "1704": 27769, "nurses": 11500, "honorable": 13556, "##inator": 23207, "blu": 14154, "\u961d": 1970, "projects": 3934, "161": 17365, "##que": 4226, "\u7701": 1920, "sonar": 24609, "mammals": 11993, "fragmentation": 28424, "peripheral": 15965, "reagan": 11531, "##llon": 22179, "##\u2282": 30137, "diploma": 9827, "limb": 15291, "122": 13092, "pleasures": 26552, "hook": 8103, "kernel": 16293, "09": 5641, "chewing": 17492, "bail": 15358, "fishermen": 16532, "courses": 5352, "critical": 4187, "molly": 9618, "##\u590f": 30334, "cemeteries": 20973, "electricity": 6451, "gallant": 26984, "##tua": 26302, "havilland": 23994, "greenville": 20967, "criminal": 4735, "cr": 13675, "##peration": 29487, "inspecting": 29508, "##ee": 4402, "##mology": 20570, "noteworthy": 19144, "allowing": 4352, "\u0bc7": 1398, "billings": 26124, "pointless": 23100, "compound": 7328, "burlington": 15552, "##tu": 8525, "##raz": 20409, "zombies": 14106, "irrigation": 12442, "younger": 3920, "declares": 18806, "chapels": 24130, "\u3046": 1648, "##bane": 27543, "narrower": 22546, "prostitute": 19215, "wrought": 18481, "crazy": 4689, "prove": 6011, "##aldo": 27318, "simpler": 16325, "pierre": 5578, "xiii": 15031, "compounds": 10099, "\u2665": 1625, "westward": 15165, "##bank": 9299, "purely": 11850, "button": 6462, "##litz": 24725, "\u0644": 1294, "##oteric": 29112, "mysteriously": 29239, "disputed": 11621, "fingertips": 12206, "creator": 8543, "2012": 2262, "surprising": 11341, "consort": 13440, "168": 16923, "resign": 12897, "songs": 2774, "##non": 8540, "##vac": 24887, "##\u03b4": 29722, "job": 3105, "jamestown": 27435, "gentlemen": 11218, "marquette": 24223, "ensure": 5676, "ling": 17002, "##ches": 8376, "##ilia": 27861, "95": 5345, "integral": 9897, "succession": 8338, "aviv": 12724, "5th": 4833, "thompson": 5953, "##\u6c5f": 30423, "linnaeus": 21610, "wickets": 10370, "azores": 28320, "von": 3854, "prohibited": 10890, "pushed": 3724, "minister": 2704, "priesthood": 17911, "##\u1d2e": 30027, "society": 2554, "\u30c3": 1711, "frightening": 17115, "ipod": 26322, "trajectory": 22793, "casa": 14124, "mechanism": 7337, "nuclear": 4517, "diffusion": 19241, "tun": 27112, "me": 2033, "##pol": 18155, "ridges": 16386, "##movable": 25661, "##ized": 3550, "resentment": 20234, "messing": 22308, "##yte": 17250, "lc": 29215, "##\u00d7": 26306, "$": 1002, "teens": 13496, "garments": 21902, "[unused408]": 413, "maximum": 4555, "##tility": 18724, "nationals": 10342, "politician": 3761, "exeter": 12869, "[unused684]": 689, "whose": 3005, "newfound": 27608, "axial": 26819, "networks": 6125, "1702": 26776, "davis": 4482, "gabon": 23129, "##45": 19961, "collapsed": 7798, "eki": 23174, "punt": 18975, "edison": 17046, "veins": 9607, "missing": 4394, "sam": 3520, "dark": 2601, "casket": 25864, "jackets": 17764, "geek": 29294, "hampshire": 7035, "domestic": 4968, "edges": 7926, "hana": 26048, "cold": 3147, "serb": 20180, "billion": 4551, "salman": 28542, "coating": 18898, "bose": 21299, "christi": 21359, "mecca": 21340, "strategies": 9942, "##ness": 2791, "reporting": 7316, "forearm": 16148, "supervisors": 22565, "definitions": 15182, "##\u0255": 29680, "##aint": 22325, "waived": 16301, "[unused657]": 662, "poems": 5878, "auditions": 21732, "commonwealth": 5663, "ticket": 7281, "##bert": 8296, "rome": 4199, "neptune": 21167, "auf": 21200, "faith": 4752, "routinely": 19974, "##rled": 27501, "hollis": 27477, "reformer": 24767, "\u09c0": 1380, "##mounted": 27632, "amplifiers": 28633, "nicholls": 27043, "[unused196]": 201, "##jack": 17364, "sheltered": 18304, "##ks": 5705, "hepburn": 22004, "buckingham": 17836, "lowers": 24950, "engraving": 23501, "federally": 20892, "##bed": 8270, "aunt": 5916, "rene": 10731, "thankfully": 16047, "mountains": 4020, "lu": 11320, "gauge": 7633, "seize": 15126, "##sop": 28793, "stuffing": 28652, "##jured": 26949, "##edance": 29605, "tender": 8616, "chronicles": 11906, "\u00a1": 1067, "##ying": 14147, "ranks": 6938, "dominate": 16083, "transmit": 19818, "configuration": 9563, "coined": 13279, "atheist": 23503, "wards": 11682, "predecessors": 16372, "galician": 28830, "malaria": 19132, "widespread": 6923, "colby": 18650, "skiing": 12701, "subtropical": 11935, "width": 9381, "errors": 10697, "pleaded": 12254, "inch": 4960, "winston": 10180, "selection": 4989, "airplane": 13297, "193": 19984, "##gence": 17905, "guitar": 2858, "polo": 11037, "gilles": 21717, "\u5802": 1805, "xbox": 12202, "##zation": 9276, "rear": 4373, "tae": 22297, "[unused473]": 478, "[unused1]": 2, "##rent": 22787, "##lip": 15000, "##lk": 13687, "demonstrate": 10580, "patrolling": 24248, "##efe": 27235, "explains": 7607, "weaving": 15360, "cy": 22330, "riders": 8195, "syllables": 20732, "hilton": 15481, "romney": 19615, "graduating": 6800, "lanka": 7252, "hypothetical": 25613, "detainees": 26485, "reese": 15883, "very": 2200, "##\u82f1": 30467, "outlined": 14801, "beautiful": 3376, "ignoring": 9217, "synchronized": 25549, "architecture": 4294, "connectivity": 20831, "gives": 3957, "junior": 3502, "prequel": 28280, "\u30ab": 1700, "torque": 15894, "eras": 28500, "papua": 13049, "##ht": 11039, "laurel": 11893, "370": 16444, "glacial": 17381, "configurations": 22354, "artists": 3324, "sheffield": 8533, "spade": 23288, "[unused336]": 341, "##with": 24415, "##dy": 5149, "##dell": 12662, "weekly": 4882, "##\u03b9": 18199, "op": 6728, "[unused954]": 959, "[unused38]": 39, "bonus": 6781, "cues": 23391, "bony": 22678, "euros": 19329, "you": 2017, "\u30a2": 1693, "bee": 10506, "claremont": 23716, "##\u8a01": 30475, "[unused170]": 175, "1772": 17483, "scope": 9531, "##ibility": 13464, "##\u3048": 30175, "##ima": 9581, "##olo": 12898, "palm": 5340, "rangers": 7181, "lyric": 13677, "informal": 11900, "aimed": 6461, "##horse": 23024, "meanwhile": 5564, "frail": 25737, "danes": 27476, "losers": 23160, "skopje": 29255, "muttering": 22581, "varied": 9426, "continuing": 5719, "##\u00f8y": 27688, "opening": 3098, "rosalie": 29564, "##\u301c": 30171, "getting": 2893, "commons": 7674, "discarded": 15105, "[unused253]": 258, "letter": 3661, "asher": 17243, "##\u057d": 29781, "intentions": 11174, "\u0431": 1181, "ness": 23384, "qing": 13282, "##\u4f8d": 30291, "murdoch": 19954, "versailles": 18346, "gulf": 6084, "foul": 12487, "month": 3204, "brandt": 19407, "closeness": 28398, "parachute": 13561, "##istle": 24242, "1840s": 19308, "37": 4261, "jamie": 6175, "hamburg": 8719, "carrier": 6839, "tuba": 29242, "[unused765]": 770, "[unused101]": 106, "##\u539f": 30313, "juveniles": 25406, "seekers": 24071, "disqualified": 14209, "##lge": 28875, "shankar": 17429, "loire": 20399, "[unused482]": 487, "##gical": 26715, "blues": 5132, "astronomy": 12799, "prefecture": 7498, "coastline": 15458, "##lysis": 26394, "##khar": 22510, "##\u110b": 29999, "##ama": 8067, "##iciencies": 28227, "superfamily": 24169, "munchen": 25802, "bowling": 9116, "con": 9530, "##cano": 23803, "laborers": 23428, "##inates": 28184, "traps": 16735, "##yad": 25152, "illegitimate": 18102, "##poo": 24667, "convincing": 13359, "malta": 9933, "writers": 4898, "inquiries": 27050, "cooled": 12981, "grown": 4961, "nathaniel": 13961, "hottest": 20930, "whig": 21632, "cobalt": 25627, "receptions": 16466, "president": 2343, "barton": 12975, "##gart": 27378, "\u30bf": 1709, "interactive": 9123, "##\u0993": 29888, "scheduling": 19940, "endowment": 15108, "menu": 12183, "curriculum": 8882, "discharged": 14374, "##ult": 11314, "[unused493]": 498, "royale": 24483, "commodore": 12957, "##eles": 26741, "marissa": 22767, "stronger": 6428, "mount": 4057, "\u5730": 1802, "##kt": 25509, "1993": 2857, "##rrick": 24999, "esther": 14631, "##oric": 29180, "howell": 18473, "infiltrate": 29543, "##person": 27576, "feared": 8615, "enamel": 29484, "##dini": 26039, "goaltender": 21437, "##side": 7363, "axle": 17290, "secretariat": 15128, "saskatchewan": 10068, "surprise": 4474, "##\u00ae": 29656, "[unused509]": 514, "meeting": 3116, "spa": 12403, "architectural": 6549, "serves": 4240, "vivian": 13801, "##kk": 19658, "##lla": 4571, "lantern": 12856, "equator": 26640, "unclear": 10599, "sample": 7099, "transmitted": 11860, "[unused592]": 597, "ornate": 18099, "se": 7367, "grips": 24758, "horned": 26808, "hercules": 15067, "grave": 6542, "binding": 8031, "cooperate": 17654, "1654": 27445, "131": 14677, "raged": 28374, "strengths": 20828, "albuquerque": 19334, "##dya": 25838, "interior": 4592, "ale": 15669, "actor": 3364, "austro": 16951, "dream": 3959, "jd": 26219, "supplies": 6067, "\u00bf": 1094, "cute": 10140, "##cao": 20808, "strongest": 10473, "flesh": 5771, "paradigm": 20680, "retained": 6025, "duffy": 17971, "hospice": 29277, "enable": 9585, "180": 8380, "wnba": 25554, "##\u5ddd": 30361, "177": 18118, "##pl": 24759, "##uit": 14663, "chaplin": 23331, "\u592b": 1813, "guerrero": 16938, "c2": 29248, "##vill": 26548, "##\u0e32": 29958, "fordham": 27302, "cries": 12842, "ray": 4097, "##ing": 2075, "radioactive": 17669, "net": 5658, "improper": 24156, "\uff08": 1987, "##oed": 29099, "defeats": 14222, "1850": 7973, "sofia": 8755, "\u05d3": 1244, "page": 3931, "##koto": 24886, "dmitry": 22141, "##xious": 25171, "\u05dd": 1254, "bloom": 13426, "\u5fb7": 1848, "##fu": 11263, "motioned": 13054, "shut": 3844, "peptide": 25117, "mclean": 17602, "##thic": 23048, "##iance": 28335, "hears": 14994, "##gl": 23296, "55": 4583, "rolf": 23381, "placing": 6885, "lauren": 10294, "geoff": 14915, "[unused12]": 13, "absent": 9962, "northamptonshire": 21367, "footballers": 27784, "zionist": 21379, "siemens": 22108, "any": 2151, "##yman": 17906, "complex": 3375, "animation": 7284, "##ess": 7971, "##lates": 26786, "[unused901]": 906, "outlets": 11730, "field": 2492, "luton": 17807, "##jected": 24455, "bless": 19994, "##otte": 28495, "proprietary": 16350, "##moor": 17622, "turning": 3810, "[unused128]": 133, "publication": 4772, "keeper": 10684, "teachers": 5089, "leave": 2681, "missionary": 8696, "1949": 4085, "8th": 5893, "succeeds": 21645, "respondents": 25094, "foundations": 10100, "##ddy": 14968, "coin": 9226, "lois": 15815, "probe": 15113, "provocative": 26422, "##oth": 14573, "consent": 9619, "fide": 26000, "##\u4ec1": 30284, "vague": 13727, "homicide": 18268, "292": 25797, "nor": 4496, "retro": 22307, "318": 27003, "hanna": 10579, "attributes": 12332, "cracked": 9630, "##gm": 21693, "bulldog": 28628, "##ischen": 24488, "##swell": 19228, "amassed": 22151, "##nsen": 29428, "cedar": 11354, "sabre": 22002, "not": 2025, "supporter": 10129, "pepsi": 27237, "##nett": 15361, "##25": 17788, "corresponding": 7978, "ortiz": 19439, "execution": 7781, "##10": 10790, "[unused830]": 835, "##eau": 10207, "sheen": 20682, "ponce": 21085, "wehrmacht": 23443, "mans": 16042, "ty": 5939, "prosperous": 18241, "intriguing": 23824, "forged": 16158, "293": 26953, "summer": 2621, "richter": 20105, "##y": 2100, "strengthening": 16003, "1915": 4936, "##lston": 21540, "##tl": 19646, "[unused194]": 199, "##blood": 26682, "elephants": 16825, "robbins": 18091, "moderator": 29420, "##\u05d0": 29788, "olson": 21583, "toro": 23790, "##tour": 21163, "##48": 18139, "refuse": 10214, "greek": 3306, "freeze": 13184, "##mism": 26725, "##'": 29618, "koln": 28306, "ops": 23092, "mess": 6752, "madeira": 27309, "soils": 13622, "despised": 26626, "uzbekistan": 17065, "competing": 6637, "ezio": 23043, "lobster": 27940, "##azi": 16103, "waited": 4741, "earthly": 29520, "spraying": 29035, "lists": 7201, "\u266f": 1628, "1658": 28944, "psychic": 12663, "1944": 3646, "poorly": 9996, "high": 2152, "hungary": 5872, "grateful": 8794, "wet": 4954, "counter": 4675, "resolve": 10663, "##ev": 6777, "dobson": 27679, "massacre": 9288, "dinamo": 22306, "##50": 12376, "sealing": 23038, "wake": 5256, "decker": 20946, "##\u25aa": 30145, "assessing": 20077, "superliga": 25922, "locker": 12625, "##cased": 28969, "airline": 8582, "shifting": 9564, "lads": 29126, "##illo": 10486, "frs": 25188, "grandparents": 14472, "alec": 9752, "undefeated": 15188, "holly": 9079, "recognise": 17614, "light": 2422, "fielder": 25000, "tick": 16356, "##iz": 10993, "responsible": 3625, "reacted": 14831, "mathias": 20494, "rodriguez": 9172, "sedimentary": 25503, "contradictory": 27894, "neighbor": 11429, "scents": 29254, "st": 2358, "263": 25246, "illustration": 14614, "satisfied": 8510, "return": 2709, "saratoga": 23136, "startled": 9696, "camp": 3409, "belize": 18867, "babe": 11561, "\u5fe0": 1852, "caressing": 25296, "koreans": 24651, "##\u0436": 29743, "define": 9375, "signaled": 22319, "\u79c0": 1928, "cancers": 25409, "senators": 10153, "##gne": 10177, "accompaniment": 22205, "eponymous": 15248, "josiah": 24461, "weekends": 13499, "nokia": 22098, "hunted": 14682, "millionaire": 19965, "fatima": 27596, "congress": 3519, "##\u05e2": 29805, "vincenzo": 24712, "apparently": 4593, "overland": 21400, "dread": 14436, "our": 2256, "northwest": 4514, "vince": 12159, "engagements": 20583, "##ipes": 28108, "fife": 20537, "celebrity": 8958, "shrugged": 6345, "smirk": 15081, "extent": 6698, "sudanese": 25603, "[unused566]": 571, "trumpet": 9368, "represents": 5836, "annually": 6604, "postage": 22981, "males": 3767, "##\u2015": 30053, "rosewood": 29528, "buy": 4965, "occurrence": 14404, "faster": 5514, "gestures": 18327, "overseas": 6931, "brigades": 14589, "libel": 26201, "yield": 10750, "permission": 6656, "gil": 13097, "kruger": 27823, "hated": 6283, "wellesley": 25658, "wembley": 16538, "amelia": 11556, "tailored": 21727, "searched": 9022, "prescription": 20422, "electoral": 6092, "anthropologist": 21571, "memorial": 3986, "wig": 24405, "##hea": 20192, "##dran": 24914, "##rney": 27114, "##hore": 16892, "##uca": 18100, "\u6cbb": 1900, "bishopric": 20664, "belgium": 5706, "polytechnic": 14466, "##flight": 28968, "traveler": 20174, "augustine": 14060, "serials": 28172, "cubs": 12469, "champ": 24782, "vain": 15784, "##kan": 9126, "[unused436]": 441, "begun": 5625, "taste": 5510, "such": 2107, "dioxide": 14384, "giro": 19226, "04": 5840, "##vor": 14550, "do": 2079, "##filtration": 28674, "[unused459]": 464, "centennial": 15483, "spells": 11750, "##\u5730": 30328, "mab": 26661, "symbol": 6454, "nile": 15179, "rovers": 9819, "healing": 8907, "cornwall": 10387, "convertible": 22840, "2010s": 26817, "lent": 15307, "fully": 3929, "regina": 12512, "tire": 12824, "##cius": 25393, "sadie": 21330, "dune": 21643, "##\u03bd": 16177, "sulfate": 26754, "divine": 7746, "sculpture": 6743, "##eca": 19281, "1862": 6889, "revelation": 11449, "duc": 26363, "1731": 28446, "minority": 7162, "dismissing": 28913, "thanking": 28638, "##erman": 18689, "##tions": 9285, "iron": 3707, "flashback": 21907, "bananas": 26191, "fixed": 4964, "kabul": 21073, "diplomats": 23473, "##elial": 24587, "inauguration": 17331, "luzon": 21622, "goose": 13020, "##olin": 18861, "socio": 17522, "##\u0127": 29672, "partisan": 14254, "conventional": 7511, "[unused401]": 406, "nude": 15287, "operational": 6515, "another": 2178, "vin": 19354, "wondered": 4999, "stops": 6762, "uncles": 27328, "washington": 2899, "fridays": 26587, "americans": 4841, "headlines": 19377, "##osa": 8820, "ak": 17712, "encryption": 21999, "starred": 5652, "entirety": 15700, "valued": 11126, "earthquake": 8372, "julie": 7628, "clit": 17962, "lawful": 26410, "1888": 6690, "believers": 20373, "[unused761]": 766, "rehab": 24497, "##kovich": 28195, "saxophone": 8283, "entry": 4443, "##\u5b97": 30347, "hiroshi": 26882, "aluminium": 14794, "whiskey": 13803, "%": 1003, "07": 5718, "reluctance": 21662, "how": 2129, "bothering": 17067, "avenues": 20859, "cave": 5430, "passed": 2979, "consul": 11801, "vintage": 13528, "recognition": 5038, "compressor": 29329, "ik": 20912, "[unused934]": 939, "toppled": 27251, "##pired": 21649, "boise": 23193, "##rvis": 29074, "##oud": 19224, "##mable": 24088, "efficient": 8114, "byrd": 17845, "summers": 10945, "parker": 6262, "##mani": 20799, "shifted": 5429, "fable": 28458, "2a": 23409, "bonn": 19349, "babies": 10834, "directs": 23303, "lynne": 26938, "survive": 5788, "clouds": 8044, "fiber": 11917, "relax": 9483, "ontario": 4561, "chiang": 17684, "comprised": 11539, "##tics": 14606, "organising": 21317, "\u4e94": 1753, "republic": 3072, "thor": 15321, "oscar": 7436, "gershwin": 25600, "garth": 21523, "monterey": 19860, "orbit": 8753, "analogous": 19639, "##oides": 25064, "tunisia": 13437, "middlesex": 13654, "##tman": 22942, "trigger": 9495, "##tao": 28555, "[unused184]": 189, "everest": 23914, "battery": 6046, "##\u043a\u0430": 28598, "##lde": 17920, "hypnotic": 28322, "killing": 4288, "plastered": 21832, "##ff": 4246, "jaws": 16113, "tribal": 8807, "laos": 15786, "silvia": 27827, "turbo": 15386, "shitty": 28543, "##\u3059": 30184, "\u03b4": 1158, "operatives": 25631, "mendez": 28950, "sk": 15315, "mammal": 25476, "libertadores": 27968, "cisco": 26408, "##iere": 21253, "##iting": 15402, "equality": 9945, "ollie": 25208, "exchanging": 25620, "keep": 2562, "##bau": 27773, "melted": 12501, "particles": 9309, "##duk": 28351, "hubbard": 16580, "##holding": 23410, "##\u0e19": 29949, "impress": 17894, "shuffling": 24770, "transaction": 12598, "messy": 18307, "specification": 12827, "##ula": 7068, "[unused815]": 820, "##ppel": 27877, "tactic": 19717, "jefferson": 7625, "sleek": 21185, "advocates": 13010, "lengths": 10742, "101": 7886, "tyrol": 27193, "##inatory": 28230, "depicts": 11230, "##thorpe": 22398, "tango": 17609, "claire": 6249, "deaf": 12419, "1742": 25704, "tirana": 24631, "maple": 11035, "optimistic": 21931, "intricate": 17796, "hopped": 17230, "whatsoever": 18971, "bangladeshi": 24267, "transatlantic": 26617, "leaks": 29324, "streamed": 18498, "train": 3345, "fx": 23292, "atmosphere": 7224, "##ogan": 21131, "computer": 3274, "michaels": 17784, "suffix": 16809, "clinging": 17892, "tilting": 21788, "judge": 3648, "[unused242]": 247, "##arians": 28369, "##ene": 8625, "nepali": 23418, "none": 3904, "fabric": 8313, "##\u674e": 30403, "##cene": 17968, "##umi": 12717, "tilted": 9939, "printing": 8021, "adjunct": 20621, "freestyle": 9817, "speedway": 10688, "kinda": 17704, "beijing": 7211, "hudson": 6842, "[unused749]": 754, "omnibus": 27284, "clubs": 4184, "victorious": 13846, "127": 13029, "gavin": 9448, "##uded": 13936, "tipped": 11182, "1740": 21757, "jase": 18626, "205": 16327, "aging": 12520, "substantive": 27737, "##rder": 26764, "variant": 8349, "classmates": 19846, "1956": 3838, "thanks": 4283, "##jn": 22895, "threads": 16457, "norway": 5120, "\u0b9a": 1383, "##nay": 16741, "1857": 8204, "synth": 24203, "bertrand": 20586, "mtv": 8692, "piston": 16733, "raion": 24235, "[unused89]": 90, "##\u21a6": 30116, "spectators": 12405, "zeke": 18270, "accelerate": 23306, "mythology": 11327, "pure": 5760, "##eron": 26534, "echoed": 10187, "steele": 12872, "veronica": 13133, "##phonic": 27385, "bobo": 27418, "##\u30eb": 30259, "madeleine": 19324, "ferry": 7115, "xiv": 15939, "made": 2081, "mons": 29408, "concurrency": 24154, "moffat": 28528, "wheeler": 12819, "*": 1008, "taft": 19911, "cleveland": 6044, "doll": 10658, "[unused46]": 47, "payroll": 26854, "inspected": 20456, "disrupt": 23217, "##sia": 8464, "sticking": 13423, "unleashed": 22416, "goal": 3125, "subfamily": 10946, "delhi": 6768, "castro": 11794, "inscriptions": 12920, "nausea": 19029, "answers": 6998, "##ent": 4765, "##rked": 19849, "dinners": 29236, "further": 2582, "##nated": 23854, "##oll": 14511, "periodic": 15861, "morale": 19292, "##ura": 4648, "\u5289": 1777, "?": 1029, "##ot": 4140, "cartel": 21680, "brought": 2716, "keen": 10326, "indigenous": 6284, "cured": 21391, "98": 5818, "58": 5388, "christian": 3017, "wills": 17234, "commentators": 15957, "vs": 5443, "3rd": 3822, "around": 2105, "vocal": 5554, "glamour": 22439, "emanuel": 21135, "abroad": 6917, "posterior": 15219, "##hr": 8093, "laced": 17958, "saves": 13169, "2": 1016, "bandwidth": 20235, "trademark": 11749, "portrayed": 6791, "reassuring": 21093, "##elia": 13902, "##runner": 23195, "##ifice": 23664, "\u221e": 1601, "sears": 18493, "lasers": 23965, "##%": 29616, "##fc": 11329, "[unused977]": 982, "[unused443]": 448, "false": 6270, "indirect": 14958, "downloaded": 22817, "marches": 20691, "com": 4012, "##stadt": 21543, "223": 20802, "[unused245]": 250, "##diment": 21341, "ballard": 21896, "##ander": 12243, "layers": 9014, "bollywood": 16046, "tandem": 18231, "pin": 9231, "require": 5478, "00pm": 27995, "##dor": 7983, "\u30e5": 1729, "mural": 15533, "208": 18512, "gasps": 23813, "##atic": 12070, "##flies": 24019, "\u30c8": 1714, "##omics": 25524, "setting": 4292, "##ife": 29323, "[unused841]": 846, "proposed": 3818, "##creen": 24410, "obligation": 14987, "growling": 22413, "bowl": 4605, "grooves": 25880, "75th": 25092, "graf": 22160, "rashid": 22080, "##eptive": 22048, "[unused949]": 954, "[unused969]": 974, "##quel": 22197, "horseshoe": 23449, "model": 2944, "accomplishment": 24718, "##gor": 20255, "bowled": 19831, "farewell": 13407, "inward": 20546, "[unused262]": 267, "##rling": 22036, "##fold": 10371, "industrialist": 21691, "morning": 2851, "yielded": 17544, "compiling": 21953, "vomit": 23251, "lyricist": 19489, "desktop": 15363, "kiel": 20963, "alternatively": 14084, "technicians": 20202, "1789": 13739, "cosmetics": 25381, "mates": 14711, "shouted": 6626, "##rou": 22494, "behave": 16582, "homage": 14822, "announce": 14970, "##enburg": 12059, "\u1d57": 1505, "4": 1018, "shiva": 12535, "eerie": 18823, "gardens": 5822, "##lter": 21928, "selfish": 14337, "rained": 28270, "circulated": 17640, "[unused281]": 286, "##uid": 21272, "kaye": 23686, "1844": 9730, "[unused819]": 824, "##hart": 10686, "brighton": 10309, "##charged": 22620, "twenty": 3174, "odor": 19255, "##\u4e0d": 30270, "bat": 7151, "chamberlain": 13904, "sheila": 15062, "mic": 23025, "owners": 5608, "poznan": 18320, "##sil": 27572, "appointing": 28050, "sing": 6170, "spun": 7455, "obsolete": 15832, "instructors": 19922, "brick": 5318, "businessman": 6883, "terminates": 28790, "##ew": 7974, "whereby": 13557, "##\u2297": 30140, "##rh": 25032, "##sam": 21559, "scholars": 5784, "eyebrows": 8407, "ruled": 5451, "\u0452": 1211, "airports": 13586, "escorting": 23831, "drift": 11852, "wavelength": 19934, "##dara": 25329, "ron": 6902, "visited": 4716, "##fies": 14213, "hourly": 21462, "administratively": 23710, "kingdoms": 12028, "endangered": 10193, "cadence": 23620, "##vana": 27313, "sediment": 19671, "##son": 3385, "##zer": 6290, "actors": 5889, "ussr": 10331, "groceries": 26298, "looming": 23430, "##ilo": 22360, "##dev": 24844, "\u090f": 1314, "demeanor": 21745, "reduced": 4359, "##vyn": 23487, "##erus": 21608, "yer": 20416, "incorporate": 13265, "mom": 3566, "harshly": 21052, "decomposition": 22511, "ky": 18712, "##gur": 27390, "ritchie": 20404, "transformers": 19081, "##sd": 16150, "##print": 16550, "[unused107]": 112, "cindy": 15837, "[unused246]": 251, "##e": 2063, "jurgen": 23171, "breaking": 4911, "##igny": 26978, "wilmington": 17025, "container": 11661, "mike": 3505, "[unused623]": 628, "shannon": 10881, "guarding": 17019, "likely": 3497, "hurdle": 27630, "##ffin": 15379, "##inal": 13290, "indefinitely": 20733, "qi": 18816, "klaus": 16536, "illustrated": 7203, "##vate": 16952, "cones": 23825, "hiring": 14763, "help": 2393, "swallowing": 18468, "\u21cc": 1590, "spaces": 7258, "detailed": 6851, "tanker": 20135, "[unused26]": 27, "\u2011": 1514, "owl": 13547, "1845": 9512, "virtues": 21560, "poetic": 13805, "[unused782]": 787, "##rogated": 26565, "caucasian": 23368, "crouched": 14275, "##\u1106": 29995, "angels": 7048, "##lices": 29146, "uruguayan": 23464, "##\u05df": 29802, "dogs": 6077, "davenport": 16273, "stacked": 16934, "\u8279": 1939, "preoccupied": 23962, "nets": 16996, "##taff": 22542, "voivodeship": 7225, "sharpe": 22147, "1913": 5124, "magnus": 10045, "\u10d0": 1438, "bench": 6847, "catalina": 22326, "emblem": 16199, "klein": 12555, "lever": 15929, "cricket": 4533, "behaved": 26979, "cavalier": 28778, "1885": 6571, "majesty": 9995, "hart": 7530, "electrons": 15057, "pushing": 6183, "gallon": 25234, "lacked": 10858, "excelled": 23081, "safety": 3808, "diver": 17856, "x": 1060, "sympathetic": 13026, "vulgar": 29364, "houghton": 21234, "glider": 18788, "amendment": 7450, "warlock": 28861, "botany": 17018, "reef": 12664, "airport": 3199, "mcc": 23680, "his": 2010, "cbc": 13581, "##lun": 26896, "kind": 2785, "\u00bb": 1090, "forcibly": 20951, "joanna": 15730, "##rov": 12298, "malik": 14360, "381": 29335, "fog": 9666, "expo": 16258, "nepal": 8222, "fallout": 23902, "[unused444]": 449, "lamp": 10437, "\u0936": 1336, "condemn": 28887, "hunger": 9012, "howling": 22298, "seasons": 3692, "eagles": 8125, "[unused325]": 330, "##gating": 16961, "henrietta": 20775, "tentative": 19943, "haze": 16332, "conquer": 16152, "leaf": 7053, "1858": 8517, "##dana": 25917, "operator": 6872, "displacement": 13508, "\u11ab": 1485, "##\u05be": 29787, "raw": 6315, "ed": 3968, "\u0dbb": 1405, "##ku": 5283, "marc": 7871, "haiti": 12867, "##bola": 24290, "exhaled": 16242, "noelle": 22336, "reorganisation": 24934, "burn": 6402, "prof": 11268, "##falls": 28067, "##ory": 10253, "implemented": 7528, "pamela": 17217, "patriarch": 12626, "[unused943]": 948, "tri": 13012, "overly": 15241, "##\u8cb4": 30479, "uniquely": 20640, "stoke": 13299, "courier": 18092, "dare": 8108, "ascot": 29036, "salute": 17664, "crown": 4410, "hepatitis": 28389, "enjoy": 5959, "proudly": 18067, "guildford": 26353, "cabinet": 5239, "injected": 19737, "##\u30a8": 30224, "##iction": 28097, "jakob": 19108, "polling": 17888, "hahn": 24266, "northwards": 27592, "##irus": 26013, "amp": 23713, "taken": 2579, "haste": 24748, "sgt": 17001, "##iaceae": 23357, "reid": 9027, "tee": 17170, "filtered": 21839, "1920": 4444, "causal": 28102, "lighted": 26390, "##logie": 27095, "spectrum": 8674, "sims": 18135, "pitted": 25895, "padua": 24941, "\u3051": 1654, "canceled": 13261, "hostile": 10420, "darmstadt": 28381, "defendants": 16362, "butler": 7055, "rhea": 24775, "ego": 13059, "canberra": 13107, "circled": 14867, "peru": 7304, "toxic": 11704, "theorem": 9872, "##fera": 27709, "cupping": 25076, "##\u00b1": 29657, "assaults": 22664, "alliances": 21277, "atlantic": 4448, "opened": 2441, "\u4e09": 1741, "lobbying": 19670, "[unused766]": 771, "decor": 25545, "manages": 9020, "[unused377]": 382, "adventist": 25696, "alberta": 7649, "citing": 8951, "moose": 17716, "street": 2395, "exhibited": 8176, "antique": 14361, "##\u306a": 30193, "highlighted": 11548, "memorials": 22899, "theological": 9208, "##worm": 22769, "##\u1162": 30007, "ascended": 19644, "friendship": 6860, "swat": 25414, "just": 2074, "soho": 23771, "##od": 7716, "invertebrates": 25700, "##yuki": 19663, "##missible": 26770, "camped": 27077, "uncover": 26944, "toad": 21344, "##morphism": 19539, "pasha": 14292, "piedmont": 18873, "blurted": 18751, "\u209c": 1571, "reveal": 7487, "pioneering": 13280, "gathers": 29438, "nashville": 8423, "reused": 26513, "heller": 25038, "shenzhen": 26555, "harding": 15456, "yoga": 13272, "licence": 11172, "freedom": 4071, "benefited": 19727, "posthumously": 12770, "copies": 4809, "improving": 9229, "rhymes": 24468, "newsletter": 17178, "spike": 9997, "approve": 14300, "change": 2689, "northeastern": 8763, "blackish": 22032, "preparations": 12929, "dvd": 4966, "mounting": 15986, "acquisitions": 19530, "chesterfield": 22699, "anaheim": 20835, "narratives": 22143, "javelin": 23426, "teaches": 12011, "frankly": 19597, "boredom": 29556, "rwanda": 17591, "##bba": 22414, "##\u0f58": 29968, "sapphire": 21965, "##ythe": 26688, "listeners": 13810, "##nail": 25464, "physics": 5584, "dams": 17278, "##pot": 11008, "##rius": 13245, "mead": 19855, "calvin": 11130, "rescuing": 23659, "hatch": 11300, "brings": 7545, "forestry": 13116, "alain": 15654, "##enary": 24553, "cyber": 16941, "ked": 16135, "proxy": 24540, "abbot": 11428, "##phile": 24862, "##dermott": 29370, "lebanon": 8341, "follower": 22399, "char": 25869, "aisle": 12485, "##dha": 17516, "rohan": 28605, "correlation": 16902, "productive": 13318, "juice": 10869, "nitrate": 29607, "##34": 22022, "[unused843]": 848, "anguish": 21782, "composer": 4543, "release": 2713, "[unused149]": 154, "stung": 19280, "\u0448": 1203, "hee": 18235, "1936": 4266, "##va": 3567, "clinton": 7207, "sources": 4216, "allegheny": 21192, "athlete": 8258, "memoir": 12558, "kiss": 3610, "playful": 18378, "sparta": 21251, "##glass": 15621, "(": 1006, "ideology": 13165, "1821": 11723, "gangster": 20067, "stared": 3592, "graders": 23256, "situations": 8146, "npr": 21411, "nad": 23233, "degraded": 26131, "kensington": 17775, "catfish": 23723, "##cola": 26289, "director": 2472, "\u092d": 1330, "afar": 28978, "##ug": 15916, "\u2261": 1607, "##age": 4270, "understand": 3305, "1728": 26833, "marquess": 17391, "grey": 4462, "mentioned": 3855, "feminist": 10469, "##red": 5596, "incorporates": 12374, "stroke": 6909, "##ters": 7747, "regulation": 7816, "##\u56d7": 30323, "surveillance": 9867, "harm": 7386, "maintenance": 6032, "gertrude": 18734, "martha": 9246, "centimetres": 13935, "focused": 4208, "jp": 16545, "##\u0dbb": 29941, "petrol": 17141, "can": 2064, "massage": 21881, "twists": 21438, "##face": 12172, "zaragoza": 25744, "goalkeeper": 9653, "centuries": 4693, "##ural": 11137, "leland": 27134, "##tai": 15444, "##llo": 7174, "configured": 26928, "smoothly": 15299, "prominently": 14500, "##dc": 16409, "volcano": 12779, "##\u653f": 30386, "331": 27533, "nouvelle": 25207, "popping": 20095, "[unused737]": 742, "express": 4671, "52": 4720, "##town": 4665, "##mouth": 14359, "[unused768]": 773, "facade": 8508, "##ox": 11636, "adjust": 14171, "mildred": 25452, "grasslands": 26183, "hail": 16889, "chevrolet": 14724, "##mir": 14503, "sub": 4942, "26": 2656, "gladys": 22386, "##gon": 7446, "incarnation": 15715, "##iza": 21335, "knights": 7307, "orbits": 20347, "beetle": 7813, "\u3092": 1690, "attractions": 13051, "knocking": 10591, "teased": 13074, "530": 23523, "stupid": 5236, "##\u307f": 30204, "steamer": 18027, "[unused300]": 305, "##rne": 12119, "answering": 10739, "jacksonville": 13057, "##hg": 25619, "slow": 4030, "overall": 3452, "grit": 24842, "ernesto": 22428, "lovely": 8403, "knows": 4282, "238": 22030, "weaken": 23021, "doses": 21656, "insufficient": 13990, "##aking": 15495, "adventurous": 29118, "ep": 4958, "beverages": 21705, "nanjing": 21455, "fungi": 15289, "##oney": 17791, "swirled": 19171, "[unused29]": 30, "boris": 11235, "legs": 3456, "explain": 4863, "##olic": 23518, "watt": 15231, "flared": 14937, "federal": 2976, "drank": 10749, "##gau": 20420, "rna": 12987, "##iger": 17071, "##beat": 19442, "flipping": 18497, "##stems": 29189, "##\u02bb": 29711, "crawled": 12425, "##60": 16086, "tbilisi": 22406, "mozart": 13177, "drills": 28308, "saint": 3002, "sucking": 13475, "hawke": 24882, "assignments": 14799, "nicaragua": 15448, "algeria": 11337, "milan": 6954, "##\u0dc0": 29943, "dock": 8946, "ends": 4515, "##max": 17848, "cinematographer": 19245, "ff": 21461, "\u09ae": 1370, "heel": 12073, "meat": 6240, "##rdan": 26992, "well": 2092, "kowalski": 28874, "dodged": 28339, "giggling": 21783, "inches": 5282, "tradition": 4535, "bats": 12236, "sox": 9175, "mono": 18847, "200": 3263, "deprived": 17676, "##nig": 25518, "vamps": 24064, "donovan": 12729, "fulbright": 26695, "##\u662d": 30394, "atop": 10234, "1692": 28622, "sport": 4368, "##\u3063": 30189, "##shaft": 25679, "flies": 10029, "[unused3]": 4, "boxed": 27554, "efforts": 4073, "mistaken": 13534, "##iest": 10458, "protestants": 19592, "hoarse": 21221, "deadly": 9252, "[unused351]": 356, "burmese": 14468, "cafe": 7668, "technology": 2974, "removal": 8208, "##kill": 15872, "davies": 9082, "suspicion": 10928, "mixer": 23228, "##8th": 28264, "mail": 5653, "tendencies": 20074, "##nl": 20554, "##\u308b": 30213, "##\u00a7": 29650, "##lder": 16502, "##uled": 18696, "\u0443": 1198, "once": 2320, "\u30fb": 1738, "combatants": 26622, "[unused531]": 536, "universally": 21186, "knight": 5000, "69": 6353, "statue": 6231, "##bot": 18384, "yves": 19687, "dragged": 7944, "cinnamon": 21229, "umm": 26114, "semiconductor": 20681, "bolivian": 26075, "informing": 21672, "handicapped": 26920, "bourgeois": 22846, "\u1d4f": 1501, "suggesting": 9104, "##vira": 24093, "##ption": 16790, "phone": 3042, "insult": 15301, "eduardo": 14846, "succeeding": 13034, "helpful": 14044, "viz": 26619, "##ified": 7810, "craven": 21232, "applicable": 12711, "##\u222a": 30132, "cupped": 13740, "eroded": 23300, "hummed": 26747, "iii": 3523, "encompassing": 19129, "##rel": 16570, "##oven": 25592, "libya": 12917, "[unused384]": 389, "ewing": 24023, "harmonic": 19452, "realising": 27504, "agriculture": 5237, "begged": 12999, "tossing": 15021, "##valent": 24879, "jurist": 22757, "barrow": 15355, "scramble": 25740, "264": 21611, "wood": 3536, "treaties": 16013, "##ryl": 23320, "bohemian": 18063, "prevailing": 19283, "transfer": 4651, "##itt": 12474, "revenues": 12594, "1880s": 12751, "solution": 5576, "penelope": 18641, "burundi": 28836, "##bson": 27355, "simulations": 24710, "cryptic": 26483, "osborne": 16732, "anhalt": 27088, "bravo": 17562, "watching": 3666, "\u0dbd": 1406, "##\u5f35": 30370, "dutton": 28784, "224": 19711, "licensing": 13202, "alonso": 17649, "basis": 3978, "batteries": 10274, "cds": 14340, "lombardy": 27728, "##es": 2229, "karel": 28021, "vocals": 2955, "attributed": 7108, "participant": 13180, "strokes": 13692, "stays": 12237, "garfield": 20170, "##\u7f8e": 30461, "adoption": 9886, "##roller": 26611, "##pta": 22799, "fairs": 21947, "fuller": 12548, "thrill": 16959, "outraged": 23558, "search": 3945, "##etti": 18319, "compete": 5566, "entire": 2972, "maintain": 5441, "##eng": 13159, "defences": 16828, "##tri": 18886, "352": 28906, "horace": 12757, "##work": 6198, "##brand": 23544, "rebound": 27755, "reacher": 22970, "spokesperson": 15974, "beginning": 2927, "\u1d64": 1509, "##lean": 20898, "implementing": 14972, "##lands": 8653, "competitors": 10159, "into": 2046, "##ressed": 16119, "deepened": 20183, "limited": 3132, "##k": 2243, "aspiring": 22344, "##iner": 26455, "\u0932": 1334, "granddaughter": 12787, "vie": 20098, "warehouses": 23319, "##mei": 26432, "hugged": 10308, "sucks": 19237, "giovanni": 9136, "pregnancy": 10032, "decoration": 11446, "1753": 23810, "prophecy": 14951, "##idi": 28173, "mile": 3542, "audiences": 9501, "bs": 18667, "reiterated": 28960, "##\u516b": 30297, "lets": 11082, "mighty": 10478, "##\u4e95": 30280, "electronics": 8139, "conductor": 7589, "void": 11675, "tour": 2778, "##mering": 27851, "pandora": 19066, "##rky": 15952, "phrases": 15672, "##lding": 24573, "tones": 12623, "graffiti": 17990, "different": 2367, "pigment": 28815, "defendant": 13474, "consideration": 9584, "climbs": 18881, "padres": 21577, "thrash": 27042, "##\u308a": 30212, "##\u03c2": 19579, "whitehall": 28361, "solar": 5943, "##\u1166": 30009, "groove": 14100, "acting": 3772, "cabinets": 20053, "floyd": 12305, "computational": 15078, "tormented": 29026, "##grass": 19673, "depended": 17292, "questionable": 21068, "##\u044d": 29756, "shown": 3491, "military": 2510, "bury": 11010, "encoding": 17181, "\u3066": 1665, "1764": 21488, "welterweight": 20882, "herr": 23506, "brave": 9191, "jessica": 8201, "##ster": 6238, "rusty": 13174, "gang": 6080, "##ule": 9307, "##\u0940": 29878, "culturally": 20547, "perception": 10617, "clicks": 29225, "sentencing": 23280, "domino": 23968, "monsters": 9219, "terribly": 16668, "relations": 4262, "glistening": 25203, "hut": 12570, "sofa": 10682, "##riders": 28116, "##\u044c": 23742, "griffin": 9258, "horse": 3586, "contracting": 21012, "##nent": 21576, "##ites": 7616, "##oid": 9314, "fresno": 20840, "hormone": 18714, "##bell": 17327, "giving": 3228, "finley": 29194, "fifty": 5595, "##oran": 18842, "instances": 12107, "reckon": 29072, "selangor": 28904, "##hila": 26415, "dazed": 19720, "[unused39]": 40, "parked": 9083, "looked": 2246, "emancipation": 22656, "greenfield": 26713, "commenced": 8420, "canal": 5033, "sums": 20571, "vickers": 18571, "indefinite": 25617, "parishes": 11600, "##aly": 20766, "romania": 6339, "ranges": 8483, "1887": 6837, "prey": 8336, "snooker": 26448, "mild": 10256, "##hear": 26560, "waist": 5808, "ions": 15956, "##tip": 25101, "sharing": 6631, "destructive": 15615, "##coe": 16288, "prompted": 9469, "elemental": 19529, "click": 11562, "albanian": 9408, "default": 12398, "257": 24368, "pizza": 10733, "lee": 3389, "juniors": 16651, "euroleague": 26093, "tempest": 22553, "lt": 8318, "[unused458]": 463, "statistics": 6747, "prisoner": 7267, "religion": 4676, "label": 3830, "##emon": 26941, "\u1161": 1470, "dil": 29454, "##urbed": 29595, "workshops": 9656, "recurring": 10694, "arching": 27335, "enables": 12939, "##ight": 18743, "censorship": 15657, "##nton": 15104, "matched": 10349, "explorers": 19264, "##ashi": 12914, "centred": 16441, "stunt": 15412, "woo": 15854, "betray": 20895, "\u7ae0": 1932, "oversaw": 14105, "[unused773]": 778, "cora": 17195, "tau": 19982, "##\u207f": 30080, "\u201a": 1522, "doubled": 11515, "##rard": 25561, "rub": 14548, "[unused609]": 614, "##atal": 27815, "including": 2164, "derivation": 29280, "cylindrical": 18797, "weighed": 12781, "501": 16202, "encompassed": 24058, "exist": 4839, "prank": 26418, "soc": 27084, "om": 18168, "reply": 7514, "gilded": 23880, "heal": 11005, "cooperative": 10791, "gasped": 8535, "rihanna": 25439, "##eia": 27958, "bronze": 4421, "\u5e73": 1839, "mongolian": 17855, "armenia": 10110, "[unused676]": 681, "##\u0939": 29875, "blond": 8855, "slapping": 22021, "ink": 10710, "##\u063a": 29831, "reunited": 11653, "docking": 25776, "sabres": 26969, "develop": 4503, "bumped": 19030, "guzman": 22789, "trickle": 26027, "##\u20b9": 30104, "compare": 12826, "##itude": 18679, "synod": 15374, "lan": 17595, "\u0621": 1269, "##tique": 28437, "supermarkets": 26676, "libertarian": 19297, "unwilling": 15175, "muzzle": 17750, "##kaya": 20718, "##eli": 20806, "##analysis": 25902, "worship": 7425, "disciples": 17102, "\u00b4": 1084, "armchair": 29372, "1644": 23477, "individually": 14258, "##\u3009": 30164, "atomic": 9593, "coincide": 19680, "religious": 3412, "chuckles": 26088, "modernist": 19770, "alex": 4074, "poet": 4802, "motivated": 12774, "twist": 9792, "examinations": 14912, "##ho": 6806, "microscope": 24635, "luca": 15604, "##ce": 3401, "periodicals": 21855, "flux": 19251, "##ush": 20668, "##eborg": 27614, "corporate": 5971, "##sfield": 15951, "panels": 9320, "laugh": 4756, "also": 2036, "1999": 2639, "##ees": 10285, "[unused53]": 54, "allegations": 9989, "creature": 6492, "friedrich": 8896, "io": 22834, "##asi": 21369, "unauthorized": 24641, "##th": 2705, "flanks": 23547, "ramos": 18882, "##bridge": 6374, "methane": 24481, "lucha": 25390, "ounce": 19471, "\u0575": 1230, "charcoal": 18872, "417": 27519, "delaware": 8452, "subspecies": 11056, "starving": 18025, "choices": 9804, "pushes": 13956, "##mis": 15630, "rf": 21792, "blocks": 5991, "prefers": 19233, "eminent": 14953, "deviation": 24353, "period": 2558, "##\u0ba8": 29922, "##hed": 9072, "4th": 4343, "##rries": 26801, "vocalist": 8032, "##lase": 25002, "pursuant": 27081, "dimensional": 8789, "testimony": 10896, "malmo": 23643, "condor": 29260, "rhodesia": 20340, "##urgent": 27176, "leo": 6688, "wildly": 13544, "##med": 7583, "mule": 20568, "##efined": 28344, "running": 2770, "disgusting": 19424, "##ati": 10450, "heroic": 14779, "emeritus": 12372, "##\u2010": 30048, "tighter": 12347, "path": 4130, "##\u2078": 30077, "##shing": 12227, "##nius": 20447, "wall": 2813, "boarding": 9405, "[unused988]": 993, "##\u0283": 29696, "belief": 6772, "decreasing": 16922, "nazis": 13157, "cool": 4658, "##ax": 8528, "strike": 4894, "##16": 16048, "##38": 22025, "needed": 2734, "nails": 10063, "210": 12875, "##ading": 23782, "roi": 25223, "north": 2167, "embarrassed": 10339, "priscilla": 25193, "mccarthy": 12584, "##tling": 15073, "1618": 29029, "crafted": 19275, "cognition": 26497, "paris": 3000, "maud": 21696, "penalty": 6531, "passenger": 4628, "nbc": 6788, "fender": 19028, "benedict": 12122, "lankan": 16159, "establishments": 17228, "##torm": 20654, "[unused180]": 185, "shoulders": 4065, "permit": 9146, "stallion": 19122, "encore": 19493, "georgian": 9166, "[unused926]": 931, "devotion": 13347, "##\u03b7\u03c2": 29155, "hm": 20287, "##\u0927": 29862, "argent": 23157, "hoping": 5327, "scar": 11228, "##\u0686": 29840, "groans": 27778, "mandates": 25979, "##oue": 27872, "[unused536]": 541, "\u056f": 1227, "gnu": 27004, "oceans": 17401, "movements": 5750, "thread": 11689, "orphaned": 27093, "##sser": 18116, "corporation": 3840, "unmistakable": 24219, "typed": 21189, "##er": 2121, "ign": 16270, "reuben": 17294, "##estinal": 19126, "control": 2491, "earlier": 3041, "mars": 7733, "##\u30ef": 30262, "spent": 2985, "biotechnology": 20353, "angola": 13491, "##\u30ed": 30261, "notified": 19488, "##sville": 9337, "albanians": 25267, "mercer": 13081, "organization": 3029, "surround": 15161, "bb": 22861, "##icing": 23553, "boot": 9573, "monarchy": 12078, "carmichael": 23537, "nominal": 15087, "##\u20b1": 30103, "problem": 3291, "##mania": 27010, "tunis": 25317, "##wl": 13668, "instrument": 6602, "##base": 15058, "tiger": 6816, "middleweight": 18741, "tsar": 17608, "difficult": 3697, "disadvantage": 20502, "classified": 6219, "may": 2089, "mary": 2984, "cushions": 27205, "eighteen": 7763, "nobel": 10501, "beautifully": 17950, "##rified": 22618, "##\u0e40": 29959, "bonding": 19882, "randolph": 13031, "zoology": 22405, "impact": 4254, "dimension": 9812, "hussein": 16543, "monarchs": 19799, "mining": 5471, "##iques": 19516, "chu": 14684, "additionally": 5678, "handful": 9210, "peaked": 6601, "ts": 24529, "##unce": 17457, "assembly": 3320, "##isa": 14268, "twinned": 25901, "chet": 25157, "##asse": 27241, "thoughtful": 16465, "kinship": 27866, "nonfiction": 25753, "1726": 28342, "seaman": 21626, "andrews": 9261, "sergio": 13983, "julia": 6423, "##\u0634": 29825, "##rada": 28510, "elaborate": 9603, "=": 1027, "prelude": 19508, "ignition": 17446, "aerodynamic": 28033, "organised": 7362, "sabbath": 19546, "exact": 6635, "belarus": 12545, "bridges": 7346, "cheating": 16789, "##iman": 18505, "\u1167": 1474, "gaping": 21226, "##\u10d3": 29977, "carp": 29267, "willard": 19138, "sighted": 19985, "##hus": 9825, "madame": 10602, "##pala": 19636, "##mark": 10665, "##aus": 20559, "griffiths": 21960, "connected": 4198, "##is": 2483, "\u2113": 1577, "pendant": 23152, "captained": 16041, "farmland": 16439, "167": 16785, "salty": 23592, "##miento": 28883, "fi": 10882, "tangled": 14170, "[unused832]": 837, "neoclassical": 22657, "foley": 17106, "mechanisms": 10595, "reprinted": 13603, "bother": 8572, "algorithms": 13792, "##own": 12384, "brady": 10184, "fit": 4906, "##tron": 15312, "report": 3189, "middle": 2690, "##bc": 9818, "[unused510]": 515, "ground": 2598, "longitudinal": 20134, "27": 2676, "apostolic": 11815, "[unused589]": 594, "##ening": 7406, "kathryn": 20484, "snarl": 24845, "\u0648": 1298, "offenders": 19591, "##river": 24352, "faerie": 27498, "ow": 27593, "studio": 2996, "##86": 20842, "removes": 20362, "##\u028b": 29699, "##\u02e1": 29716, "reviewer": 12027, "consume": 16678, "content": 4180, "contacts": 10402, "exclaimed": 12713, "pull": 4139, "seychelles": 27438, "prague": 8634, "engulfed": 24692, "wally": 18202, "[unused990]": 995, "1808": 13040, "##eck": 11012, "collision": 12365, "vascular": 21449, "albania": 10407, "countless": 14518, "savannah": 10891, "modifying": 29226, "decided": 2787, "##ona": 7856, "messina": 27270, "##trum": 24456, "crushed": 10560, "\u5bb6": 1825, "limit": 5787, "scholar": 6288, "##idal": 16975, "oman": 16640, "disregard": 27770, "breath": 3052, "nh": 18699, "resisting": 22363, "eels": 29317, "[unused208]": 213, "plead": 25803, "covert": 19813, "franchises": 22506, "\u0e2a": 1420, "apparent": 6835, "enroll": 25612, "sir": 2909, "sweater": 14329, "sawyer": 13975, "[unused583]": 588, "fridge": 16716, "[unused446]": 451, "visitors": 5731, "aerial": 9682, "adjutant": 20690, "mata": 22640, "mortimer": 17416, "##otho": 29288, "proof": 6947, "raided": 18784, "grange": 18203, "burger": 15890, "membership": 5779, "raft": 21298, "##hoot": 23416, "alright": 10303, "scarborough": 18603, "championship": 2528, "bible": 6331, "commotion": 23960, "mall": 6670, "revolutionary": 6208, "##erine": 24226, "accurate": 8321, "millennia": 27620, "accidental": 17128, "##imov": 25299, "##mans": 15154, "mas": 16137, "##\u0582": 29785, "##mona": 21781, "hannibal": 24181, "aboriginal": 9757, "##rol": 13153, "airspace": 29357, "isolation": 12477, "cyclists": 21912, "costello": 21015, "staring": 4582, "mutual": 8203, "icy": 13580, "talent": 5848, "befriended": 23386, "\u0cb0": 1401, "acceleration": 16264, "include": 2421, "unionist": 17104, "kiev": 12100, "buck": 10131, "##fat": 27753, "effort": 3947, "rewards": 19054, "shelly": 28360, "##8": 2620, "qualifiers": 18956, "weeds": 20777, "sixteen": 7032, "bastion": 26829, "glimpse": 12185, "trade": 3119, "opined": 26084, "hip": 5099, "swell": 18370, "simi": 28684, "subdued": 20442, "refrigerator": 18097, "maxi": 21510, "bolivia": 11645, "believer": 24591, "##sboro": 25623, "##cating": 18252, "tinted": 25577, "hue": 20639, "flutes": 28453, "shooters": 28310, "output": 6434, "##nier": 14862, "che": 18178, "undergraduate": 8324, "##kin": 4939, "baseline": 26163, "attackers": 17857, "accustomed": 17730, "milo": 20359, "lineup": 10515, "[unused861]": 866, "##ovsky": 21983, "##xi": 9048, "willingly": 18110, "\u516c": 1772, "amongst": 5921, "staggering": 26233, "fall": 2991, "ye": 6300, "amphibious": 16182, "flotilla": 17150, "\u56d7": 1797, "ba": 8670, "[unused784]": 789, "allies": 6956, "pitches": 19299, "lured": 26673, "\u02bc": 1146, "##marine": 21966, "##oles": 29111, "tool": 6994, "tablet": 13855, "banned": 7917, "mountain": 3137, "compton": 18592, "recalled": 7383, "##\u203f": 30069, "signifies": 27353, "##\u90e1": 30485, "altar": 9216, "slits": 29199, "660": 20982, "\u00bc": 1091, "chests": 28717, "connect": 7532, "##pis": 18136, "kane": 8472, "sigismund": 26748, "literacy": 8433, "bets": 29475, "already": 2525, "nationalities": 24904, "[unused186]": 191, "opposition": 4559, "phonetic": 26664, "guo": 22720, "detailing": 17555, "##rist": 15061, "chips": 11772, "survivor": 12084, "market": 3006, "erie": 13374, "temper": 12178, "##ori": 10050, "\u7acb": 1931, "confronting": 26964, "##ctions": 22014, "glowed": 16497, "travelers": 15183, "planes": 9738, "doping": 23799, "railways": 7111, "hans": 7003, "pharaoh": 22089, "guests": 6368, "dylan": 7758, "parasitic": 26045, "crooked": 15274, "adele": 17623, "clutches": 29497, "adjustment": 19037, "##br": 19892, "wipe": 13387, "sue": 9790, "barney": 15377, "dave": 4913, "contra": 24528, "walkover": 17495, "shimmering": 22349, "societal": 23382, "[unused152]": 157, "gifts": 9604, "90s": 17233, "lima": 12967, "bottom": 3953, "indices": 29299, "roberts": 7031, "\u056b": 1225, "longer": 2936, "concerto": 10405, "##open": 26915, "marrow": 24960, "explanations": 17959, "review": 3319, "appreciate": 9120, "##\u1d56": 30040, "flatly": 24295, "ubiquitous": 28498, "forks": 19896, "##ping": 4691, "emmy": 10096, "indeed": 5262, "patsy": 25382, "cruises": 23986, "[unused542]": 547, "saxon": 10038, "1749": 24704, "stack": 9991, "monks": 9978, "welch": 17939, "strategic": 6143, "##lateral": 28277, "helen": 6330, "thoughts": 4301, "roberto": 10704, "##dam": 17130, "barr": 19820, "jed": 24401, "viewpoint": 21386, "\u7537": 1912, "plain": 5810, "770": 29065, "production": 2537, "##yar": 13380, "passport": 12293, "##ids": 9821, "\u76ee": 1918, "polled": 26847, "alto": 10766, "trained": 4738, "officially": 3985, "chorus": 7165, "damned": 9636, "salt": 5474, "hamid": 24811, "##pas": 19707, "district": 2212, "angular": 16108, "##\u2206": 30122, "baseball": 3598, "##less": 3238, "on": 2006, "##\u898b": 30474, "kidnapped": 11364, "ravine": 23188, "bernardino": 21370, "estrada": 26482, "advocated": 11886, "##ri": 3089, "gonzaga": 26840, "viewed": 7021, "viktor": 13489, "assisted": 7197, "mayfair": 28387, "participates": 17257, "fond": 13545, "\u062e": 1277, "bulgarian": 7643, "schumacher": 22253, "surviving": 6405, "##iography": 26535, "lend": 18496, "privilege": 14293, "67": 6163, "paddy": 16063, "##nti": 16778, "engraved": 16328, "internationally": 7587, "emi": 12495, "grimm": 24287, "mortar": 14335, "raf": 7148, "came": 2234, "dashboard": 24923, "reigning": 16323, "##path": 15069, "rifles": 9494, "facades": 28708, "##rion": 14772, "sarajevo": 18354, "##rix": 17682, "paralysis": 26287, "\u203a": 1533, "winds": 7266, "##alis": 13911, "staff": 3095, "eleventh": 11911, "##ther": 12399, "conveyed": 21527, "##rrie": 22155, "cochin": 28982, "##vera": 26061, "1711": 28455, "olds": 19457, "follow": 3582, "savanna": 22323, "coldly": 24745, "tale": 6925, "ivanov": 26333, "favorite": 5440, "penny": 10647, "36th": 21460, "fork": 9292, "##economic": 23035, "stucco": 27443, "striking": 8478, "##\u0b95": 29918, "recycling": 17874, "registered": 5068, "##\u30a6": 30222, "instruction": 7899, "percussion": 6333, "extract": 14817, "strife": 27865, "after": 2044, "separation": 8745, "pixels": 27725, "presented": 3591, "clasp": 23465, "macdonald": 10406, "##\u5c07": 30354, "reduces": 13416, "brightest": 26849, "mainly": 3701, "gymnasium": 11288, "[unused689]": 694, "specific": 3563, "shoving": 15866, "cord": 11601, "terrifying": 17082, "jerome": 11120, "wired": 17502, "clearing": 8430, "##haus": 13821, "creation": 4325, "##rine": 11467, "##yang": 12198, "voices": 5755, "curt": 20099, "geographical": 10056, "##\u0445": 29750, "##grant": 18980, "entering": 5738, "[unused631]": 636, "linguist": 22978, "[unused383]": 388, "orthodox": 6244, "shaking": 5513, "creeks": 24974, "founders": 8759, "1996": 2727, "[unused344]": 349, "catholic": 3234, "\u207a": 1544, "clouded": 26761, "shall": 4618, "bravery": 16534, "essence": 11305, "mutation": 16221, "neat": 15708, "fulfill": 13883, "badges": 23433, "ghanaian": 27202, "forrest": 16319, "formation": 4195, "##\u1102": 29992, "wicked": 10433, "0": 1014, "exceeds": 23651, "##folk": 29284, "grinding": 16153, "ride": 4536, "absolute": 7619, "##ricted": 20623, "##hin": 10606, "marcelo": 24984, "ascent": 16354, "iran": 4238, "titans": 13785, "bog": 22132, "475": 28245, "insist": 18292, "##\u30cb": 30242, "theoretical": 9373, "##aina": 27971, "5": 1019, "helmet": 10412, "1646": 28783, "boil": 26077, "midlands": 13256, "senses": 9456, "[unused181]": 186, "equals": 19635, "##\u793e": 30450, "lately": 9906, "cn": 27166, "bathing": 17573, "cows": 17188, "##\u65b9": 30389, "finger": 4344, "##stein": 8602, "galloway": 22372, "vida": 19830, "1643": 25534, "handicap": 15822, "[unused355]": 360, "atlas": 11568, "inventory": 12612, "\u0e15": 1411, "##ra": 2527, "patrice": 29527, "coincided": 18616, "writer": 3213, "shadowy": 22801, "rite": 14034, "##oj": 29147, "carthage": 21959, "terence": 22677, "[unused201]": 206, "insert": 19274, "disabled": 9776, "\u02d0": 1150, "honesty": 16718, "originally": 2761, "seventh": 5066, "##\u53f2": 30316, "dictated": 23826, "artwork": 8266, "##arat": 25879, "middlesbrough": 21655, "maybe": 2672, "produced": 2550, "scares": 29421, "\u2208": 1596, "abruptly": 9225, "[unused724]": 729, "prevent": 4652, "drip": 27304, "monitored": 17785, "pinto": 25066, "[unused153]": 158, "lake": 2697, "tragic": 13800, "meditation": 13804, "coats": 15695, "causeway": 23336, "[unused430]": 435, "nomadic": 21702, "bathroom": 5723, "thatcher": 21127, "asahi": 29465, "ultimate": 7209, "comte": 19758, "organisms": 11767, "millie": 19561, "guinea": 7102, "##iva": 11444, "ferries": 20157, "doo": 20160, "wind": 3612, "webber": 19861, "preceded": 11677, "##words": 22104, "husky": 18758, "restore": 9239, "##jon": 14339, "searching": 6575, "schwartz": 16756, "astronomers": 26357, "harrington": 19760, "santos": 11053, "insight": 12369, "lars": 16357, "creatures": 7329, "aide": 14895, "shrill": 28349, "automation": 19309, "reverend": 10547, "coconut": 16027, "[unused900]": 905, "##)": 29620, "brennan": 13962, "1928": 4662, "producers": 6443, "\u662d": 1868, "tony": 4116, "sanders": 12055, "debates": 14379, "modest": 10754, "51st": 26017, "marian": 14042, "coated": 15026, "flourished": 17893, "cocktail": 18901, "##outs": 12166, "facto": 13743, "miserable": 13736, "portage": 25140, "##rom": 21716, "figure": 3275, "glucose": 18423, "##sg": 28745, "bits": 9017, "##\u0936": 29872, "79": 6535, "vaughan": 14461, "[unused747]": 752, "gary": 5639, "sicilian": 22584, "pines": 17527, "##ik": 5480, "##kka": 15714, "aurora": 13158, "incorporating": 13543, "hilarious": 26316, "xii": 14371, "improvised": 19641, "distinguish": 10782, "listened": 7791, "exits": 16639, "sunlight": 9325, "##\u9762": 30502, "mum": 12954, "sultan": 7544, "officers": 3738, "herring": 22103, "lest": 26693, "satan": 16795, "\u30ea": 1732, "##ort": 11589, "precedent": 20056, "shoes": 6007, "grant": 3946, "copa": 10613, "custer": 28888, "charity": 5952, "blinking": 15997, "eugene": 8207, "dario": 26800, "tags": 22073, "##\u30e0": 30251, "16th": 5767, "acts": 4490, "smug": 20673, "baylor": 23950, "##\u0142": 18818, "knife": 5442, "needles": 17044, "verdi": 20580, "integrate": 17409, "traditions": 7443, "##the": 10760, "##\u0f42": 29962, "##\u06cc": 24830, "lp": 6948, "##sy": 6508, "[unused258]": 263, "##itan": 25451, "trailing": 12542, "strata": 22913, "miraculous": 26106, "innate": 25605, "\u0290": 1136, "defense": 3639, "\u00a7": 1073, "reminiscent": 14563, "boiling": 16018, "\u0dcf": 1408, "lesions": 22520, "trustee": 13209, "basketball": 3455, "cinemas": 19039, "marry": 5914, "##lund": 18028, "document": 6254, "textual": 25304, "francesco": 11400, "bafta": 22284, "rattle": 23114, "##urized": 28405, "nos": 16839, "institutions": 4896, "reconciled": 28348, "infinity": 15579, "diagonal": 19754, "splendid": 21459, "choke": 16769, "originate": 21754, "##cio": 9793, "malayalam": 12998, "##rina": 11796, "jennings": 14103, "##pe": 5051, "otto": 8064, "injury": 4544, "comedies": 22092, "etienne": 16821, "##do": 3527, "cursing": 19752, "shrewsbury": 18174, "mcleod": 25363, "##tite": 23096, "gorgeous": 9882, "collaboration": 5792, "supervising": 21238, "[unused881]": 886, "cairns": 21731, "[unused8]": 9, "\u6751": 1878, "masovian": 23703, "##mps": 25370, "controversial": 6801, "##drick": 24092, "clench": 26753, "carpenter": 10533, "##ris": 6935, "southeast": 4643, "##mbo": 13344, "instrumentalist": 29253, "columbian": 25882, "##polis": 17699, "yeah": 3398, "##turing": 16037, "amelie": 25285, "[unused94]": 95, "foam": 17952, "detector": 19034, "lays": 19764, "marta": 18950, "half": 2431, "englishman": 25244, "envisioned": 18035, "draft": 4433, "##sey": 7952, "pedal": 15749, "george": 2577, "timed": 22313, "eyeing": 19285, "america": 2637, "websites": 11744, "averaging": 14985, "quartet": 8530, "nash": 10594, "##rai": 14995, "assassin": 12025, "alternately": 23554, "##nty": 29405, "transitional": 17459, "stimulate": 23216, "50": 2753, "##rp": 14536, "implement": 10408, "sigh": 6682, "holder": 9111, "3000": 11910, "periodical": 21802, "##quil": 26147, "backstroke": 28373, "lane": 4644, "styling": 20724, "##ace": 10732, "960": 26637, "##guard": 18405, "towed": 18948, "islands": 3470, "torches": 24711, "mirage": 21483, "1717": 27525, "virus": 7865, "formulation": 20219, "brass": 8782, "detect": 11487, "10th": 6049, "##\u0e07": 29946, "laboratories": 12030, "relation": 7189, "calendar": 8094, "each": 2169, "\u2030": 1530, "mil": 23689, "stipulated": 25729, "rotterdam": 15632, "balcony": 11673, "##uron": 21017, "00": 4002, "croft": 28983, "##ngen": 25997, "##idon": 28201, "fallon": 16443, "permanently": 8642, "\u0280": 1127, "##ines": 10586, "\u05e1": 1258, "##ously": 13453, "temples": 8436, "choreography": 16967, "feminism": 20050, "divisional": 14167, "casper": 24602, "porte": 25927, "##vao": 24682, "##chment": 22729, "credible": 23411, "\u0924": 1323, "##ani": 7088, "##ich": 7033, "treatise": 15326, "pillars": 13766, "zimbabwe": 11399, "breaths": 12938, "kelvin": 24810, "##lusion": 24117, "purple": 6379, "fiesta": 24050, "##\u02e2": 29717, "##\u677e": 30406, "rested": 8614, "##gen": 6914, "biblical": 10213, "drugged": 25483, "french": 2413, "electrode": 28688, "disaster": 7071, "\u05dc": 1253, "\u72ac": 1908, "stores": 5324, "tor": 17153, "greatly": 6551, "time": 2051, "predators": 12630, "pills": 15345, "\u044d": 1208, "assumed": 5071, "[unused991]": 996, "liszt": 26273, "fascist": 14870, "rutland": 27780, "swan": 10677, "resigning": 24642, "anne": 4776, "grain": 8982, "##sta": 9153, "polymer": 17782, "scattered": 7932, "##row": 10524, "nickelodeon": 20814, "##\u30c4": 30238, "gazes": 23514, "howard": 4922, "[unused921]": 926, "sparkling": 16619, "exclusively": 7580, "\u03c8": 1178, "gonzalez": 10121, "simulated": 23599, "fourth": 2959, "heated": 9685, "bears": 6468, "sphere": 10336, "odessa": 19693, "honorary": 5756, "zombie": 11798, "##fles": 28331, "whilst": 5819, "mhz": 11413, "planting": 14685, "disagreed": 18335, "patiently": 19080, "1802": 13515, "quad": 17718, "##hard": 11783, "reinforcements": 14214, "##yna": 18279, "##ique": 7413, "cocked": 13179, "##ika": 7556, "##\u092c": 29865, "neal": 11030, "ramps": 24943, "diaz": 12526, "soloists": 27516, "mill": 4971, "huang": 15469, "twins": 8178, "[unused182]": 187, "##bilis": 27965, "rescue": 5343, "\u06cc": 1309, "##tan": 5794, "[unused396]": 401, "accounts": 6115, "fir": 21554, "initial": 3988, "husband": 3129, "ring": 3614, "sb": 24829, "##\u2500": 30142, "etymology": 26803, "stifled": 27146, "members": 2372, "\u05e6": 1263, "obvious": 5793, "madman": 28441, "##nidae": 29135, "veto": 22102, "##rman": 14515, "##\u0630": 29822, "barren": 20225, "impressed": 7622, "##bright": 26614, "easiest": 25551, "##icated": 17872, "freak": 11576, "flood": 7186, "numerous": 3365, "have": 2031, "mysore": 20761, "proximity": 10039, "trout": 13452, "##hof": 14586, "absorbed": 9063, "joyce": 11830, "mclaughlin": 23720, "mare": 11941, "##\u2295": 30139, "maids": 29229, "fen": 21713, "legally": 10142, "upscale": 28276, "[unused230]": 235, "oaxaca": 26923, "[unused447]": 452, "merged": 5314, "agreements": 10540, "holy": 4151, "disability": 11980, "farm": 3888, "transported": 9687, "ending": 4566, "henri": 8863, "##rsa": 22381, "hd": 10751, "pew": 29071, "donors": 17843, "##ege": 24746, "##arney": 25831, "goran": 28356, "protocols": 16744, "supply": 4425, "yelled": 7581, "[unused682]": 687, "leaned": 4016, "millimetres": 13388, "commissioning": 21612, "[unused47]": 48, "\u6b66": 1889, "oral": 8700, "volunteers": 7314, "karate": 16894, "freeing": 22198, "brushed": 7765, "borrowed": 11780, "southwest": 4943, "nightmare": 10103, "advertised": 17099, "sights": 15925, "##\u6b66": 30415, "choral": 14564, "basins": 22739, "tasked": 13487, "improvements": 8377, "und": 6151, "munich": 7469, "justification": 19777, "wonderful": 6919, "bored": 11471, "realises": 25924, "numerical": 15973, "rates": 6165, "999": 25897, "metz": 24424, "lev": 23310, "addressed": 8280, "napkin": 20619, "olivia": 7710, "##hema": 28433, "hatfield": 26853, "symphonic": 18957, "cleaner": 20133, "singles": 3895, "lid": 11876, "##izzly": 29266, "##ignon": 24796, "derives": 12153, "point": 2391, "crypt": 19888, "[unused48]": 49, "expansive": 25145, "##aby": 21275, "prototype": 8773, "contenders": 27236, "lviv": 23814, "##pid": 23267, "amateur": 5515, "##\u6728": 30401, "initiation": 17890, "cycle": 5402, "iec": 24940, "##ros": 7352, "mainland": 8240, "prevailed": 19914, "remarkably": 17431, "gables": 27008, "##udi": 21041, "math": 8785, "lords": 8140, "newcastle": 8142, "dunkirk": 29467, "detrimental": 29172, "##\u3078": 30201, "##ska": 8337, "moreover": 9308, "##\u09bf": 29915, "teachings": 12209, "correctly": 11178, "costumes": 12703, "alexia": 21683, "ortega": 25859, "should": 2323, "suites": 19796, "colors": 6087, "##ulf": 21007, "blindness": 26290, "plumage": 28764, "robbers": 28019, "turrets": 21088, "##\u00b4": 29658, "stir": 16130, "changes": 3431, "was": 2001, "##oshi": 24303, "forbes": 10822, "kitten": 18401, "laurie": 16450, "rte": 20375, "logging": 15899, "##\u5bae": 30350, "mughal": 17877, "bulk": 9625, "[unused837]": 842, "##\u2083": 11622, "nigel": 12829, "##\u6bd4": 30416, "##ndi": 16089, "un": 4895, "restroom": 28249, "transition": 6653, "##mour": 20360, "flanking": 24958, "domination": 17882, "spaceship": 25516, "deprivation": 29516, "##vc": 25465, "clarified": 20485, "linux": 11603, "##atz": 20501, "##let": 7485, "shield": 6099, "scooted": 24289, "\u548c": 1796, "celaena": 29252, "jiang": 20613, "fuzzy": 18001, "dh": 28144, "poured": 8542, "##uri": 9496, "##itis": 13706, "evicted": 25777, "[unused646]": 651, "bedrooms": 18390, "##\u30af": 30228, "##ctor": 16761, "##pati": 24952, "finish": 3926, "socialism": 14649, "crew": 3626, "pile": 8632, "switches": 15924, "rescued": 10148, "surpassing": 27097, "[unused398]": 403, "cliffs": 13333, "uv": 23068, "everett": 15160, "europa": 12124, "tourists": 9045, "louis": 3434, "##\u09b9": 29913, "162": 17832, "investigation": 4812, "ambiguity": 27637, "##nor": 12131, "committed": 5462, "squeak": 29552, "interpretations": 15931, "seemed": 2790, "violence": 4808, "kn": 14161, "1950": 3925, "nervously": 12531, "trainer": 10365, "breakthrough": 12687, "##eed": 13089, "islamabad": 26905, "\u0570": 1228, "darting": 24567, "assaulted": 17536, "1732": 27582, "##hak": 20459, "pounds": 7038, "##\u1105": 29994, "internally": 16058, "##sso": 24137, "fcc": 14420, "wider": 7289, "##urer": 27595, "sutra": 26567, "sticky": 15875, "[unused903]": 908, "blanco": 20036, "##oso": 19137, "##region": 23784, "thrilling": 26162, "warp": 24136, "standardized": 16367, "\u0634": 1283, "flaps": 26570, "kei": 26679, "chants": 29534, "sailed": 7434, "manipulated": 20063, "buddy": 8937, "engineering": 3330, "##udeau": 27627, "representing": 5052, "##ision": 19969, "aye": 13442, "\u4e0a": 1742, "narrowing": 21978, "hurried": 9520, "sleepy": 17056, "##wart": 18367, "roach": 20997, "##urities": 29366, "##\u2202": 30120, "forceful": 28552, "popularity": 6217, "superintendent": 9133, "georgetown": 12982, "step": 3357, "re": 2128, "knocked": 6573, "##cum": 24894, "tribune": 10969, "1948": 3882, "warehouse": 9746, "astronauts": 25881, "fighters": 7299, "fuse": 19976, "rugged": 17638, "bulging": 27569, "intersection": 6840, "hades": 23003, "loud": 5189, "captures": 19566, "authorities": 4614, "bogota": 21240, "albert": 4789, "fairbanks": 24502, "best": 2190, "##crat": 23185, "pools": 12679, "enjoyable": 22249, "towering": 20314, "arenas": 26434, "9th": 6280, "##pole": 15049, "antony": 16262, "##lini": 22153, "blade": 6085, "twelve": 4376, "##\u90fd": 30487, "##tens": 25808, "abbess": 28010, "[unused417]": 422, "implies": 12748, "##liffe": 27931, "[unused962]": 967, "elected": 2700, "wear": 4929, "##\u77f3": 30448, "miller": 4679, "[unused440]": 445, "crossings": 20975, "##ior": 25346, "inlet": 15824, "abolished": 8961, "##qa": 19062, "glamorgan": 23861, "innings": 7202, "remarked": 10783, "##3d": 29097, "goalscorer": 28602, "doorbell": 25422, "##pen": 11837, "##\u9547": 30492, "ascension": 18071, "spelled": 11479, "\u6587": 1861, "panda": 25462, "##rued": 28551, "algorithm": 9896, "sails": 17553, "sikh": 17246, "mathematicians": 29374, "adolescents": 25947, "##\u30cf": 30244, "29th": 16318, "instruments": 5693, "##sed": 6924, "overtime": 12253, "1830s": 20400, "meaningful": 15902, "##lyn": 9644, "520": 19611, "bias": 13827, "mccartney": 15320, "monastic": 17361, "##ily": 6588, "desired": 9059, "smackdown": 22120, "katharine": 25739, "economics": 5543, "##naut": 24619, "limitation": 22718, "##nea": 22084, "ecclesiastical": 12301, "##hma": 22444, "\u0574": 1229, "[unused492]": 497, "##tively": 25499, "peered": 10757, "pathogen": 26835, "violating": 20084, "##rata": 14660, "[unused686]": 691, "hesitant": 20221, "landings": 16805, "##eb": 15878, "occult": 27906, "hive": 26736, "buckled": 26368, "ants": 16111, "06": 5757, "kaufman": 23699, "chop": 24494, "##sburg": 9695, "environmentally": 25262, "fantastic": 10392, "nadu": 10703, "presently": 12825, "paintings": 5265, "##ept": 23606, "lifted": 4196, "##iled": 18450, "##eding": 17819, "grimaced": 19014, "targeting": 14126, "illustrate": 19141, "warrington": 23051, "analytical": 17826, "appetite": 18923, "brightly": 14224, "wheeling": 29142, "blackwell": 18776, "mold": 18282, "159": 18914, "low": 2659, "jonas": 10680, "aground": 29406, "##\u4e3b": 30273, "##leaf": 19213, "exterior": 8829, "narrows": 25142, "scraping": 23704, "movement": 2929, "blooms": 29037, "purpose": 3800, "posthumous": 19086, "##ested": 17944, "nutrient": 26780, "delivers": 18058, "pilots": 8221, "kerala": 8935, "##dham": 17661, "schubert": 24645, "karin": 24537, "beatles": 11555, "layne": 22452, "offense": 10048, "gottfried": 26142, "polish": 3907, "potato": 14557, "##iring": 24771, "theatres": 13166, "neither": 4445, "##\u535a": 30312, "slower": 12430, "bilateral": 17758, "##\u4ee3": 30286, "bearded": 23905, "interesting": 5875, "\u0250": 1109, "sweet": 4086, "reportedly": 7283, "input": 7953, "pat": 6986, "guerre": 24613, "beyonce": 20773, "[unused820]": 825, "buren": 29470, "declaration": 8170, "##ning": 5582, "modified": 6310, "marche": 28791, "slap": 14308, "##fare": 17883, "corinne": 26879, "prefer": 9544, "##\u9053": 30483, "[unused490]": 495, "type": 2828, "contact": 3967, "##osed": 24768, "xinjiang": 25904, "ze": 27838, "flattened": 16379, "[unused326]": 331, "calculations": 16268, "valkyrie": 26696, "##dai": 21351, "##dek": 24463, "##\u5c0f": 30355, "joseph": 3312, "shocked": 7135, "##yne": 9654, "distinguishing": 20852, "manage": 6133, "yukon": 19898, "keyboardist": 20173, "received": 2363, "##\u221e": 30128, "##\u306b": 30194, "\u1162": 1471, "command": 3094, "rings": 7635, "deal": 3066, "if": 2065, "explorer": 10566, "alf": 24493, "117": 12567, "inland": 9514, "rudolph": 18466, "shrubs": 18812, "remained": 2815, "devastating": 14886, "breathe": 7200, "##md": 26876, "mentally": 10597, "kelsey": 21004, "bea": 26892, "jc": 29175, "##ales": 23266, "excel": 24970, "\u10d1": 1439, "##oria": 11069, "becker": 15309, "##rry": 12244, "bars": 6963, "1908": 5316, "freud": 19338, "statements": 8635, "installation": 8272, "flynn": 13259, "ritual": 8887, "##nob": 25083, "##\u0291": 29703, "ignore": 8568, "concludes": 14730, "simple": 3722, "##rzburg": 29136, "pune": 16920, "exceptional": 11813, "##hopper": 27330, "[unused833]": 838, "eyes": 2159, "underworld": 13607, "fired": 5045, "50th": 12951, "yokohama": 20507, "##ios": 10735, "1906": 5518, "suffrage": 15178, "bullying": 18917, "##quin": 12519, "uttar": 14940, "fluctuations": 28892, "##roi": 26692, "declining": 13993, "onboard": 27120, "[unused562]": 567, "shocking": 16880, "he": 2002, "replication": 21647, "guyana": 18786, "funded": 6787, "eh": 15501, "##ista": 11921, "their": 2037, "harriet": 14207, "margin": 7785, "faulty": 28927, "postdoctoral": 29272, "##&": 29617, "##gic": 12863, "business": 2449, "1838": 9931, "guitars": 7334, "adelaide": 7364, "mendes": 27916, "##logy": 6483, "fed": 7349, "##hor": 16368, "afghan": 12632, "mercenary": 22146, "bingo": 27137, "urdu": 12454, "ceiling": 5894, "storms": 12642, "easton": 21636, "bundesliga": 14250, "garrett": 9674, "wakes": 17507, "##ancy": 11656, "##\u2030": 30065, "##pack": 23947, "ought": 11276, "abnormal": 19470, "hoisted": 27269, "persecuted": 27666, "bypass": 11826, "brands": 9639, "parents": 3008, "apply": 6611, "##oslav": 23085, "##to": 3406, "gets": 4152, "##dorf": 11592, "uneasy": 15491, "witty": 25591, "mo": 9587, "##mble": 19661, "throughout": 2802, "##shore": 19208, "beliefs": 9029, "metadata": 27425, "mira": 18062, "nominate": 23388, "##quet": 12647, "roles": 4395, "chemist": 15535, "cages": 27157, "tore": 9538, "taught": 4036, "##pi": 8197, "##bing": 10472, "##yen": 20684, "##lley": 25105, "##ifer": 23780, "##culture": 14561, "hairs": 13606, "yoo": 26823, "determine": 5646, "creditors": 23112, "wit": 15966, "garcia": 7439, "hiking": 13039, "##\u06c1": 29845, "spying": 22624, "similarities": 12319, "guns": 4409, "respectable": 19416, "##\u0e22": 29952, "##\u0629": 19433, "sweden": 4701, "reinforce": 19444, "##gall": 22263, "due": 2349, "advertisements": 14389, "innovation": 8144, "##enting": 26951, "creating": 4526, "piloted": 27220, "seymour": 13254, "accuse": 26960, "lighthouse": 10171, "##\u05d5": 29792, "monarch": 11590, "elephant": 10777, "giuseppe": 12574, "dietary": 23444, "##ang": 5654, "planner": 24555, "dockyard": 24874, "\u2014": 1517, "response": 3433, "broadcasters": 18706, "##emi": 23238, "baskets": 25946, "kilkenny": 17131, "##pres": 28994, "\u9762": 1976, "deputy": 4112, "isa": 18061, "immediate": 6234, "9": 1023, "castile": 15656, "[unused268]": 273, "routledge": 21180, "bidding": 17534, "committing": 16873, "oxygen": 7722, "\u1d62": 1507, "communicate": 10639, "norton": 10770, "aesthetics": 20749, "doubts": 13579, "severn": 24753, "##orin": 28741, "##iving": 14966, "sporadic": 24590, "415": 24690, "##lining": 16992, "##ps": 4523, "dana": 11271, "distrust": 29245, "textures": 29343, "owner": 3954, "fame": 4476, "talon": 19048, "costly": 17047, "gentry": 20262, "settlements": 7617, "nickname": 8367, "bram": 20839, "##tch": 10649, "cyclone": 11609, "wellness": 25860, "##ution": 13700, "##yson": 25385, "##ulation": 9513, "derived": 5173, "gear": 6718, "available": 2800, "orchestras": 19505, "regimes": 25228, "catcher": 13795, "men": 2273, "optical": 9380, "usd": 13751, "alderman": 18977, "##\u11af": 30022, "ochreous": 23474, "instead": 2612, "cruising": 22206, "monty": 18446, "##41": 23632, "karim": 25461, "vest": 17447, "biographer": 17121, "##zle": 29247, "circular": 8206, "stature": 21120, "273": 25371, "##verted": 26686, "jul": 21650, "engineered": 13685, "swiped": 24452, "##\u1103": 29993, "[unused601]": 606, "enzymes": 16285, "mayfield": 27224, "posting": 14739, "russia": 3607, "alerted": 22333, "whistled": 26265, "authors": 6048, "furthermore": 7297, "asphalt": 16295, "homosexuality": 15949, "dwarf": 11229, "##ip": 11514, "##sul": 23722, "horn": 7109, "urban": 3923, "coincidentally": 27542, "married": 2496, "01": 5890, "##\u043a": 23925, "headquarters": 4075, "paint": 6773, "sand": 5472, "upgrades": 18739, "nano": 28991, "##i": 2072, "440": 17422, "lastly": 22267, "plush": 27729, "elderly": 9750, "telugu": 12180, "noticeable": 17725, "pup": 26781, "##lor": 10626, "##cence": 29320, "bear": 4562, "build": 3857, "##stock": 14758, "dash": 11454, "corporal": 14265, "##oton": 25862, "pancakes": 28470, "wilkins": 22745, "graphs": 19287, "##ring": 4892, "sammy": 14450, "##inga": 28234, "concern": 5142, "##mise": 28732, "humans": 4286, "kant": 26044, "distances": 12103, "inserted": 12889, "1720": 23535, "kala": 26209, "cohen": 9946, "townland": 23635, "changing": 5278, "sufi": 21845, "chin": 5413, "##ffa": 20961, "peck": 18082, "meals": 12278, "knock": 7324, "[unused906]": 911, "everybody": 7955, "boiler": 15635, "[unused959]": 964, "laval": 26205, "##powered": 27267, "marine": 3884, "bingham": 24579, "letters": 4144, "syracuse": 11736, "jews": 5181, "##\u25a0": 30144, "challenging": 10368, "midst": 12930, "historians": 7862, "nominations": 9930, "aggregator": 24089, "northward": 17192, "ordained": 9492, "rose": 3123, "ambitious": 12479, "prophets": 23172, "beams": 13110, "\u3068": 1666, "##\u4f0a": 30288, "##rdy": 17460, "viii": 9937, "remedy": 19519, "##nar": 11802, "sherman": 11011, "shards": 23327, "assault": 6101, "diet": 8738, "invisible": 8841, "vance": 16672, "silver": 3165, "annie": 8194, "borneo": 15688, "pc": 7473, "sherlock": 20052, "iraqi": 8956, "1688": 24082, "sitcom": 13130, "[unused34]": 35, "cowan": 25752, "##nya": 17238, "researching": 20059, "contempt": 17152, "estonia": 10692, "sava": 28350, "transvaal": 28336, "kb": 21677, "someday": 13834, "riaa": 22716, "working": 2551, "##ll": 3363, "mangrove": 29340, "adult": 4639, "\u03c0": 1170, "distant": 6802, "favourite": 8837, "automatically": 8073, "##ulla": 22187, "defined": 4225, "addiction": 13449, "fiona": 13073, "[unused981]": 986, "inducing": 29290, "56": 5179, "important": 2590, "fastest": 7915, "spared": 16891, "##tters": 24168, "##oured": 16777, "##hab": 25459, "editing": 9260, "vietnamese": 9101, "verlag": 14552, "rolls": 9372, "linguistics": 15397, "dining": 7759, "greedy": 20505, "surf": 14175, "bumps": 18548, "darted": 14051, "bahn": 17392, "restrict": 21573, "johnson": 3779, "brooding": 28902, "##nte": 10111, "vast": 6565, "##rland": 18324, "##arns": 23549, "gregor": 16973, "##you": 29337, "styx": 21856, "1972": 3285, "complications": 12763, "antics": 27440, "##\u026f": 29688, "alike": 11455, "##eration": 16754, "pavilion": 10531, "##lden": 28476, "tackles": 10455, "##dine": 10672, "awakened": 20256, "##raph": 24342, "dome": 8514, "slowing": 18068, "anglo": 7819, "peters": 12420, "\u826f": 1938, "##llie": 23697, "tracked": 12808, "structural": 8332, "fees": 9883, "golden": 3585, "geology": 13404, "##anus": 20849, "##\u2606": 30148, "##\u0111": 29671, "elijah": 14063, "pdf": 11135, "\u045b": 1217, "varieties": 9903, "keystone": 22271, "\u211d": 1579, "tehsil": 20751, "govern": 21208, "sandwiches": 22094, "\u0679": 1301, "elizabeth": 3870, "##oss": 15094, "\u9053": 1957, "##\u27e9": 30156, "door": 2341, "[unused674]": 679, "##12": 12521, "biennale": 21140, "##ception": 24422, "oriental": 11481, "sinks": 23462, "bengals": 23227, "shop": 4497, "scenarios": 16820, "del": 3972, "hector": 10590, "submitted": 7864, "galleries": 11726, "cardiovascular": 22935, "sexual": 4424, "pursuit": 8463, "regained": 11842, "britannia": 24677, "kenyan": 20428, "pops": 16949, "##race": 22903, "confined": 12302, "pick": 4060, "rosemary": 18040, "catalonia": 16711, "corsica": 27047, "##elis": 29282, "shuffle": 23046, "##burgh": 15496, "iata": 9833, "haunt": 24542, "onslaught": 28644, "curved": 9203, "kern": 22762, "montagu": 26241, "romero": 18290, "foreign": 3097, "roar": 11950, "cellular": 12562, "##itor": 15660, "kingston": 9803, "ached": 15043, "blamed": 11248, "downloads": 22956, "bipolar": 29398, "van": 3158, "reclaimed": 23119, "depth": 5995, "1851": 8792, "beaumont": 16210, "andrew": 4080, "surrendered": 10795, "##point": 8400, "mercy": 8673, "capture": 5425, "##\u5dff": 30363, "stalks": 29594, "mega": 13164, "ministerial": 18645, "fontana": 27182, "thierry": 26413, "contracts": 8311, "##\u0431": 29740, "[unused271]": 276, "\u4e95": 1754, "[unused299]": 304, "childhood": 5593, "##puted": 29462, "skeleton": 13526, "renamed": 4096, "terrain": 9291, "##\\": 29635, "visitation": 28877, "##kney": 26993, "woodland": 11051, "[unused222]": 227, "lia": 22393, "##ore": 5686, "catalan": 13973, "governance": 10615, "playback": 18245, "harmony": 9396, "1770": 17711, "[unused257]": 262, "[unused330]": 335, "##\u8ecd": 30481, "[unused293]": 298, "[unused821]": 826, "53": 5187, "prairie": 10996, "certainly": 5121, "\u09a4": 1362, "[unused71]": 72, "urgent": 13661, "coloration": 28757, "##gle": 9354, "founded": 2631, "chopped": 24881, "kinds": 7957, "lgbt": 12010, "ramsay": 19460, "wool": 12121, "penguin": 13987, "collided": 17745, "autonomous": 8392, "goldsmith": 22389, "##onis": 27296, "blushing": 25771, "borrow": 17781, "##table": 10880, "cope": 11997, "##\u5fc3": 30375, "##carriage": 21539, "platforms": 7248, "[unused502]": 507, "playwright": 11170, "##rkin": 26891, "region": 2555, "1903": 5778, "confirming": 19195, "remains": 3464, "##kura": 28260, "delegate": 11849, "##\u5317": 30307, "[unused753]": 758, "1871": 7428, "khan": 4967, "declaring": 13752, "bbc": 4035, "ina": 27118, "scribe": 27789, "antwerp": 14003, "durable": 25634, "1878": 7261, "pretended": 14688, "pac": 14397, "##uration": 18924, "##gra": 17643, "lending": 18435, "##may": 27871, "##\u10d4": 29978, "##\u30e2": 30253, "turkic": 22926, "beta": 8247, "##\u09a4": 29898, "services": 2578, "solomon": 9168, "immigrants": 7489, "lyle": 21971, "\u0445": 1200, "marathi": 18388, "scandal": 9446, "bourne": 15803, "##\u05e1": 29804, "stuff": 4933, "systemic": 22575, "[unused178]": 183, "abstraction": 24504, "wrist": 7223, "manila": 9011, "##\u0292": 29704, "subscription": 15002, "bakery": 18112, "fabrics": 25123, "mercenaries": 19331, "conversion": 7584, "headlights": 18167, "jubilee": 13078, "##urt": 19585, "humble": 15716, "\u09ad": 1369, "continent": 9983, "supervision": 10429, "johannes": 12470, "chen": 8802, "retracted": 28214, "civilizations": 24784, "198": 20003, "guessing": 16986, "domains": 13100, "##ca": 3540, "##olf": 28027, "hoover": 17443, "##ulton": 22145, "\u05e9": 1266, "hollywood": 5365, "action": 2895, "gibbons": 22194, "holden": 9988, "##\u2098": 30096, "rockies": 22366, "consuming": 15077, "sony": 8412, "peugeot": 26385, "widowed": 22874, "physical": 3558, "enchanted": 22454, "developing": 4975, "narrow": 4867, "drumming": 22980, "be": 2022, "##\u1d30": 30028, "demo": 9703, "mesopotamia": 25889, "televised": 13762, "##urs": 9236, "pedestrians": 24946, "ferrer": 28390, "supper": 15264, "communication": 4807, "lining": 14834, "relinquished": 26566, "ohio": 4058, "driver": 4062, "find": 2424, "swedish": 4467, "needy": 23927, "manhattan": 7128, "enveloped": 25407, "1832": 10212, "a2": 22441, "juvenile": 11799, "152": 15017, "seals": 13945, "##\u043d\u0430": 19865, "##\u5c1a": 30356, "concentrations": 14061, "##\u1161": 30006, "aesthetic": 12465, "unfit": 29439, "\u2282": 1610, "tides": 22487, "maddox": 22730, "exception": 6453, "shipment": 22613, "##ien": 9013, "superficial": 23105, "canoe": 14347, "\u09b7": 1375, "shells": 10986, "seeming": 16064, "surprisingly": 10889, "stale": 26729, "delighted": 15936, "peter": 2848, "chalmers": 29069, "intuition": 26406, "mecklenburg": 22007, "chan": 9212, "ode": 24040, "nipples": 28124, "info": 18558, "justice": 3425, "beth": 7014, "randy": 9744, "201": 16345, "violated": 14424, "crunch": 24514, "unsuccessful": 7736, "bel": 19337, "##\u00ac": 29655, "adapted": 5967, "ll": 2222, "maddy": 20789, "##iers": 10136, "sadly": 13718, "sling": 27076, "marsden": 29558, "##weather": 28949, "token": 19204, "musicians": 5389, "invites": 18675, "demise": 13614, "music": 2189, "verbs": 16025, "terre": 25170, "bile": 23974, "php": 25718, "financial": 3361, "submarine": 6982, "babylon": 17690, "\u65e5": 1864, "your": 2115, "minnesota": 5135, "##dal": 9305, "##nstein": 15493, "tempted": 16312, "##etano": 28752, "##gold": 21270, "everyday": 10126, "manga": 8952, "thai": 7273, "##cam": 28727, "[unused688]": 693, "jealousy": 14225, "acquiring": 13868, "confirms": 23283, "##\u667a": 30395, "alfa": 22989, "elbows": 13690, "aggregate": 9572, "##fusion": 20523, "##bury": 4917, "ant": 14405, "redundant": 21707, "daytona": 18226, "##rup": 21531, "rugby": 4043, "vanessa": 13226, "gunshot": 22077, "##\u02d0": 23432, "villagers": 11904, "crap": 10231, "hotspur": 25985, "##balls": 18510, "##izing": 6026, "shaft": 9093, "telescopes": 28026, "##bbed": 15499, "lightning": 7407, "direction": 3257, "taekwondo": 28529, "\u66f2": 1870, "##bler": 16213, "##lco": 22499, "te": 8915, "##ailing": 29544, "2002": 2526, "##ose": 9232, "recommend": 16755, "fifteen": 5417, "coop": 21859, "\u8fb6": 1956, "intersecting": 27294, "stay": 2994, "##\u5e78": 30367, "download": 8816, "sect": 17831, "nippon": 19364, "consolidation": 17439, "fantasy": 5913, "[unused696]": 701, "defining": 12854, "clearly": 4415, "buzzed": 21377, "retorted": 24056, "premium": 12882, "wal": 24547, "1893": 6489, "bum": 26352, "dough": 23126, "jarrett": 24503, "banging": 22255, "##\u1d62": 19109, "##end": 10497, "jasper": 14791, "tack": 26997, "adams": 5922, "##\u2194": 30115, "metaphysical": 29081, "ward": 4829, "abuse": 6905, "pluto": 26930, "\u0f0d": 1425, "bikini": 20345, "treating": 12318, "cousins": 12334, "biennial": 20313, "excuse": 8016, "##ayton": 29319, "oct": 13323, "cupboard": 25337, "spec": 28699, "##lence": 22717, "forced": 3140, "proclaimed": 10116, "##usly": 27191, "\u4eac": 1755, "framed": 10366, "dominating": 21949, "heiress": 20020, "failures": 15428, "stampede": 29375, "ko": 12849, "noir": 15587, "600": 5174, "chilly": 24222, "quoting": 27394, "clutch": 15357, "costing": 22173, "1540": 27536, "connie": 16560, "melee": 27868, "aerodrome": 23843, "1680": 24621, "187": 19446, "warlord": 16579, "[unused885]": 890, "demonstrates": 16691, "pained": 22295, "pilgrims": 17992, "##graph": 14413, "[unused310]": 315, "1796": 13885, "twitched": 16767, "##\u2012": 30050, "sonny": 13584, "chaired": 12282, "crumpled": 19814, "1868": 7582, "communist": 4750, "\u00a33": 28182, "prompt": 25732, "lives": 3268, "olympia": 17096, "integers": 24028, "##iol": 20282, "concepcion": 27331, "##makers": 12088, "snyder": 17840, "hearst": 25419, "[unused809]": 814, "implementations": 24977, "section": 2930, "oversized": 21698, "extensively": 8077, "fish": 3869, "##ele": 12260, "negotiations": 7776, "visions": 12018, "carnival": 11485, "abstracts": 29474, "rutherford": 18472, "##buch": 25987, "##ome": 8462, "eddie": 5752, "\u043c": 1191, "pts": 19637, "suppressed": 13712, "secular": 10644, "1998": 2687, "turnout": 15512, "caught": 3236, "##band": 12733, "slice": 14704, "grip": 6218, "discover": 7523, "faults": 19399, "hopper": 20517, "##bbing": 23200, "id": 8909, "walks": 7365, "chicks": 20649, "\u677e": 1880, "##\u0628\u0627\u062f": 25799, "\u5f73": 1845, "excellent": 6581, "gestapo": 26446, "roundabout": 22831, "##mission": 25481, "\u026c": 1121, "barbecue": 26375, "association": 2523, "neighbors": 10638, "centimeters": 18119, "[unused232]": 237, "##ian": 2937, "##nesian": 20281, "temporal": 15850, "sensory": 16792, "##cup": 15569, "stars": 3340, "##iology": 20569, "##ki": 3211, "wynn": 25328, "unbroken": 29505, "subsided": 26588, "preparation": 7547, "assemble": 21365, "mobile": 4684, "1865": 6725, "1811": 13086, "##\u10d2": 29976, "reached": 2584, "19th": 3708, "cc": 10507, "third": 2353, "moran": 17866, "destiny": 10461, "nanny": 19174, "delegation": 10656, "craters": 27561, "\u5317": 1781, "stadiums": 28244, "speeches": 13867, "recipients": 15991, "forcefully": 23097, "canonical": 18562, "coordinates": 12093, "fairchild": 24258, "vocabulary": 16188, "flights": 7599, "proven": 10003, "np": 27937, "snort": 26759, "influences": 8092, "highs": 26836, "avoids": 26777, "duane": 27319, "invested": 11241, "##duction": 16256, "asteroids": 26732, "bismarck": 22029, "nevertheless": 6600, "contamination": 18701, "sometime": 8811, "philosophy": 4695, "\u2228": 1603, "legislative": 4884, "sprinter": 19938, "acoustic": 6490, "nothing": 2498, "complimented": 27175, "\u062b": 1274, "shelf": 11142, "recycled": 22207, "macintosh": 22228, "245": 21005, "brighter": 16176, "trapping": 22977, "186": 19609, "##vah": 21927, "algerian": 16953, "beasts": 15109, "##otype": 26305, "reliance": 17975, "chung": 15972, "elites": 27021, "elves": 16980, "##chison": 27795, "151": 16528, "1856": 8708, "dismiss": 19776, "shave": 27545, "os": 9808, "##nger": 11392, "cables": 15196, "expressing": 14026, "squinting": 29156, "##\u53f8": 30317, "outpost": 21080, "slaughter": 14574, "sci": 16596, "tabitha": 21581, "nasser": 26099, "spruce": 19893, "[unused114]": 119, "dillon": 14602, "##ws": 9333, "##any": 19092, "cooler": 14976, "vol": 5285, "condoms": 29094, "pontiac": 24538, "islam": 7025, "featherweight": 27145, "genealogy": 26684, "heartland": 27399, "mug": 14757, "retailer": 20196, "gloves": 11875, "\u8cb4": 1953, "244": 24194, "counselor": 17220, "##\u05e5": 29808, "##ucher": 22368, "ringo": 25589, "rhythms": 17900, "##ei": 7416, "hagen": 24047, "##tee": 17389, "rampage": 29216, "wingspan": 9635, "##pg": 26952, "##\u0562": 29767, "\u03b3": 1157, "against": 2114, "carrot": 25659, "recommendation": 12832, "idols": 24438, "pacing": 15732, "stemmed": 27674, "southend": 26104, "gamble": 18503, "opinions": 10740, "crisis": 5325, "66": 5764, "\u6a4b": 1885, "bullet": 7960, "##eh": 11106, "##mith": 19864, "##hara": 11077, "archer": 11024, "disrupted": 20275, "matt": 4717, "eagle": 6755, "##elt": 20042, "perry": 6890, "r": 1054, "vessels": 6470, "consultative": 28581, "\u702c": 1905, "[unused24]": 25, "bothered": 11250, "\u7248": 1907, "820": 26667, "##bund": 27265, "claw": 15020, "sap": 20066, "talk": 2831, "aero": 18440, "habitats": 10746, "caps": 9700, "sort": 4066, "##sque": 17729, "heroine": 18869, "in": 1999, "##yama": 11613, "confuse": 28679, "231": 20304, "etc": 4385, "touchdowns": 10183, "dive": 11529, "saetan": 23515, "[unused130]": 135, "silenced": 25030, "battalions": 10157, "##ello": 15350, "northern": 2642, "\u0baa": 1388, "occasions": 6642, "isolated": 7275, "pending": 14223, "##\u00b5": 29659, "update": 10651, "ted": 6945, "baby": 3336, "treasures": 17605, "[unused667]": 672, "finishes": 12321, "iteration": 27758, "inorganic": 28256, "supremacy": 22006, "cree": 27831, "deutschland": 28668, "accidentally": 9554, "hq": 16260, "15th": 6286, "epic": 8680, "partisans": 20762, "skip": 13558, "##ganj": 22738, "nc": 13316, "practiced": 9051, "senior": 3026, "niccolo": 27033, "##ducted": 29510, "for": 2005, "moving": 3048, "##mata": 21022, "\u306d": 1670, "##\u062e": 29821, "back": 2067, "##puri": 24661, "begins": 4269, "discontinued": 8944, "motivation": 14354, "encompasses": 13974, "fence": 8638, "1708": 27337, "wiener": 25072, "##itz": 8838, "[unused546]": 551, "[unused799]": 804, "##isi": 17417, "\u0444": 1199, "##ses": 8583, "demanding": 9694, "faintly": 18587, "bang": 9748, "settling": 9853, "zhou": 14367, "translation": 5449, "common": 2691, "120": 6036, "brief": 4766, "airplanes": 24042, "fundamentally": 24670, "##kur": 18569, "jays": 18930, "gastropod": 10953, "jenna": 13504, "version": 2544, "huh": 9616, "enthusiastically": 24935, "auspices": 20153, "palais": 22113, "rq": 28134, "##rao": 25667, "##lts": 21593, "gunners": 29000, "promoting": 7694, "##formed": 29021, "backward": 8848, "militias": 29271, "loose": 6065, "sleeve": 10353, "bassist": 9858, "pretending": 12097, "gaining": 8550, "##hill": 7100, "##ru": 6820, "smarter": 25670, "huffed": 25014, "international": 2248, "pointer": 20884, "iraq": 5712, "cuthbert": 24583, "bremen": 16314, "storage": 5527, "fades": 26784, "pleasant": 8242, "\u2013": 1516, "did": 2106, "nod": 7293, "apollo": 9348, "larsen": 20094, "##cat": 11266, "substantial": 6937, "essentially": 7687, "##bm": 25526, "catalog": 12105, "reckless": 18555, "transitions": 22166, "apparatus": 14709, "##break": 23890, "weak": 5410, "inca": 27523, "##saka": 29289, "nest": 9089, "clarity": 15563, "##vious": 24918, "suspicions": 17817, "cuts": 7659, "neurons": 15698, "micah": 17665, "combines": 13585, "clube": 24852, "alexa": 24969, "hinduism": 19632, "saturday": 5095, "j": 1046, "product": 4031, "foe": 22277, "[unused561]": 566, "mozambique": 16274, "bubble": 11957, "bombs": 9767, "##rmin": 27512, "agreed": 3530, "intervention": 8830, "1983": 3172, "outlaws": 23107, "conjecture": 22647, "rating": 5790, "davy": 23255, "eine": 27665, "##osaurus": 25767, "worsened": 27622, "rpm": 11575, "anarchist": 18448, "##llation": 20382, "204": 19627, "christ": 4828, "argus": 25294, "sensations": 21378, "##ocene": 25793, "cooke": 16546, "\u092a": 1328, "maharaja": 21609, "##hom": 23393, "1961": 3777, "cites": 17248, "herman": 11458, "stony": 16104, "##fighting": 22158, "##wife": 19993, "##itation": 18557, "chunks": 24839, "vendor": 21431, "dealings": 24069, "salon": 11090, "tended": 11121, "logs": 15664, "forsyth": 29434, "sack": 12803, "strict": 9384, "qu": 24209, "wanting": 5782, "##\u5bfa": 30353, "amazingly": 29350, "watson": 7908, "century": 2301, "sibling": 22941, "##kia": 21128, "brothers": 3428, "##raction": 25533, "situ": 26179, "cornerstone": 23354, "michele": 15954, "##mot": 18938, "colon": 16844, "##lp": 14277, "gina": 17508, "##nese": 14183, "struggling": 8084, "tomb": 8136, "degree": 3014, "hua": 23064, "algebra": 11208, "##iensis": 27806, "fey": 23864, "hurst": 26405, "sensitive": 7591, "projected": 11310, "##apa": 22068, "curvature": 25045, "stigma": 26453, "##brook": 9697, "gazette": 11391, "747": 25374, "prevention": 9740, "accidents": 13436, "daniela": 28541, "##rave": 22401, "davey": 20436, "biting": 12344, "faye": 19243, "bradley": 8981, "405": 23988, "naval": 3987, "cult": 8754, "patrols": 14703, "decrease": 9885, "insides": 19008, "pity": 12063, "swimmers": 21669, "maison": 26420, "prasad": 17476, "rbis": 23583, "segunda": 19071, "shrug": 13409, "##rmi": 28550, "kari": 27356, "##naud": 26160, "\u2202": 1592, "lanes": 10914, "tidal": 15065, "gene": 4962, "mutant": 15527, "angrily": 14136, "debbie": 16391, "57th": 28623, "##zuka": 22968, "gillespie": 21067, "pollen": 22482, "mice": 12328, "crows": 21623, "several": 2195, "##iferous": 23930, "tchaikovsky": 25900, "preacher": 14512, "battling": 17773, "satisfying": 17087, "buys": 23311, "moat": 25266, "[unused333]": 338, "glorious": 14013, "coleman": 11608, "##ished": 13295, "pentagon": 20864, "coverage": 6325, "##aw": 10376, "sparks": 12300, "insistent": 29204, "1697": 28690, "museo": 19713, "##quette": 29416, "personality": 6180, "turf": 14585, "##gara": 24864, "attracts": 17771, "cheyenne": 17778, "##vating": 26477, "ballet": 7250, "##logies": 21615, "&": 1004, "theologian": 17200, "mcgee": 22034, "##ylus": 18871, "glover": 20012, "disbelief": 12537, "approved": 4844, "replaces": 20736, "##ester": 20367, "aspirations": 22877, "samoa": 15075, "antennas": 26315, "flexibility": 16991, "##awan": 25903, "carousel": 27628, "hallways": 28274, "indicates": 7127, "##eg": 13910, "dwell": 23120, "includes": 2950, "\u7530": 1911, "successes": 14152, "expecting": 8074, "typing": 22868, "symphony": 6189, "##shi": 6182, "##nd": 4859, "##aro": 10464, "certified": 7378, "unusual": 5866, "nobility": 11760, "expansion": 4935, "atmospheric": 12483, "handwriting": 24149, "##therapy": 20900, "##gist": 24063, "##ieri": 21939, "railway": 2737, "saliva": 26308, "philippe": 11169, "compute": 24134, "protesters": 13337, "##ike": 17339, "iowa": 5947, "1776": 13963, "overwhelmingly": 24783, "suburbs": 9435, "concentrated": 8279, "plains": 8575, "##\u30e9": 30257, "weight": 3635, "lynx": 22636, "helped": 3271, "casually": 13217, "trojan": 23445, "expressed": 5228, "charlton": 17821, "##ic": 2594, "hands": 2398, "##for": 29278, "##\u0644": 23673, "dew": 24903, "levels": 3798, "mud": 8494, "undrafted": 21347, "7": 1021, "insect": 14211, "samsung": 19102, "warsaw": 8199, "amherst": 19850, "spilled": 13439, "wee": 16776, "loaf": 27048, "##xx": 20348, "puck": 22900, "volta": 26089, "gma": 20917, "quoted": 9339, "{": 1063, "##lana": 16695, "mentor": 10779, "commemorated": 19131, "macleod": 23075, "##lick": 25230, "silk": 6953, "##hope": 26441, "asleep": 6680, "##xed": 19068, "peninsula": 6000, "sacramento": 11932, "obstacles": 15314, "espana": 20678, "canyon": 8399, "jagger": 25827, "rebel": 8443, "minh": 19538, "vans": 21994, "[unused167]": 172, "jackie": 9901, "thames": 11076, "frustrating": 25198, "display": 4653, "conjunction": 9595, "##gi": 5856, "trams": 19216, "means": 2965, "permitting": 24523, "333": 21211, "yao": 23711, "trophies": 22236, "##\u2033": 30067, "bwv": 23860, "##haw": 14238, "krakow": 14576, "compression": 13379, "settler": 18556, "madagascar": 11934, "##pods": 22925, "bryson": 26845, "ke": 17710, "newspapers": 6399, "luc": 12776, "volga": 26459, "##ungen": 23239, "mandarin": 15831, "godfrey": 18238, "shiver": 13277, "burns": 7641, "grow": 4982, "israeli": 5611, "shark": 11420, "gaming": 10355, "accountant": 17907, "##san": 8791, "merritt": 26701, "isn": 3475, "projections": 21796, "##h": 2232, "swung": 7671, "badge": 10780, "\u20a9": 1573, "deep": 2784, "\u2080": 1547, "latest": 6745, "played": 2209, "drury": 25663, "inputs": 20407, "revised": 8001, "\u301c": 1645, "sipping": 24747, "vols": 18709, "forefront": 22870, "rare": 4678, "icc": 16461, "torn": 7950, "800": 5385, "##dry": 21190, "subconscious": 27952, "##vy": 10736, "sherwood": 19427, "tis": 22320, "##right": 15950, "waterfront": 16317, "cass": 16220, "[unused911]": 916, "##ares": 17933, "woodlands": 19268, "happy": 3407, "\u09b2": 1373, "fundraising": 15524, "iconic": 14430, "tragedy": 10576, "burials": 23109, "##wig": 16279, "##anza": 16076, "##\u90ce": 30484, "consolidate": 24939, "##istles": 28738, "selling": 4855, "applications": 5097, "garage": 7381, "[unused247]": 252, "mongolia": 13906, "spite": 8741, "asian": 4004, "dynasty": 5321, "ursula": 20449, "##xley": 20959, "##ve": 3726, "foods": 9440, "plenty": 7564, "##mal": 9067, "blunt": 14969, "voter": 14303, "static": 10763, "liege": 17766, "##rigues": 22934, "luckily": 15798, "crimea": 21516, "##cic": 19053, "punished": 14248, "habsburg": 17486, "continual": 27222, "##nova": 13455, "wounding": 27285, "jocelyn": 23786, "expenditures": 22697, "vanished": 9955, "[unused551]": 556, "##icate": 24695, "francois": 8173, "dialect": 9329, "tracy": 10555, "blend": 12586, "226": 21035, "mundane": 24684, "platoon": 13799, "##boy": 11097, "stanis\u0142aw": 26133, "guitarist": 5990, "slam": 9555, "[unused527]": 532, "##gol": 24141, "##qual": 26426, "maestro": 25270, "determines": 16463, "village": 2352, "\u0642": 1292, "earning": 7414, "gallagher": 17297, "\u5143": 1769, "277": 25578, "lay": 3913, "plastic": 6081, "courage": 8424, "[unused633]": 638, "discrete": 16246, "laughs": 11680, "##fk": 24316, "m1": 23290, "rt": 19387, "##\u00a2": 29645, "##vers": 14028, "populations": 7080, "visuals": 26749, "differentiated": 24374, "signal": 4742, "team": 2136, "##dict": 29201, "beef": 12486, "worms": 16253, "ars": 29393, "##uda": 14066, "tracker": 27080, "[unused846]": 851, "respective": 7972, "drafted": 7462, "sons": 4124, "nikola": 24794, "polymers": 27216, "turkey": 4977, "relied": 13538, "call": 2655, "pear": 28253, "derek": 7256, "##erie": 17378, "copeland": 27303, "hallway": 6797, "##at": 4017, "perched": 17335, "pony": 15606, "hms": 7220, "froze": 10619, "marcus": 6647, "##hine": 14014, "recorded": 2680, "##ppe": 21512, "relocate": 20102, "interfering": 24324, "stair": 23788, "sept": 17419, "prem": 26563, "##worth": 5172, "##day": 10259, "connects": 8539, "##ier": 3771, "##dl": 19422, "orb": 19607, "commemorate": 13415, "302": 22060, "retribution": 25928, "[unused894]": 899, "[unused352]": 357, "^": 1034, "\u1d4d": 1500, "appealed": 12068, "##\u04cf": 29765, "naive": 15743, "faces": 5344, "shattered": 10909, "##rk": 8024, "capt": 14408, "non": 2512, "smeared": 25400, "##pc": 15042, "##trick": 22881, "##zzling": 20838, "discus": 26047, "tabloid": 24173, "cannons": 17138, "distract": 15886, "spaniards": 20999, "nhl": 7097, "arise": 13368, "cain": 11557, "http": 8299, "loyal": 8884, "##anda": 13832, "spiritual": 6259, "##nary": 24041, "buds": 26734, "leicester": 11258, "##rrigan": 28706, "##\u300c": 30167, "restraining": 28285, "focusing": 7995, "graduate": 4619, "sunday": 4465, "conscription": 26329, "drop": 4530, "\u221a": 1600, "secretaries": 23660, "sparrow": 19479, "parana": 28383, "\u0647": 1297, "breasts": 12682, "weasel": 29268, "drivers": 6853, "agree": 5993, "\u6797": 1881, "limestone": 9771, "\u2078": 1542, "##romatic": 23645, "resulted": 4504, "guarantees": 21586, "afterwards": 5728,
[...]
