{"vocab": {"\u0120intox": 21275, "lash": 17055, "\u0120feels": 5300, "\u0120Join": 15251, "\u0120Writer": 26606, "\u0120overriding": 44987, "\u0120tits": 33789, "idates": 37051, "\u0120BACK": 28767, "\u0120Dragon": 2851, "\u0120scriptures": 39782, "strom": 20282, "\u0120Was": 8920, "\u0120AB": 9564, "\u0120airst": 20253, "\u0120Beau": 32831, "ecast": 43299, "\u0120Loss": 22014, "\u0120mislead": 42154, "\u0120Simon": 11288, "\u0120remembered": 12086, "\u0120Yanukovych": 43202, "\u0120Lincoln": 12406, "\u0120gar": 5482, "Reilly": 25819, "\u0120prone": 17592, "\u0120feared": 15240, "living": 19950, "\u0120worry": 5490, "\u0120VT": 32751, "\u0120equity": 13598, "\u0120Pace": 44111, "\u0120Axel": 42575, "\u0120cage": 17186, "ebin": 23497, "\u0120several": 1811, "\u0120deploying": 29682, "\u0120stain": 18746, "\u0120Chi": 21380, "\u0120fixme": 45199, "\u0120Sophie": 35331, "Mania": 45844, "\u0120234": 34323, "\u0120fearful": 26844, "\u0120Bristol": 25040, "\u0120simmer": 32857, "\u0120conversions": 32626, "\u0120Options": 18634, "\u0120ADS": 44784, "aj": 1228, "\u0120haste": 36797, "DIR": 34720, "\u0120Lost": 9164, "\u0120asteroid": 27460, "Str": 13290, "\u0120confined": 19733, "\u00d8\u00a8": 39848, "ulator": 8927, "\u0120content": 2695, "\u0120fighting": 4330, "sty": 34365, "\u0120heal": 12035, "La": 14772, "SQL": 17861, "\u0120Gill": 12981, "\u0120locker": 17355, "295": 25710, "\u0120rescuing": 48329, "\u0120Calais": 48025, "\u0120knowingly": 26526, "\u0120CNN": 8100, "\u0120Lys": 46749, "\u0120ideological": 15735, "\u0120activist": 11276, "\u0120plentiful": 39976, "Transaction": 48720, "\u0120Uncle": 23169, "\u0120Heroes": 9896, "\u0120AFC": 27987, "omial": 49070, "urrence": 33928, "\u0120NO": 8005, "\u0120popularity": 11533, "nl": 21283, "olt": 5978, "\u0120starred": 31636, "103": 15197, "nery": 35865, "\u0120dich": 36638, "idable": 23321, "\u0120dragon": 10441, "Registered": 47473, "jong": 32428, "\u0120Barber": 35338, "\u0120SetFontSize": 39446, "\u0120260": 21148, "\u0120efficiency": 9332, "\u0120Manager": 9142, "\u0120ii": 21065, "\u0120neighborhoods": 14287, "\u0120boosted": 29657, "\u0120endless": 13079, "\u0120Pir": 10334, "\u0120Federation": 11937, "\u0120upstairs": 26148, "\u0120maximizing": 48350, "\u0120via": 2884, "\u0120wars": 9976, "approximately": 47498, "iu": 16115, "\u0120reserv": 5463, "OWN": 14165, "\u0120BET": 38651, "moil": 25538, "\u0120ed": 1225, "ov": 709, "ger": 1362, "\u0120distinguishes": 45482, "ibles": 18764, "iasm": 16401, "\u0120stemmed": 44997, "\u0120undert": 10122, "\u0120waits": 28364, "iron": 1934, "oda": 11329, "\u0120Desc": 39373, "professional": 33163, "\u0120'(": 29513, "\u0120flexibility": 13688, "\u0120MAY": 26720, "\u0120annoying": 15774, "\u0120adorable": 29012, "61": 5333, "href": 33257, "\u0120piled": 33654, "\u0120misses": 18297, "010": 20943, "realDonaldTrump": 28024, "Cold": 34312, "\u0120conven": 7292, "\u0120Disco": 19718, "\u0120reprint": 26589, "strength": 41402, "\u0120Cassidy": 41373, "\u0120teenage": 16330, "\u0120brave": 14802, "ising": 1710, "---": 6329, "\u0120unequiv": 33923, "cedented": 12292, "\u0120illuminating": 46717, "anuts": 37555, "\u0120omission": 35725, "\u0120born": 4642, "\u0120Sacrifice": 42036, "\u0120acknowledgment": 48182, "\u0120Desert": 18692, "\u0120taxing": 36587, "\u0120big": 1263, "comfort": 21598, "\u0120observed": 6515, "db": 9945, "815": 49503, "\u0120spit": 27591, "riminal": 22157, "BL": 9148, "JS": 20120, "\u0120confiscated": 34012, "xff": 47596, "\u0120supplementation": 30306, "\u0120evacuated": 23724, "\u0120knowledge": 3725, "\u0120Dickens": 46167, "\u0120Pai": 41626, "\u0120bringing": 6079, "\u0120sched": 6038, "\u0120Civilization": 31755, "\u0120Sophia": 39953, "pent": 16923, "\u0120servant": 18807, "Phot": 27248, "awatts": 46684, "\u0120governments": 6905, "\u00c1": 125, "\u0120basin": 34164, "\u0120install": 2721, "\u0120GC": 20145, "\u0120fundamentalist": 42277, "\u00c3\u00a9s": 20954, "rin": 12769, "\u0120invisible": 14836, "agne": 21080, "umers": 31260, "\u0120jelly": 27644, "Lib": 25835, "Choice": 46770, "\u0120teammates": 13107, "\u0120Okawaru": 43038, "inished": 30603, "\u0120Culture": 17346, "\u0120XT": 44235, "MORE": 23346, "ORE": 6965, "aping": 9269, "56": 3980, "acky": 36053, "\u0120halting": 45588, "ban": 3820, "py": 9078, "\u0120Station": 9327, "\u0120Association": 5396, "\u0120Vor": 44143, "\u0120Statistics": 14370, "\u0120conditioning": 21143, "trained": 35311, "\u0120museums": 30794, "\u0120Spart": 20711, "\u0120Sne": 27065, "\u0120reliability": 17843, "\u0120trait": 16708, "izontal": 38342, "\u0120Trying": 31165, "\u01201962": 20033, "\u0120Types": 24897, "\u00e5\u0132": 28938, "olve": 6442, "\u0120Giov": 36089, "\u0120Trainer": 31924, "\u0120widget": 26295, "\u0120centre": 7372, "warn": 40539, "\u0120goose": 37246, "github": 12567, "ol": 349, "mit": 2781, "\u0120scorn": 40987, "\u0120confounding": 43849, "\u0120sweater": 35685, "\u0120rarely": 8365, "\u0120process": 1429, "\u0120Madness": 24452, "\u0120modeled": 29563, "\u0120\u00e2\u012b": 15139, "\u0120construed": 30816, "\u0120Chop": 40159, "T": 51, "ried": 2228, "200": 2167, "nown": 3408, "Inv": 19904, "ctica": 28914, "\u0120Moments": 45209, "\u0120manufactures": 46306, "\u0120Contents": 26714, "asonic": 30189, "\u0120where": 810, "\u0120areas": 3006, "\u0120underscore": 44810, "ient": 1153, "\u0120splendid": 37196, "\u0120assorted": 46603, "\u0120NHL": 9481, "\u0120pine": 20161, "\u0120expansion": 7118, "\u0120aval": 37441, "igue": 15212, "\u0120galvan": 42170, "\u0120moan": 44567, "\u0120outcry": 34334, "\u0120recognised": 20915, "\u0120Street": 3530, "\u0120Oxy": 35471, "\u0120Deluxe": 21907, "\u0120Santiago": 34802, "\u0120Corona": 44574, "\u0120Humph": 32787, "\u0120pse": 15838, "good": 11274, "\u0120suscept": 18163, "\u0120ll": 32660, "agically": 39066, "Check": 9787, "Plug": 23257, "\u0120Backup": 35071, "usa": 22064, "\u0120Somew": 32499, "@#&": 48193, "\u0120distance": 5253, "\u012035": 3439, "+=": 47932, "artments": 32514, "\u0120collection": 4947, "re": 260, "called": 7174, "\u0120gust": 35253, "Sword": 43117, "\u0120Hit": 7286, "anches": 12140, "rid": 6058, "\u0120Slater": 44289, "anism": 48162, "\u0120367": 40884, "\u0120impressed": 12617, "\u0120Comic": 19949, "\u0120Buckingham": 47538, "\u0120conformity": 39974, "\u0120unspecified": 29547, "\u0120Khan": 11356, "\u0120179": 27228, "\u0120weaker": 17642, "\u0120Offer": 33085, "484": 34137, "\u00e2\u0122\u0135\u00e2\u0122\u0135": 25608, "\u0120constituencies": 43742, "improve": 49453, "\u0120journal": 3989, "\u0120Manip": 35045, "\u0120startling": 28027, "\u0120Animals": 25390, "Arch": 19895, "\u0120ax": 7877, "hibited": 44139, "Evil": 48477, "\u0120smugglers": 42876, "\u0120MacArthur": 46626, "eatures": 11585, "isl": 3044, "hidden": 30342, "Australian": 38036, "\u0120Booker": 31004, "\u0120challenger": 32127, "\u0120diplomatic": 13093, "\u0120surfaced": 23786, "\u0120Yoshi": 38936, "\u0120Pablo": 33185, "2015": 4626, "\u0120opposite": 6697, "ock": 735, "omical": 22545, "\u0120warmer": 23254, "fficient": 5632, "\u0120anat": 20076, "erous": 48411, "\u0120obligatory": 44609, "\u0120RUN": 32494, "\u0120bullet": 10492, "ECT": 9782, "qq": 38227, "Loading": 19031, "\u0120Plasma": 31226, "\u0120Kurt": 20642, "\u0120chronic": 10726, "OK": 11380, "\u0120relay": 24248, "\u0120Downloads": 50093, "\u0120duties": 10741, "\u0120Merge": 39407, "\u0120contention": 22627, "ength": 3286, "\u0120reopened": 37415, "\u0120Gaming": 14426, "\u0120Grain": 48692, "\u0120vig": 10539, "\u0120COURT": 46627, "\u0120Difficulty": 27419, "Att": 8086, "\u0120scored": 7781, "\u0120Mandela": 40233, "Pass": 14478, "\u0120film": 2646, "\u0120Cann": 12283, "\u0120hardest": 17612, "Gro": 42921, "\u0120Sisters": 25318, "\u0120enhance": 9494, "osponsors": 39500, "\u0120lar": 26371, "\u0120Princeton": 23173, "anders": 45070, "ansson": 44038, "\u0120homosexual": 11479, "\u0120struggled": 11615, "\u0120chall": 2532, ").[": 42669, "683": 47521, "\u0120Impossible": 38791, "eds": 5379, "\u0120steady": 11831, "\u0120framed": 23665, "\u0120enzyme": 27679, "\u0120necessity": 14564, "fortunately": 6668, "\u0120paralyzed": 36175, "\u0120Zoo": 21980, "\u0120Kaf": 33913, "LD": 11163, "\u0120milestones": 41926, "\u0120Kung": 44753, "\u0120rang": 28077, "casts": 40924, "\u0120unorthodox": 49830, "\u0120H": 367, "416": 35218, "\u0120Alternatively": 25929, "\u0120South": 2520, "\u0120Phelps": 40587, "Hz": 7399, "ting": 889, "culation": 14902, "\u0120quarry": 47780, ").\"": 21387, "\u0120negotiators": 45373, "ortunately": 4690, "\u0120Moon": 6869, "\u0120banging": 42028, "oxin": 39366, "\u0120CD": 6458, "\u0120shouts": 34757, "\u0120mas": 12422, "\u0120sperm": 19311, "arbon": 42084, "\u0120advisory": 20852, "\u0120injury": 5095, "\u0120pall": 47725, "LAN": 25697, "/\"": 30487, "[/": 13412, "based": 3106, "\u00e5\u00a5": 25001, "\u0120jur": 8174, "\u0120simultaneously": 11640, "\u0120Labor": 7882, "\u0120Hector": 42621, "\u0120imitation": 40260, "\u0120describing": 12059, "dragon": 14844, "\u0120touchdowns": 17692, "akura": 47754, "Lu": 25596, "Brexit": 40730, "wm": 26377, "\u0120standalone": 27669, "\u0120MAT": 36775, "PA": 4537, "\u0120Range": 13667, "\u0120Tenn": 9034, "\u0120perceptual": 49615, "\u0120brush": 14093, "\u0120bombed": 34221, "\u0120Godd": 8935, "route": 38629, "\u0120sets": 5621, "\u0120exiled": 38702, "\u0120employment": 7184, "\u0120scaven": 35998, "ENGTH": 49494, "itage": 10208, "microsoft": 40485, "\u0120Nepal": 27026, "\u0120tabletop": 45052, "\u0120Camel": 43281, "\u0120este": 43577, "ANC": 20940, "\u0120aug": 16339, "\u0120exponent": 28622, "\u0120Zuckerberg": 32584, "\u0120Brewers": 35295, "\u0120shells": 19679, "\u0120Mail": 11099, "\u0120drawer": 33451, "\u0120Debian": 26062, "\u0120concerts": 28565, "\u0120hinges": 41442, "\u0120shuts": 44854, "\u0120Mexicans": 36783, "\u0120blinking": 43196, "\u0120Ap": 5949, "\u0120glare": 36785, "\u0120methodology": 20411, "\u0120ml": 25962, "occup": 19596, "\u0120chops": 44512, "enza": 23674, "\u0120Azerbai": 29830, "\u0120ticks": 36066, "\u0120Phoenix": 9643, "ed": 276, "\u0120capped": 28490, "\u0120maximize": 20487, "\u0120messages": 6218, "\u0120wink": 41955, "!!\"": 37160, "\u0120Honour": 45129, "\u0120allegation": 24389, "centric": 28577, "\u0120sailors": 29996, "\u0120wireless": 12521, "\u0120Mix": 15561, "\u0120aluminium": 40412, "\u0120181": 30110, "\u0120pip": 7347, "\u0120231": 34598, "\u00e6\u013e": 17312, "iltration": 36055, "\u0120financially": 18786, "\u0120Skill": 16023, "version": 9641, "}}": 11709, "\u00e3\u0125\u00bc\u00e3\u0125\u00ab": 43353, "\u0120although": 3584, "cerpt": 17040, "\u0120Kinder": 46832, "\u0120Saving": 34689, "etically": 16877, "Place": 27271, "\u0120awakened": 39217, "aeus": 46052, "\u0120Confederation": 47186, "atoes": 15048, "\u0120trader": 31791, "\u0120Highway": 14914, "\u0120nationals": 22970, "\u0120desire": 6227, "\u0120Consolid": 43419, ",[": 17414, "\u0120Depression": 22483, "\u0120ones": 3392, "dh": 34985, "\u0120LIA": 43031, "\u0120destruction": 8166, "ccoli": 34544, "uming": 12595, "sac": 30584, "\u0120Ker": 17337, "\u0120Artist": 18902, "assis": 20297, "txt": 14116, "\u0120enjoyment": 23334, "espie": 42120, "\u0120safest": 33630, "bl": 2436, "\u0120plummet": 28940, "\u0120lapt": 10882, "\u0120Hannity": 35368, "Review": 14832, "\u0120Jays": 23288, "\u00c5\u012f": 13090, "produ": 18230, "agine": 12756, "\u0120ver": 3326, "\u0120political": 1964, "\u0120XY": 41420, "\u0120degrees": 7370, "\u0120afloat": 45759, "not": 1662, "\u0120BIOS": 27553, "console": 41947, "Large": 21968, "\u0120Waste": 35304, "\u0120clue": 18437, "\u0120Plate": 23648, "Cut": 26254, "\u0120extermination": 48495, "\u0120resign": 10931, "\u0120pioneering": 36304, "\u0120Telecommunications": 48667, "\u0120unprecedented": 13029, "\u0120!=": 14512, "ulates": 15968, "\u0120sig": 43237, "\u0120Cole": 11768, "MAG": 45820, "\u0120reflections": 35066, "umerous": 31385, "\u0120equal": 4961, "\u0120Britain": 5491, "Orange": 40141, "\u0120Hof": 37745, "\u0120tc": 37096, "\u0120easing": 33672, "em": 368, "riber": 24735, "\u0120son": 3367, "\u0120cubes": 34896, "\u0120understand": 1833, "archives": 48814, "\u0110": 204, "pathy": 16786, "\u0120remotely": 19863, "///": 20379, "ply": 2145, "\u0120phil": 5206, "mask": 27932, "\u0120Mafia": 32676, "011": 28555, "\u0120Orn": 49359, "\u0120Thread": 14122, "\u0120ATL": 41051, "rament": 15141, "Represent": 40171, "\u0120consultations": 42052, "bc": 15630, "Discover": 44596, "ynt": 33567, "\u0120555": 44717, "\u0120cortical": 35001, "\u0120Madden": 38920, "\u0120remark": 6919, "\u0120Payments": 41318, "\u0120smartphone": 11745, "\u0120Mayor": 10106, "ento": 50217, "},{\"": 8762, "\u0120kiss": 9245, "\u0120arise": 15058, "\u0120subreddits": 46386, "SO": 15821, "\u0120syntax": 15582, "\u0120Paint": 23467, "\u0120Sage": 28733, "\u0120),": 10612, "....": 1106, "\u0120forwards": 22052, "\u0120Sandy": 17581, "\u0120govern": 1089, "\u0120assertions": 29965, "\u0120\u00e2\u0139": 24966, "\u0120wartime": 35382, "Br": 9414, "\u0120Educ": 7005, "\u0120snapped": 20821, "\u0120'/": 31051, "\u0120eastern": 10183, "\u0120mayoral": 43811, "\u0120TEST": 43001, "\u0120terminated": 23083, "dead": 25124, "\u0120horrified": 32816, "\u0120bloom": 29955, "590": 36993, "ag": 363, "\u0120Sud": 14818, "\u0120agric": 8986, "\u0120Brazilian": 17036, "utters": 46973, "\u012067": 8275, "\u0120Identification": 38657, "\u0120verte": 30362, "ausible": 17178, "227": 24403, "Supplement": 42615, "bourne": 12544, "\u0120bud": 3600, "\u0120NRL": 41695, "\u0120impression": 10647, "IDs": 47954, "asin": 47337, "\u0120SQU": 45880, "\u0120indeed": 5600, "\u0120cock": 7540, "dra": 32491, "\u0120highlight": 7238, "\u0120hiking": 24522, "imov": 44273, "\u0120engage": 8209, "\u0120shielded": 45153, "\u0120dwarf": 24603, "ikhail": 39065, "\u0120Directory": 27387, "UTH": 24318, "\u0120mont": 40689, "enson": 19069, "azz": 8101, "\u0120Nightmares": 43477, "\u0120Inspector": 24625, "\u0120replied": 8712, "\u0120Thai": 18933, "\u0120Thornton": 37519, "itter": 1967, "ankind": 28066, "\u0120herald": 28783, "cht": 21474, "Shape": 33383, "\u0120Armen": 17303, "onde": 14378, "\u0120Piercing": 47066, "\u0120linem": 22774, "\u0120exhib": 7316, "\u0120tread": 23153, "Dri": 20564, "\u0120Drone": 38959, "acia": 47431, "\u0120ally": 12525, "til": 47163, "\u0120bulbs": 34122, "\u0120376": 44622, "\u0120brokerage": 48716, "RH": 48587, "hof": 39891, "roph": 10051, "\u0120politic": 31723, "\u0120suppression": 22711, "\u0120wildly": 20278, "ival": 2473, "Coach": 40677, "\u0120burg": 15601, "ixties": 46550, "ract": 974, "\u0120Hart": 11345, "days": 12545, "\u0120detrim": 22316, "\u0120Mand": 13314, "\u0120Originally": 19486, "\u0120lair": 49451, "leground": 28272, "\u0120Jed": 39952, "\u0120accelerated": 23312, "\u0120indices": 36525, "ief": 2086, "\u0120precedent": 19719, "ross": 1214, "era": 8607, "\u0120Grey": 13980, "\u0120Kay": 17356, "met": 4164, "\u0120275": 25829, "ri": 380, "\u0120Cup": 5454, "handed": 13638, "\u0120Bosnia": 34292, "\u0120crunch": 23527, "\u0120makes": 1838, "\u0120hereby": 29376, "mercial": 15790, "\u0120Kor": 14769, "\u0120Minute": 38573, "\u0120biased": 21925, "\u0120Kernel": 32169, "\u0120Retro": 29884, "\u0120Canada": 3340, "201": 1264, "\u0120spray": 11662, "\u0120physicist": 33013, "\u0120Reno": 33817, "ovation": 17882, "\u0120poisons": 49121, "\u0120dagger": 31322, "\u0120Means": 28453, "Stars": 29366, "rompt": 45700, "\u0120traged": 12208, "ador": 7079, "nin": 35073, "\u0120intrinsically": 48676, "mp": 3149, "\u0120tails": 30514, "\u0120Chim": 28466, "\u0120vend": 10817, "\u0120anatomy": 33449, "\u0120vagina": 26150, "\u0120mastery": 30677, "\u0120pitcher": 18086, "\u0120exchanges": 14525, "\u0120spirit": 4437, "\u0120Daisy": 40355, "boot": 18769, "gur": 45073, "\u0120Ruler": 31808, "ode": 1098, "\u0120Witch": 14522, "\u0120Barn": 11842, "\u0120beams": 26741, "\u0120dentist": 38408, "\u0120everyone": 2506, "\u0120comply": 11997, "\u0120overwhel": 7678, "headed": 15353, "\u0120kills": 12847, "jury": 21871, "yne": 39547, "757": 39251, "On": 2202, "industrial": 31130, "\u0120commuters": 36799, "ioned": 14994, "\u0120headsets": 44257, "\u0120detonated": 38754, "painted": 47351, "\u0120footprints": 48012, "\u0120PP": 21082, "\u0120testosterone": 18776, "\u0120liquor": 20030, "yrus": 21180, "\u0120militant": 18614, "rowing": 11577, "Discuss": 48873, "\u0120obscurity": 48326, "\u0120Spielberg": 41151, "\u0120Taxes": 42260, "\u0120indicated": 8203, "rus": 14932, "\u0120worthwhile": 24769, "utf": 40477, "\u0120germ": 41171, "\u0120volcan": 17516, "igation": 7065, "\u0120alienated": 41258, "\u0120depend": 4745, "\u0120Forgotten": 28586, "\u0120Oscars": 46485, "utsche": 30433, "\u0120Kes": 40679, "dating": 38734, "tested": 39612, "\u0120unworthy": 49284, "\u012018": 1248, "\u0120dark": 3223, "six": 19412, "\u0120trail": 8025, "\u0120Gators": 47470, "\u0120dancing": 15360, "\u0120Goods": 38360, "\u0120quir": 26575, "\u0120multif": 43543, "cler": 22902, "\u0120YOUR": 16592, "ge": 469, "\u0120fertil": 19078, "\u0120enchantment": 43706, "\u0120Laws": 21153, "\u0120diligence": 34136, "\u0142": 254, "asionally": 31775, "\u0120Argentina": 16519, "\u0120referring": 9759, "\u0120discovered": 5071, "jriwal": 39890, "ged": 2004, "\u0120closet": 21615, "Always": 30374, "\u0120sighed": 21893, "\u0120assumptions": 14895, "inches": 45457, "\u0120brisk": 35984, "currency": 34415, "\u0120wizard": 18731, "\u0120Stefan": 28842, "\u0120varying": 15874, "\u0120coming": 2406, "\u0120fingers": 9353, "\u0120AUTH": 37195, "Fs": 42388, "\u0120contamin": 33554, "\u0120Graham": 11520, "\u0120productivity": 13714, "\u0120broccoli": 44653, "\u0120wins": 7864, "\u0120pinpoint": 30534, "\u0120Edition": 5061, "\u0120Aires": 44692, "\u0120Northern": 8342, "\u0120variable": 7885, "Officers": 34059, "\u0120Schwarz": 34835, "\u0120southeastern": 35618, "\u0120Reboot": 50204, "\u0120placing": 12560, "\u0120widow": 27075, "660": 39885, "\u0120Harriet": 48805, "bach": 19496, "\u0120restrain": 39300, "\u0120conclusion": 7664, "\u0120Pruitt": 39637, "ville": 4244, "Not": 3673, "\u0120Blu": 12391, "otomy": 38385, "\u00eb": 167, "\u0120nons": 14011, "\u0120Nikol": 48127, "\u0120turret": 28101, "]+": 48688, "nsics": 49242, "pite": 2595, "Alias": 40489, "enezuel": 12596, "Rh": 38576, "\u0120widely": 6768, "\u0120milk": 7545, "\u0120Taking": 20879, "endif": 32088, "LA": 13534, "\u0120Speedway": 46000, "anova": 40993, "\u0120incest": 35961, "TL": 14990, "president": 22540, "\u0120Borg": 29004, "158": 21273, "\u0120Mage": 17323, "LOAD": 35613, "\u0120divid": 13576, "edy": 4716, "\u0120Agu": 33118, "being": 11873, "\u0120Skinner": 42899, "ames": 1047, "\u0120Fail": 18448, "\u0120Agriculture": 19717, "\u0120neglig": 16776, "\u0120Slow": 19054, "concert": 48415, "\u0120NOT": 5626, "Ruby": 32101, "\u0120parallels": 30614, "\u0120Examples": 21066, "risome": 47400, "\u0120BLM": 45188, "EEP": 35238, "URRENT": 39237, "ellar": 14203, "Cruz": 41811, "\u0120came": 1625, "\u0120Venom": 33284, "\u0120freight": 30724, "\u0120Muss": 43309, "\u0120wiser": 47897, "\u0120obliged": 23278, "\u0120behalf": 8378, "Lua": 36127, "\u0120?)": 41349, "\u0120auth": 6284, "\u0120pharmaceutical": 18423, "\u0120ton": 5680, "san": 12807, "\u0120register": 7881, "\u0120corrupt": 10622, "\u0120scandals": 28449, "decl": 32446, "oust": 23968, "requency": 28707, "\u0120Pin": 13727, "adding": 26872, "\u0120185": 22855, "\u0120Voc": 47208, "\u0120Tennis": 37213, "\u0120industrialized": 47670, "\u0120recharge": 27978, "\u0120prosec": 19306, "\u0120Rule": 14330, "\u0120reversed": 17687, "\u0120infancy": 38120, "enance": 36368, "Rex": 47389, "jud": 10456, "Jake": 43930, "\u0120serve": 4691, "Step": 8600, "\u0120Stim": 41669, "\u0120Roberts": 10918, "\u0120compel": 33729, "\u0120ups": 19649, "\u0120precision": 15440, "oggles": 48549, "\u0120Brig": 16917, "\u0120authorized": 10435, "\u0120paused": 24487, "hene": 29473, "\u0120OPS": 40490, "\u0120Purchase": 27637, "Math": 37372, "\u0120lesser": 14494, "\u0120meanings": 26368, "nai": 38600, "Tesla": 41351, "\u0120forgot": 16453, "\u0120workload": 26211, "\u0120wal": 6514, "\u0120borrowers": 31617, "\u0120Wear": 27539, "Gab": 46079, "\u0120<+": 42496, "685": 35978, "coe": 49270, "\u0120Boys": 17528, "\u0120abdominal": 32692, "\u0120EPS": 47013, "asus": 40895, "actions": 4658, "rupt": 3622, "\u0120Ensure": 48987, "\u0120parent": 2560, "aneously": 27683, "\u00e3\u0124\u00b3": 24679, "\u0120guarding": 33294, "eric": 35626, "\u0120founded": 9393, "jing": 49940, "\u0120substitute": 15373, "\u0120Holiday": 22770, "\u0120battles": 10181, "\u0120gall": 7976, "\u0120Karin": 38802, "ucks": 6238, "\u0120builds": 12188, "discrimination": 42723, "Latest": 39478, "\u0120defe": 7503, "\u0120magazines": 16695, "\u0120legislator": 44840, "\u0120feasible": 23498, "\u0120Sequ": 24604, "olate": 27976, "\u0120responds": 20067, "\u0120CLE": 30301, "\u0120inscription": 40189, "\u0120handic": 29103, "ounced": 8918, "\u0120darts": 47807, "\u0120gallery": 15604, "align": 31494, "\u0120coffers": 47295, "\u0120Wik": 11145, "\u0120bastard": 31030, "\u0120transporting": 32331, "office": 31810, "\u0120reconsider": 26540, "\u0120wildfire": 44508, "iology": 12371, "enn": 1697, "\u0120Sergei": 34724, "\u0120supremacy": 25888, "ws": 18504, "\u0120Ub": 12021, "aminer": 32086, "\u0120consultants": 29597, "\u0120rejected": 8606, "Due": 22229, "enfranch": 39827, "ealing": 26919, "\u0120Coordinator": 36831, "\u0120subsistence": 48042, "capacity": 42404, "\u0120CPUs": 32340, "\u0120GHC": 46615, "\u00e2\u0135\u013a": 45563, "orst": 29422, "\u0120Articles": 22698, "\u0120OTHER": 25401, "lock": 5354, "\u0120operative": 28609, "\u0120explan": 6166, "\u0120peers": 14495, "\u0120entreprene": 11548, "\u0120Pilot": 21697, "\u0120Psychiat": 26357, "\u0120animal": 5044, "luck": 46708, "\u0120shell": 7582, "levard": 22123, "oplan": 46853, "\u0120Eden": 23369, "ya": 3972, "\u0120mul": 35971, "\u0120encryption": 15835, "\u0120predecessors": 27677, "\u0120settle": 12259, "\u0120Shooter": 35334, "\u0120pink": 11398, "\u0120bolster": 26091, "\u0120cumbersome": 44491, "\u0120arrogant": 28868, "\u0120Crist": 24568, "\u0120Capt": 6790, "\u0120Carbuncle": 35818, "\u0120waters": 10150, "cr": 6098, "\u0120prepare": 8335, "\u0120opium": 40299, "\u0120executive": 4640, "\u0120HD": 5572, "175": 17430, "\u0120surfing": 36254, "\u0120structured": 20793, "Favorite": 49434, "mers": 11056, "vity": 21319, "Edward": 43982, "lit": 18250, "\u0120reim": 21123, "\u0120inconvenient": 37513, "\u0120tourist": 18473, "IVER": 38757, "\u0120visions": 26096, "_(": 41052, "\u0120Republican": 3415, "\u0120nutrit": 44867, "Bell": 36488, "elli": 23225, "sth": 48476, "\u0120deregulation": 50202, "\u0120trunc": 40122, "\u0120Trevor": 25389, "\u0120Unt": 26970, "\u0120projected": 13301, "ame": 480, "\u0120laps": 24590, "\u0120dile": 22825, "istics": 3969, "662": 39380, "\u0120prevailing": 26602, "\u0120BW": 37869, "\u0120uncanny": 45244, "uations": 6055, "\u0120Tumblr": 24434, "c": 66, "070": 43509, "\u0120included": 3017, "\u0120notation": 33274, "\u0120Ana": 17639, "ambo": 22651, "\u0120permanent": 7748, "\u0120Sense": 24956, "\u0120NAD": 49204, "\u0120Troll": 28037, "Limit": 39184, "\u0120section": 2665, "dfx": 48753, "\u0120simulation": 18640, "\u0120arts": 10848, "\u0120operate": 8076, "\u0120fragile": 21049, "\u0120blade": 11865, "\u0120ignited": 40442, "\u0120freel": 20643, "leep": 8892, "\u0120Hung": 12149, "\u0120goaltender": 44113, "\u0120Dion": 29628, "houses": 20089, "het": 3202, "\u0120Siren": 43904, "\u0120Critics": 33385, "However": 4864, "\u0120HAM": 48079, "rients": 18491, "Players": 24860, "\u0120transgender": 10637, "\u0120sandy": 44039, "plete": 6677, "\u0120sightings": 36242, "\u0120Nam": 17871, "Steel": 39807, "\u0120Currency": 20113, "\u00b5": 113, "\u0120slipped": 18859, "\u0120succumbed": 47290, "\u0120explos": 6054, "Na": 26705, "Content": 19746, "\u0120Franc": 4682, "\u01201934": 29300, "\u0120consumption": 7327, "lets": 5289, "\u0120overd": 14904, "Gaza": 48790, "\u0120diapers": 45162, "\u0120outlined": 16493, "ocon": 36221, "\u0120Devices": 29362, "\u0120Ashe": 36318, "\u0120finan": 17240, "\u0120followers": 10569, "urer": 15051, "\u0120Liverpool": 11761, "\u0120riding": 10311, "310": 26717, "\u0120Vul": 25442, "Sov": 38574, "\u0120literature": 9285, "\u0120do": 466, "\u0120modules": 13103, "\u0120Spending": 43902, "caster": 17970, "\u0120circumference": 38447, "\u0120Dorothy": 40349, "\u0120commerce": 19497, "136": 20809, "\u0120gravity": 13522, "\u0120demonstration": 13646, "\u0120chees": 27384, "\u0120Titanic": 41184, "\u0120asphalt": 48292, "\u0120plent": 38145, "\u0120gossip": 30914, "berg": 3900, "\u0120boom": 14166, "\u0120Emergency": 18154, "\u0120bool": 20512, "aling": 4272, "Bas": 15522, "\u0120Outbreak": 49139, "\u0120Lifetime": 40870, "\u0120indicative": 29105, "adata": 14706, "gr": 2164, "\u0120darkness": 11854, "\u0120Conditions": 27617, "\u0120Courtney": 36677, "\u0120porch": 33179, "\u0120performs": 17706, "\u0120constructive": 26938, "\u0120inserting": 19319, "governmental": 31353, "\u0120memories": 9846, "George": 20191, "\u0120okay": 8788, "\u0120broker": 20426, "\u0120Luxem": 29017, "\u0120103": 15349, "\u0120Zen": 14760, "Specifically": 48379, "\u0120Nobody": 15658, "istar": 47229, "Damn": 43343, "\u0120Advisory": 23943, "Earlier": 13689, "\u0120risk": 2526, "\u0120Fantastic": 27948, "\u0120Node": 19081, "\u0120Save": 12793, "December": 20588, "henko": 30161, "\u0120diverted": 35673, "\u0120hilarious": 20105, "chip": 35902, "\u0120hospitality": 33362, "\u00cc\u00b6": 48869, "Correct": 42779, "\u0120570": 44626, "verages": 23118, "\u0120david": 21970, "\u0120Schl": 48467, "\u0120discouraged": 30170, "escription": 7260, "\u0120fatig": 46291, "\u0120goals": 4661, "egu": 15703, "\u0120holding": 4769, "\u0120Wyr": 45988, "\u0120predator": 30135, "acle": 6008, "\u0120developed": 4166, "\u0120Flynn": 14654, "\u0120Petr": 47377, "ryn": 29441, "\u0120outward": 23537, "\u0120Pier": 13762, "\u0120besieged": 41680, "\u0120confines": 39293, "\u0120distinguishing": 38607, "\u0120Drupal": 40452, "\u0120ineffective": 23693, "\u0120darn": 39189, "\u0120Mansion": 38560, "\u0120DOI": 40722, "\u0120Coll": 7778, "\u0120photograp": 10079, "rade": 27585, "\u0120gives": 3607, "\u0120Problems": 32093, "\u0120Newsp": 36765, "\u0120Nord": 18687, "242": 27877, "\u0120aged": 9722, "\u0120gimmick": 46029, "\u0120Seeking": 48160, "\u0120international": 3230, "ible": 856, "\u0120rivals": 14987, "\u0120effective": 4050, "\u0120fab": 7843, "aim": 1385, "\u0120death": 1918, "why": 22850, "\u0120emergence": 22106, "apixel": 48633, "345": 27712, "\u0120lett": 35044, "live": 12583, "++++++++": 25128, "\u0120Slay": 46809, "\u0120characters": 3435, "ologic": 20781, "rawling": 18771, "ulpt": 13327, "Cra": 33800, "\u0120Qur": 17599, "\u0120discretionary": 41314, "supported": 15999, "\u0120vitality": 41687, "strate": 23104, "Session": 36044, "\u0120Variable": 35748, "Bear": 36352, "\u0120inconsistency": 43831, "ifles": 16063, "tom": 39532, "\u0120Foot": 7870, "..................": 49129, "\u0120Nvidia": 27699, "\u0120selfish": 20363, "\u0120referenced": 20717, "\u0120Highlands": 46411, "\u0120shook": 14682, "\u0120Brook": 7590, "\u0120repud": 42405, "fw": 44482, "\u0120assessment": 8922, "\u0120Marxist": 26305, "Personal": 30228, "\u0120Sidney": 35727, "\u00e3\u0125\u012d": 30165, "\u0120vitamins": 29091, "\u0120absentee": 40153, "\u0120totaling": 37066, "Country": 33921, "there": 8117, "\u0120puts": 7584, "import": 11748, "\u0120Terminal": 24523, "Orig": 11610, "Former": 14282, "\u0120rash": 28509, "arette": 14758, "\u0120Dartmouth": 47888, "\u0120bait": 26536, "\u0120mute": 38723, "chi": 11072, "Instruct": 43993, "\u0120Judging": 47024, "Roger": 43719, "\u0120Lucius": 42477, "\u0120Refugee": 42791, "ained": 1328, "cal": 9948, "\u0120HR": 15172, "eder": 5702, "\u0120stepping": 17413, "Pur": 30026, "hetti": 33392, "\u0120item": 2378, "organisms": 45165, "chemical": 31379, "\u0120projections": 19887, "esm": 45798, "\u0120Tasman": 29958, "spirit": 38685, "\u0120backyard": 24296, "ewitness": 28588, "\u0120brothers": 9397, "ream": 1476, "\u0120Virtual": 15595, "\u0120dupl": 14184, "\u0120facilities": 7291, "\u0120Stella": 45856, "okers": 18698, "niper": 45554, "\u0120businessmen": 34643, "\u0120lane": 11193, "\u0120overflow": 30343, "\u0120committed": 5364, "ias": 4448, "\u0120withstand": 25073, "return": 7783, "Bed": 45896, "\u0120retina": 45804, "\u0120exp": 1033, "mans": 16221, "\u0120wholesale": 24005, "\u0120costs": 3484, "lopp": 39590, "romy": 50228, "\u0120Today": 6288, "\u0120Conan": 31634, "orrow": 6254, "325": 26582, "quarter": 24385, "\u0120Slime": 30448, "\u0120upbringing": 40678, "\u0120crotch": 45885, "\u0120firearm": 13988, "iv": 452, "\u0120Pra": 21127, "\u0120Equal": 28701, "\u0120accol": 45667, "\u0120exploited": 21514, "reply": 47768, "\u0120gui": 11774, "Names": 36690, "ebra": 37052, "\u0120Anarchy": 38899, "married": 30526, "ot": 313, "\u0120silk": 23938, "\u0120Torch": 34868, "\u00e2\u0122\u0133": 20977, "\u0120velvet": 47750, "\u0120tragic": 15444, "\u0120Eh": 31480, "970": 43587, "\u0120amusement": 30184, "fell": 23299, "\u0120comic": 9048, "\u0120Chevy": 40688, "ulia": 43640, "\u0120marijuana": 5727, "\u0120association": 8112, "\u0120mushrooms": 23452, "\u0120chip": 11594, "\u0120checkout": 28006, "\u0120terminal": 12094, "orship": 11094, "\u0120improved": 6596, "\u0120plaque": 35127, "\u0120speedy": 35564, "374": 31020, "\u0120stalled": 29759, "\u0120tenets": 43820, "Mesh": 37031, "\u0120Airport": 12690, "\u0120Step": 5012, "\u0120McCorm": 42037, "\u0120chief": 4039, "\u0120preferring": 41109, "\u0120IC": 12460, "\u0120spr": 7500, "\u0120contradictory": 29096, "\u0120agendas": 37611, "onso": 26666, "\u00c2\u00a9": 16224, "\u0120shocking": 14702, "\u0120took": 1718, "\u0120royal": 15100, "mone": 47122, "\u0120Heritage": 18518, "\u0120subsequ": 6399, "Bus": 16286, "\u0120stro": 9660, "opathy": 27189, "\u0120Adults": 35154, "\u0120Neander": 38752, "\u0120opponent": 6125, "nation": 25729, "\u0120suspicion": 15123, "\u0120lev": 23145, "\u0120Wagner": 26451, "\u0120prey": 15974, "\u0120avenues": 34265, "\u00c3\u00a2": 22940, "\u0120partying": 49901, "awar": 48841, "\u0120BCC": 49577, "Arsenal": 46230, "mentation": 14374, "\u0120Boulevard": 23889, "\u0120Motion": 20843, "\u0120start": 923, "\u0120chast": 30819, "escap": 50141, "\u0120beneficiary": 33867, "\u0120Wol": 27094, "\u0120card": 2657, "\u0120deteriorated": 44525, "\u0120blockchain": 11779, "517": 48170, "osite": 5971, "\u0120outrage": 11616, "atography": 45501, "\u0120Wait": 16314, "adi": 9189, "\u0120completely": 3190, "bill": 35546, "\u0120Biden": 21010, "patient": 26029, "\u0120forthcoming": 21220, "\u0120Ros": 10018, "%.": 7225, "AMD": 28075, "\u0120Neural": 47986, "\u0120Nash": 13950, "essee": 10702, "fox": 12792, "\u0120Nug": 45777, "\u0120privilege": 11941, "\u0120selling": 6301, "worn": 34565, "\u0120gaps": 17332, "\u0120spun": 26843, "orange": 43745, "heny": 47413, "\u0120deprive": 41613, "\u0120Shelby": 35053, "eland": 8822, "\u00c3\u00a9t": 25125, "\u0120Brookings": 44924, "\u0120savior": 47921, "atism": 26185, "alloween": 50107, "consider": 44353, "\u0120Macro": 42755, "\u0120ascertain": 35520, "wart": 24657, "arton": 41328, "\u0120Harry": 5850, "aired": 9820, "anty": 46098, "\u0120namespace": 25745, "metal": 28469, "\u0120swap": 16075, "Priv": 20184, "\u0120rooting": 40105, "\u0120blasted": 26044, "\u0120Pes": 38434, "\u012027": 2681, "\u0120acquisition": 12673, "\u0120Grid": 24846, "\u0120mirror": 10162, "Display": 23114, "\u0120wifi": 43121, "\u0120cheaply": 45858, "Ever": 23921, "\u0120Gravity": 24084, "\u0120Fle": 12005, "\u0120Officials": 28244, "\u0120Sau": 23167, "Zen": 47573, "reddit": 10748, "\u0120podium": 27941, "uria": 34484, "\u0120romance": 19661, "\u0120A": 317, "\u012081": 9773, "\u0120:(": 36147, "\u0120wrists": 38163, "\u0120demanding": 11334, "\u0120Closing": 47055, "urdy": 22876, "\u0120Sakuya": 37545, "\u0120Grow": 26936, "ascar": 37740, "\u0120matter": 2300, "\u0120Harding": 45732, "\u0120Columbia": 9309, "ropy": 28338, "Similarly": 28039, "itch": 2007, "\u0120repay": 20152, "Interstitial": 29447, "\u0120denounced": 26443, "\u0120Heller": 41252, "ievers": 30296, "\u0120Kham": 45159, "312": 27970, "source": 10459, "\u0120Seen": 34310, "\u0120declares": 24183, "\u0120Orient": 35275, "\u0120place": 1295, "INT": 12394, "ynasty": 19488, "\u0120intuitive": 19933, "\u0120blindness": 37673, "\u0120Every": 3887, "\u0120novice": 38751, "\u0120stim": 7132, "\u0120adjourn": 46055, "\u0120Where": 6350, "debug": 24442, "ository": 13264, "ATT": 17139, "\u0120rests": 24013, "\u0120specifics": 23514, "\u0120sensibilities": 50222, "cart": 26674, "\u0120EDITION": 39219, "\u0120Freem": 39587, "\u0120skipped": 26684, "\u0120Minimum": 26265, "\u0120gets": 3011, "\u0120altering": 29057, "N": 45, "Emer": 32779, "rank": 43027, "\u0120demands": 8665, "\u0120MA": 8779, "Plugin": 37233, "stream": 5532, "ggles": 32723, "\u0120sought": 7194, "\u0120lauded": 42086, "ubric": 29812, "una": 9613, "\u0120bloated": 45709, "\u0120Assad": 13032, "izu": 47775, "PLA": 45710, "commit": 41509, "\u0120misconceptions": 45679, "\u0120clauses": 31485, "\u0120Prepare": 43426, "istine": 32248, "\u0120Deadline": 35954, "\u0120Marilyn": 40769, "\u0120condu": 36118, "\u0120parachute": 41015, "Hyd": 40436, "REP": 35316, "\u0120[+": 26076, "\u0120Die": 6733, "\u0120ping": 29400, "clamation": 20931, "\u0120Timber": 27893, "along": 24176, "\u0120coefficients": 44036, "\u0120Weaver": 29594, "\u0120Continental": 30462, "\u0120caric": 33674, "\u0120vehemently": 42327, "\u0120synd": 11150, "\u0120affecting": 13891, "\u0120Immun": 25445, "\u0120dro": 3102, "intosh": 37638, "\u0120irregular": 21388, "\u0120totaled": 39398, "\u0120relate": 15124, "ributes": 7657, "projects": 42068, "\u0120Likes": 46077, "\u0120sell": 3677, "olester": 15764, "\u0120proving": 17742, "\u0120eighteen": 29095, "iden": 14029, "\u0120paving": 47711, "styles": 47720, "\u0120Smithsonian": 40131, "aur": 2899, "OTAL": 27510, "bender": 45666, "\u0120Assange": 21882, "\u0120DeVos": 39503, "\u0120Arg": 20559, "\u0120Length": 22313, "cap": 11128, "AME": 10067, "\u0120birds": 10087, "gha": 46090, "ugu": 45284, "\u0120Equip": 47636, "\u00e3\u0125\u0137": 17681, "\u0120certificate": 10703, "sk": 8135, "\u0120hostility": 23594, "\u0120science": 3783, "\u0120Ubuntu": 14949, "\u0120entit": 26189, "\u0120Willie": 28623, "ula": 4712, "\u0120deserve": 10925, "\u0120Dr": 1583, "\u0120traumatic": 25115, "\u01202018": 2864, "\u0120sou": 24049, "\u0120transformation": 13389, "course": 17319, "\u0120<=": 19841, "cyl": 38801, "ateral": 10534, "abe": 11231, "\u0120Ashes": 34143, "slave": 36341, "\u0120Tuls": 33219, "\u0120Dash": 16189, "\u0120liv": 17717, "feld": 16265, "\u0120intelligence": 4430, "\u0120concentrating": 37367, "RPG": 46954, "\u0120payday": 45691, "review": 19023, "Local": 14565, "UGC": 31179, "\u0120hunted": 34275, "\u0120Pegasus": 48188, "uling": 16619, "scenes": 28123, "\u0120sluggish": 40186, "\u0120Finn": 15368, "\u0120comprised": 19869, "\u0120trusts": 31976, "\u0120inventive": 47602, "\u0120Soviets": 31062, "\u0120Guilty": 47321, "Enable": 36695, "\u0120inserted": 18846, "\u0120annex": 22768, "\u0120alliances": 29614, "\u0120tone": 8216, "Spell": 31221, "\u0120DW": 29652, "Ohio": 31274, "\u0120mask": 9335, "Area": 30547, "\u0120\u00ce\u00b2": 27169, "\u0120corners": 14371, "\u0120Ranger": 21888, "\u0120relation": 8695, "aneers": 33547, "mot": 27926, "la": 5031, "\u0120Scorpion": 48821, "Ign": 32916, "\u0120244": 35264, "\u0120Con": 1482, "78": 3695, "\u0120converted": 11513, "wealth": 14298, "esthesia": 34811, "\u0120rant": 30993, "\u0120oils": 20629, "forum": 27302, "\u0120namely": 14811, "\u0120vape": 44931, "iving": 1412, "\u0120Damage": 8995, "\u0120solicitor": 48709, "\u0120reaches": 12229, "eva": 48855, "Audio": 21206, "\u0120sovereignty": 18582, "391": 37710, "\u0120UPDATE": 35717, "opia": 24464, "\u0120nap": 25422, "repl": 35666, "oyle": 19802, "\u0120Patty": 42417, "hem": 4411, "\u0120Sicily": 49301, "\u0120supplier": 22693, "\u0120pet": 4273, "\u0120297": 41103, "ozyg": 49834, "uden": 44452, "Texas": 21607, "\u0120filters": 16628, "Domin": 43417, "\u0120Norse": 38419, "\u012048": 4764, "\u0120spacecraft": 16807, "*/(": 40278, "\u0120Gen": 5215, "ampton": 23427, "oman": 5185, "igo": 14031, "\u0120tidal": 40738, "\u0120counterterrorism": 36573, "\u0120finishing": 12848, "\u0120exploit": 14561, "\u0120Revelation": 33722, "\u0120Tas": 24932, "Spawn": 49855, "shaw": 32832, "peed": 39492, "ext": 2302, "\u0120sourcing": 47015, "\u0120wells": 22571, "\u0120prophetic": 49054, "value": 8367, "\u0120neurons": 16890, "\u012000": 3571, "\u0120constitutionally": 40800, "doctor": 35580, "\u0120corros": 30329, "kens": 14972, "\u0120persistence": 30802, "\u0120Crusader": 33765, "\u0120Ash": 7844, "ONEY": 48399, "................................": 8864, "\u0120padded": 44582, "\u0120Zup": 45672, "\u0120deck": 6203, "\u0120560": 38089, "\u0120Huff": 14721, "\u0120Coh": 47222, "\u0120decoration": 42050, "\u0120storage": 6143, "Full": 13295, "\u0120alcohol": 5548, "\u0120soap": 19533, "\u0120crocod": 37565, "\u0120Get": 3497, "909": 44675, "\u0120bulls": 40317, "\u0120constructor": 23772, "\u0120Nixon": 16642, "\u0120Ben": 3932, "\u0120litigation": 19284, "\u0120saints": 31728, "angu": 2303, "ctuary": 15258, "\u0120Clan": 22467, "Mother": 31398, "\u0120bigotry": 28849, "\u0120tower": 10580, "\u0120defenders": 16355, "IER": 38311, "anas": 15991, "\u0120Metatron": 38894, "\u0120sa": 473, "\u0120extremists": 20674, "\u0120Sanctuary": 27036, "\u0120Palm": 18358, "Shift": 33377, "\u0120relics": 40970, "\u0120Fruit": 22826, "\u0120banquet": 47600, "student": 50139, "\u0120mesmer": 46814, "LV": 30976, "\u0120Breach": 46148, "\u0120sharper": 41415, "\u0120standings": 33864, "\u0120chopped": 20720, "\u0120informs": 30375, "Clinton": 16549, "\u0120furnish": 34076, "********************************": 17174, "ussie": 43480, "\u0120Min": 1855, "\u0120sq": 19862, "\u0120Aid": 22225, "\u0120Plan": 5224, "\u0120remain": 3520, "raise": 40225, "cgi": 37157, "resident": 8154, "\u0120nifty": 47803, "\u0120Nicotine": 41090, "\u0120\u00e3\u0123": 23294, "\u0120Hardcore": 49691, "\u0120Cardiff": 34910, "\u0120psi": 46231, "Christ": 10684, "\u0120Rad": 5325, "\u0120mast": 17288, "\u0120stab": 8303, "\u0120travelers": 23325, "/+": 28404, "\u0120AWS": 30865, "assium": 26663, "emption": 11221, "\u0120ourselves": 6731, "\u0120motherboard": 32768, "22": 1828, "\u0120wholes": 17950, "\u0120disappoint": 6703, "anything": 49459, "\u0120Pixel": 11349, "\u0120Ride": 21640, "\u0120associ": 2570, "\u0120elements": 4847, "\u0120progressed": 28775, "\u0120hundred": 3470, "resent": 2028, "\u0120Reyn": 18567, "\u0120Democrat": 9755, "\u0120Company": 5834, "\u0120CLA": 47666, "\u0120mortar": 29871, "Israeli": 29818, "506": 35638, "utenant": 15340, "Layer": 49925, "church": 36964, "\u0120Devon": 36889, "\u0120torture": 11543, "\u0120requ": 1038, "\u0120Elephant": 42651, "\u0120champions": 7827, "\u0120Error": 13047, "\u0120sneak": 20528, "kowski": 26216, "\u00e2\u013b\u00a5": 39908, "\u0120$(": 29568, "\u0120VMware": 37754, "\u0120sympath": 23860, "\u0116": 210, "\u0120Newcastle": 22410, "\u0120154": 24235, "\u0120indulge": 36941, "\u0120Thu": 26223, "\u0120Modest": 42810, "\u01201921": 35369, "\u0120footh": 36522, "\u0120strategic": 10039, "\u0120blister": 40770, "\u0120versatile": 21362, "imming": 27428, "\u0120energies": 27598, "\u0120dr": 1553, "\u0120Fitz": 16703, "\u0120be": 307, "\u0120accountable": 16689, "umar": 44844, "(\"": 7203, "Thu": 39902, "\u0120Chrysler": 36477, "hal": 14201, "\u0120towers": 18028, "\u0120Casting": 39285, "Methods": 46202, "oky": 31375, "\u0120withdrawals": 43939, "\u0120melancholy": 47886, "\u0120arrests": 14794, "Hum": 32661, "\u0120Rav": 28146, "nb": 46803, "Fram": 21055, "\u0120Premiere": 44151, "aji": 26436, "\u0120sch": 5513, "\u0120towel": 24808, "\u0120strip": 10283, "\u0120Chao": 41024, "\u0120yoga": 20351, "\u0120charismatic": 34996, "\u0120Well": 3894, "\u0120Presence": 46523, "Matrix": 46912, "\u0120accrued": 43802, "Sarah": 29284, "\u0120revision": 18440, "\u0120Canterbury": 43581, "\u0120trapping": 43338, ")+": 47762, "\u0120convertible": 41637, "\u0101": 189, "\u0120UKIP": 37809, "\u0120idols": 40207, "\u0120Territ": 18968, "\u0120Pixar": 46706, "\u0120HTC": 22063, "Ward": 49021, "\u0120Reform": 17893, "\u0120backup": 11559, "\u0120Tactical": 26984, "arty": 25494, "\u0120Worcester": 50075, "\u0120receptive": 41062, "\u01201949": 24977, "\u0120Gret": 35877, "asha": 14715, "\u0120contribution": 10156, "-+-+": 27097, "\u0120electrodes": 39780, "ahi": 32810, "\u0120control": 1630, "HF": 29567, "\u0120lineup": 12750, "\u0120Thunderbolt": 39887, "oti": 5092, "DAY": 26442, "\u0120hierarchical": 38958, "\u0120takeaway": 43678, "\u0120probes": 33124, "\u0120hasht": 20267, "\u0120appreciation": 19163, "\u0120Orange": 11942, "\u0120frog": 21264, "Service": 16177, "iffin": 42022, "\u0120indie": 19907, "ranean": 16474, "\u0120Intervention": 43673, "\u0120extraordinarily": 31999, "\u0120intermediary": 45193, "\u00e3\u0122\u0132": 31854, "\u0120Nicolas": 29737, "\u0120academic": 8233, "\u0120assigns": 46974, "\u0120gratitude": 24083, "appropriate": 13335, "\u0120Pam": 24497, "\u0120dissent": 17873, "\u0120Kul": 50024, "\u0120concerns": 4786, "\u0120Owens": 31005, "uggage": 29672, "\u0120usher": 36642, "\u0120978": 41417, "anch": 3702, "upp": 7211, "\u0120standby": 42020, "\u0120recomm": 3045, "\u0120Hai": 36876, "\u0120fry": 32959, "\u0120disciplinary": 24737, "91": 6420, "Everyone": 16190, "\u0120Montana": 18311, "\u0120sadd": 17766, "\u0120Nik": 11271, "\u0120recall": 10014, "\u0120Tick": 46093, "NJ": 41074, "\u0120outreach": 23424, "\u0120DNS": 18538, "changing": 22954, "airo": 18131, "HAHA": 21271, "\u0120Redd": 42734, "Father": 34823, "\u0120Kerr": 32879, "\u0120Armenia": 32369, "\u0120descript": 12145, "just": 3137, "\u0120Petro": 36863, "\u0120Merkel": 18263, "Boo": 46120, "m": 76, "Are": 8491, "\u0120conversion": 11315, "uish": 32091, "\u0120AN": 3537, "\u0120spans": 32727, "\u0120separates": 31555, "\u0120Caucasian": 43172, "\u0120TN": 29025, "\u01201080": 17729, "\u00c2\u00a2": 44359, "\u0120terrorists": 10509, "\u0120Authentication": 48191, "annis": 45017, "\u0120Aub": 19723, "jj": 41098, "\u0120improvements": 8561, "\u0120purchasing": 14080, "\u0120language": 3303, "\u0120CST": 46429, "\u0120Croat": 22422, "LED": 30465, "\u0120Promotion": 42868, "\u0120\u00e2\u013e": 14519, "\u0120dishes": 16759, "\u0120sixth": 11695, "Render": 45819, "squ": 16485, "\u0120vocabulary": 25818, "\u0120Funk": 37299, "\u0120packed": 11856, "\u0120Asked": 26220, "\u0120plugins": 20652, "\u0120Per": 2448, "CLASSIFIED": 45449, "\u0120satire": 35704, "trl": 14859, "\u0120EAR": 31834, "CAN": 44565, "before": 19052, "\u0120reve": 2697, "\u0120police": 1644, "pler": 20053, "\u0120PLoS": 49832, "\u0120extensively": 20823, "smoking": 48783, "\u0120Gas": 14345, "\u0120return": 1441, "\u0120Masters": 15812, "\u0120final": 2457, "Seg": 41030, "\u0120prop": 2632, "\u0120Indiana": 10278, "\u0120Ru": 11667, "Browser": 46532, "\u0120Analyst": 44600, "vised": 16149, "\u0120using": 1262, "=-": 10779, "\u0120Efficiency": 45728, "\u0120denouncing": 45041, "zz": 3019, "\u0120compounded": 36944, "Charles": 28711, "\u0120scratches": 37627, "\u0120willingness": 16826, "\u0120fair": 3148, "\u0120-------": 35656, "\u0120flakes": 42330, "\u0120IRS": 14440, "\u0120distressed": 36233, "\u0120downside": 25320, "\u0120Spur": 47788, "\u0120Conv": 34872, "\u0120Table": 8655, "Brend": 48015, "\u0120prelim": 14541, "\u0120pleasures": 35396, "\u0120Jer": 4230, "\u0120leaked": 14109, "opa": 26186, "\u0120stupid": 8531, "\u0120MR": 17242, "fitting": 32232, "eded": 15395, "\u0120relational": 50126, "Com": 5377, "lev": 2768, "\u0120directed": 7924, "\u0120inventory": 13184, "\u0120Droid": 46546, "\u0120harness": 19356, "\u0120aerial": 17789, "\u0120bab": 9289, "\u0120Lucia": 48158, "Corp": 45680, "Kenn": 39324, "\u0120Hus": 13895, "\u0120disbelief": 29894, "\u0120frequ": 3593, "erion": 28019, "\u0120protective": 14153, "nings": 23400, "\u0120Led": 22964, "\u0120Repl": 18407, "\u0120Prepar": 38397, "\u0120Fro": 9734, "anyahu": 15966, "ulo": 43348, "\u0120splend": 32394, "rings": 33173, "\u0120Tribe": 27804, "\u0120Jedi": 16147, "\u0120CEOs": 32938, "\u0120BaseType": 31783, "\u0120scourge": 50185, "BTC": 35964, "\u0120pioneered": 43185, "\u0120usable": 24284, "\u0120Growing": 37487, "\u0120botched": 44663, "\u0120Appendix": 30378, "586": 29796, ")-": 13219, "\u0120Old": 5706, "\u0120McL": 18365, "\u0120computer": 3644, "o\u00c4\u0141an": 48030, "\u0120earnest": 23176, "\u0120gruesome": 34557, "\u0120PayPal": 22525, "\u0120McA": 40444, "nick": 17172, "'s": 338, "\u0120mainland": 22779, "\u0120shr": 10157, "\u0120unacceptable": 18010, "\u0120entangled": 47446, "\u0120Ko": 17634, "Maps": 47010, "\u0120WARN": 42660, "AIDS": 39338, "Asset": 45869, "enforcement": 44976, "\u0120Gutenberg": 20336, "ires": 2387, "\u0120violet": 45725, "\u0120LIN": 43277, "itivity": 11365, "@@@@@@@@": 37991, "\u0120miserable": 22444, "\u0120abbre": 28873, "generic": 41357, "\u0120Timeline": 43040, "\u0120Gibbs": 41071, "odo": 24313, "qqa": 28794, "\u0120civilizations": 35928, "\u0120interrogation": 24758, "\u0120Course": 20537, "retched": 27528, "\u0120JO": 32357, "ederation": 9748, "igator": 23823, "ME": 11682, "\u0120Card": 5172, "ellery": 41800, "Model": 17633, "\u0120FB": 13186, "\u0120ghetto": 46482, "\u0120servers": 9597, "\u0120Hussein": 22983, "\u0120cavern": 33932, "\u0120366": 44856, "ryption": 13168, "\u0120purposefully": 45136, "\u0120Moreover": 10968, "Firstly": 49709, "lite": 36890, "\u0120Theatre": 15752, "\u0120/**": 42638, "\u0120Raptors": 30836, "\u0120Energy": 6682, "\u0120Contains": 49850, "\u0120Obamacare": 12439, "RANT": 32506, "\u0120cavalry": 30891, "\u0120Iz": 28493, "\u0120Dahl": 41471, "uddenly": 18865, "\u0120Lind": 9329, "\u0120Devil": 10489, "\u0120:-)": 47226, "\u0120teamwork": 48424, "\u0120weaken": 13813, "\u0120nightclub": 26617, "Rah": 47135, "\u0120Pharmac": 37908, "\u0120REALLY": 36413, "ousands": 19983, "\u0120personally": 7620, "\u0120Oh": 3966, "\u0120Standard": 8997, "India": 21569, "\u0120possessions": 23309, "Msg": 50108, "Stats": 29668, "mediately": 23802, "\u0120homeowners": 24692, "Through": 15046, "\u0120Cascade": 48788, "\u0120vanished": 23717, "\u0120registration": 9352, "\u0120frantic": 37644, "\u0120skies": 24091, "NEWS": 49597, "\u0120choke": 28504, "\u0120East": 3687, "Pl": 3646, "\u0120unmanned": 35272, "\u0120briefs": 50011, "\u0120NM": 28692, "WP": 25527, "\u0120Pleasant": 35469, "\u0120backward": 19528, "eday": 23712, "Exper": 20468, "\u0120targets": 6670, "GL": 8763, "\u0120presented": 5545, "\u0120obligation": 12990, "\u0120creed": 43514, "\u0120Budd": 8578, "\u0120horses": 14260, "\u0120irrig": 29344, "employ": 7033, "alian": 7199, "\u0120AFL": 25363, "\u0120coached": 31764, "\u0120Willis": 32748, ".\",": 33283, "\u0120Generations": 46003, "\u0120empty": 6565, "\u0120fundra": 12663, "anticipated": 45178, "abs": 8937, "YD": 35755, "\u0120plus": 5556, "\u0120Derrick": 32979, "uments": 2886, "record": 22105, "\u0120redef": 34087, "\u0120MAC": 20582, "\u0120produces": 11073, "\u0120salvage": 32504, "zzi": 46218, "lest": 32712, "\u0120pastor": 22175, "\u0120vet": 20202, "\u0120predictive": 33344, "irm": 2533, "enges": 34120, "\u0120differe": 980, "\u0120Ranked": 41844, "\u0120Lanc": 21534, "Overall": 16350, "\u0120Sox": 17689, "\u0120force": 2700, "\u0120longer": 2392, "OPLE": 34354, "\u0120discovers": 27472, "\u0120roots": 11135, "\u0120clamp": 29405, "\u0120reforming": 40446, "\u0120hump": 49779, "\u0120530": 40585, "\u0120licenses": 16625, "enh": 16550, "Charlie": 37136, "Sea": 37567, "etus": 29158, "stem": 927, "\u0120testers": 42891, "\u0120slips": 33841, "vir": 37040, "verse": 4399, "atars": 40193, "\u0120fu": 14035, "\u0120ruby": 43506, "Pont": 48039, "orkshire": 29918, "omsday": 33415, "\u0120Editors": 48073, "\u0120Eating": 37537, "\u0120guard": 4860, "Message": 12837, "FER": 24302, "141": 23756, "\u0120threaten": 16180, "minist": 2201, "\u0120OUT": 16289, "\u0120serum": 20502, "angled": 22393, "\u0120ceremony": 10542, "\u0120pipe": 12656, "\u0120constitute": 15613, "\u0120curved": 26929, "org": 2398, "endants": 30841, "dan": 25604, "\u0120vinegar": 26600, "D": 35, "709": 31495, "\u0120lex": 31191, "\u0120roomm": 26255, "\"...": 26214, "Amid": 43541, "\u0120Tal": 7193, "\u0120Inter": 4225, "398": 31952, "\u0120tactical": 16106, "\u0120contradict": 18372, "\u0120SJ": 31766, "igr": 3692, "\u0120Associate": 22669, "\u0120resolution": 6323, "985": 42250, "\u0120tack": 6331, "\u01201924": 37547, "\u0120FA": 9677, "\u0120monog": 43173, "\u0120topic": 7243, "\u0120attain": 18188, "ctx": 49464, "\u0120crops": 14450, "\u0120Heidi": 45518, "\u0120meaningless": 24513, "\u0120pilgrimage": 36068, "uebl": 45749, "FUN": 42296, "FORE": 30818, "ifestyle": 42004, "\u0120Ao": 27378, "\u0120angels": 21981, "\u0120NETWORK": 49791, "\u0120probabilities": 39522, "\u0120Stephenson": 42838, "mother": 13552, "\u0120Cooldown": 39742, "\u0120pa": 14187, "\u0120Sov": 6917, "ba": 7012, "!\",": 40754, "fer": 2232, "\u0120curry": 34611, "\u0120\"#": 25113, "\u0120remains": 3793, "\u0120BEL": 29991, "\u0120Fen": 19426, "Sham": 43478, "activation": 48545, "\u0120br": 865, "\u0120pu": 47574, "\u0120Photograph": 18903, "\u0120injuries": 6821, "\u0120nib": 33272, "\u0120Chamberlain": 45918, "\u0120broadcasting": 22978, "62": 5237, "oka": 17411, "expression": 38011, "\u0120=>": 5218, "\u0120resultant": 43440, "\u0120nonetheless": 19018, "\u0120355": 36561, "\u0120anti": 3098, "bley": 43263, "\u0120Protect": 21916, "\u0120shroud": 32296, "\u0120cram": 33070, "\u0120extrater": 42024, "\u0120deline": 46925, "\u0120kW": 50223, "\u0120flows": 15623, "\u0120Positive": 33733, "\u0120ASCII": 37101, "\u0120comprehens": 8569, "\u0120Hann": 14353, "other": 847, "\u0120explanatory": 44742, "ero": 3529, "\u0120pounded": 49162, "\u0120subsection": 8371, "\u0120corrid": 16080, "\u0120graded": 44545, "\u0120ingred": 7677, "\u0120Shelley": 46854, "\u0120grandson": 31845, "\u0120Box": 8315, "Mod": 5841, "\u0120flair": 37457, "\u0120Waters": 21827, "\u0120Went": 29866, "\u0120equival": 6854, "grad": 9744, "653": 46435, "otos": 14163, "\u0120Imperium": 38929, "\u0120Slovenia": 37562, "\u0120Welfare": 32404, "\u0120quickest": 46264, "\u0120decent": 7709, "aughs": 19256, "\u0120appoint": 5393, "\u0120myth": 7918, "\u0120assumes": 18533, "\u0120Fract": 40548, "\u0120Serve": 35557, "\u0120partnered": 29806, "\u0120tempo": 28691, "\u0120Loki": 31771, "Param": 22973, "by": 1525, "concept": 43169, "IRC": 49060, "\u0120tranqu": 31882, "\u0120cervical": 36012, "\u0120paperwork": 23143, "\u0120NK": 46465, "theless": 9603, "\u0120Fuji": 43694, "\u0120Wen": 31164, "iang": 15483, "aught": 3413, "onomy": 30565, "\u0120Metropolitan": 21609, "\u0120attributable": 29816, "\u0120scrapped": 35034, "iddy": 34208, "\u0120fs": 43458, "\u0120unman": 29389, "\u0120Arche": 43572, "\u0120CT": 16356, "\u0120280": 21355, "Ang": 13450, "\u0120triggers": 20022, "oqu": 22696, "DES": 30910, "icious": 6243, "mount": 14948, "\u0120Armor": 10313, "See": 6214, "\u0120briefing": 17719, "\u0120simulations": 27785, "\u0120motiv": 6556, "VG": 43490, "\u0120bystand": 33326, "\u0120fodder": 41579, "\u0120Rivers": 18280, "\u0120proposition": 19168, "\u0120honesty": 24345, "ls": 7278, "\u0120handlers": 32847, "\u0120embodiments": 32403, "\u0120destinations": 23982, "stated": 21989, "\u0120suffering": 7195, "\u0120Typically": 27095, "Dis": 7279, "\u0120prev": 8654, "Gear": 38141, "Conn": 37321, "riots": 44447, "\u0120Casual": 43508, ":'": 32105, "cli": 44506, "\u0120mixing": 17090, "\u0120pre": 662, "apply": 39014, "\u0120Services": 6168, "onna": 6415, "\u0120Winnipeg": 23434, "\u0120trajectory": 22942, "\u0120Grateful": 44249, "\u0120Diagn": 31549, "apy": 12826, "\u0120reminding": 30047, "\u0120DOJ": 27055, "\u0120Sir": 7361, "\u0120prosecutor": 13683, "\u0120complicated": 8253, "\u0120gunshots": 46828, "\u0120Lara": 29849, "Fab": 43957, "iless": 30608, "Occ": 29223, "\u0120unl": 9642, "\u0120per": 583, "\u0120unavoid": 34804, "\u0120Pulse": 25062, "\u0120cocktails": 34281, "\u0120compromise": 13110, "published": 30271, "emouth": 46880, "710": 43147, "\u0120<@": 32406, "\u0120Mississ": 12732, "\u0120Mall": 16618, "426": 42780, "\u0120submitting": 24353, "\u0120reaction": 6317, "\u0120inverse": 34062, "\u0120Von": 26985, "\u0120initialized": 23224, "\u0120rows": 15274, "\u0120Pros": 27631, "\u0120Farage": 33904, "case": 7442, "\u0120helium": 43142, "\u0120Tibet": 18910, "PDF": 20456, "\u0120proletariat": 30444, "\u0120adop": 4344, "\u0120Owner": 23853, "\u0120Zam": 38343, "\u0120defenses": 18370, "\u0120Augusta": 46820, "\u0120recipes": 14296, "\u0120jazz": 21274, "sov": 47272, "gyn": 40183, "\u0120Mith": 44137, "\u0120turtles": 36288, "\u0120selects": 40573, "\u0120Look": 6803, "lay": 10724, "\u0120keen": 13795, "\u0120Rohing": 32571, "\u0120Provincial": 46719, "ixty": 19404, "\u0120allegiance": 25696, "Rare": 26737, "ack": 441, "tal": 39240, "ASH": 11211, "\u0120Schr": 49871, "\u0120swing": 9628, "iana": 7484, "\u0120stamped": 28305, "\u0120instructions": 7729, "\u0120restoring": 25646, "\u0120coc": 8954, "\u0120Bun": 28515, "\u0120glyphosate": 38329, "\u0120Scar": 12089, "gom": 19120, "\u0120domest": 26026, "\u0120populace": 39003, "\u0120Bor": 12182, "IGN": 16284, "udge": 12587, "\u0120subjects": 7481, "\u0120caching": 40918, "wrong": 36460, "\u0120WAY": 34882, "\u0120Marathon": 24828, "\u0120gal": 9426, "\u0120Herman": 25028, "\u0120Eventually": 16178, "\u0120System": 4482, "\u0120environmentally": 34132, "Joy": 41338, "\u0120auction": 14389, "Interview": 39945, "687": 39925, "\u0120Haitian": 48723, "\u0120dynam": 6382, "Jesus": 28219, "\u0120quad": 15094, "\u0120asking": 4737, "\u0120rotation": 13179, "\u0120Nib": 49532, "\u0120functioning": 15025, "\u0120Reds": 14703, "\u0120vill": 4489, "secut": 4552, "Configuration": 38149, "\u00fc": 184, "\u0120Batt": 12350, "\u0120appl": 3680, "\u0120Eleven": 37339, "ictive": 45279, "\u0120gown": 33323, "\u0120rectangular": 36954, "\u0120electrom": 26629, "\u0120Jensen": 32623, "\u0120pedestrian": 22382, "\u0120provoke": 29791, "\u0120evenly": 21894, "porting": 26527, "\u0120previously": 4271, "itizen": 36958, "\u0120crou": 33838, "\u0120Clement": 27311, "research": 34033, "''": 7061, "\u00e6\u00a9": 43897, "\u0120Mineral": 30000, "Benef": 42166, "\u0120Dave": 9935, "Blocks": 45356, "\u0120Arch": 5579, "Resource": 26198, "\u0120sil": 3313, "\u0120convenience": 15607, "\u0120proc": 13834, "\u00e7": 163, "oby": 26730, "\u0120Pakistani": 17807, "\u0120SolidGoldMagikarp": 43453, "begin": 27471, "\u0120conspic": 30034, "\u0120rumours": 30427, "\u0120realities": 22072, "\u0120AG": 13077, "\u0120width": 9647, "\u0120exploded": 18750, "\u0120congregation": 28862, "\u0120Investor": 47979, "\u0120bund": 12207, "\u0120filmmaking": 49291, "\u0120headlined": 46958, "same": 31642, "tered": 4400, "\u0120assisting": 26508, "\u0120buses": 16893, "\u0120fungi": 38467, "\u0120pension": 13553, "\u0120vot": 1993, "\u0120parish": 28830, "dropping": 37554, "\u0120weird": 7650, "\u0120indisp": 33321, "compliance": 47587, "\u0120Substance": 50021, "\u0120Victoria": 12313, "\u0120Saur": 46197, "\u0120Nom": 21198, "\u0120magic": 5536, "TT": 15751, "Working": 28516, "verty": 8077, "\u0120generational": 48837, "\u01203000": 20343, "\u0120intra": 23422, "\u0120HSBC": 43841, "finished": 43952, "\u0120hormonal": 36956, "\u0120Ranking": 45407, "\u0120whilst": 14590, "\u0120Wed": 3300, "\u0120USC": 18928, "\u0120Tobacco": 28603, "\u0120torque": 26415, "trigger": 46284, "\u0120filled": 5901, "grass": 29815, "\u0120incremental": 29497, "\u0120exception": 6631, "\u0120Brush": 39846, "\u0120writer": 6260, "905": 44928, "Govern": 29168, "\u0120Kou": 30559, "\u0120Autob": 41735, "\u0120scraps": 44496, "\u0120Ship": 16656, "\u0120effort": 3626, "\u0120Manufacturer": 40218, "conom": 1519, "\u0120contraceptive": 37832, "\u0120chance": 2863, "\u0120Washington": 2669, "\u0120barren": 39497, "\u0120safer": 14178, "\u0120cleanup": 27425, "\u0120Insider": 22167, "uh": 7456, "\u0120caller": 24955, "\u0120influential": 14212, "\u0120stamina": 32312, "\u0120Twe": 24205, "\u0120contemporaries": 46028, "\u0120Lol": 44841, "\u0120Potion": 34018, "\u0120HTTPS": 38288, "roller": 10646, "van": 10438, "\u0120Authent": 31885, "\u0120Milo": 32662, "Sensor": 47864, "\u0120reform": 4975, "\u0120LV": 24981, "\u0120ann": 1529, "avement": 44034, "\u0120Nano": 33504, "irrel": 22793, "oit": 30711, "\u0120meantime": 14324, "\u0120gren": 17236, "\u0120235": 28878, "\u0120queen": 16599, "\u0120cap": 1451, "\u0120futures": 25650, "\u0120Henry": 8616, "\u0120cavity": 31643, "\u0120Jeanne": 48202, "Bridge": 37385, "\u0120Chow": 37932, "ampa": 13299, "Cont": 4264, "Mem": 13579, "\u0120stronghold": 32753, "\u0120Uganda": 30872, "197": 24991, "\u0120needed": 2622, "\u0120ownership": 9238, "\u0120simulator": 35375, "Neill": 26538, "STEM": 25361, "\u0120assistance": 6829, "\u0120Liberia": 33208, "\u0120beers": 16800, "\u0120NET": 30502, "\u0120illustrating": 44000, "\u0120dise": 3591, "oldown": 15041, "laws": 29317, "NER": 21479, "\u0120gained": 8618, "\u0120ponds": 47339, "\u0120arrange": 21674, "477": 32883, "\u00e3\u0123\u012e": 35585, "\u0120340": 28560, "bee": 20963, "\u0120arguably": 15242, "\u0120Only": 5514, "\u0120SHAR": 39225, "grades": 31177, "\u0120perception": 11202, "\u0120Aura": 29434, "\u0120millennium": 39210, "\u0120Yelp": 44628, "\u0120invasion": 11796, "\u0120depictions": 44528, "\u0120cleans": 20658, "\u0120observation": 13432, "83": 5999, "\u0120laid": 8104, "\u0120tragedies": 42546, "ressor": 44292, "ref": 5420, "inas": 24252, "ements": 3196, "\u0120revol": 35891, "\u0120favoring": 43567, "\u0120proprietary": 20622, "\u0120increasingly": 6481, ".\",\"": 41424, "\u0120invests": 49862, "shapeshifter": 33929, "\u0120Mystery": 18208, "functional": 45124, "\u0120killing": 5170, "\u0120flawed": 19556, "\u0120This": 770, "%": 4, "access": 15526, "\u0120recognizing": 22650, "\u0120earthqu": 13198, "\u0120MT": 19308, "\u0120devout": 38440, "ylan": 18554, "position": 9150, "\u0120Linda": 21776, "\u0120frantically": 42352, "\u0120bark": 21405, "\u0120technological": 14614, "\u0120crippling": 37953, "\u0120Apache": 24843, "hart": 18647, "orpor": 31150, "\u0120dysph": 50111, "\u0120senseless": 41439, "\u0120jewels": 42701, "\u0120join": 4654, "urances": 31741, "\u0120Cul": 32559, "\u0120deported": 27434, "19": 1129, "\u0120daughters": 14850, "\u0120usual": 6678, "\u0120Pry": 32500, "\u0120worries": 18572, "smart": 27004, "Static": 45442, "\u0120Held": 44584, "\u0120Summary": 21293, "CRIPTION": 40165, "\u0120Jag": 35687, "\u0120bicy": 12561, "\u0120Celtics": 24116, "Ed": 7407, "umption": 24098, "ffe": 16658, "ures": 942, "\u0120honored": 21014, "\u0120chemically": 49966, "\u0120Ske": 19460, "\u0120email": 3053, "\u0120premiere": 19245, "arded": 10676, "\u0120Aman": 42614, "solete": 23869, "\u0120Palest": 5480, "MIT": 36393, "\u0120ventures": 33787, "All": 3237, "Here": 4342, "\u0120plank": 39599, "\u0120Nose": 47880, "Ol": 30098, "\u0120Ts": 13146, "ichael": 40302, "1200": 27550, "\u0120unsub": 32793, "\u0120chipset": 49013, "\u0120audit": 14984, "\u0120breach": 13694, "axis": 22704, "erick": 41556, "\u0120metaphysical": 42031, "557": 41948, "\u0120bright": 6016, "\u0120verifying": 45505, ">>>>>>>>": 33717, "\u0120sshd": 49249, "\u0120habitats": 35308, "\u0120pe": 613, "levision": 5024, "\u0120Veh": 15118, "\u0120har": 3971, "MSN": 30295, "ocument": 7990, "\u0120Coil": 46639, "\u0120Fever": 41951, "\u0120770": 44586, "\u0120inconven": 20488, "\u0120Dum": 30933, "Week": 20916, "\u0120lengths": 20428, "\u0120boundary": 18645, "\u0120Rid": 23223, "ishment": 17862, "\u0120Unsure": 38481, "\u0120Dharma": 46707, "\u0120Ultr": 46487, "\u0120breadth": 32483, "\u0120fermented": 44543, "anic": 26277, "regate": 49373, "assies": 46257, "\u0120Wired": 39721, "447": 34825, "\u0120exh": 21847, "\u0120suppliers": 20499, "\u0120paras": 17850, "Wan": 45681, "555": 31046, "ises": 2696, "\u0120AAP": 31518, "\u0120encyclopedia": 45352, "\u0120application": 3586, "\u0120answering": 18877, "\u0120Mortgage": 45446, "\u0120Cheng": 27692, "\u0120earthly": 39892, "serious": 34009, "\u0120vantage": 47929, "ync": 13361, "\u0120ominous": 34837, "\u0120Panthers": 17782, "ert": 861, "\u0120gadget": 42892, "res": 411, "\u0120graphs": 28770, "\u0120Utah": 10202, "\u0120raced": 32897, "\u0120Nar": 13596, "\u0120Kenneth": 23632, "\u0120kings": 21557, "\u0120Gamble": 49318, "cles": 5427, "\u0120blaster": 48131, "169": 22172, "\u0120MGM": 49182, "\u0120fant": 5113, "iseum": 38277, "ktop": 16201, "at": 265, "\u0120cited": 9181, "\u0120Caleb": 40777, "\u0120TG": 44121, "agna": 48669, "\u0120shootings": 17690, "\u0120researched": 30066, "\u0120Ames": 46843, "gence": 12745, "\u0120oxidative": 37736, "\u0120floated": 29742, "\u0120notions": 26226, "\u0120unfocused": 28312, "\u0120Classification": 40984, "\u0120revoke": 39041, "\u0120Help": 10478, "Roll": 26869, "\u0120THREE": 48697, "\u0120Liv": 32020, "Lie": 47918, "\u0120Heisman": 49537, "eden": 31829, "ticket": 43350, "\u0120early": 1903, "\u0120comput": 2653, "\u0120monumental": 36364, "ranking": 28405, "\u0120Doesn": 28048, "\u0120resurrected": 41914, "gon": 14520, "\u0120Me": 2185, "Daily": 28545, "\u0120damages": 12616, "\u0120Eclipse": 30991, "ct": 310, "\u0120resear": 4027, "ifice": 9680, "\u0120Nazis": 19147, "Fran": 38848, "Measure": 47384, "\u0120distort": 30867, "\u0120consisting": 17747, "\u0120sing": 1702, "AMY": 29428, "\u0120Overview": 28578, "\u0120canonical": 40091, "\u0120helicop": 11727, "rets": 8004, "\u0120MSI": 30781, "\u0120eagle": 31176, "\u0120&&": 11405, "\u0120docker": 36253, "\u00a3\u0131": 6408, "formance": 10367, "uren": 23532, "ohm": 34028, "ays": 592, "\u0120insulting": 27899, "bane": 20235, "\u0120Cloak": 36558, "\u0120depressive": 36568, "\u0120psychotic": 37162, "\u0120teasp": 18945, "gment": 5154, "haus": 30404, "\u0120Cassandra": 46750, "\u0120Observatory": 25758, "off": 2364, "uploads": 39920, "\u0120deposition": 32553, "acqu": 43561, "\u0120Neg": 13496, "\u0120microbial": 36603, "\u0120Sanford": 42862, "\u0120congr": 19030, "\u0120derby": 47317, "\u0120angular": 32558, "BD": 14529, "\u0120interactions": 12213, "\u0120recipients": 20352, "sat": 49720, "\u0120backstage": 43090, "upload": 25850, "mic": 9383, "\u0120shadow": 9082, "\u00ce\u00bc": 34703, "\u0120peaked": 33948, "\u00e5\u00bf": 33232, "Weapon": 27632, "MAT": 41636, "\u0120clarity": 16287, "fty": 19628, "\u0120Liter": 17667, "username": 29460, "\u0120Index": 12901, "fun": 12543, "\u0120meticulously": 46553, "\u0120broke": 6265, "\u0120hears": 23180, ")\"": 16725, "\u0120Primordial": 44174, "\u0120jar": 17379, "\u0120jets": 20792, "auldron": 45637, "\u0120Kare": 49396, "\u0120Wad": 48986, "\u0120ballots": 20103, "Should": 19926, "\u0120Cooperation": 35047, "\u0120rive": 40112, "\u0120pulls": 16194, "ihadi": 42449, "with": 4480, "\u0120text": 2420, "winner": 39791, "lication": 10142, "\u0120screens": 8947, "\u0120honest": 5508, "\u0120Dillon": 40057, "\u0120Dmit": 35438, "\u0120instantly": 11101, "\u0120thread": 4704, "\u0120respir": 21483, "integ": 18908, "\u0120endorse": 11438, "\u0120culmination": 41089, "\u0120prowess": 30721, "\u0120Madagascar": 46694, "PHOTOS": 42709, "\u0120Spoon": 48704, "Installation": 30838, "\u0120ESV": 33910, "\u0120diced": 48898, "\u0120Ni": 11556, "\u0120Nether": 11692, "dinand": 41993, "\u0120Portsmouth": 48823, "\u0120instruction": 12064, "\u0120Description": 12489, "\u0120barely": 8523, "ursed": 17539, "cube": 40296, "mob": 39949, "https": 5450, "FBI": 39379, "\u0120narcotics": 36524, "\u0120fiber": 13608, "cliffe": 33783, "arrass": 9187, "yu": 24767, "\u0120circulating": 24495, "\u0120globally": 18309, "\u0120main": 1388, "craft": 3323, "\u00c2\u00af\u00c2\u00af\u00c2\u00af\u00c2\u00af\u00c2\u00af\u00c2\u00af\u00c2\u00af\u00c2\u00af\u00c2\u00af\u00c2\u00af\u00c2\u00af\u00c2\u00af\u00c2\u00af\u00c2\u00af\u00c2\u00af\u00c2\u00af": 27006, "\u0120u": 334, "\u0120Treaty": 21345, "ivas": 38630, "leader": 27940, "\u0120publicity": 19403, "lesh": 29730, "\u0120158": 24063, "Match": 23850, "\u0120pasta": 26296, "\u0120correctional": 49187, "\u0120Netanyahu": 17104, "\u0120Previous": 21801, "Ear": 8419, "\u0120entrances": 43818, "\u0120burn": 4245, "\u0120yeah": 10194, "\u0120Hust": 42941, "\u0120delim": 46728, "\u0120Liberties": 34226, "\u0120critics": 9188, "\u00e2\u0122\u0142": 33912, "Analysis": 32750, "\u0120pige": 32372, "\u0120attackers": 16391, "\u0120pid": 46514, "\u0120unanim": 17452, "\u00c0": 124, "Scan": 33351, "\u0120Bub": 19645, "GREEN": 43016, ".''": 13531, "\u0120appreciated": 16373, "raints": 15517, "\u0120Quarterly": 36082, "\u0120fing": 8038, "\u0120advancing": 19988, "\u0120fragrance": 36860, "\u0120Exit": 29739, "\u0120Eff": 27848, "\u0120pasture": 46753, "\u0120Volt": 22702, "service": 15271, "\u0120acquitted": 35497, "\u0120geographic": 22987, "\u0120bes": 7284, "\u0120discussing": 11142, "\u0120rushing": 15795, "\u0120Io": 27853, "\u0120foreground": 36282, "\u0120cropped": 48998, "\u0120neighbors": 12020, "\u0120Extras": 43620, "ys": 893, "\u0120reduction": 7741, "\u0120braces": 47241, "240": 16102, "\u0120Bloom": 11891, "\u0120Curiosity": 39736, "apolis": 11174, "Pict": 21300, "\u0120inacc": 17595, "\u0120esp": 15024, "\u0120Omn": 31816, "\u0120Churchill": 25987, "\u0120Newsletter": 35798, "\u0120demo": 13605, "\u0120coated": 30267, "\u0120chains": 14659, "\u0120IGF": 46757, "\u0120improve": 2987, "\u0120connection": 4637, "\u0120FW": 48849, "\u0120exoner": 43507, "\u0120consideration": 9110, "str": 2536, "\u0120millisec": 33606, "\u0120prophes": 48897, "\u0120Liqu": 35515, "\u0120inherently": 20108, "\u0120Legends": 14270, "\u0120Public": 5094, "\u0120similarity": 26789, "\u0120//[": 31161, "\u0120prepaid": 46851, "\u0120Tad": 50077, "\u0120Shields": 30512, "\u0120bullpen": 35093, "\u0120paternal": 38082, "wig": 28033, "\u0120Sites": 37034, "THIS": 43559, "\u0120Erit": 43349, "\u0120Alt": 12344, "\u0120Kar": 9375, "alogy": 48909, "\u0120changing": 5609, "heter": 43332, "Sept": 14635, "got": 23442, "urai": 16998, "swing": 46737, "\u0120Fish": 13388, "initions": 50101, "\u0120belongings": 30985, "\u0120WH": 7655, "ahs": 39095, "\u0120contracted": 23407, "\u0120Philly": 30029, "\u0120Horton": 46051, "omo": 17902, "\u0120REL": 29749, "\u0120Venezuela": 16666, "\u0120sprite": 33810, "ONDON": 47383, "\u0120idiot": 22324, "\u0120occasions": 12432, "\u0120fade": 22100, "\u0120LOW": 46663, "\u0120ninth": 19646, "\u0120coord": 6349, "\u0120fleet": 11026, "\u0120attached": 7223, "nerg": 25649, "\u0120Hispan": 13600, "\u0120cd": 22927, "onel": 26261, "\u0120Blank": 31990, "eries": 10640, "\u0120Vanessa": 42100, "\u0120Tot": 20323, "inspired": 24194, "Reports": 37844, "\u0120ranger": 43570, "\u0120fiat": 36984, "lar": 21681, "\u0120Marcel": 36547, "\u0120Lump": 41499, "\u0120fer": 11354, "Tim": 14967, "\u0120tonnes": 26840, "\u0120Ox": 10736, "\u0120spare": 13952, "\u0120VIDEO": 35507, "\u0120Europeans": 20006, "\u0120marital": 29555, "\u0120ident": 1852, "\u0120regeneration": 27597, "\u0120Panzer": 46294, "\u0120vectors": 30104, "\u0120laundering": 27194, "_-": 22955, "\u0120anterior": 32700, "\u0120sun": 4252, "\u0120Yor": 42453, "Company": 39154, "tta": 25854, "Regarding": 39424, "Supp": 15979, "Socket": 39105, "metic": 15103, "\u0120footballer": 44185, "\u0120plutonium": 47901, "\u0120library": 5888, "\u0120interrupted": 19072, "aska": 8480, "INTER": 41358, "\u0120Planet": 11397, "Tube": 6876, "\u0120TEXT": 40383, "\u0120image": 2939, "304": 21288, "\u0120consumes": 37225, "\u0120adjusted": 12328, "\u0120discriminatory": 27200, "\u0120tuple": 46545, "\u0120Pres": 1763, "\u0120touch": 3638, "wu": 43812, "ota": 4265, "\u0120hash": 12234, "\u00e3\u0124\u00ba": 37426, "\u0120bitcoin": 8550, "437": 43284, "\u0120blue": 4171, "\u0120mats": 46054, "HY": 42598, "\u0120rele": 1889, "\u0120Paramount": 38153, "Years": 40630, "oldemort": 24710, "\u0120vocational": 48368, "Dom": 24510, "\u0120supers": 22754, "\u0120poll": 3278, "756": 38219, "wa": 10247, "\u0120recomb": 44759, "ability": 1799, "\u00e2\u0138\u012a": 8115, ",'": 4032, "\u0120Change": 9794, "\u0120inexpl": 33199, "\u0120SM": 9447, "\u0120naval": 19014, "?\u00e3\u0122\u012f": 42943, "\u0120earnings": 12042, "\u0120officers": 3790, "\u0120genetic": 8513, "rx": 40914, "failed": 47904, "Money": 26788, "\u0120Elijah": 38646, "ork": 967, "\u0120rescind": 39091, "\u0120Jace": 49674, "Dun": 30128, "\u0120carriage": 25739, "\u0120newcomers": 29661, "\u0120persecuted": 37501, "rimp": 23750, "\u0120breakfast": 12607, "\u0120mammals": 23426, "\u0120Panic": 34478, "\u0120powder": 11913, "\u0120horny": 42014, "PUT": 30076, "\u00e9\u00be\u012f\u00e5": 19049, "\u0120Slaughter": 41148, "747": 48882, "\u0120maximum": 5415, "\u00e8\u012a": 48958, "\u0120AL": 8355, "\u0120apologize": 16521, "\u0120Dracula": 41142, "\u0120paranoid": 30285, "\u0120Marcos": 37033, "\u0120hindsight": 36412, "unctions": 46797, "\u01201897": 49429, "I": 40, "\u0120paced": 44756, "\u0120hypothesis": 14078, "\u0120conv": 3063, "\u0120Giant": 17384, "surprisingly": 41199, "\u0120prenatal": 43228, "\u0120Licensed": 49962, "\u0120wired": 28217, "\u0120excise": 47547, "\u0120Fraud": 39826, "\u0120interim": 19303, "\u0120AH": 28159, "\u0120AX": 43051, "\u0120ART": 24278, "forestation": 41570, "\u0120Bei": 46731, "\u0120transpired": 49243, "utch": 7140, "\u0120bo": 1489, "ussen": 35951, "kins": 5331, "\u0120obsessed": 21366, "USB": 27155, "\u0120Rouge": 27478, "70": 2154, "hed": 704, "\u0120fortress": 28757, "\u0120constrained": 31070, "\u0120ZIP": 42977, "\u0120Gap": 33899, "\u0120Buckley": 41493, "\u0120peacefully": 30996, "\u0120Bullet": 18003, "\u0120Flow": 27782, "\u0120daily": 4445, "\u0120pist": 11714, "VEL": 18697, "\u0120...\"": 35713, "Pull": 42940, "\u0120DES": 22196, "nance": 41601, "opted": 45256, "\u0120mascara": 48430, "\u0120stimulates": 49881, "ilib": 22282, "\u0120struggle": 6531, "\u0120sacred": 13626, "mx": 36802, "\u0120Rai": 42954, "velength": 26623, "endon": 43153, "\u0120spreading": 14342, "\u0120Crime": 10003, "\u0120PS": 6599, "isher": 4828, "\u0120solo": 12199, "\u0120anticipating": 40807, "\u0120casing": 39731, "\u0120cav": 22357, "\u0120consciousness": 10510, "ited": 863, "\u0120dogma": 40937, "\u0120refugees": 8015, "okemon": 12717, "\u0120pouch": 36594, "\u0120owl": 39610, "\u0120\u00e3\u0124\u00b5\u00e3\u0125\u00bc\u00e3\u0125\u0128\u00e3\u0124\u00a3\u00e3\u0125\u00af\u00e3\u0125\u00b3": 45545, "\u0120retire": 8058, "\u0120seekers": 22310, "iffs": 10203, "\u0120Bob": 5811, "\u0120Films": 30198, "\u0120dreaming": 28368, "\u0120tweeting": 28990, "\u0120margin": 10330, "\u0120Alright": 40967, "\u0120AUT": 47044, "\u0120commentators": 25699, "\u0120298": 37576, "\u0120slave": 11778, "\u0120Scott": 4746, "picture": 34053, "aliation": 22885, "\u0120272": 38107, "terrorism": 19541, "heid": 28420, "\u0120accustomed": 23840, "\u0120coerced": 48474, "371": 38056, "\u0120inter": 987, "illusion": 35760, "\u0120molten": 44030, "\u012000000000": 27551, "wl": 40989, "\u0120strain": 14022, "acers": 49908, "\u0120Vari": 15965, "\u0120immortality": 40079, "chair": 16337, "\u0120Mario": 10682, "ohan": 22436, "Mor": 20044, "\u0120Manor": 33555, "unt": 2797, "\u0120steep": 14559, "\u0120Gin": 21444, "\u0120Resources": 13864, "\u0120penetrate": 28302, "Bl": 3629, "\u0120Colts": 20464, "Fat": 33804, "\u0120whale": 22206, "ilo": 18526, "\u0120kit": 6220, "\u0120ions": 39270, "NN": 6144, "\u0120chips": 12014, "\u0120impact": 2928, "atchewan": 29736, "\u0120wast": 25057, "ablished": 22555, "iar": 12571, "\u0120pubs": 46972, "\u0120Tickets": 26878, "Minor": 39825, "\u0120Rao": 48395, "pel": 30242, "\u0120past": 1613, "ogg": 10332, "\u0120observe": 12414, "founder": 15454, "\u0120trick": 6908, "\u0120racing": 11717, "\u0120Angry": 31900, "\u0120Medicare": 13771, "\u0120Sword": 11535, "rn": 35906, "\u0120awakening": 33971, "\u0120incoming": 15619, "\u00c9": 133, "\u0120monopol": 30797, "\u0120Launch": 21225, "\u0120BlackBerry": 30845, "\u0120synth": 33549, "\u0120bakery": 38164, "\u0120Merrill": 40418, "\u0120Psych": 7562, "\u0120Belfast": 29713, "VER": 5959, "title": 7839, "\u0120Biblical": 31752, "ups": 4739, "\u0120markup": 41485, "\u0120BB": 12597, "\u0120wheat": 17135, "\u0120stored": 8574, "\u0120Tub": 42850, "\u0120edges": 13015, "Marie": 44507, "\u0120aggravated": 25890, "\u0120Mad": 4627, "esame": 34038, "\u0120-": 532, "agara": 38415, "oval": 8325, "safety": 44708, "cpp": 20322, "\u0120Album": 23999, "\u0120Average": 13475, "\u0120whispers": 37806, "iflower": 42642, "\u0120Camer": 8014, "\u0120Disable": 31529, "\u0120by": 416, "\u0120convergence": 40826, "\u0120manufacturer": 11554, "\u0120purse": 27517, "\u0120sanctions": 9388, "\u0120redes": 19965, "\u0120Empty": 33523, "Park": 25478, "\u0120spots": 10222, "\u0120feminists": 22742, "berman": 34591, "Thus": 19093, "321": 36453, "tube": 29302, "\u0120conting": 17982, "effic": 24531, "ressed": 2790, "urrencies": 28018, "\u0120Voltage": 45444, "\u0120Epstein": 34594, "\u0120Hale": 35056, "\u0120}": 1782, "\u0120Wings": 17330, "fam": 44769, "ioxid": 26294, "rats": 46714, "\u0120quality": 3081, "\u0120<": 1279, "\u0120acqu": 4078, "\u0120Whit": 13183, "\u01201929": 31883, "\u0120notably": 14660, "\u0120obfusc": 44080, "Connector": 34525, "nces": 3179, "\u012024": 1987, "WN": 29767, "Alabama": 49177, "\u0120practice": 3357, "ypes": 9497, "\u0120seals": 29718, "Proof": 44683, "ins": 1040, "math": 11018, "\u0120MLS": 13981, "\u0120buffer": 11876, "\u0120eloqu": 32973, "urb": 5945, "ylene": 37880, "\u0120Nationwide": 49232, "]'": 49946, "true": 7942, "\u0120adulthood": 28003, "\u0120Part": 2142, "accessible": 33780, "\u0120repression": 28279, "\u0120quantum": 14821, "\u0120outfielder": 46422, "\u0120overl": 12893, "\u0120esports": 37407, "perate": 30052, "Ham": 21281, "\u0120installing": 15975, "\u0120Sachs": 25158, "\u0120testing": 4856, "\u0120ignorance": 17010, "Xi": 42528, "\u0120fn": 24714, "\u0120administration": 3662, "CLASS": 31631, "\u0120Switzerland": 14679, "\u0120Bahamas": 45726, "\u0120Pay": 7119, "\u0120Souls": 18541, "\u0120416": 38158, "hair": 27108, "separ": 25512, "\u0120808": 41241, "\u0120Grav": 32599, "\u0120Destroyer": 30414, "\u0120000": 12877, "\u0120amused": 36979, "\u0120socialists": 43005, "\u0120Lisp": 38593, "Premium": 36787, "\u0120pow": 7182, "\u0120Bal": 8528, "\u0120livestock": 24424, "\u00e3\u0125\u013a\u00e3\u0125\u00a9": 34473, "\u0120organizer": 26311, "gements": 43547, "\u0120commentator": 28823, "Initial": 24243, "\u0120competitive": 7606, "\u0120diameter": 14753, "\u0120chilling": 28010, "\u0120LH": 49730, "\u0120relapse": 47861, "alls": 5691, "\u0120Reserved": 33876, "\u0120tunes": 31796, "\u0120Guides": 48770, "\u0120wip": 14763, "\u0120heter": 14445, "you": 5832, "\u0120maneuver": 20186, "\u0120syndrome": 14027, "\u0120AMD": 10324, "\u0120par": 1582, "\u0120actress": 14549, "\u0120bosses": 17317, "\u0120Prov": 7518, "\u0120${": 25597, "jug": 31761, "\u0120Moons": 48432, "\u0120Saint": 9281, "AMA": 25087, "\u0120Rei": 33225, "another": 29214, "\u0120stake": 10171, "\u0120moot": 41264, "\u0120If": 1002, "arthed": 36370, "\u0120dying": 9950, "\u0120win": 1592, "idia": 38513, "\u0120Qual": 9537, "\u0120Barr": 27883, "irmed": 15491, "\u0120bip": 14141, "capitalist": 49970, ".\"": 526, "Types": 31431, "\u0120Symbol": 38357, "rils": 41408, "\u0120hackers": 17110, "%)": 4407, "ster": 1706, "unless": 25252, "\u0120pagan": 36164, "hr": 11840, "Sus": 30746, "\u0120inspires": 38934, "\u0120arose": 21172, "\u0120benchmark": 18335, "\u0120spent": 3377, "\u0120consolidation": 31941, "\u0120Entreprene": 42071, "Other": 6395, "\u0120lesson": 11483, "\u0120cub": 13617, "\u0120Francisco": 6033, "cess": 919, "\u0120ballot": 11100, "\u0120dorsal": 45254, "\u0120role": 2597, "\u0120Kenn": 7158, "\u00e5\u00a7\u00ab": 40235, "\u0120compromising": 35294, "Four": 15137, "\u0120********************************": 41906, "luence": 23079, "ITAL": 40579, "Prof": 15404, "\u012004": 8702, "\u0120Featured": 38188, "\u0120CI": 14514, "\u0120Watkins": 36832, "Topics": 25902, "\u0120384": 40400, "\u0120todd": 23646, "\u0120Drivers": 36577, "\u0120Berks": 45167, "\u0120neighbourhoods": 45221, "\u0120Beirut": 40702, "\u0120delusional": 45935, "\u0120gigs": 42299, "1998": 21113, "\u0120Jelly": 37152, "\u0120stunned": 19987, "Martin": 24778, "\u0120Area": 9498, "acceptable": 16037, "issy": 36419, "\u01201957": 25177, "isters": 6223, "\u0120conservation": 14903, "No": 2949, "\u0120MIC": 35878, "\u0120darker": 18646, "\u0120dismissing": 37514, "\u0120dismantled": 44001, "\u0120Excel": 24134, "hett": 17442, "prot": 11235, "\u0120characteristics": 9695, "\u0120Armory": 45388, "\u0120attribution": 39629, "\u0120Alternate": 42400, "\u0120ties": 8470, "\u0120Bradley": 16182, "\u0120Violet": 37111, "\u0120Simulation": 41798, "fp": 46428, "\u0120rap": 4095, "Gordon": 47073, "\u0120Rated": 49949, "iced": 3711, "\u0120treats": 18432, "\u0120Connection": 26923, "levant": 14938, "\u0120actors": 10544, "425": 32114, "\u0120Northeast": 26315, "\u0120eradicate": 39339, "cluding": 6360, "\u0120popcorn": 38914, "\u0120silhou": 33123, "\u0120Inc": 3457, "\u0125": 225, "CLOSE": 32737, "isted": 6347, "isure": 20609, "gt": 13655, "yo": 8226, "Mir": 27453, "wick": 16239, "\u0120suburban": 20154, "stration": 12401, "\u0120don": 836, "dates": 19581, "\u0120Sig": 21984, "WI": 36326, "Lin": 14993, "\u0120expanded": 9902, "\u0120Mormons": 33003, "\u0120stamp": 17977, "\u0120bikini": 45810, "GAN": 45028, "mand": 22249, "\u0120Tsuk": 28835, "rius": 48969, "genic": 38516, "\u0120scapego": 42374, "ansen": 33807, "\u0120jQuery": 37420, "\u0120paper": 3348, "\u0120Discovery": 23455, "riel": 11719, "\u0120June": 2795, "Murray": 49998, "])": 12962, "\u0120Clive": 47722, "\u0120censored": 43847, "esty": 9673, "\u0120redeem": 26509, "\u0120stopped": 5025, "\u0120Failed": 22738, "\u0120pathological": 42306, "\u0120choir": 42644, "\u0120including": 1390, "\u0120Ang": 2895, "\u0120Pen": 7507, "\u0120descendants": 25321, "inem": 7749, "itt": 715, "\u0120township": 42823, "\u0120canine": 43003, "\u0120Feng": 18164, "\u0120Cathy": 40636, "Bomb": 48478, "Saharan": 40461, "ules": 5028, "\u0120melting": 24203, "\u0120toughness": 35879, "HM": 36905, "\u01206000": 39064, "sheets": 42011, "\u0120Shooting": 25360, "legraph": 16606, "\u0120Sherman": 23198, "\u0120marketers": 41064, "impro": 32077, "\u0120heightened": 25556, "\u0120celebrated": 13943, "\u0120surprised": 6655, "\u0120achieves": 41885, "Samsung": 32334, "Fre": 20366, "\u0120bribery": 37388, "\u00e9\u00be": 11737, "TPPStreamerBot": 37579, "\u0120outlook": 19360, "\u0120freely": 12748, "\u0120Brenda": 49495, "\u0120fallacy": 39104, "VERS": 28884, "\u0120Haiti": 25051, "\u0120muddy": 39085, "Domain": 43961, "\u0120Digital": 10231, "News": 9980, "Beat": 34979, "\u0120Tut": 22792, "\u0120requires": 4433, "Snap": 43826, "\u0120finish": 5461, "Invest": 19070, "\u0120Papa": 42328, "afer": 34659, "\u0120Kush": 18995, "\u0120148": 22613, "\u00bc": 120, "\u0120Aqu": 11446, "\u0120storytelling": 23689, "\u0120tandem": 32969, "\u0120Ser": 2930, "etting": 35463, "\u0120masc": 23977, "021": 46821, "\u0120angled": 48719, "\u0120Workers": 16847, "\u00ce\u00b3": 42063, "respective": 36990, "\u0120Mars": 8706, "\u0120preached": 38737, "\u0120loudly": 23112, "\u0120trek": 30784, "Sand": 18471, "\u0120Eld": 19208, "\u0120sunk": 24790, "\u0120100": 1802, "Amy": 40797, "\u0120prison": 3770, "uci": 42008, "\u0120defending": 11749, "\u0120acknowledged": 10810, "\u0120happens": 4325, "overs": 13801, "\u0120labels": 14722, "\u00d1\u0131": 40623, "571": 42875, "\u0120programming": 8300, "\u0120Feld": 34873, "\u0120halls": 24350, "ilitarian": 43900, "packing": 41291, "\u0120lately": 16537, "\u0120Singh": 14403, "ices": 1063, "\u0120DEFENSE": 48551, "\u0120spiked": 38927, "\u0120tribunal": 30105, "optional": 25968, "ora": 5799, "\u0120firmware": 18779, "\u0120Brazil": 7595, "\u0120claimed": 4752, "opsy": 44522, "fine": 38125, "\u0120illustrate": 19418, "\u0120Goodwin": 46653, "\u0120Holt": 28330, "\u0120repro": 43969, "\u01201200": 24938, "Acknowled": 39482, "\u0120grabs": 22378, "\u0120apple": 17180, "\u0120endif": 45762, "\u0120SUR": 41016, "boost": 39521, "\u0120respectively": 8148, "\u0120meth": 11248, "iggurat": 44557, "\u0120component": 7515, "\u0120Monk": 28854, "\u0120dragged": 17901, "\u0120Fallout": 23886, "\u0120scholars": 9123, "oubted": 15973, "max": 9806, "ourgeois": 18924, "\u0120REAL": 32744, "\u0120r\u00c3\u00a9": 40560, "esome": 5927, "\u0120MUS": 39484, "stories": 50164, "\u0120occupancy": 42498, "\u0120Durant": 27686, "\u0120amaz": 40642, "\u0120Anat": 28880, "\u0120MAR": 18805, "\u0120histories": 25985, "\u0120cal": 2386, "\u0120Ron": 6575, "\u0120Around": 16824, "acular": 12754, "\u0120feet": 3625, "\u0120discredit": 34019, "\u0120material": 2587, "\u0120adorned": 41860, "\u0120divers": 15070, "\u0120Of": 3226, "\u0120oceans": 23744, "\u0120Flav": 33026, "\u0120Scholar": 11713, "\u0120Attention": 47406, "\u0120overdoses": 49626, "\u0120960": 41263, "\u0120Maur": 18867, "oscope": 40326, "\u0120issu": 25731, "\u0120season": 1622, "\u0120Conversely": 34511, "exe": 13499, "forge": 30293, "\u0120bikes": 16715, "\u0120Jiu": 42310, "453": 36625, "\u0120lambda": 37456, "\u0120activ": 1753, "Hidden": 41691, "\u0120Dec": 4280, "\u0120Highland": 39874, "\u0120lineback": 16166, "mos": 16785, "andestine": 35887, "\u0120Rs": 12820, "'ve": 1053, "\u0120Tibetan": 31877, "\u0120Tag": 17467, "Please": 5492, "Ah": 10910, "\u0120Skull": 24360, "\u0111": 205, "\u0120Shotgun": 34198, "\u0120Immunity": 46824, "intensity": 47799, "ournal": 2549, "Jam": 30380, "vance": 19259, "estival": 6743, "FactoryReloaded": 37631, "Coun": 31053, "\u0120Songs": 31772, "Compat": 40073, "FTWARE": 37485, "amy": 14814, "existent": 32786, "\u0120Speaker": 14931, "\u0120Compan": 16154, "\u0120hotel": 7541, "\u0120sodium": 21072, "\u0120prod": 40426, "andise": 18888, "Ad": 2782, "\u0120Negro": 27115, "SEA": 46887, "\u0120Steve": 6542, "\u0120SPD": 30628, "\u0120FIG": 19697, "\u0120inhib": 11062, "\u0120lumin": 29763, "\u0120gay": 5650, "illed": 2967, "\u0120Calculator": 43597, "\u0120Goddess": 9488, "dayName": 45392, "\u0120sol": 1540, "\u0120Mercury": 21673, "\u0120storyline": 22992, "\u0120advancement": 27647, "\u0120incomprehensible": 47757, "\u0120linear": 14174, "\u0120+": 1343, "\u0120Fried": 15442, "\u0120oppos": 38642, "\u0120strictly": 14084, "\u0120interpol": 39555, "\u0120Authors": 46665, "\u0120pointless": 27158, "\u0120Program": 6118, "args": 22046, "\u0120unaware": 17261, "\u0120cosmetic": 27284, "ravings": 42335, "ocide": 16207, "\u0120Bulgaria": 27902, "\u0120difficult": 2408, "\u0120cartel": 34430, "\u0120clash": 19122, "\u0120Reagan": 12823, "absolute": 48546, "cin": 17879, "\u0120Understand": 45010, "\u0120realizing": 20060, "\u0120Filipino": 35289, "ogen": 6644, "\u0120app": 598, "\u0120Mi": 13756, "\u0120INTO": 39319, "\u0120fore": 1674, "\u0120Zur": 35821, "MH": 36208, "mony": 9926, "\u0120point": 966, "\u0120poverty": 8098, "\u0120disappearing": 28867, "\u0120cpu": 42804, "\u0120devotion": 25808, "'d": 1549, "\u0120Po": 7695, "\u0120Grenade": 47951, "\u0120sn": 3013, "\u0120aftermath": 16280, "\u0120Czech": 16639, "Probably": 34784, "\u0120Poc": 39375, "\u0120Roosevelt": 19297, "iques": 6368, "\u0120Registry": 33432, "\u0120AMC": 36239, "\u0120oxygen": 11863, "\u0120glucose": 15701, "arian": 3699, "\u0120undermin": 16303, "\u0120worm": 23849, "\u0120Yun": 20757, "ataka": 48088, "\u0120investor": 15811, "\u0120Maya": 26041, "]\"": 30866, "\u0120totals": 26310, "viron": 2268, "Slow": 36423, "\u0120prox": 14793, "\u0120Patterson": 27042, "\u0120hint": 9254, "Art": 8001, "\u0120highly": 4047, "\u0120secrecy": 22780, "\u0120bankrupt": 13158, "M": 44, "691": 49541, "phe": 36335, "it\u00c3\u00a9": 43816, "\u0120flavours": 46946, "ophone": 38656, "onet": 36823, "\u0120effected": 43495, "\u0120favorite": 4004, "015": 25150, "\u0120Storm": 8865, "\u0120careless": 36138, "\u0120circled": 48149, "\u0120Reb": 15652, "784": 37688, "\u0120LDL": 37654, "pret": 5310, "cffffcc": 31957, "\u0120Resort": 28345, "\u0120glands": 42093, "\u0120chores": 46173, "\u0120Iron": 7931, "\u0120Contracts": 49199, "\u0120worldwide": 8688, "\u0120Mush": 24257, "ou": 280, "fold": 11379, "\u0120jersey": 22383, "alling": 9221, "\u0120sid": 9785, "\u0120bunny": 44915, "nce": 1198, "\u0120weak": 4939, "\u0120LAST": 41894, "Johnson": 25378, "\u0120bacter": 19241, "\u0120roaring": 43170, "\u0120pump": 8901, ".,": 1539, "\u0120coordinating": 35449, "azes": 36096, "\u0120\u00c2\u00ab": 21110, "shop": 24643, "\u0120spawn": 10922, "Pros": 35726, "pre": 3866, "\u0120Issues": 22852, "\u0120organised": 20325, "\u0120ARE": 15986, "\u0120true": 2081, "\u0120brutally": 30040, "\u0120steal": 8711, "\u0120disreg": 18795, "Ultimately": 27212, "\u0120caches": 50177, "\u0120AST": 29273, "umbai": 21645, "\u0120translate": 15772, "\u0120dominating": 30651, "\u0120Priest": 20876, "\u0120coercive": 47236, "\u0120Spring": 8225, "ortality": 28337, "qus": 45260, "\u0120disco": 4655, "\u0120reacted": 22798, "\u0120bullets": 16043, "Rod": 27917, "\u0120importing": 33332, "\u0120nicely": 16576, "\u0120Cosby": 36485, "\u0120Damon": 33572, "\u0120consulted": 26889, "\u0120Edu": 40766, "ricting": 42870, "\u0120Audit": 46450, "adapt": 42552, "\u0120coax": 37700, "\u0120Learned": 38514, "\u0120urgency": 25615, "\u0120trailer": 12268, "expr": 31937, "\u0120tad": 36264, "eps": 25386, "ANGE": 27746, "\u0120impunity": 37610, "nar": 23955, "\u00e7\u0126": 47078, "busters": 30181, "\u00e1": 157, "\u0120camoufl": 31962, "\u0120assassinated": 39981, "\u0120principled": 48070, "ovable": 21985, "\u0120economic": 3034, "\u0120Kelvin": 46577, "\u0120disarm": 35526, "\u0120leasing": 42150, "\u0120definition": 6770, "packs": 32377, "\u0120Diego": 9500, "\u0120Shea": 42368, "\u0120Puzzles": 31913, "\u0120deliveries": 31167, "react": 45018, "439": 47106, "\u0120hilar": 17570, "\u0120settled": 10282, "Z": 57, "aito": 38995, "\u0120Gleaming": 49339, "hak": 43573, "regn": 28321, "\u0120Programming": 30297, "\u0120renaissance": 48917, "\u0120impairment": 23992, "\u0120Neh": 44470, "\u0120Har": 2113, "\u0120Hots": 41239, "\u0120Badge": 44308, "\u0120morning": 3329, "\u0120reun": 15398, "\u0120qual": 4140, "\u0120marginalized": 31670, "\u0120Collector": 17573, "ocked": 3543, "\u0120plugs": 37008, "\u0120dismantling": 41928, "\u0120mult": 1963, "\u0120Funny": 40473, "\u0120XI": 30554, "\u0120react": 6324, "\u0120thigh": 19341, "\u0120Fiesta": 49839, "\u0120Cyr": 40399, "\u0120Vince": 22376, "\u0120stitching": 48945, "\u0120every": 790, "\u0120polite": 23507, "\u0120enriched": 35601, "\u0120insight": 11281, "Stay": 25681, "member": 19522, "\u0120Hamb": 26175, "ORTS": 33002, "\u0120debian": 50001, "Mil": 24857, "\u0120slider": 28982, "talk": 16620, "\u0120rep": 1128, "\u0120363": 49327, "jiang": 39598, "\u0120untold": 47872, "este": 29872, "ymph": 20896, "\u0120roy": 10611, "breaking": 13395, "ux": 2821, "\u0120Goo": 43456, "\u0120misery": 24672, "Storm": 32173, "\u0120collaborative": 25408, "coal": 25140, "\u0120intimidation": 27341, "\u0120Crim": 9822, "cod": 19815, "\u0120takeoff": 45306, "\u0120courageous": 34010, "\u0120Child": 5932, "tm": 17209, "\u0120divor": 21781, "ustration": 44027, "\u0120Harvey": 14943, "none": 23108, "\u0120Cr": 3864, "UID": 27586, "\u0120secure": 5713, "ource": 1668, "\u0120geared": 31394, "\u0120overlooked": 21655, "An": 2025, "\u0120cryptography": 45898, "\u0120Cutting": 40152, "\u0120ice": 4771, "\u0120figur": 31474, "nat": 32353, "\u0120rede": 21459, "\u0120photographer": 16413, "\u0120infield": 43262, "\u0120exceeds": 21695, "\u012092": 10190, "\u0120Santa": 8909, "\u0120Gomez": 33231, "eus": 27650, "isks": 36730, "\u0120Sav": 8858, "vp": 36133, "ustomed": 22646, "esthetic": 37531, "\u0120Trip": 18383, "\u0120pursue": 10660, "bek": 47083, "\u0120Dres": 40576, "oping": 15816, "\u0120374": 49020, "\u0120ceilings": 45926, "\u0120Republicans": 4734, "\u0120Meaning": 30563, "\u0120components": 6805, "\u00c3\u00afve": 38776, "Pattern": 47546, "writer": 16002, "\u0120papers": 9473, "\u0120suggesting": 9524, "uka": 14852, "rax": 32040, "\u0120bells": 30987, "\u0120Fiat": 23327, "unal": 18835, "\u0120TDs": 42873, "\u0120Fantasy": 10982, "\u0120Lois": 42879, "\u0120repositories": 38072, "\u0120civil": 3026, "669": 36657, "Lv": 29507, "\u0120aggrav": 20072, "\u0120Brach": 42229, "\u0120Tau": 36849, "entric": 22317, "\u0120Gateway": 29916, "*=-": 48069, "560": 34135, "\u0120Kurdistan": 29439, "\u0120Rod": 6882, "bridge": 9458, "\u0120Tan": 11818, "\u0120consolidated": 27890, "\u0120downed": 42281, "\u0120respondent": 31282, "\u0120bedrooms": 38529, "Application": 23416, "Fall": 24750, "\u0120engine": 3113, "uta": 29822, "\u0120protesting": 23655, "\u0120Politico": 27096, "blogs": 49096, "],\"": 17241, "\u0120Klopp": 43461, "\u0120saving": 8914, "\u0120m": 285, "wagon": 41127, "\u0120anchor": 18021, "amel": 17983, "\u0120trove": 42377, "\u0120whiff": 48112, "\u0120NON": 44521, "ciples": 6418, "attle": 1999, "\u0120Having": 11136, "\u0120422": 46588, "achine": 20480, "Jackson": 31270, "\u0120shifting": 15852, "tted": 28734, "udden": 16557, "journal": 24891, "\u0120Parent": 16774, "\u0120premature": 19905, "1981": 35411, "\u0120frustrations": 40447, "\u0120Jessie": 43425, "\u0120lesions": 35258, "\u0120expand": 4292, "Boss": 37310, "\u0120Eval": 26439, "SC": 6173, "have": 14150, "\u0120\u00f0\u0141\u013a": 30325, "\u0120planting": 26630, "cludes": 13955, "zone": 11340, "\u0120subsidy": 28646, "\u0120Rodrigo": 46198, "\u0120referee": 22957, "\u0120discuss": 2112, "imeo": 47776, "\u0120Germans": 16064, "\u0120Anxiety": 48276, "\u0120grandparents": 28571, "\u0120faster": 5443, "aked": 4335, "\u00e7\u00a5\u0140": 15351, "itzerland": 13947, "\u0120Django": 37770, "Kelly": 34831, "\u0120authorize": 29145, "\u0120rises": 16736, "\u0120discounted": 29686, "\u0120ng": 23370, "Veter": 45182, "Termin": 44798, "DeliveryDate": 39749, "\u0120Analy": 16213, "\u0120Techn": 5429, "\u0120glimpse": 19350, "\u0120Witness": 21440, "\u0120Radical": 38352, "\u0120Mormon": 13164, "\u0120Sebastian": 26190, "\u0120flat": 6228, "encia": 29634, "\u0120unique": 3748, "\u0120JJ": 38775, "\u0120Emirates": 24880, "\u0120aperture": 32729, "\u0120Decay": 39087, "ield": 1164, "\u0120brid": 38265, "\u0120limp": 42102, "\u0120WARNING": 39410, "\u0120Grizzlies": 40669, "\u0120blah": 33367, "270": 20233, "uliffe": 45228, "\u0120encomp": 20504, "\u0120411": 43184, "\u0120fetus": 31076, "inth": 9304, "\u010d": 201, "\u0120collagen": 45452, "\u0120Crypto": 36579, "\u0120toget": 1977, "\u0120malls": 43890, "\u0120musicians": 17245, "Knight": 44242, "ijah": 32778, "haw": 26615, "\u0120marqu": 44054, "\u0120Recep": 44970, "\u0120Wink": 48450, "\u0120Filter": 25853, "\u0120confession": 24250, "),": 828, "\u0120bullied": 33632, "isner": 49861, "\u0120superficial": 31194, "kn": 15418, "clud": 758, "issa": 13808, "\u0120Jonas": 40458, "\u0120ladies": 17308, "\u0120stuck": 7819, "\u0120commit": 4589, "updated": 43162, "UK": 15039, "\u0120It": 632, "\u0120neurotrans": 39307, "\u0120Sorcerer": 30467, "\u0120Dou": 5728, "\u0120fellow": 5891, "\u0120screw": 9580, "Col": 5216, "\u0120Trouble": 34179, "Wave": 39709, "\u0120Feder": 35089, "verning": 13974, "\u0120Shame": 48266, "\u0120outl": 41528, "\u0120theorist": 46410, "asty": 7833, "Living": 36376, "9999": 24214, "\u0120lib": 9195, "\u0120232": 31773, "\u0120fuller": 44757, "Deb": 16587, "breeding": 49705, "\u0120shitty": 32574, "ppel": 46357, "\u0120nostalgic": 40459, "\u0120Liberals": 20162, "\u0120shin": 40465, "\u0120Olymp": 7001, "pictured": 28852, "\u0120participates": 49567, "\u0120DIS": 13954, "gars": 25821, "Double": 25628, "\u0120hopeless": 23292, "\u0120veterinarian": 41404, "\u0120expands": 27513, "\u00ce\u00b5": 30950, "\u00fd": 185, "inic": 47277, "\u0120\"/": 12813, "\u0120Consult": 21651, "ussions": 21585, "lua": 40211, "Paul": 12041, "\u0120Beam": 25855, "\u0120Reilly": 47879, "iership": 36689, "\u012010000": 33028, "\u0120somew": 4209, "\u0120doubted": 37104, "\u0120echoes": 30346, "At": 2953, "\u0120injunction": 27439, "\u0120sc": 629, "@@": 12404, "\u0120properties": 6608, "\u0120discontin": 19936, "iculture": 47428, "\u0120astroph": 48782, "\u0120equals": 21767, "Figure": 11337, "\u0120Exile": 37273, "\u0120Be": 1355, "\u0120Pitch": 33517, "\u0120mosquito": 35446, "\u0120mant": 24818, "\u0120classmate": 45222, "\u0120election": 3071, "\u0120softer": 32359, "\u0120fearsome": 46056, "\u0120consensus": 11529, "remote": 47960, "\u0120bunch": 7684, "idy": 19325, "\u0120Probably": 18578, "\u0120noble": 15581, "\u0120Rom": 3570, "UF": 36820, "rov": 18657, "uine": 8327, "\u0120Rumble": 42888, "\u0120Koch": 17009, "\u0120hp": 27673, "\u0120MPH": 43822, "\u0120visiting": 10013, "Plus": 17860, "Els": 45507, "\u0120slid": 27803, "acet": 23253, "\u0120exclusive": 8568, "////////////////////////////////": 49704, "\u0120pediatric": 29775, "\u0120Ago": 48210, "\u0120gel": 20383, "does": 22437, "feel": 36410, "Born": 28524, "\u0120disband": 35758, "\u0120rationale": 25738, "\u0120Paris": 6342, "\u0120decreases": 20638, "Rum": 47127, "\u0120Ish": 24303, "\u0120409": 48132, "avery": 12447, "\u0120sorely": 50103, "\u0120Slide": 37651, "sized": 13982, "\u0120bru": 18145, "\u0120242": 34353, "\u0120reb": 3405, "missing": 45688, "\u0120ingest": 26151, "\u0120Bless": 49629, "\u00e4\u00bc": 27670, "boa": 48614, "ALTH": 40818, "alcohol": 42142, "\u0120ages": 9337, "BC": 2749, "\u0120Lodge": 27046, "ellow": 5037, "\u0120landlords": 30658, "\u0120VERY": 29550, "valid": 12102, "\u0120Graveyard": 45490, "\u0120Arab": 4498, "````": 33153, "\u01202024": 48609, "Ax": 31554, "\u0120Vill": 9757, "\u0120withdrawing": 36395, "\u0120insulin": 14588, "\u0120kinderg": 34469, "\u0120Columbus": 14939, "\u0120mutants": 39456, "\u0120fian": 41668, "\u0120beneficial": 13205, "\u0120Han": 9530, "\u0120fixed": 5969, "\u0120learned": 4499, "\u0120calming": 44907, "\u0120halted": 27771, "\u0120239": 32817, "\u0120Bucket": 48353, "ete": 14471, "inity": 6269, "\u0120disappointing": 17185, "\u0120appear": 1656, "\u0120iteration": 24415, "\u0120foreclosure": 41400, "\u0120Build": 10934, "ghan": 6064, "\u0120Harlem": 39735, "\u0120Sang": 30043, "\u01201500": 20007, "frey": 37425, "uding": 26570, "\u0120bog": 22922, "quest": 6138, "\u0120\u00e0\u00a4": 28225, "mallow": 42725, "\u0120question": 1808, "\u0120RV": 31367, "\u01205000": 23336, "508": 33042, "\u0120334": 42819, "\u0120Bottom": 24530, "free": 5787, "LGBT": 37701, "\u0120palate": 44100, "\u0120Domain": 20021, "\u0120anarch": 14061, "\u0120cluster": 13946, "\u0120Java": 7349, "ardon": 19917, "assisted": 42191, "\u0120lacks": 16523, "\u0120marines": 45333, "\u0120forecast": 11092, "\u0120denies": 18866, "\u0120Shots": 42162, "\u0120unrest": 17093, "\u0120involving": 7411, "\u0120orbits": 37015, "\u0120enthusiasm": 17131, "\u0120Instructions": 27759, "\u0120Silk": 26006, "\u0120pointers": 32007, "Sphere": 38882, "\u00e7\u00ab": 44165, "\u0120pirates": 27516, "\u0120domination": 24288, "\u0120time": 640, "\u0120accommodating": 49389, "\u0120prevailed": 34429, "\u0120Wong": 27247, "rued": 21556, "\u0120bubbles": 25037, "\u0120French": 4141, "\u0120Journalism": 37406, "\u0120Matters": 30587, "\u0120Gallery": 12917, "merce": 11647, "iciency": 19777, "\u0120Telescope": 36789, "Romney": 42184, "ThumbnailImage": 39142, "\u0120genuine": 8768, "\u0120indication": 12955, "ination": 1883, "\u0120proved": 8302, "\u0120initi": 5383, "Cover": 27245, "\u0120Lane": 15016, "icit": 3628, "\u0120blasts": 29895, "_": 62, "\u0120lou": 21081, "\u0120269": 38249, "\u0120conflicted": 46060, "\u0120respected": 14462, "little": 31629, "\u0120XXX": 27713, "addr": 29851, "\u0120Abortion": 46415, "\u0120reconstructed": 49594, "\u0120MO": 13070, "\u0120enrichment": 36513, "\u0120importantly": 11003, "\u0120processor": 12649, "\u01201999": 7358, "\u0120Control": 6779, "\u0120Gle": 25680, "\u0120missed": 6825, "\u0120qualified": 10617, "\u0120recognized": 8018, "pole": 36869, "Forward": 39746, "\u0120transition": 6801, "\u0120November": 3389, "\u0120analytical": 30063, "\u0120Compatibility": 46021, "\u0120practition": 17629, "Complete": 20988, "\u0120ensuring": 13359, "cox": 40359, "iversary": 9023, "\u0120wary": 23300, "\u0120subdiv": 45944, "\u0120gum": 27142, "\u0120touching": 15241, "pse": 7752, "\u0120Nort": 15209, "\u0120Pupp": 20926, "disk": 39531, "NSA": 47549, "Dad": 46270, "\u0120crap": 18824, "itive": 1800, "real": 5305, "\u0120promo": 30879, "\u0120smooth": 7209, "\u0120incentiv": 39678, "\u0120Gust": 26657, "\u0120striving": 34260, "Sat": 20245, "\u0120intestinal": 32031, "\u0120Mour": 24289, "Multi": 29800, "\u0120None": 6045, "\u0120kin": 18967, "\u0120Acts": 25528, "\u0120define": 8160, "\u0120Pacific": 8211, "NP": 22182, "\u0120technical": 6276, "1989": 25475, "iting": 1780, "\u0120Madison": 14909, "\u0120NOW": 20229, "\u0120smarter": 23714, "336": 29211, "\u0120medically": 35031, "\u0120Therefore": 8447, "\u0120Cruel": 44153, "cery": 12757, "\u0120apprehension": 46473, "\u00e7\u013c\u0126": 21410, "ada": 4763, "\u0120bloss": 35107, "\u0120unnecess": 11689, "\u0120Exclusive": 35651, "\u0120scope": 8354, "\u0120Donovan": 31565, "\u0120::": 7904, "ubes": 29080, "\u0120unleashed": 28136, "holders": 10476, "eches": 16672, "\u0120VK": 45917, "\u0120avail": 29107, "Autom": 38062, "uably": 14632, "\u0120Likely": 45974, "\u0120entire": 2104, "\u0120Diaz": 26899, "\u0120ISS": 33805, "\u0120promoter": 32972, "\u0120expenditure": 20705, "\u0120contacting": 27390, "\u0120Popular": 22623, "\u0120NPC": 15888, "\u0120untreated": 41539, "\u0120Revision": 46604, "\u0120contender": 24190, "\u00d7\u0140": 49168, "itas": 21416, "\u00c2\u00b7": 9129, "anking": 15230, "chlor": 36813, "\u0120noticeable": 19787, "arin": 17714, "\u0120whopping": 27833, "\u0120Chips": 45864, "\u0120preempt": 38726, "\u0120penalties": 12970, "\u0120Ashton": 41398, "\u0120DX": 19393, "\u0120Chambers": 30717, "\u0120Photoshop": 29153, "\u0120Yam": 14063, "Statement": 48682, "SR": 12562, "\u0120analytics": 23696, "Weather": 41865, "ermanent": 30312, "\u0120herself": 5223, "\u0120Certificate": 27895, "ucci": 27501, "\u0120appraisal": 45436, "ollah": 17999, "backer": 49978, "\u0120Corn": 11424, "\u0120unint": 17679, "\u0120Trem": 46656, "\u0120180": 11546, "\u0120legislative": 10828, "\u0120Saddam": 24277, "\u0120Huge": 35225, "\u0120creativity": 16389, "\u0120risking": 37234, "\u0120Password": 30275, "505": 31654, "Alpha": 38077, "\u0120Kir": 7385, "iver": 1428, "washer": 45146, "882": 42980, "\u0120tease": 34691, "\u0120Kant": 29576, "\u0120Margaret": 19579, "Oracle": 48625, "\u0120Dund": 37921, "\u0120bend": 19396, "avi": 15820, "\u0120wearable": 39092, "into": 20424, "\u0120\u00c3\u013e": 49363, "\u0120nig": 44873, "ernand": 13023, "\u0120federal": 2717, "\u0120releg": 24542, "ools": 10141, "\u0120shops": 12437, "ipel": 40634, "oc": 420, "\u0120streets": 6483, "\u0120Endurance": 43290, "\u0120vanilla": 16858, "degree": 16863, "\u00d7\u013b": 25529, "\u0120Local": 10714, "\u0120championed": 39257, "rative": 13260, "\u0120monster": 9234, "\u0120wisdom": 11501, "\u0120wander": 27776, "\u0120Wilson": 8127, "atural": 2660, "\u0120formulas": 32126, "\u0120selector": 31870, "\u0120handling": 9041, "ystem": 6781, "\u0120Denis": 33089, "\u0120culinary": 35956, "icus": 24552, "\u0120benefits": 4034, "Light": 15047, "TON": 11357, "\u0120debunked": 46682, "Crypt": 23919, "\u0120heed": 32420, "accompanied": 42588, "\u0120comma": 39650, "\u0120Brick": 28347, "\u0120HDL": 48867, "\u0120filler": 41134, "\u0120Hugo": 25930, "\u0120Eth": 9956, "quote": 22708, "\u0120surrounded": 11191, "RY": 18276, "\u0120agg": 4194, "\u0120Trial": 21960, "Exit": 30337, "\u0120Royale": 49982, "Exc": 40127, "\u0120scenario": 8883, "igel": 47709, "oshop": 25444, "itime": 22552, "Brazil": 39190, "\u0120concessions": 26739, "inch": 8589, "cong": 36801, "ki": 4106, "\u0120Returning": 42882, "189": 23362, "nor": 13099, "\u0120oz": 15649, "\u0120programmer": 24292, "\u0120warp": 25825, "\u0120Georg": 6850, "waukee": 15428, "\u0120Learning": 18252, "\u0120Odin": 19758, "\u0120subur": 13150, "\u0120SOFTWARE": 47466, "\u0120SELECT": 33493, "azer": 19178, "\u0120Memory": 14059, "inian": 24605, "level": 5715, "\u0120Maple": 21249, "Course": 49046, "\u0120Paddock": 49762, "\u0120waivers": 35633, "\u0120Minion": 43786, "\u0120libel": 40739, "\"/>": 26700, "\u0120Hes": 44773, "\u0120dictates": 35054, "\u0120punt": 35363, "\u0120audio": 6597, "\u0120Californ": 37704, "\u0120freak": 22601, "\u0120almond": 26948, "\u0120Unle": 36471, "\u0120ruling": 6922, "\u0120covenant": 28173, "\u0120debugger": 49518, "\u0120Wonderful": 40128, "\u0120IMP": 30023, "\u0120thinly": 44722, "\u0120seasoned": 29314, "Pred": 39156, "achelor": 19335, "Hours": 39792, "\u0120inertia": 48482, "\u0120Tai": 11144, "\u0120Hers": 28492, "\u0120expensive": 5789, "\u0120rosters": 48803, "\u0120Springs": 18334, "\u0120cleansing": 32784, "riv": 15104, "\u0120subscript": 32891, "\u0120calm": 9480, "\u0120Collect": 9745, "er": 263, "\u0120curly": 45731, "\u0120Arnold": 21418, "gy": 1360, "\u0120REG": 23337, "amaz": 45983, "035": 44215, "kernel": 33885, "GH": 17511, "\u0120Armstrong": 21166, "\u0120antibiotics": 22392, "\u0120Degree": 34486, "\u0120Nost": 48150, "\u0120Din": 23448, "\u0120KY": 33668, "eln": 45542, "\u0120Netherlands": 12671, "glers": 33641, "fy": 24928, "\u0120vivo": 34714, "ascript": 15961, "\u0120q": 10662, "\u0120attract": 4729, "\u0120burgeoning": 38935, "Changed": 31813, "\u0120Petersburg": 27051, "\u0120creditors": 29714, "($": 16763, "\u0120insurg": 17844, "\u0120TW": 17306, "\u0120modulation": 39007, "Madison": 46845, "\u0120limiting": 15637, "\u0120plains": 36149, "133": 16945, "gro": 27333, "\u0120rendition": 40570, "branded": 35559, "\u0120eliminate": 11005, "venture": 5388, "\u0120congratulate": 43647, "\u0120discour": 15117, "0000000000000000": 25645, "\u0120pres": 906, "\u0120Position": 23158, "abilities": 5738, "leness": 48795, "\u0120swaps": 43997, "701": 41583, "\u0120ears": 11368, "ch": 354, "\u0120Champ": 29260, "Baby": 36534, "\u0120digital": 4875, "umably": 31303, "\u0120Investment": 20877, "dj": 28241, "Thor": 46765, "\u0120differs": 24242, "\u0120expectation": 17507, "Based": 15001, "\u0120overpowered": 49313, "\u0120influencing": 32596, "pperc": 39921, "\u0120plat": 40315, "\u0120furry": 40857, "idd": 1638, "\u0120Molly": 30236, "otrop": 34248, "tymology": 43408, "ities": 871, "ennial": 27779, "\u0120Bed": 15585, "\u0120deserves": 14071, "\u0120mobs": 32208, "\u0120households": 12503, "buff": 36873, "\u0120FN": 44260, "\u0120blocker": 38731, "isin": 45763, "\u0120RAID": 37450, "\u0120390": 33882, "asing": 2313, "\u0120baseman": 35348, "seq": 41068, "assuming": 32935, "\u0120protest": 5402, "Sys": 44387, "Mid": 22622, "\u0120Werewolf": 40261, "\u0120neigh": 3422, "Enhanced": 49026, "odynamic": 34743, "\u0120Cliff": 23501, "Bring": 31416, "\u0120satisfy": 15959, "aligned": 41634, "\u0120daytime": 32899, "iko": 12125, "\u0120Anniversary": 21967, "\u0120Rural": 36486, "\u0120agenda": 8666, "\u0120feats": 35664, "eto": 27206, "\u0120depart": 6313, "\u0120unm": 21303, "Bill": 17798, "\u0120sushi": 36324, "Ut": 18274, "poses": 4832, "006": 28041, "abel": 9608, "\u0120Leone": 30399, "Commun": 30813, "\u0120Whilst": 40661, "\u0120Communities": 35530, "untary": 26468, "\u0120Ross": 9847, "\u0120had": 550, "\u0120folders": 24512, "\u0120Hew": 30446, "sectional": 44330, "\u0120thats": 29294, "Ky": 30630, "atech": 40340, "ULAR": 37232, "\u0120354": 46752, "\u0120MLG": 48144, "CPU": 36037, "\u0120pilots": 14982, "\u0120SDK": 26144, "bnb": 31971, "\u0120sniff": 26300, "\u0120partners": 4887, "\u0120inflammatory": 23760, "Incre": 15562, "\u0120Sold": 12324, "\u0120opt": 2172, "\u0120MM": 20806, "\u0120racked": 41503, "\u0120crochet": 46149, "\u0120Arabia": 9671, "\u0120Balls": 39332, "\u0120Manufacturing": 32760, "\u0120rigorous": 22888, "jamin": 13337, "\u0120cannibal": 39904, "yd": 5173, "\u0120shove": 38332, "\u0120unnecessary": 13114, "59": 3270, "\u0120Operating": 24850, "itzer": 10557, "cloth": 44905, "\u0120observer": 22890, "\u0120Paleo": 46840, "\u0120Alberta": 15555, "\u0120Foo": 36080, "\u0120animate": 43828, "\u0120road": 2975, "bur": 6236, "\u0120parental": 21694, "\u0120forg": 5784, "\u0120customers": 4297, "\u0120Lynch": 16093, "\u0120Funding": 35249, "\u0120warrant": 8084, "\u0120calculate": 15284, "\u0120spinning": 19493, "\u0120carnage": 39857, "\u0120compare": 8996, "\u0120battered": 33613, "193": 24943, "\u0120lanes": 15296, "venient": 48109, "\u0120disagreed": 27884, "\u0120perfume": 40094, "\u0120Xer": 44264, "PRO": 31190, "iliated": 31705, "\u0120of": 286, "\u0120accus": 10458, "PU": 5105, "\u0120Rich": 3998, "\u0120\u00e0\u00a8": 42314, "nsic": 19364, "\u0120cannabin": 30716, "\u0120Distribution": 27484, "Secure": 49793, "\u0120Observ": 19243, "\u0120Oath": 37838, "\u0120bas": 1615, "\u0120reducing": 8868, "gate": 10494, "\u0120smug": 27590, "\u0120accusing": 19786, "\u0120sectarian": 28005, "\u0120bask": 39353, "473": 37804, "\u0120ALWAYS": 49576, "LINE": 24027, "\u0120Ontario": 10553, "\u0120Surviv": 19455, "abi": 17914, "SHARE": 42597, "\u0120Tommy": 19919, "\u0120Capcom": 35936, "\u0120Remote": 21520, "\u0120substance": 9136, "\u0120overdue": 38079, "\u0120horrors": 26611, "abases": 18826, "\u0120Twilight": 19715, "\u0120Belt": 16734, "\u0120horizon": 17810, "\u0120__": 11593, "ables": 2977, "iaz": 17890, "\u0120witnessing": 31121, "\u0120behaviours": 38975, "\u0120assured": 13933, "\u0120Trent": 24269, "abby": 42457, "Hol": 28115, "\u0120Caribbean": 18020, "eredith": 36897, "\u00c3\u00b3": 10205, "\u0120mantle": 32107, "\u0120End": 5268, "num": 22510, "\u0120Bronze": 19461, "\u0120Revel": 22858, "\u0120up": 510, "\u012045": 4153, "\u0120subparagraph": 24077, "\u0120snapshots": 47787, "\u0120impaired": 22753, "uggets": 26550, "\u0120confirm": 6216, "\u0120eng": 1786, "certain": 39239, "\u0120incompet": 22929, "every": 16833, "\u0120Runner": 21529, "riors": 8657, "\u0120modeling": 21128, "ruff": 30622, "\u0120factory": 8860, "\u0120Cost": 6446, "\u0120anthem": 24577, "\u0120DPRK": 48363, "\u0120cath": 32171, "\u0120movie": 3807, "\u0120buyers": 14456, "\u012052": 6740, "\u0120thousand": 7319, "zbek": 40413, "\u0120gen": 2429, "ogle": 2467, "\u0120rejecting": 26734, "\u0120objection": 19630, "\u0120villain": 16687, "ophobia": 19851, "\u0120realistically": 39659, "\u0120iPad": 13133, "\u0120exchanged": 22112, "inois": 8981, "538": 49561, "\u0120recal": 42653, "LinkedIn": 40574, "addy": 13218, "\u0120alerted": 28608, "oscopic": 48228, "hern": 2881, "Scott": 19040, "\u0120Tr": 833, "\u0120Gerard": 41459, "\u0120Ritual": 35179, "polit": 34470, "\u0120Sometimes": 8975, "\u0120Murphy": 14424, "\u0120Wyn": 29758, "\u0120insiders": 31594, "alg": 14016, "igroup": 47875, "\u0120langu": 2786, "\u0120Crunch": 38531, "irms": 8789, "\u0120seamless": 32354, "\u0120detail": 3703, "ware": 1574, "\u0120dive": 15647, "\u0120Added": 10687, "\u0120Feast": 42936, "\u0120defenseman": 32246, "soc": 35634, "\u0120flee": 11562, "\u0120specifying": 31577, "\u0120autonom": 11827, "\u0120Fighter": 15411, "Brian": 24761, "\u0120Kitt": 43670, "\u0120armour": 18588, "\u0120Census": 20962, "\u0120lantern": 41207, "agnetic": 25145, "ibly": 3193, "\u0120spearheaded": 46766, "\u0120Esper": 42083, "\u0120lo": 2376, "\u0120referen": 16041, "\u0120authenticated": 44529, "umbn": 10269, "\u0120deepen": 46409, "\u0120237": 34385, "antine": 29003, "\u0120fabulous": 28294, "\u0120semester": 24878, "\u0120overth": 34514, "ateg": 2397, "\u012031": 3261, "\u0120Rex": 17853, "Adds": 46245, "\u0120precon": 49394, "\u0120subconscious": 30931, "itarian": 8353, "\u00ca": 134, "\u0120orchestr": 28127, "Dep": 12156, "\u0120sky": 6766, "\u0120misconception": 43122, "\u0120Centauri": 48278, "iol": 1669, "\u0120Qu\u00c3\u00a9": 46345, "\u01202017": 2177, "\u0120saw": 2497, "Raw": 27369, "Thirty": 38856, "\u0120Gohan": 45281, "\u0120barrel": 9036, "\u0120wheel": 7825, "87": 5774, "\u00e7\u0136\u00b0": 35572, "\u0120homer": 44155, "ayed": 16548, "\u0120Teen": 21432, "\u0120player": 2137, "raine": 23440, "\u0120coins": 10796, "\u0120ardu": 50065, "\u0120vendor": 18371, "\u0120rg": 48670, "\u0120marry": 12479, "political": 23149, "\u0120donor": 17052, "\u0120costing": 25894, "\u0120Bears": 15682, "\u0120choices": 7747, "\u0120Kobe": 29493, "\u0120Immigration": 18204, "apper": 11463, "anguage": 9000, "\u0120hostages": 31331, "\u0120Mo": 4270, "\u0120witches": 34773, "\u0120shifts": 15381, "\u0120dos": 23430, "\u0120doctor": 6253, "\u0120Kun": 22673, "\u0120canopy": 39418, "\u0120param": 5772, "\u0120mentality": 21332, "ISC": 37719, "\u0120Winners": 42754, "317": 34125, "\u0120peaks": 25740, "\u0120fencing": 39244, "\u0120infrared": 30624, "\u0120editing": 12857, "\u0120Would": 10928, "\u0120lenders": 28086, "ipl": 24705, "\u0120Hal": 11023, "listed": 17935, "995": 33438, "fle": 27919, "\u0120Changing": 33680, "onym": 5177, "\u0120Surprisingly": 47183, "\u0120cooler": 19346, "\u0120admissions": 25349, "\u0120arisen": 42091, "\u0120Genocide": 48721, "\u0120Stephen": 7970, "\u0120prayer": 11443, "\u0120History": 7443, "aurus": 22302, "\u0120Dirt": 49124, "\u0120occupant": 47742, "\u0120microscope": 36396, "\u0120Sexy": 49131, "\u0120spill": 19431, "\u0120Medicine": 11558, "\u0120Rae": 41155, "\u0120crank": 30425, "\u0120menus": 26798, "Header": 39681, "\u0120Objective": 37092, "655": 35916, "ore": 382, "asta": 40197, "edo": 24757, "\u0120commemorate": 40243, "rol": 3225, "\u0120radial": 44503, "\u0120barking": 48961, "\u0120turned": 2900, "Mech": 28452, "\u0120patriarchal": 42301, "||": 15886, "\u0120clearer": 22363, "\u0120Manny": 44745, "\u0120locating": 42139, "\u0120colonists": 43430, "\u0120endemic": 42560, "asc": 3372, "harm": 29155, "\u0120tested": 6789, "iably": 18745, "istan": 4103, "\u0120Ford": 8092, "\u0120mosques": 32240, "\u0120credible": 18409, "actively": 33329, "\u0120OFFIC": 47601, "18": 1507, "\u00f4": 176, "\u0120ted": 28501, "\u0120Mutual": 48807, "\u0120adamant": 36009, "PRESS": 32761, "rill": 20190, "changes": 36653, "\u0120Ajax": 46362, "\u0120Overse": 46864, "\u0120verbal": 17755, "\u0120illegitimate": 41368, "ceptions": 11755, "\u0120traps": 20348, "ito": 10094, "Scroll": 29261, "\u0120Mau": 28931, "\u00e3\u0124\u0124": 43266, "andom": 3749, "ricted": 20941, "\u0120compile": 17632, "\u0120committee": 5583, "\u0120deflation": 46507, "\u0120declined": 7392, "\u0120institute": 24224, "\u0120Tottenham": 24272, "ificant": 17294, "\u0120Riy": 33542, "ulner": 5697, "\u0120plung": 41904, "\u0120publish": 7715, "ten": 1452, "\u0120Item": 9097, "ong": 506, "maxwell": 29047, "\u0120Pas": 17454, "\u0120County": 3418, "anchester": 8911, "\u0120eliminated": 15254, "\u0120Disc": 8444, "\u0120Bought": 29888, "nob": 34952, "\u0120Across": 27497, "elling": 9417, "\u0120just": 655, "atur": 2541, "\u0120Tobias": 46675, "\u0120Creature": 33248, "\u0120oven": 14361, "rophe": 22599, "\u0120Jindal": 49816, "+)": 28988, "\u0120associates": 20093, "\u0120optical": 18480, "\u0120worst": 5290, "\u0120inmates": 16831, "\u0120measured": 8630, "akov": 44715, "employed": 36266, "size": 7857, "folios": 45242, "izarre": 12474, "\u0120unusually": 23708, "Cry": 26677, "binding": 30786, "\u0120establishing": 15010, "\u0120presc": 10859, "\u0120ignoring": 15482, "\u0120retrieved": 29517, "\u0120Orb": 15839, "\u0120Publishers": 43403, "Apr": 13680, "\u0120nothing": 2147, "Chelsea": 41053, "\u0120coast": 7051, "aja": 27792, "\u0120secretive": 32654, "igenous": 12357, "\u0120Uber": 12024, "ongyang": 20659, "\u0120Love": 5896, "\u0120burst": 11173, "\u0120Than": 17924, "\u0120Productions": 25315, "aukee": 15263, "\u0120Koran": 44097, "\u0120Forge": 24855, "\u0120Kills": 23478, "\u0120astonishing": 21994, "\u0120prudent": 34998, "\u0120Cub": 7070, "\u0120oak": 26210, "\u0120Small": 10452, "\u0120reel": 35672, "\u0120bracket": 19096, "\u0120temp": 20218, "\u0120arrival": 10325, "\u0120messing": 37241, "Depending": 41156, "sexual": 18338, "\u0120wallet": 13008, "\u0120individuals": 3925, "onge": 14220, "\u0120collectively": 21329, "\u0120hybrids": 45456, "\u0120141": 25500, "ached": 2317, "dog": 9703, "\u0120slammed": 21376, "athy": 10036, "\u0120disturbed": 24069, "\u0120fool": 9192, "\u0120mmol": 47340, "\u0120merits": 21692, "\u0120heterogeneity": 49763, "\u0120visitor": 21493, "\u0120Magical": 22294, "\u0120designated": 11032, "\u0120Blaz": 26176, "prom": 16963, "\u00ee\u0122": 29773, "\u0120restaur": 5190, "\u0120write": 3551, "\u012a\u0134": 7134, "\u01201024": 28119, "\u0120Hubble": 40455, "\u0120afterward": 20875, "\u0120kay": 34681, "\u0120reinforcement": 37414, "\u0120attempted": 7482, "\u0120regress": 50252, "\u0120watching": 4964, "nton": 28936, "ineries": 48858, "trip": 39813, "stasy": 31695, "\u0120supplement": 10327, "\u0120acknowledgement": 41259, "\u0120privile": 7798, "\u0120Physicians": 46206, "sein": 20719, "CLUS": 28332, "iliary": 28129, "\u0120passers": 45378, "\u0120expenditures": 22895, "uitous": 42412, "\u0120Designs": 49282, "\u0120spoiled": 34781, "\u0120taboo": 35899, "\u0120reporting": 6447, "\u0120leased": 40352, "stud": 19149, "\u0120Roe": 34904, "\u0120woven": 36932, "305": 22515, "imation": 18991, "\u0120brut": 8938, "poke": 35924, "iculty": 22402, "\u0120Spotify": 26778, "\u0120unite": 24558, "ryu": 49056, "\u0120despite": 3805, "\u0120Cowboys": 16535, "\u0120postal": 30793, "\u0120Helen": 22695, "\u0120struct": 2878, "\u0120trucks": 13960, "\u0120Starr": 37884, "\u0120primaries": 25430, "\u0120amb": 4915, "test": 9288, "laim": 20438, "\u0120ensure": 4155, "\u0120assure": 19832, "eeks": 32201, "329": 37967, "\u0120fighters": 8486, "\u0120SPL": 46341, "ependence": 15091, "\u0120disrupt": 10114, "\u0120stacking": 41228, "\u0120towed": 49445, "killed": 42130, "USD": 29072, "\u0120quest": 1235, "\u0120devast": 9884, "\u0120assign": 8333, "\u0120postings": 44656, "\u0120logs": 17259, "\u01201982": 14489, "\u0120Electrical": 40224, "anding": 27225, "\u0120Lantern": 27579, "\u0120Dai": 39604, "\u0120exclusion": 19328, "\u0120regret": 13721, "\u0120capture": 8006, "\u0120Tooth": 46380, "\u0120Family": 7884, "\u00e3\u0124\u012e": 39258, "Gs": 33884, "\u0120secession": 43314, "\u0120Bucks": 29751, "\u0120Apocalypse": 21308, "Hy": 21217, "\u0120culprit": 26581, "\u0120Ze": 9033, "ashi": 12144, "\u0120ensured": 30169, "-+-+-+-+": 42744, "\u0120successive": 25175, "\u0120Mur": 5921, "\u0120DEF": 23449, "\u0120translated": 14251, "\u0120IP": 6101, "\u0120lieu": 32267, "\u0120Predators": 42065, "\u0120Subtle": 47419, "\u0120snaps": 23429, "\u0120curfew": 49565, "\u0120tigers": 43114, "\u0120efficient": 6942, "\u0120dumped": 24105, "\u0120acupuncture": 48647, "\u0120proponents": 27642, "\u0120Martin": 5780, "development": 31267, "\u0120drain": 14782, "\u0120announcement": 8009, "\u0120symbol": 6194, "OUND": 15919, "college": 44107, "shake": 32431, ";;": 7665, "strous": 22501, "\u0120PBS": 30051, "\u0120gold": 3869, "mur": 28582, "lessness": 17587, "ordered": 24071, "\u0120venture": 13189, "\u0120redistribution": 41425, "\u0120ensemble": 34549, "\u0120construct": 5678, "\u0120sed": 10081, "assion": 11857, "haps": 2772, "\u0120CBS": 11133, "iss": 747, "\u0120use": 779, "\u0120freed": 13459, "\u0120flooding": 17448, "\u0120Astros": 27463, "\u0120conventions": 21396, "methyl": 43654, "\u0120Zak": 32605, "\u0120Deploy": 34706, "\u0120clever": 14169, "\u0120youngster": 40944, "erno": 24100, "\u0120International": 4037, "\u0120tender": 15403, "\u0120Android": 5565, "\u0120dropping": 12047, "\u0120undes": 27858, "\u0120amateur": 18585, "\u0120perpet": 8939, "\u0120Records": 13407, "\u0120Genetics": 43574, "\u0120Nine": 16431, "\u0120disturbing": 14851, "\u0120genres": 27962, "\u0120Snap": 16026, "received": 47844, "groupon": 14531, "mann": 9038, "\u0120($)": 45491, "\u0120roads": 9725, "yer": 9860, "\u0120Vacc": 31749, "\u0120nailed": 37708, "lator": 41880, "\u0120rebutt": 46472, "\u0120bargaining": 23189, "\u0120adjustment": 15068, "\u0120livestream": 49683, "\u0120Arkham": 29486, "senal": 10298, "\u0120potion": 26572, "team": 15097, "uating": 11927, "\u0120disregard": 25070, "bledon": 49258, "\u0120conversation": 5273, "\u0120Roll": 8299, "\u0120worshipped": 46204, "olla": 33011, "\u0120exempt": 13068, "\u01201938": 28017, "zes": 12271, "ifax": 26590, "thia": 31079, "\u0120BTC": 14503, "\u0120optic": 43151, "\u0120Star": 2907, "\u0120analyst": 12499, "\u0120exemptions": 30244, "\u0120Kansas": 9470, "popular": 47568, "\u0120retain": 12377, "\u0120statistically": 19941, "\u0120buff": 6940, "IP": 4061, "\u0120acet": 25174, "hes": 956, "\u0120directly": 3264, "\u0120completing": 14339, "\u0120sized": 19943, "\u0120epile": 29790, "\u0120ka": 38387, "\u0120village": 7404, "HOME": 39069, "stellar": 28732, "incible": 33494, "\u0120Mahar": 31692, "arse": 17208, "nuclear": 43131, "\u0120rifle": 11575, "\u0120cit": 15433, "\u0120sect": 15951, "UNE": 41884, "aretz": 48338, "\u0120mysql": 48761, "\u0120bathrooms": 32601, "\u0120instructors": 33667, "\u0120nec": 27576, "odynam": 24319, "rieg": 48429, "\u0120physics": 11887, "\u0120morp": 38837, "awareness": 47812, "\u0120waitress": 44511, "Standing": 44196, "\u0120ingen": 27016, "\u0120hist": 1554, "peria": 38032, "\u0120Playoff": 41325, "\u0120trench": 35091, "\u0120wrecked": 44770, "\u0120relax": 8960, "\u0120Vikings": 16420, "\u0120councils": 27174, "\u0120adjustable": 28138, "iety": 1905, "\u0120rebellious": 43860, "\u0120learnt": 26338, "\u0120phys": 2281, "\u0120metal": 6147, "\u0120Smoke": 25416, "\u0120Stones": 26596, "\u0120Sever": 26434, "993": 44821, "ividually": 16335, "\u0120girlfriends": 47094, "omination": 27744, "\u0120exceptions": 13269, "\u0120admission": 13938, "\u0120Mr": 1770, "\u0120apiece": 47563, "\u0120Mag": 2944, "ari": 2743, "\u0120worrisome": 48367, "\u0120constituents": 22573, "Nice": 35284, "Email": 15333, "\u0120critiques": 44329, "\u0120gentlemen": 28527, "\u0120bounds": 22303, "\u0120blankets": 34794, "\u0120rou": 13805, "inking": 8040, "273": 27367, "\u0120meet": 1826, "Davis": 36462, "iddler": 26458, "\u0120zones": 14123, "\u0120START": 33303, "\u0120haun": 17791, "\u0120airing": 31701, "\u0120smoke": 7523, "Sac": 38318, "\u0120surge": 13853, "Hom": 28718, "\u0120PAY": 38444, "\u0120canceled": 19994, "\u0120tours": 21284, "\u0120threaded": 40945, "\u0120Edge": 13113, "\u0120Kan": 14248, "olics": 19615, "Lewis": 40330, "\u0120persisted": 33264, "\u0120aut": 1960, "2003": 16088, "\u0120LB": 22199, "Adjust": 39668, "\u0120Torment": 47195, "ailability": 8994, "\u0120debunk": 30397, "having": 40965, "\u0120Arrest": 35080, "okane": 41776, "Ju": 33018, "\u0120Pur": 9330, "Library": 23377, "\u0120Beir": 38693, "td": 8671, "\u0120Gw": 39661, "\u0120counting": 14143, "ography": 4867, "\u0120lets": 8781, "\u0120Clin": 11834, "ile": 576, "\u0120hairst": 42658, "\u0120relevance": 23082, "sels": 14002, "\u0120COUNTY": 41012, "LU": 41596, "\u0120Roof": 35271, "atomic": 47116, "\u0120aerospace": 40439, "\u0120obst": 9710, "typ": 28004, "\u0120refin": 50170, "gres": 34239, "\u0120slain": 27029, "\u0120applic": 2161, "viation": 47625, "\u0120TH": 2320, "anges": 6231, "\u0120Libya": 13465, "draw": 19334, "\u0120Hell": 5783, "\u0120technician": 33024, "\u0120easily": 3538, "\u0120Conway": 26608, "tree": 21048, "\u0120confirmation": 12641, "\u0120buffalo": 45019, "\u0120pathogens": 38366, "\u0120deflect": 31685, "\u0120appointing": 47680, "\u0120operator": 10088, "Burn": 29053, "anged": 5102, "\u0120RP": 25812, "\u0120deliberately": 14593, ">:": 31175, "oe": 2577, "\u0120prospective": 17530, "\u0120emotionally": 17991, "Ann": 18858, "area": 20337, "\u0120realised": 19169, "daughter": 29642, "\u0120aired": 18530, "VW": 30133, "itional": 1859, "fat": 17359, "Catalog": 49015, "\u0120erotic": 32739, "\u0120Chili": 47107, "\u0120rings": 13917, "\u0120shader": 33030, "\u0120lawmaker": 31340, "\u0120crashes": 17616, "\u0120Medieval": 30294, "\u0120exist": 2152, "illin": 32672, "wing": 5469, "\u0120Advisor": 35399, "\u0120lith": 24491, "\u0120Isaiah": 29756, "\u0120curtain": 29461, "\u00e9\u00bb\u0134": 44112, "bet": 11181, "\u0120AV": 14661, "\u0120Luck": 14546, "\u0120Fort": 6401, "\u0120Dutch": 10914, "536": 44468, "\u0120university": 6403, "OCK": 11290, "\u0120Cao": 34513, "\u0120inaction": 44376, "\u0120saved": 7448, "Spot": 32565, "\u0120endeavor": 28251, "oln": 10875, "\u0120affirmative": 27990, "ARDIS": 49608, "\u0120($": 7198, "\u00e3\u0123\u0135": 46036, "\u0120surround": 4573, "mir": 10793, "aw": 707, "\u0120reward": 6721, "\u0120Vitamin": 27533, "\u0120plotted": 37515, "\u0120Quick": 12029, "odcast": 7107, "thinking": 28973, "\u0120calves": 45889, "!--": 28112, "\u0120Reply": 14883, "\u0120Os": 8834, "Post": 6307, "fml": 38122, "\u0120TE": 13368, "\u0120tops": 21246, "\u0120Swap": 48408, "\u0120electrical": 12278, "ISTER": 41517, "\u0120Yo": 25455, "\u0120SQ": 49747, "\u012058": 7618, "\u0120Redux": 30609, "famous": 45143, "\u0120Chill": 38290, "\u0120dissolved": 26306, "\u0120frameworks": 29251, "\u0120plummeted": 44282, "\u0120troubled": 17840, "610": 39132, "\u0120extremism": 25571, "\u0120Glen": 20716, "\u0120evidence": 2370, "\u0120blaze": 31259, "\u0120tournament": 7756, "rals": 30691, "boss": 42820, "\u0120Final": 8125, "ombo": 47265, "\u0120clustered": 49480, "\u0120\u00c2\u0142\u00c2\u0142": 47654, "ujah": 46024, "rush": 37357, "\u0120orientation": 12852, "\u0120checked": 10667, "\u0120Beer": 16971, "\u0120atrocities": 27817, "thirds": 17936, "environment": 38986, "\u0120Fram": 15183, "imilar": 49941, "\u0120ab": 450, "Thompson": 48942, "\u0120bye": 33847, "\u0120Machina": 36781, "cled": 20095, "\u0120Kahn": 42264, "\u0120###": 44386, "\u0120utilize": 17624, "INO": 46016, "ifi": 22238, "enegger": 44028, "\u0120slic": 14369, "Integer": 46541, "\u0120formed": 7042, "('": 10786, "\u0120Gunn": 40837, "igrants": 5663, "\u0120Fi": 23238, "\u0120inaccessible": 40604, "ruly": 34715, "\u0120contenders": 29467, "}\"": 36786, "\u0120cycle": 6772, "\u0120claimants": 47841, "\u0120production": 3227, "holy": 44287, "\u0120retribution": 40788, "\u0120ignorant": 20109, "1972": 41023, "\u0120absence": 8889, "\u0120arbitrary": 14977, "\u0120Pax": 48008, "..": 492, "\u0120mobilized": 50166, "\u0120wrote": 2630, "\u0120strengthening": 24175, "\u0120finite": 27454, "\u00c2\u00bb": 17730, "\u0120GTX": 12646, "arrow": 6018, "\u0120UCH": 34340, "\u0120bedrock": 47856, "\u0120despair": 20234, "\u0120puzz": 15575, "igg": 6950, "\u0120Storage": 20514, "\u0120Cobb": 31868, "\u0120tends": 12444, "\u0120pies": 47199, "\u00e3\u0125\u012b\u00e3\u0125\u00a9": 19073, "\u0120*/": 9466, "EEK": 33823, "AF": 8579, "iddling": 41367, "olith": 21446, "\u0120proposal": 6961, "ENSE": 24290, "illance": 7682, "\u0120suburb": 23200, "FORM": 21389, "\u0120Capacity": 29765, "\u0120devoid": 34065, "\u0120Feminist": 46259, "\u0120exce": 43748, "\u0120Isles": 36217, "uss": 1046, "\u0120bras": 48029, "\u0120Affairs": 10665, "\u0120Kop": 40500, "\u0120doll": 3654, "\u0120ISIS": 7768, "\u0120thumb": 15683, "OUS": 20958, "\u0120Limbaugh": 43306, "Pract": 49515, "\u0120fell": 3214, "\u0120guideline": 40888, "ese": 2771, "chester": 35983, "ien": 2013, "\u0120Cyan": 41025, "kin": 5116, "foundland": 42030, "\u0120Vim": 36645, "\u0120Blessed": 33398, "FD": 26009, "\u0120tractor": 38278, "\u0120dial": 5980, "\u0120grocer": 34185, "\u0120wield": 15445, "\u0120Erin": 28894, "attacks": 38458, "\u0120twin": 15203, "\u0120snipers": 50238, "\u0120Kaine": 37193, "wiki": 15466, "\u0120said": 531, "\u0120Details": 14890, "aney": 22297, "\u0120last": 938, "\u0120negotiate": 16674, "\u0120Network": 7311, "xy": 5431, "great": 18223, "\u0120Bombs": 44394, "\u0120grant": 7264, "\u0120Anton": 9261, "\u0120remake": 28763, "\u00e0\u00a4\u00be": 48077, "aucus": 16710, "\u0120Lance": 18990, "\u0120Twisted": 40006, "\u0120Payne": 32788, "\u0120Items": 17230, "\u0120HG": 48698, "\u0120Up": 3205, "ocre": 27945, "\u0120intellectuals": 32322, "\u0120franc": 46754, "\u0120skinny": 29494, "\u0120Nikola": 47817, "\u0120Moe": 46488, "\u0120marrow": 44173, "\u0120free": 1479, "\u0120removed": 4615, "191": 26492, "sych": 2924, "\u0120vanish": 39572, "Jenn": 35994, "Whereas": 48494, "hours": 24425, "learning": 40684, "\u0120Absent": 49274, "\u0120Carib": 17152, "grand": 23936, "\u0120masked": 29229, "\u0120products": 3186, "Private": 29067, "5000": 27641, "\u0120Party": 3615, "\u0120consultant": 17028, "dt": 28664, "eneg": 46495, "bool": 30388, "\u0120hashing": 49544, "\u0120Spear": 27836, "\u0120Boom": 31824, "\u0120anten": 16943, "\u0120portable": 17726, "Added": 13003, "\u0120bart": 30539, "tp": 34788, "\u0120astonished": 40962, "\u0120Memories": 32923, "facts": 37473, "cy": 948, "apple": 18040, "\u0120accessible": 9857, "\u0120Clarks": 35931, "\u0120Anything": 21035, "\u0120delusions": 47456, "\u00ae": 106, "to": 1462, "\u0120Stir": 33689, "\u0120ASC": 25400, "ser": 2655, "Fear": 37798, "rary": 11619, "\u0120Elm": 35189, "\u0120Madrid": 14708, "\u0120129": 20248, "\u0120differential": 22577, "NZ": 37371, "\u0120KN": 22466, "\u0120answered": 9373, "\u0120Catalonia": 33859, "\u0120Jian": 40922, "{{": 27007, "depending": 44023, "\u0120celebrates": 24538, "\u0120PLEASE": 37795, "\u00e3\u0122": 5099, "\u0120sequest": 46314, "\u0120conced": 15096, "\u0120backdrop": 26373, "installed": 37050, "\u0120Gir": 23837, "\u0120FIR": 23703, "\u0120Sinclair": 34927, "clair": 27659, "ishops": 21863, "ARS": 27415, "\u0120religious": 4158, "\u0120acad": 5790, "System": 11964, "Clean": 32657, "\u0120famine": 31261, "\u0120reach": 3151, "asy": 4107, "\u0120Written": 22503, "\u01201969": 16450, "Capital": 39315, "\u0120structural": 13204, "\u0120ancestor": 31836, "\u0120domain": 7386, "\u0120closest": 11706, "\u0120Cache": 34088, "\u0120Pound": 40852, "\u0120poem": 21247, "\u0120idle": 21696, "434": 47101, "wcsstore": 12781, "\u0120captives": 46522, "\u0120campaign": 1923, "Said": 47638, "\u0120Almost": 16699, "\u0120salty": 36021, "\u0120Meridian": 46348, "\u0120initiated": 16862, "ogeneous": 32269, "mental": 37098, "\u0120fine": 3734, "Aid": 44245, "build": 11249, "\u0120anytime": 17949, "\u0120Emma": 18966, "ave": 1015, "iencies": 22139, "Ur": 16692, "\u0120loyal": 9112, "\u0120Essex": 38307, "ward": 904, "\u0120PCB": 28700, "\u0120Tucson": 36805, "baum": 24738, "rived": 36207, "\u0120appointment": 12557, "alky": 18354, "\u0120480": 23487, "\u0120Motorsport": 49996, "\u0120dealership": 44843, "\u0120vacation": 14600, "\u0120environment": 2858, "\u0120provide": 2148, "\u0120agitation": 42209, "\"],": 33116, "\u0120volatility": 30772, "\u0120ultraviolet": 49961, "Meat": 35620, "ERE": 9338, "rit": 799, "\u0120Ain": 31899, "\u0120complaints": 9687, "\u0120Advoc": 37866, "\u0120breaches": 31523, "Copy": 29881, "velop": 1091, "affles": 48501, "\u0120perf": 23035, "\u0120JOHN": 39263, "\u0120close": 1969, "\u0120mosquitoes": 35573, "\u0120lia": 35388, "\u0120commencement": 32609, "\u0120Salmon": 43956, "\u0120emitting": 48143, "\u0120swings": 26728, "\u0120stre": 1937, "\u0120M\u00c3\u00bc": 40790, "\u0120predictable": 20039, "\u0120Choose": 17489, "\u0120glove": 29144, "\u0120trib": 8433, "\u0120ogre": 47656, "692": 46589, "affiliated": 46818, "\u0120Economics": 18963, "\u0120Tay": 25569, "\u0120epigen": 49651, "\u0120Caucas": 27292, "mbudsman": 47012, "istically": 16772, "\u0120285": 33015, "\u0120Burr": 38173, "\u0120Harvard": 11131, "Asked": 18932, "\u0120dub": 10873, "\u0120tremendous": 12465, "IGHT": 9947, "Platform": 37148, "\u0120Squadron": 27242, "\u0120emerging": 11823, "\u0120hills": 18639, "thren": 25941, "\u0120XML": 23735, "ette": 5857, "\u0120Loyal": 34986, "\u0120seasoning": 46794, "Building": 25954, "\u0120agreeable": 49534, "\u0120microscopic": 41858, "\"><": 22039, "\u0120respectfully": 41177, "\u0120visits": 11864, "asketball": 14575, "\u0120replacing": 13586, "\u0120attRot": 35207, "\u0120PLUS": 48635, "Electric": 44132, "\u0120Definitive": 46634, "\u0120denying": 17086, "\u0120evolves": 43576, "down": 2902, "960": 39277, "\u0120missiles": 12798, "productive": 27781, "Register": 38804, "ians": 1547, "\u0120Argent": 12335, "wered": 8279, "save": 21928, "\u0120interpersonal": 43146, "\u0120167": 26118, "\u0120Sentinel": 26716, "\u0120engagements": 40588, "\u0120amalg": 45541, "\u0120heroes": 10281, "\u0120post": 1281, "\u0120reactions": 12737, "imester": 47484, "rosc": 45943, "\u0120strands": 36593, "\u0120Ir": 5686, "\u0120touchdown": 10242, "ickey": 40389, "\u0120bottle": 9294, "\u0120Leafs": 25479, "\u0120spouses": 30250, "Listener": 33252, "\u0120endure": 21178, "\u0120Royal": 8111, "\u0120Hip": 29437, "\u0120Serving": 49208, "\u0120Sergey": 36106, "\u0120UX": 38179, "Global": 22289, "\u0120wind": 2344, "\u0120LTE": 28519, "\u0120theological": 30576, "\u0120Cod": 18720, "\u0120cruel": 12177, "\u0120CA": 7257, "\u0120Jorge": 34687, "\u0120bursts": 29404, "\u0120BIG": 26746, "rival": 43171, "\u0120Hands": 22237, "\u0120pole": 16825, "saf": 49585, "local": 12001, "BER": 13246, "\u0120test": 1332, "crime": 28126, "Additionally": 23216, "geries": 30230, "\u0120seeks": 12932, "\u0120ten": 3478, "\u0120Alcohol": 21051, "oris": 37279, "\u0120beverages": 24173, "\u0120orth": 29617, "Redd": 32259, "\u0120interface": 7071, "piring": 12987, "\u0120choosing": 11236, "\u0120mal": 6428, "\u0120revival": 26624, "allah": 31840, "\u0120regulate": 16697, "\u0120fav": 2090, "\u0120herb": 21047, "\u0120invested": 13356, "idon": 47287, "\u0120contro": 1246, "\u0120rolls": 14088, "\u0120constructed": 12006, "\u0120authority": 4934, "\u0120bothers": 46293, "\u0120Julie": 21946, "\u0120Carson": 16787, "651": 40639, "\u0120mine": 6164, "\u0120Estonia": 30912, "contained": 45964, "\u0120behaviour": 9172, "\u0120incorporated": 16560, "\u0120baskets": 46530, "\u0120tant": 24246, "\u0120anyone": 2687, "ggie": 23571, "\u0120flags": 9701, "\u0120fills": 23816, "\u0120cameo": 40794, "ceed": 2707, "\u0120progressively": 34322, "\u0120sisters": 15153, "\u0120heap": 24575, "\u0120deploy": 6061, "Spanish": 43584, "\u0120nicer": 36597, "\u0120cere": 6736, "\u01201913": 35145, "\u0120Moves": 38213, "\u0120helic": 11573, "ordon": 9999, "\u0120Ri": 30385, "\u0120Hayden": 35805, "\u0120Rover": 36718, "\u0120Galaxy": 9252, "\u0120Jem": 48199, "80": 1795, "POL": 45472, "\u0120judged": 19589, "752": 43665, "\u0120condemning": 31568, "\u0120Lam": 10923, "\u0120school": 1524, "\u0120contentious": 27154, "\u0120hesitant": 32848, "\u0120Rough": 29949, "\u0120vastly": 22056, "atile": 12610, "\u00c3\u00a6": 21241, "oup": 10486, "\u0120Nickel": 38398, "Sadly": 36725, "\u0120Skyrim": 21789, "\u0120na\u00c3\u00afve": 41492, "\u0120Revival": 48095, "\u0120Bomb": 14476, "pub": 12984, "\u0120Stud": 3604, "\u0120Yeah": 9425, "\u0120standoff": 33379, "\u0120Yemeni": 38534, "\u0120whining": 48978, "\u0120connecting": 14320, "\u00e5\u012e": 44293, "func": 20786, "\u0120Debug": 31687, "\u0120setup": 9058, "\u0120scales": 16252, "\u0120allot": 47405, "\u0120Jesse": 18033, "\u00d7\u00a8": 37778, "\u0120super": 2208, "charging": 31498, "\u0120Fou": 34296, "Spirit": 41910, "ppe": 27768, "\u0120consortium": 36451, "rational": 20310, "\u0120occupants": 35242, "\u0120condemnation": 28215, "\u0120plaintiff": 20870, "Hall": 34194, "sis": 13429, "\u0120pundits": 30855, "\u0120retired": 9880, "\u0120Olivier": 45674, "\u0120Lord": 4453, "igating": 29129, "\u0120Rachel": 15984, "\u0120masse": 41869, "\u0120Hog": 22411, "\u0120SOC": 31430, "\u0120su": 424, "acy": 1590, "\u0120Fishing": 28944, "\u0120manipulate": 18510, "\u0120mayors": 44660, "\u0120refinement": 47517, "\u0120tell": 1560, "\u0120disenfranch": 41307, "\u0120mayor": 9591, "cially": 2131, "\u0120Rates": 34864, "\u0120padding": 24511, "ALLY": 19807, "156": 21599, "\u0120scathing": 44523, "\u0120Delaware": 19603, "\u0120celebrity": 16527, "\u0120747": 45600, "\u0120bird": 6512, "\u0120PD": 14340, "\u0120Administrative": 30048, "\u0120detain": 17017, "\u0120Lob": 32684, "technology": 45503, "\u0120Job": 15768, "\u00e4\u00bd\u00bf": 45635, "\u0120bans": 20075, "\u0120Wilmington": 47251, "\u0120Bucc": 31978, "iber": 1856, "\u0120dancer": 38619, "\u0120kil": 8769, "\u0120Titus": 49207, "\u0120Barbarian": 38946, "\u0120anyway": 6949, "atra": 26066, "462": 39997, "\u0120Besides": 16238, "acion": 49443, "\u0120orderly": 39164, "\u0120rainy": 37259, "ovo": 18768, "\u0120ter": 1059, "\u0120honorable": 33655, "\u0120Extension": 27995, "\u0120Sep": 8621, "2005": 14315, "EEE": 31909, "\u0120freshman": 18621, "\u0120activism": 23034, "some": 11246, "\u0120Claire": 20758, "Council": 40940, "930": 45418, "\u0120incidence": 18349, "ergy": 26079, "\u0120utilities": 20081, "shift": 30846, "Green": 13719, "\u0120overthrow": 25525, "\u0120toxic": 11422, "Class": 9487, "\u0120IU": 42564, "\u0120coveted": 34707, "\u0120Fidel": 42320, "\u0120contrasted": 49754, "\u0120Kaz": 16385, "\u0120think": 892, "Stra": 41347, "Sy": 13940, "\u0120vitamin": 14411, "Leaks": 17874, "atis": 37749, "pping": 2105, "\u0120improvement": 9025, "\u0120Bundle": 25282, "018": 29159, "pic": 16564, "^": 61, "\u0120Myanmar": 22815, "255": 13381, "\u0120501": 24555, "\u0120aim": 4031, "=": 28, "rome": 5998, "\u0120eras": 49089, "\u0120discontinued": 31349, "\u0120Sci": 10286, "\u0120camp": 1413, "\u0120alleging": 26116, "\u0120adaptation": 16711, "\u01201923": 37272, "\u0120Toy": 10977, "\u0120calibr": 33801, "\u0120grav": 9067, "pletion": 24547, "Actually": 26417, "00007": 44808, "Aud": 16353, "Track": 24802, "term": 4354, "shore": 14640, "\u0120pushing": 7796, "\u0120disagreement": 25800, "\u0120Kra": 21553, "\u0120recognize": 7564, "\u0120Flags": 34771, "\u0120Touch": 15957, "\u0120condesc": 41466, "\u0120Colombia": 21291, "hur": 48349, "\u0120Quiet": 37355, "Uncommon": 43023, "\u0120freezer": 30967, "\u0120cheat": 22705, "\u0120captive": 25798, "lambda": 50033, "\u0120films": 7328, "\u0120Witcher": 36018, "union": 24592, "\u0120Cur": 4424, "\u0120Mourinho": 28689, "Tour": 39152, "\u0120irritation": 35164, "\u0120fi": 25912, "\u0120mashed": 49159, "670": 43798, "121": 19244, "\u0120Sweet": 15335, "\u0120saliva": 40333, "\u0120BYU": 37216, "785": 41172, "article": 20205, "\u0120scant": 35183, "HK": 38730, "</": 3556, "agame": 46746, "\u0120personal": 2614, "\u0120spir": 9158, "many": 21834, "otin": 41403, "\u0120unfairly": 30750, "NY": 12805, "\u0120boarding": 25523, "\u0120cosmetics": 36432, "\u0120maiden": 34827, "Link": 11280, "\u0120KKK": 42907, "\u0120Sup": 5200, "battle": 38471, "\u0120Sister": 26553, "\u0120Portal": 25663, "\u0120Catholic": 7835, "\u0120Docker": 25716, "\u0120pant": 15857, "\u0120unparalleled": 39235, "\u0120abstract": 12531, "\u0120notable": 12411, "\u0120ordinance": 19784, "Hour": 43223, "\u0124": 224, "\u0120inqu": 7949, "\u0120reconcile": 33570, "\u0120transport": 4839, "\u0120tier": 14249, "ook": 566, "apeshifter": 29554, "\u0120dorm": 18586, "Writing": 33874, "ALK": 28082, "\u0120pumps": 29019, "\u0120Romanian": 34344, "\u0120mill": 3939, "\u0120checkpoints": 36628, "\u0120pessim": 32277, "\u0120t": 256, "\u0120inception": 30839, "\u0120Coal": 12896, "\u0120thrilled": 20536, "\u0120referees": 42692, "\u0120boost": 5750, "\u0120vul": 24477, "\u0120deprecated": 39224, "ears": 4127, "uba": 22013, "\u0120hollow": 20596, "\u0120op": 1034, "\u0120as": 355, "\u0120accuracy": 9922, "Nich": 46489, "698": 39357, "\u0120consolation": 45194, "\u0120rays": 24823, "\u0120Assass": 16722, "Pink": 41912, "\u0120Zig": 24992, "\u0120grap": 23360, "\u0120indirect": 12913, "\u0120Graph": 29681, "\u0120donkey": 50085, "\u0120investigating": 10240, "pr": 1050, "\u0120inher": 10639, "vine": 26818, "\u0120solic": 25806, "empl": 18856, "\u0120Alph": 39805, "Jones": 25784, "Management": 48032, "\u0120Afghans": 48336, "\u0120Yang": 10998, "956": 50148, "\u0120incredible": 8082, "\u0120disadvantage": 21407, "\u0120racial": 8425, "Bound": 49646, "\u0120detainees": 25027, "\u0120req": 43089, "leans": 11861, "......": 16317, "Occup": 47658, "\u0120Ahmed": 21157, "\u0120Socialist": 21773, "Pierre": 36910, "gency": 4949, "\u011c": 216, "\u0120Gaia": 37471, ",,,,": 23846, "irst": 667, "\u0120Requirements": 24422, "2013": 6390, "umble": 10344, "\u0120indoors": 31797, "\u00e5\u0129": 49035, "\u0120To": 1675, "\u0120Brooklyn": 12232, "alid": 10751, "\u0120moistur": 41189, "\u0120describ": 2225, "Jun": 22396, "\u00c3\u00b6n": 48863, "\u0120hearings": 18921, "\u0120Start": 7253, "\u0120blames": 34061, "\u0120Editorial": 39525, "\u0120recommending": 34639, "\u0120chlorine": 43107, "economic": 17079, "\u0120Rankings": 40284, "York": 49278, "ASE": 11159, "\u0120expected": 2938, "\u0120twenties": 44471, "plugins": 37390, "\u0120cargo": 15892, "\u0120Chile": 17456, "\u0120battled": 31472, "\u0120async": 30351, "\u01201950": 11445, "\u0120patriotism": 36994, "\u0120skilled": 14297, "\u0120WEEK": 43765, "\u0120Hebdo": 39936, "\u0120Monarch": 41768, "\u0120captivity": 33763, "osate": 33931, "\u0120communications": 8062, "thritis": 34043, "\u0120landmarks": 41532, "pson": 8430, "mington": 39773, "\u0120Canad": 2294, "Screenshot": 34204, "\u0120Webster": 31890, "lr": 14050, "ors": 669, "\u0120recy": 15092, "\u0120pressuring": 49906, "d": 67, "\u0120uter": 31500, "\u0120surprises": 24072, "\u0120appearance": 5585, "\u0120bast": 19918, "\u0120poultry": 34101, "powers": 30132, "\u0120midrange": 49260, "\u0120transform": 6121, "\u0120trim": 15797, "\u0120HOUSE": 46586, "olesterol": 16743, "ries": 1678, "sheet": 21760, "pred": 28764, "\u0120craving": 34357, "\u0120Pavilion": 42094, "\u0120impover": 30956, "\u0120appealing": 16403, "\u0120detachment": 42925, "\u0120for": 329, "161": 25948, "\u0120Spe": 2531, "\u0120spurred": 34601, "\u0120Vegan": 34829, "\u0120returns": 5860, "\u0120virt": 4118, "Warren": 43464, "GOP": 44962, "AK": 10206, "\u0120goat": 26917, "\u0120Cortana": 45822, "\u0120buzz": 14713, "\u0120gre": 10536, "Virginia": 41017, "]]": 11907, "\u0120unlocking": 39052, "\u0120INFORMATION": 38044, "\u0120peeled": 42617, "\u0120referencing": 32578, "\u0120deserved": 20143, "ograms": 26836, "api": 15042, "AH": 18429, "ND": 8575, "toggle": 44256, "\u0120Jacksonville": 23194, "Av": 7355, "Sun": 16012, "GP": 16960, "\u0120Chaos": 13903, "\u0120Drain": 36024, "\u0120Ply": 36526, "\u0120HC": 27327, "Thom": 37582, "agate": 37861, "\u0120Collider": 50253, "\u0120six": 2237, "\u0120Punch": 24265, "\u00e5\u00a5\u00b3": 42637, "\u0120Spiritual": 33944, "footed": 43127, "\u0120grassroots": 23783, "\u0120prow": 25055, "\u0120Proper": 45989, "\u0120seventh": 14024, "\u0120;": 2162, "\u0120omitted": 22532, "Gre": 43887, "\u0120cyan": 36818, "\u0120mash": 30407, "\u0120Font": 24060, "\u0120///": 34013, "\u0120Inquis": 38010, "050": 28669, "\u0120Detail": 42585, "\u0120insists": 17424, "anon": 36902, "charged": 17200, "\u0120admitted": 6848, "\u0120no": 645, "cn": 31522, "ana": 2271, "urities": 10886, "\u0120developments": 13312, "\u0120resurrection": 27556, "*****": 35625, "teness": 43205, "\u0120loosely": 28845, "Keefe": 48122, "\u0120tsunami": 31019, "\u0120politically": 11889, "\u0120Rh": 10323, "\u0120Protestants": 41713, "\u0120methane": 25006, "oooooooooooooooo": 49135, "\u0120coping": 35326, "Also": 7583, "ourmet": 39094, "anz": 35410, "\u0120Clone": 30698, "owers": 3618, "\u0120master": 4958, "\u0120Theodore": 36494, "\u0120Sheet": 21616, "\u0120moderation": 34401, "Although": 7003, "Rect": 45474, "\u0120aggression": 15569, "\u0120biking": 38088, "404": 26429, "nah": 40909, "Democrats": 29969, "\u0120harsher": 50243, "\u0120Meditation": 41616, "umbnail": 20566, "\u0120DMCA": 49648, "\u0120familiar": 5385, "mini": 45313, "\u0120Chiefs": 18733, "\u0120Huckabee": 38253, "\u0120dress": 6576, "\u0120Pressure": 30980, "Body": 25842, "\u0120presses": 31048, "\u0120adherence": 34721, "\u0120manifesto": 29960, "score": 26675, "\u0120valiant": 46258, "\u0120layered": 37748, "idad": 32482, "immigration": 47620, "\u0120Style": 17738, "\u0120Shed": 49340, "FK": 26236, "\u0120cats": 11875, "\u0120sanctioned": 30572, "\u0120loser": 30256, "\u0120lipstick": 41429, "paste": 34274, "\u0120concerned": 5213, "\u0120specification": 20855, "\u0120OPER": 43521, "773": 46871, "pen": 3617, "\u0120tutorials": 27992, "\u0120277": 38703, "\u0120Jung": 27134, "\u0120Paran": 42561, "\u0120ts": 40379, "\u0120giveaways": 50020, "\u0120newer": 15064, "\u0120Deus": 37365, "RG": 48192, "275": 23195, "\u0120evaluations": 34109, "\u0120What": 1867, "\u0120Dial": 21269, "Gender": 41394, "\u0120feather": 17972, "\u0120\u00e2\u0138\u00ba": 34933, "edit": 19312, "AMES": 29559, "\u0120Lunar": 31947, "\u0120miners": 18295, "\u0120snap": 11495, "\u0120..": 11485, "endish": 48442, "\u0120skill": 5032, "\u00cc": 136, "\u0120Rosenstein": 41916, "\u0120karma": 31789, "\u0120tide": 20013, "\u0120scenarios": 13858, "\u0120>>": 9609, "[": 58, "\u0120Bord": 48335, "EU": 19684, "\u0120strings": 13042, "Crime": 45580, "\u0120malf": 27750, "\u0120tim": 4628, "\u0120Hot": 6964, "\u0120Undead": 31326, "\u0120hegemony": 46877, "63": 5066, "463": 38380, "\u0120digest": 16274, "ourses": 39975, "\u0120Chel": 11425, "issors": 32555, "released": 30147, "\u0120accent": 18702, "\u0120Walmart": 20355, "Male": 25486, "\u0120Cind": 24445, "tick": 42298, "in": 259, "\u0120baking": 16871, "\u0120coils": 41331, "\u0120tighter": 28619, "\u0120Carolina": 5913, "\u0120meme": 25336, "\u0120latest": 3452, "osterone": 16372, "\u0120stereotyp": 29248, "Sur": 14214, "\u0120(+": 11502, "\u0120caster": 31680, "OOOOOOOO": 47732, "\u0120visitation": 49874, "\u0120manipulating": 29349, "\u0120Tam": 11552, "amina": 18891, "\u0120Baptist": 21724, "ROM": 33676, "\u0120enlisted": 30166, "\u0120Dro": 21045, "Day": 12393, "\u0120Pix": 21642, "aleb": 32100, "\u0120Bonus": 18770, "affected": 43958, "\u0120dismant": 27038, "fecture": 36637, "\u0120preserved": 17232, "ascular": 14767, "\u0120Heist": 50157, "\u0120everybody": 7288, "\u0120agencies": 5942, "\u0120guaranteeing": 50156, "Absolutely": 40501, "\u0120Blend": 41198, "\u0120Dispatch": 35934, "invoke": 37669, "\u0120Haley": 30646, "pps": 41799, "Before": 8421, "amb": 4131, "\u0120tons": 10860, "Greg": 25025, "\u0120ardent": 43033, "\u0120Sensor": 35367, "Updated": 17354, "\u0120Masquerade": 38038, "~~~~": 8728, "\u0120unaccount": 48422, "linger": 33550, "\u0120replicate": 24340, "\u0120authentic": 16425, "asure": 5015, "\u0120ecological": 25047, "Tro": 44095, "\u0120Actor": 27274, "lands": 4447, "\u0120basically": 6209, "\u0120subscribing": 18412, "\u0120emulate": 33836, "\u0120manages": 15314, "eter": 2357, "\u0120municipality": 27264, "\u0120slide": 10649, "\u0120AA": 15923, "\u0120favors": 23866, "\u0120Merc": 12185, "\u0120piece": 3704, "stro": 20661, "\u0120mortality": 12430, "\u0120heavens": 27636, "\u0120Toby": 37578, "\u0120inflict": 28640, "\u0120Nigel": 28772, "Joseph": 29458, "++;": 47253, ")...": 26513, "\u0120disproportion": 18717, "\u0120raided": 31158, "\u0120Robot": 16071, "\u0120Visual": 15612, "\u0120banished": 43926, "\u0120Colonial": 37726, "\u0120Katie": 24721, "boro": 21513, "\u0120Invaders": 41671, "\u0120correspondent": 21076, "ieft": 49868, "\u0120crash": 7014, "\u0120nom": 4515, "\u0120TODAY": 20092, "\u0120Award": 11289, "inqu": 18934, "igious": 10956, "\u0120whisky": 39501, "Exec": 23002, "Got": 30074, "Speed": 22785, "\u0120viol": 1935, "\u0120appliance": 45248, "FLAG": 38948, "54": 4051, "\u0120distributors": 32612, "\u0120name": 1438, "Yeah": 10995, "\u0120WRITE": 44423, "Imm": 24675, "\u0120depos": 12304, "NASA": 29998, "nered": 15826, "\u0120truce": 39854, "\u0120eviction": 38738, "\u0120despicable": 47034, "\u0120According": 4784, "ESE": 33635, "\u0120dj": 42625, "answer": 41484, "Contact": 17829, "\u0120Used": 16718, "\u0120damning": 36706, "\u0120waterproof": 35158, "CHAPTER": 41481, "\u0120mother": 2802, "rain": 3201, "Stack": 25896, "\u0120NP": 28498, "\u0120Stun": 43516, "\u0120phr": 7607, "\u0120monument": 17757, "Attributes": 29021, "0000": 2388, "October": 18517, "Lab": 17822, "\u0120229": 31064, "hod": 2065, "\u0120reactionary": 35578, "\u0120gest": 10521, "\u0120Short": 10073, "HA": 7801, "\u0120Prelude": 46897, "Up": 4933, "reath": 19367, "\u0120visibly": 30544, "825": 47338, "Studio": 41501, "\u0120its": 663, "1978": 37950, "\u0120APR": 40410, "\u0120experience": 1998, "\u0120Barnett": 38174, "\u0120Islamabad": 36878, "\u0120stash": 38305, "\u0120balancing": 22486, "\u0120anim": 2355, "uner": 38886, "\u0120stressed": 15033, "\u0120compar": 4616, "\u0120combination": 6087, "\u0120Rift": 21222, "render": 13287, "\u0120catalyst": 31357, "\u0120vol": 2322, "\u0120165": 21409, "\u0120academia": 34326, "\u0120Screen": 15216, "\u0120elementary": 19823, "tone": 41527, "\u0120exceptionally": 24822, "341": 33660, "\u0120philosophical": 17580, "\u0120borderline": 38422, "\u0120diabetes": 12593, "ess": 408, "\u0120Throw": 22481, "\u0120kindly": 26820, "\u0120evacuate": 36316, "\u0120geographically": 45703, "Disclaimer": 19618, "\u0120corridor": 20749, "\u0120literal": 18875, "icons": 34280, "\u0120minimize": 17775, "\u0120Continue": 10054, "\u0120Nun": 39342, "\u0120contributing": 14329, "\u0120discussed": 6693, "\u0120Unicode": 34371, "\u0120Portland": 10727, "trade": 25351, "random": 25120, "icum": 39901, "\u0120PJ": 44941, "\u0120sprint": 18553, "opard": 15478, "imar": 49399, "licks": 49191, "\u0120overe": 43656, "download": 15002, "\u0120heart": 2612, "\u0120incidentally": 42258, "\u0120Farmer": 37755, "wise": 3083, "1": 16, "LL": 3069, "bid": 14065, "\u0120treated": 5716, "hammad": 14875, "gu": 5162, "\u0120Corporate": 26040, "\u0120aide": 18727, "\u0120281": 39882, "\u0120Wasserman": 38997, "\u0120Goff": 44572, "\u0120node": 10139, "\u0120Vir": 16310, "\u0120bolstered": 48677, "\u0120gland": 37917, "her": 372, "meyer": 48794, "DT": 24544, "ped": 9124, "\u0120theatrical": 32010, "\u0120zip": 19974, "\u0120Clover": 41154, "Device": 24728, "SH": 9693, "\u0120expectancy": 29098, "oshi": 13704, "\u0120Hansen": 27667, "\u0120sermon": 39362, "\u0120Hash": 21059, "\u0120PG": 23842, "heading": 33878, "\u00e3\u0123\u00ab": 28618, "goal": 35231, "Created": 41972, "\u00e1\u00b9": 26292, "\u0120Rasm": 39933, "################################": 29113, "\u0120coordinates": 22715, "aires": 17693, "\u0120Bundesliga": 44323, "\u0120notoriety": 46283, "\u0120intensify": 47697, "akes": 1124, "0002": 34215, "oded": 9043, "\u0120jokes": 14532, "\u0120liked": 8288, "\u0120category": 6536, "\u0120Asuka": 46649, "isers": 21572, "vale": 41161, "\u0120ascent": 37137, "Engineers": 28620, "\u0120declarations": 31713, "\u0120Athletics": 32646, "\u0120Bad": 7772, "\u0120Boo": 21458, "\u0120silently": 24595, "26": 2075, "Maria": 46827, "\u0120availability": 11500, "\u0120aggro": 44082, "\u0120extend": 9117, "\u0120vomit": 44542, "\u0120tug": 27762, "\u0120aspirations": 27337, "induced": 17223, "\u0120Sew": 27347, "\u0120chemicals": 12910, "\u0120Blues": 15261, "acid": 46309, "natural": 11802, "\u0120carn": 18466, "\u0120Dome": 31390, "raint": 16947, "ayne": 43906, "zer": 9107, "\u0120Fasc": 41467, "\u0120laughed": 13818, "\u0120barr": 29069, "raph": 1470, "\u0120divest": 41905, "\u0120\u00c2\u00af": 49660, "\u0120labs": 27887, "\u0120detract": 31041, "eff": 14822, "\u01201988": 12122, "\u0120toughest": 28212, "\u0120broken": 5445, "\u0120hysteria": 38893, "\u0120Ath": 13548, "\u0120Rah": 18655, "let": 1616, "\u0120Tie": 36286, "\u0120demonstrated": 9555, "matic": 13849, "\u0120fig": 2336, "uct": 4782, "\u0120corro": 26132, "ww": 1383, "\u0120locale": 36693, "state": 5219, "Unfortunately": 13898, "back": 1891, "\u0120fug": 31497, "\u0120laptops": 26635, "\u0120stripes": 28806, "\u0120Shirley": 40902, "isy": 13560, "ibraries": 11127, "\u0120347": 43292, "00000000": 8269, "roc": 12204, "\u0120teaspoons": 47234, "\u0120polic": 1825, "half": 13959, "\u0120consequ": 4937, "\u0120Convention": 11680, "ours": 4662, "\u0120serial": 11389, "\u0120Warp": 31382, "\u0120Municip": 27338, "559": 38605, "\u0120Ka": 11611, "\u0120neural": 17019, "ous": 516, "ACK": 8120, "obile": 3579, "1007": 44318, "ses": 8448, "\u0120poisonous": 32199, "rontal": 39321, "\u0120Hyd": 15084, "ainted": 14215, "523": 49803, "\u0120VIDEOS": 48876, "\u0120gripping": 39931, "object": 15252, "ynchronous": 31301, "\u0120Cosmetic": 46161, "Refer": 46238, "\u0120informative": 30304, "\u0120snail": 47374, "\u0120wee": 43671, "\u0120rebate": 49099, ".]": 8183, "\u0120Reg": 3310, "November": 21159, "incent": 42816, "\u0120fly": 6129, "acious": 14209, "\u0120<-": 24293, "\u0120Draw": 15315, "\u0120Moonlight": 39951, "oys": 19417, "\u0120stiff": 15175, "\u0120mug": 25152, "rers": 27736, "\u0120pledging": 43858, "\u0120borrow": 8804, "\u0120enormous": 9812, "\u0120dressed": 12049, "\u0120Creatures": 34539, "\u0120tracing": 35328, "\u0120348": 44084, "\u00ff": 187, "aspx": 31740, "\u0120Functions": 40480, "ically": 1146, "\u0120Oilers": 35004, "\u0120dared": 28765, "\u0120majority": 3741, "\u0120shines": 32481, "chrome": 46659, "\u0120extracts": 32139, "guard": 14864, "\u0120inflamm": 14092, "onics": 38530, "\u0120relied": 17498, "\u0120explorer": 39349, "\u0120holds": 6622, "\u0120promotes": 21068, "\u0120Cas": 11294, "\u0120Sandra": 32464, "\u0120irrigation": 35425, "\u0120trenches": 40068, "\u0120exceeding": 23353, "brook": 19094, "\":[{\"": 32509, "stay": 31712, "\u0120Alps": 46312, "\u0120conscience": 18346, "\u0120merely": 6974, "\u0120commence": 23038, "\u0120recently": 2904, "ucl": 36616, "\u0120understood": 7247, "sd": 21282, "\u0120synonymous": 33271, "\u0120Electro": 38781, "\u0120Varg": 44684, "\u0120\u00c2\u00a7\u00c2\u00a7": 47171, "orph": 13425, "488": 33646, "\u0120schedules": 24025, "\u0120redundancy": 49052, "derived": 34631, "\u0120Technologies": 21852, "count": 9127, "digital": 34725, "\u0120Burk": 37940, "oot": 1025, "glas": 14391, "\u0120providing": 4955, "\u0120JA": 41722, "\u0120overshadowed": 43861, "\u0120filesystem": 29905, "\u0120playlist": 33178, "\u0120certific": 8700, "\u0120Abu": 13098, "\u0120riot": 16352, "\u0120Intern": 2445, "ership": 49437, "\u0120Half": 13139, "\u00f6": 178, "\u0120build": 1382, "SHIP": 49423, "\u0120Vanguard": 31507, "\u0120straight": 3892, "\u0120obs": 10201, "\u0120withdrawn": 23019, "anyon": 21330, "\u0120Insp": 25300, "\u0120Sauce": 37618, "\u0120Dmitry": 45181, "\u00e2\u0122\u0136\u00e2\u0122\u0136\u00e2\u0122\u0136\u00e2\u0122\u0136\u00e2\u0122\u0136\u00e2\u0122\u0136\u00e2\u0122\u0136\u00e2\u0122\u0136\u00e2\u0122\u0136\u00e2\u0122\u0136\u00e2\u0122\u0136\u00e2\u0122\u0136\u00e2\u0122\u0136\u00e2\u0122\u0136\u00e2\u0122\u0136\u00e2\u0122\u0136": 30542, "\u0120disproportionate": 30982, "oros": 40877, "\u0120curb": 20799, "\u0120Bones": 31823, "amus": 25509, "\u0120chore": 30569, "\u0120garner": 34679, "\u0120Zy": 40905, "ouston": 6526, "\u0120Season": 7369, "Online": 14439, "irsch": 47108, "\u0120Zach": 18825, "oke": 2088, "grey": 49502, "\u0120];": 28013, "\u0120take": 1011, "\u0120Nintendo": 9714, "ata": 1045, "\u0120adrenaline": 37607, "\u0120Progressive": 25852, "\u0120peace": 4167, "\u0120Nonetheless": 27251, "\u0120Purg": 49893, "\u0120vibration": 30999, "leg": 1455, "\u0120store": 3650, "\u0120hampered": 42629, "\u0120blanket": 18447, "section": 5458, "NM": 32755, "\u0120loft": 42186, "\u00c3\u00a7": 16175, "\u0120tuning": 24549, "\u0120Frem": 38433, "\u0120convin": 9120, "\u0120Bret": 39420, "\u0120Lebanon": 16849, "istic": 2569, "\u0120Serie": 41530, "\u0120furnace": 42227, "\u0120Grounds": 44201, "\u0120invading": 33827, "\u0120backend": 30203, "\u0120Dod": 15990, "oped": 19458, "\u0120Teddy": 29345, "\u0120mutations": 23005, "\u0120Cursed": 29492, "plementation": 32851, "\u0120stream": 4269, "\u0120remained": 6150, "venants": 43773, "\u0120insect": 12833, "\u00e5\u00ba": 41753, "\u0120subsections": 46310, "\u0120footing": 32687, "\u0120stricter": 36602, "\u0120insufficient": 19022, "\u0120habitat": 20018, "\u0120beginnings": 33875, "\u0120muzzle": 31746, "\u0120deceive": 38666, "\u0120convictions": 19131, "agger": 7928, "developed": 33082, "Barn": 47359, "where": 3003, "\u0120Worth": 22301, "compl": 23855, "\u0120augment": 35016, "\u0120forfeiture": 32075, "\u0120caul": 46087, "\u0120Leia": 41212, "inis": 16661, "rue": 24508, "\u0120discussion": 5114, "Exactly": 47173, "550": 22730, "990": 34155, "\u0120squash": 34613, "\u0120buggy": 46542, "Or": 5574, "\u0120Subject": 15540, "\u0120coil": 25661, "\u0120Gene": 13005, "loo": 29680, "\u0120Swordsman": 48318, "\u0120confessed": 25623, "\u0120remod": 38977, "-(": 30420, "\u0120distinction": 12941, "\u0120culture": 3968, "\u0120assumed": 9672, "arro": 34852, "\u0120prominent": 9208, "\u0120winners": 14591, "\u0120Est": 10062, "\u0120Law": 3854, "\u0120twent": 21849, "\u0120144": 20224, "\u0120Gry": 33958, "\u0120ADV": 43685, "\u0120upscale": 44918, "\u0120haven": 4398, "enton": 26673, "\u0120mirac": 30352, "\u0120anx": 7296, "\u0120DS": 17400, "\u0120Linux": 7020, "ulously": 18117, "142": 23726, "mits": 24883, "\u0120Lak": 30392, "\u0120despise": 44351, "\u0120CAS": 35106, "\u0120racks": 39843, "\u0120Massacre": 40602, "\u0120addict": 19678, "\u0120executes": 42985, "\u0120Mari": 29423, "\u0120thou": 14210, "\u0120Trayvon": 44037, "hig": 25196, "ats": 1381, "\u0120vic": 20429, "\u0120Tarant": 43693, "\u0120yelling": 22187, "\u0120broch": 41978, "\u0120Stanley": 14167, "\u0120Bowie": 29989, "\u0120Allied": 28234, "\u0120Fifty": 35351, "ound": 633, "onne": 47476, "\u0120Decoder": 34580, "\u0120USSR": 28905, "\u0120OMG": 43821, "\u0120Relic": 43437, "\u01201942": 22458, "\u0120Greenwald": 41821, "iller": 4665, "\u0120glaring": 29097, "\":{\"": 8351, "\u0120Mobil": 45951, "\u0120Between": 14307, "OWS": 22845, "\u0120Marino": 46043, "\u0120thesis": 21554, "\u0120synchronized": 47192, "\u0120rides": 17445, "transfer": 39437, "PLIC": 31484, "\u0120predicting": 25539, "\u0120negligent": 42837, "\u0120abundance": 20038, "\u0120Forces": 12700, "alli": 36546, "\u0120Mongolia": 44364, "\u0120openness": 30913, "Netflix": 42826, "2018": 7908, "\u0120Guer": 30059, "ouple": 43846, "\u0120flattened": 45096, "399": 28771, "\u0120holder": 15762, "pb": 40842, "Snow": 28974, "\u0120revert": 34052, "\u0120paying": 5989, "\u0120cessation": 35120, "\u0120akin": 22107, "\u0120(<": 38155, "\u0120arcane": 34362, "lling": 2680, "\u0120brings": 6774, "mobi": 43549, "independence": 39894, "\u0120ran": 4966, "\u0120Picks": 33957, "python": 29412, "\u0120Tell": 14026, "\u0120EDIT": 48483, "\u0120averaging": 20430, "\u0120Fran\u00c3\u00a7": 40178, "\u0120bus": 1323, "\u0120awkwardly": 43622, "\u00c3\u0125\u00c3\u0124": 5808, "\u0120Production": 19174, "\u0120butcher": 38042, "\u0120researching": 24114, "\u0120ICE": 23358, "\u0120obedience": 28777, "oat": 15073, "\u012099": 7388, "GB": 4579, "\u0120Xiaomi": 46726, "\u0120appellant": 44975, "ructose": 32275, "otent": 33715, "\u0120quantitative": 26610, "\u0120smoker": 41644, "\u0120scholar": 15606, "\u0120\u00e2": 2343, "\u0120Movement": 15477, "esters": 8586, "\u0120Comparison": 34420, "\u0120storing": 23069, "\u0120Kasich": 24931, "Zero": 28667, "rock": 10823, "\u0120Header": 48900, "Coin": 24387, "\u00d7": 147, "\u0120persona": 27822, "\u0120Gra": 7037, "323": 32637, "eria": 5142, "ett": 3087, "\u0120day": 1110, "\u0120plaintiffs": 21880, "aults": 13185, "\u0120Definitely": 33562, "me": 1326, "\u0120gymn": 38581, "eligible": 31595, "Anything": 40028, "hesda": 30049, "\u0120vibrations": 38071, "\u0120rapp": 29106, "\u0120derailed": 48769, "yip": 39666, "\u0120criticizing": 26816, "Sep": 19117, "\u0120Eight": 18087, "\u0120problematic": 15833, "xml": 19875, "\u0120Similarly": 15298, "------------------------": 22369, "\u0120Barbara": 16685, "horse": 30527, "\u0120prohibiting": 30363, "870": 46951, "bat": 8664, "ulas": 25283, "\u0120plurality": 36325, "\u0120Verge": 44499, "\u0120winner": 8464, "\u0120DC": 6257, "\u0120annihilation": 49972, "\u0120convinced": 9431, "Wra": 36918, "\u0120robotic": 25810, "\u0120ell": 30004, "\u0120installed": 6589, "uffs": 18058, "\u0120Majesty": 25788, "icating": 12364, "DE": 7206, "\u0120Sv": 44343, "\u0120Caps": 23534, "\u0120elapsed": 42118, "ework": 6433, "\u0120repealed": 32933, "ilitating": 34871, "icable": 18424, "star": 7364, "Guest": 42481, "\u0120215": 22951, "istani": 16688, "\u0120Fortune": 20425, "\u0120consume": 15000, "\u0120become": 1716, "\u0120treadmill": 49246, "\u0120LIFE": 36821, "\u0120Civil": 7511, "\u0120dim": 5391, "\u0120valves": 41843, "\u0120Medina": 41946, "\u0120Sebast": 22787, "pm": 4426, "onite": 46285, "\u0120COMM": 22240, "\u0120ER": 13793, "\u0120meg": 17243, "\u0120calcium": 19700, "\u0120abund": 12467, "bar": 5657, "ogy": 9868, "\u0120downright": 31464, "\u0120epoch": 36835, "\u0120refuge": 5473, "216": 20666, "\u0120ICO": 30674, "enic": 35866, "tip": 22504, "\u0120mafia": 44371, "\u0120reelection": 36630, "\u0120Blueprint": 39932, "\u0120ask": 1265, "\u0120cohesive": 42403, "\u0120'.": 45302, "portion": 16864, "WHERE": 47357, "\u0120ascend": 34800, "\u0120Chip": 17869, "\u0120tattoos": 29591, "\u0120Balloon": 47821, "\u0120Networks": 27862, "\u0120adultery": 38713, "ima": 8083, "\u0120gatherings": 37134, "\u0120carbohyd": 19476, "\u0120anesthesia": 49592, "Enlarge": 30952, "\u0120innumerable": 45383, "\u0120implementing": 15427, "\u0120Unlike": 12101, "\u0120Montgomery": 21532, "\u0120Tune": 42587, "\u0120Ultimately": 24199, "ethy": 33077, "\u0120\u00e3\u0125": 14524, "\u0120rept": 28761, "\u0120economical": 40590, "imus": 20704, "\u0120penetrated": 41847, "\u0120logically": 34193, "\u0120median": 14288, "\u0120indignation": 48689, "\u0120Megan": 27616, "\u0120Scientology": 24990, "\u0120ANY": 15529, "\u0120apocalypse": 37251, "\u0120enactment": 28547, "\u0120hinted": 27388, "\u0120market": 1910, "\u0120Malta": 35206, "\u0120increments": 41867, "Direct": 13470, "asonry": 38950, "\u0120Hindi": 43443, "\u0120shy": 15800, "\u01201965": 17672, "\u0120recruit": 10960, "\u0120rated": 13178, "Kind": 35854, "IVE": 9306, "ibrarian": 35808, ".\u00e3\u0122\u012f": 43735, "inos": 11996, "\u0120mand": 6855, "edia": 5507, "Hub": 16066, "\u0120Freedom": 10204, "\u0120Spirit": 7710, "\u0120intermitt": 30598, "\u0120Helpful": 21656, "\u0120sounded": 14846, "\u0120Wall": 5007, "Script": 7391, "\u0120imperative": 23602, "\u0120genius": 15632, "\u0120vest": 19750, "lav": 18809, "\u0120Recre": 30009, "osit": 7434, "\u012059": 7863, "\u0120sitcom": 37521, "Each": 10871, "\u0120yielding": 39127, "NRS": 41256, "\u0120subdued": 38759, "230": 19214, "percent": 25067, "oling": 40949, "\u0120intertwined": 45905, "\u0120ric": 12410, "araoh": 33766, "\u0120surprisingly": 12362, "\u0120towards": 3371, "702": 36680, "\u0120Jackie": 24766, "\u0120Stephan": 20800, "\u0120HDD": 43601, "373": 34770, "\u0120Sunny": 32241, "\u0120send": 3758, "JC": 34382, "\u0120populated": 22331, "\u0120rapidly": 8902, "\u0120Gru": 25665, "\u0120comprise": 28889, "ISSION": 40373, "\u0120PSP": 48651, "Pe": 6435, "\u0120dominant": 11410, "Aim": 49945, "\u0120inj": 2529, "\u0120favoured": 38931, "rodu": 2076, "\u0120STR": 19269, "\u0120weddings": 37377, "\u0120amongst": 12077, "\u00e3\u0124\u00aa": 20513, "\u0120Lange": 47579, "\u00e2\u0128": 29705, "\u0120developing": 5922, "claw": 43143, "\u0120paraly": 26901, "\u0120driving": 5059, "\u0120Pryor": 45350, "\u0120barbaric": 48176, "Software": 25423, "-,": 20995, "lander": 16235, "iona": 32792, "\u0120complete": 1844, "JP": 12889, "\u0120McCartney": 44677, "laus": 38024, "\u0120doub": 3385, "\u0120Strawberry": 42611, "\u0120ap": 2471, "\u0120fronts": 29324, "\u0120curing": 46053, "uum": 13814, "\u01201953": 24217, "\u0120shoe": 17292, "tem": 11498, "\u0120however": 2158, "Rogue": 48163, "\u0120visceral": 38259, "\u0120decade": 5707, "\u0120Legal": 16027, "switch": 31943, "\u0120caused": 4073, "\u0120skins": 25873, "athering": 25545, "\"]=>": 23785, "\u0120contradicted": 44853, "\u0120merger": 24589, "stores": 43409, "\u0120Blazers": 34766, "\u0120intervened": 35018, "\u0120volunte": 7105, "div": 7146, "\u0120Too": 14190, "\u0120Far": 6755, "\u0120snipp": 26911, "Increase": 46890, "MK": 33907, "\u0120retained": 17383, "\u0120spying": 23649, "GS": 14313, "\u0120grey": 13791, "\u0120traverse": 38138, "\u0120cup": 6508, "041": 50049, "\u0120tribes": 15663, "\u0120Hulk": 22860, "\u0120pathway": 21182, "\u0120ejected": 38632, "\u0120But": 887, "\u0120antioxidant": 39766, "eper": 5723, "\u0120stations": 8985, "\u0120Mas": 11066, "\u0120Chocobo": 47021, "\u0120space": 2272, "\u0120inverted": 37204, "\u0120diminishing": 35197, "\u0120advent": 19980, "\u0120refuel": 47874, "\u0120playful": 34264, "\u0120topics": 10233, "tu": 28047, "urated": 49293, "\u0120Oaks": 44781, "\u0120understandable": 21977, "\u0120lime": 28738, "\u0120Sanders": 5831, "\u0120hating": 45701, "anners": 15672, "cius": 28599, "\u0120gaping": 46529, "\u010a\u010a": 628, "30": 1270, "\u0120electrons": 28722, "\u0120nep": 25919, "\u0120Instruments": 43953, "\u0120fantas": 23857, "\u0120purported": 23236, "\u0120Enhancement": 50230, "\u0120Bill": 3941, "\u0120Xavier": 30825, "\u0120convention": 9831, "\u0120deadline": 12508, "\u0120stewards": 38030, "prim": 19795, "\u0120oft": 28639, "\u0120animation": 11034, "ares": 3565, "\u0120tricks": 15910, "\u0120Oy": 39447, "written": 15266, "\u01201901": 39923, "\u0120wra": 7917, "\u0120escapes": 32695, "\u0120SUM": 35683, "\u0120oversees": 31806, "\u0120Lynd": 33561, "\u0120perceptions": 23574, "\u0120speak": 2740, "\u0120Jiang": 32294, "\u0120clutching": 48281, "month": 8424, "ZZ": 30148, "\u0120committing": 17222, "\u0120Ped": 13457, "\u012076": 8684, "\u0120dance": 9280, "\u01201971": 16382, "support": 11284, "1016": 27956, "\u0120TC": 17283, "\u0120raft": 31812, "brew": 11269, "\u00d8\u00b9": 44690, "\u0120debuted": 26376, "\u0120Brilliant": 45891, "\u0120td": 41560, "\u0120Dag": 32167, "\u0120Gazette": 38772, "\u0120Anders": 25519, "ocular": 37320, "\u0120innovations": 25438, "\u0120couples": 11886, "FML": 34708, "\u0120283": 42032, "\u0120PERSON": 46740, "yr": 2417, "LP": 19930, "Military": 37837, "389": 29769, "olor": 45621, "\u0120spaceship": 40663, "QUI": 43702, "\u0120Cover": 17546, "\u0120Retail": 26702, "tele": 46813, "\u0120mindset": 20527, "\u0120abused": 15519, "\u0120gore": 46835, "\u0120refining": 39634, "eling": 10809, "\u0120classroom": 15806, "awk": 19301, "Install": 15798, "\u0120sage": 35021, "aber": 27359, "XY": 34278, "fb": 21855, "\u0120Felix": 29721, "North": 14157, "COM": 9858, "\u0120purge": 35714, "\u0120puppies": 37793, "Fl": 7414, "\u0120exterior": 20897, "\u0120interviewing": 31481, "\u0120arch": 3934, "\u0120Marse": 45996, "TABLE": 38148, "arijuana": 42834, "\u0120impossible": 5340, "\u0120authorities": 4773, "++++": 14030, "\u0120whites": 13216, "\u0120Potential": 32480, "\u0120Mask": 18007, "\u00e2\u0138\u00ac": 47530, "\u0120observations": 13050, "\u0120motorists": 32688, "\u0120lived": 5615, "\u0120Ned": 35754, "\u0120household": 6641, "\u0120nem": 36945, "\u0120Polaris": 41193, "\u0120scarcity": 35501, "\u0120Memphis": 20522, "\u0120union": 6441, "haust": 42456, "\u0120Championship": 10749, "\u0120impetus": 43007, "istry": 4592, "ilst": 11750, "anya": 34183, "task": 35943, "ESPN": 31730, "\u0120DOD": 42756, "Ak": 33901, "\u0120ironically": 32532, "\u0120shuff": 32299, "\u0120acknowledges": 23477, "\u0120Provision": 43161, "Ev": 15200, "\u0120Maxwell": 28276, "\u0120Musk": 20119, "Cool": 34530, "\u0120gases": 21678, "responsible": 24358, "\u0120surrounding": 7346, "puters": 41510, "\u0120directories": 29196, "close": 19836, "\u00e3\u0125\u00bb": 4707, "\u0120Hydro": 32116, "\u0120massac": 34622, "\u0120Everything": 11391, "particularly": 31722, "\u0120Astro": 35167, "\u0120challenging": 9389, "emies": 5090, "\u0120bunk": 36355, "\u0120horrifying": 31906, "outing": 13660, "\u0120Secretary": 4986, "Weapons": 41818, "\u0120plac": 21957, "\u0120);": 5619, "Despite": 8332, "\u00e5\u00a6": 36685, "\u0120uphill": 35256, "\u0120amazing": 4998, "\u0120Razor": 36065, "\u0120devices": 4410, "\u0120stressful": 27177, "\u0120wik": 47145, "\u0120Age": 7129, "ubby": 38393, "\u0120rpm": 37542, "\u0120Dakota": 13336, "\u0120discourage": 27518, "\u0120parties": 4671, "\u0120mol": 18605, "\u0120Counsel": 21023, "\u0120hire": 11078, "\u0120EST": 17160, "\u0120Shinra": 47981, "\u0120Alaska": 12926, "\u0120Pentagon": 12651, "\u0120infertility": 47906, "\u0120Stronghold": 40092, "abling": 11716, "\u0120gamer": 26713, "\u00c3\u00a9n": 35942, "\u0120Agency": 7732, "\u0120Clever": 42486, "\u0120Parliament": 8411, "ISE": 24352, "\u0120BU": 20571, "\u0120TIT": 37977, "\u0120Legislation": 30270, "\u0120message": 3275, "\u0120Luxembourg": 31864, "\u0120Gran": 17113, "\u0120titles": 8714, "British": 25631, "\u0120projection": 20128, "Rick": 33048, "\u0120trendy": 44493, "Thousands": 37482, "\u0120Elements": 26632, "\u01201944": 16994, "\u0120Kardash": 42239, "oglu": 49006, "\u0120saline": 47375, "\u0120interacting": 24986, "arine": 34569, "\u0120189": 27230, "\u0120lobster": 43657, "uu": 12303, "\u0120SG": 26147, "\u0120didn": 1422, "wyn": 27612, "\u0120Arn": 16644, "\u0120Trigger": 24593, "\u0120Ball": 6932, "TP": 7250, "zzy": 31570, "\u0120spons": 7180, "oh": 1219, "\u0120addon": 48557, "ell": 695, "\u0120fe": 730, "works": 5225, "\u0120ignore": 8856, "\u012079": 9225, "spe": 4125, ",\u00e2\u0122\u0136": 34976, "isive": 13911, "\u0120spies": 28801, "\u0120Midnight": 27960, "udeb": 46092, "uzzle": 9625, "\u0120mighty": 18680, "\u013c\u00e9": 21253, "\u0120Malone": 40735, "\u0120how": 703, "plate": 6816, "rene": 25924, "\u0120Lithuania": 31295, "onest": 19129, "\u0120integrity": 11540, "ramer": 29172, "\u0120VICE": 46304, "0100": 39103, "\u0120allergy": 36197, "\u0120ripped": 19551, "\u0120ecstatic": 45782, "asi": 17053, "iolet": 19194, "\u0120losses": 9089, "\u0120Hurt": 42566, "prise": 7919, "Danny": 45478, "\u0120dispers": 39895, "\u0120MAX": 25882, "\u0120rook": 10929, "\u0120ignition": 37594, "\u0120bartender": 41118, "\u0120intervene": 22432, "ppo": 16634, "\u0120toggle": 19846, "\u0120regime": 7142, "\u0120illicit": 24271, "oggle": 20258, "king": 3364, "\u0120honoured": 45870, "\u0120Cou": 15062, "\u0120Premier": 9952, "\u0120Prague": 37079, "\u0120exporting": 39133, "\u0120Layout": 47639, "\u0120legs": 7405, "asks": 6791, "\u0120Seymour": 42843, "WOOD": 49466, "\u0120Mosul": 19192, "playing": 17916, "\u0120Europe": 2031, "\u0120doping": 42631, "\u0120fulfillment": 32402, "\u0120amphib": 38255, "\u0120Antonio": 11366, "\u0120hesitated": 41723, "\u0120PowerShell": 33870, "CG": 39816, "\u0120SN": 11346, "\u0120employing": 26490, "\u0120Ree": 29030, "\u0120lamented": 40176, "272": 29807, "\u0120Schedule": 19281, "Sum": 13065, "haired": 29972, "\u0120Gor": 19097, "\u0120underest": 20164, "ni": 8461, "\u0120Whole": 23431, "\u0120bar": 2318, "\u0120prosperity": 19519, "\u0120Lime": 43503, "iles": 2915, "olated": 50027, "ACP": 33056, "ouri": 10300, "TRY": 40405, "oyer": 35301, "G": 38, "annabin": 43655, "\u0120Abbas": 28354, "\u0120registrations": 47997, "\u0120weed": 20349, "\u013a\u0127": 11805, "\u0120austerity": 22518, "\u0120uprising": 26312, "\u0120Castle": 11312, "\u0120brought": 3181, "604": 31916, "arie": 49173, "\u0120scrim": 32157, "\u0120lateral": 25653, "\u0120isolation": 15133, "\u0120USPS": 44640, "gian": 18299, "\u0120templates": 24019, "\u0120CJ": 27731, "hands": 43365, "\u0120Lead": 20116, "\u0120intrusive": 39930, "\u0120safe": 3338, ".\u00e2\u0122\u0136": 13402, "enture": 36697, "\u0120defer": 29135, "\u0120dan": 46078, "\u0120Georgian": 45262, "\u0120plumbing": 40199, "\u0120BAD": 33934, "\u0120passage": 10066, "\u0120pin": 6757, "\u0120Gender": 20247, "Hal": 40202, "Rich": 14868, "\u0120CIS": 36159, "\u0120Gabe": 45513, "\u0120tsun": 28798, "\u0120submitted": 8948, "apa": 32678, "announced": 43499, "\u0120associations": 15814, "\u0120Atkinson": 49042, "lections": 26448, "educated": 27317, "DX": 36227, "\u0120masks": 20680, "\u0120recruiting": 16517, "\u0120Panther": 30364, "\u0120Few": 20463, "\u0120424": 48252, "\u00e7\u0137": 45911, "\u0120daring": 27939, "511": 41647, "\u0120Green": 3469, "\u0120dunk": 35434, "\u0120Lim": 7576, "\u0120Conservation": 23702, "\u0120bra": 8290, "[\"": 14692, "jad": 38442, "\u0120variations": 13991, "\u0120Niet": 28428, "arial": 36098, "\u0120competence": 31450, "ness": 1108, "\u0120rationality": 45627, "THER": 21250, "\u0120Kirby": 23965, "\u0120Iraq": 3908, "Gray": 46130, "\u0120takes": 2753, "\u00e3\u0125\u00a4": 37858, "\u0120misled": 38796, "uberty": 34237, "\u0120Prosecutors": 48198, "\u0120stride": 33769, "\u0120wrongly": 31238, "chart": 40926, "\u0120Sob": 36884, "\u0120Whether": 10127, "\u0120Townsend": 46811, "nesday": 3462, "\u0120Email": 9570, "Jud": 26141, "\u0120leash": 40529, "\u0120Ellie": 44801, "\u0120lighthouse": 46371, "reth": 40978, "Spe": 5248, "argo": 9448, "\u0120theatre": 21421, "\u0120diction": 48589, "\u0120eighth": 16974, "\u0120steril": 30429, "Level": 4971, "ropolis": 25986, "\u0120furiously": 44896, "tk": 30488, "\u0120parted": 37813, "\u0120enforcement": 5394, "\u0120Superman": 14951, "\u0120discern": 22024, "\u0120Pool": 19850, "urs": 1834, "\u0120friendly": 8030, "\u0120Anthrop": 32898, "\u0120edible": 35988, "\u0120Jump": 15903, "NEY": 36231, "\u0120physi": 42087, "marriage": 45394, "\u0120aware": 3910, "\u0120bearing": 14121, "\u0120denial": 14425, "Engine": 13798, "\u0120burd": 8746, "\u0120Drawing": 40027, "ocol": 4668, "\u0120pillar": 30042, "stra": 12044, "\u0120Sonic": 18426, "\u0120rein": 6865, "\u0120toured": 44035, "\u0120longing": 40314, "\u0120wrapping": 27074, "ologue": 39795, "\u0120Melee": 21058, "\u0120happier": 23030, "\u0120captains": 37551, "\u00e3\u0125\u00bc\u00e3\u0125\u0128\u00e3\u0124\u00a3": 44686, "\u0120less": 1342, "\u0120loneliness": 37378, "\u0120disagreements": 37990, "\u0120Typical": 48752, "\u0120Fenrir": 39394, "azor": 17725, "PT": 11571, "Far": 21428, "\u0120Mid": 7215, "\u0120decap": 44736, "\u0120workers": 3259, "\u0120Reyes": 40599, "Mix": 35608, "\u0120Beckham": 37244, "ification": 2649, "\u0120Hudson": 19995, "heimer": 16288, "\u0120securing": 19732, "\u0120Lutheran": 43772, "\u0120beck": 47673, "iqueness": 46764, "nine": 30888, "\u0120Hemp": 50060, "verett": 33395, "\u0120news": 1705, "\u0120resent": 20315, "\u0120batter": 4984, "\u0120Marketing": 22137, "ON": 1340, "\u0120Leh": 29921, "UA": 34970, "\u0120fantasies": 30162, "\u0120Ramsay": 47959, "Awesome": 49061, "\u0120terminate": 23654, "\u0120perks": 28429, "\u0120Initiative": 18362, "vest": 4223, "\u0120386": 48340, "Located": 43525, "Honest": 37411, "\u0120Cowboy": 48706, "set": 2617, "home": 11195, "\u0120bulldo": 44767, "\u0120subreddit": 25163, "\u0120Ginny": 37877, "\u0120channel": 6518, "\u0120Engel": 46073, "\u0120Mechanics": 47570, "message": 20500, "42": 3682, "\u0120Steph": 39644, "REE": 11587, "\u0120TRUE": 26751, "\u0120odor": 28192, "Brother": 39461, "\u0120indefinitely": 24391, "\u0120farming": 16035, "\u0120sublime": 41674, "\u0120Mead": 21910, "Gb": 49017, "\u0120shame": 10195, "@#": 41573, "\u0120DAM": 29506, "\u0120cooling": 15134, "\u0120outfit": 16313, "essor": 5987, "\u0120Fletcher": 31942, "under": 4625, "\u0120crack": 8469, "\u0120Indonesia": 16256, "ico": 3713, "fr": 8310, "opens": 44813, "ang": 648, "\u0120Basically": 20759, "\u0120undue": 38826, "\u0120Fla": 22026, "\u0120hy": 2537, "76561": 48527, "Required": 37374, "\u0120stereotypes": 22364, "\u0120closes": 20612, "put": 1996, "\u0120highlights": 11330, "EST": 6465, "\u0120dominance": 18648, "\u0120vehement": 36284, "\u0120Pavel": 49612, "\u0120minus": 20208, "\u0120Pand": 16492, "\u0120Alchemy": 43987, "\u00e2\u0139\u0131": 28133, "\u0120Cunningham": 34325, "\u0120starting": 3599, "ettes": 23014, "consuming": 35873, "Same": 30556, "\u00e5\u013d": 32368, "\u0120popul": 16595, "\u0120Chron": 8750, "\u0120Vehicles": 31365, "obin": 38954, "esteem": 31869, "\u0120equivalents": 40255, "\u0120DP": 27704, "\u00e3\u0125\u0128": 24336, "\u0120revenues": 13089, "\u0120grossly": 40316, "\u0120Nutr": 37012, "\u0120freshly": 29026, "\u0120displayed": 9066, "\u0120radiator": 50036, "\u0120DOC": 37760, "\u0120niece": 41803, "acter": 7321, "\u0120Stupid": 42930, "\u0120MIT": 17168, "\u0120peasant": 30779, "\u0120signalling": 45829, "\u0120demonstrations": 18721, "chall": 36747, "\u0120nostalg": 22314, "\u0120nursery": 41326, "\u0120average": 2811, "\u0120Hil": 24410, "\u0120skin": 4168, "\u0120Ging": 26169, "\u0120Those": 5845, "\u0120Cups": 41611, "022": 44087, "\u0120carrier": 11920, "Tele": 31709, "analy": 38200, "\u0120entail": 39793, "Inside": 24441, "\u0120hate": 5465, "\u0120Patrol": 20989, "OOOO": 23803, "\u0120Poker": 36157, "ahn": 15386, "\u0120computing": 14492, "IB": 9865, "\u0120Accuracy": 33222, "\u00e6\u013a\u00af": 42468, "Higher": 48708, "\u0120classes": 6097, "text": 5239, "\u0120Corrections": 40526, "\u0120angrily": 34425, "\u0120Ubisoft": 34559, "\u0139": 245, "\u0120Crimes": 32655, "\u0120Citizen": 22307, "\u0120cholesterol": 18759, "uristic": 27915, "pages": 31126, "\u0120returning": 8024, "\u0120Destruction": 25034, "\u0120Cham": 37790, "\u0120lettuce": 39406, "\u0120adding": 4375, "gans": 39352, "\u0120specialization": 43135, "\u0120unethical": 38486, "Climate": 37649, "anqu": 26184, "\u0120RU": 46432, "\u0120389": 49633, "\u0120Greenpeace": 42793, "\u0120fluct": 19180, "\u0120lashes": 40999, "\u0120adjacent": 15909, "rogens": 48686, "\u0120Tomato": 47777, "DK": 48510, "\u0120jaw": 19218, "\u0120uptake": 35340, "\u0120detached": 30795, "\u0120oneself": 27186, "\u0120rewrite": 28183, "inical": 32352, "\u0120Kal": 12612, "\u0120nitrogen": 23417, "\u0120Cohen": 17154, "iba": 23718, "\u0120costume": 16569, "\u0120trails": 19196, "walking": 44065, "enged": 47422, "\u0120cinem": 13483, "\u0120Creation": 21582, "odynamics": 44124, "\u0120invoke": 26342, "\u0120ACL": 17382, "\u0120slamming": 39603, "\u0120sort": 3297, "MAC": 44721, "AND": 6981, "bable": 33460, "\u0120Gotham": 30129, "mie": 44871, "episode": 38668, "sol": 34453, "\u0120impractical": 43994, "Phones": 32212, "\u0120Robb": 31384, "\u0120Dayton": 24450, "\u0120OF": 3963, "Pain": 38490, "amia": 49442, "\u0120blo": 24924, "\u0120Bah\u00c3\u00a1": 38218, "\u0120worked": 3111, "\u0120Bang": 9801, "\u0120sophisticated": 13767, "arde": 45093, "auto": 23736, "\u0120Ironically": 37731, "\u0120Holl": 11806, "\u0120Termin": 15527, "\u0120docs": 34165, "igun": 50118, "\u0120continent": 15549, "olen": 8622, "\u0120democratic": 10518, "h": 71, "\u0120grad": 3915, "\u0120investigated": 12565, "\u0120policymakers": 29484, "\u0120geek": 27314, "423": 43356, "amine": 9862, "\u0120whispered": 25029, "\u0120dispar": 14455, "\u0120pepp": 49038, "\u0120Whoever": 37807, "rants": 15087, "iannopoulos": 36408, "\u0120benef": 2204, "irgin": 4672, "\u0120Metro": 12477, "\u0120bridge": 7696, "\u0120Kot": 21702, "\u0120Mel": 5616, "\u0120comr": 20677, "\u0120Cong": 2908, "\u0120illness": 8526, "\u0120Lack": 38289, "Rules": 37766, "misc": 44374, "\u0120EU": 4576, "\u0120Forsaken": 49116, "\u0120rite": 46048, "\u0120Relax": 46883, "\u0120params": 42287, "\u0120Sloven": 30694, "tyard": 30308, "butt": 43059, "\u0120centrally": 49714, "210": 21536, "\u0120fortnight": 46327, "north": 43588, "\u0120loan": 8063, "\u01201917": 24168, "\u0120confrontation": 19207, "\u0120Conor": 41708, "\u0120sigh": 19680, "SM": 12310, "uple": 29291, "\u0120carb": 13265, "\u0120contractors": 17736, "\u0120Cardinal": 25564, "\u0120rifles": 18469, "agonal": 27923, "\u0120shred": 21163, "virtual": 32844, "ventional": 20405, "\u0120Gordon": 11646, "\u0120Completed": 32983, "\u0120spice": 25721, "br": 1671, "\u0120excruciating": 49069, "\u0120deliberate": 18988, "atorial": 21592, "Question": 24361, "\u0120congratulations": 45108, "\u0120fest": 15292, "\u0120governs": 47049, "\u0120linguistic": 29929, "\u0120seam": 15787, "eah": 4617, "\u0120Jeep": 35801, "\u0120Empire": 8065, "Kal": 41428, "print": 4798, "\u0120Aux": 47105, "\u0120prisoner": 17234, "oming": 3383, "favorite": 35200, "\u0120Jamie": 17826, "\u0120addition": 3090, "\u0120writings": 19336, "aven": 4005, "\":": 1298, "versions": 47178, "\u0120politics": 4819, "\u0120kan": 43998, "claim": 6604, "\u0120anew": 44951, "Cle": 34349, "\u0120Created": 15622, "\u0120cables": 18018, "\u0120Keith": 14926, "\u0120demol": 16465, "fect": 2309, "WER": 45532, "idents": 3231, "\u0120exert": 17596, "\u0120ousted": 37822, "roxy": 42059, "\u0120slows": 33019, "\u0120swirling": 40431, "cha": 11693, "\u0120Dian": 19326, "\u0120ROCK": 41320, "\u0120diverse": 10084, "\u0120HA": 14558, "etric": 19482, "\u0120seeker": 45993, "\u0120destined": 23985, "\u0120wipe": 19916, "\u0120advoc": 5271, "\u0120weakening": 34992, "\u0120delicious": 12625, "\u0120NGO": 22142, "kee": 11035, "\u0120Transformation": 49127, "\u0120Projects": 29898, "\u0120ALL": 11096, "\u0120distilled": 41009, "ochond": 22400, "\u0120procedural": 27931, "\u0120Ukraine": 7049, "\u0120vanishing": 49047, "\u0120refund": 12929, "\u0120retracted": 47360, "\u0120hypotheses": 35125, ",": 11, "\u0120scientifically": 32627, "anity": 19689, "\u0120deviations": 47060, "ynam": 4989, "Frank": 17439, "party": 10608, "\u0120attitude": 9408, "\u0120slapped": 31213, "\u0120performed": 6157, "\u0120deval": 35966, "JOHN": 47118, "account": 23317, "pox": 42557, "Mission": 37057, "522": 49542, "\u0120fresh": 4713, "\u0120triumphant": 44005, "\u0120Solid": 15831, "zona": 7551, "LEASE": 22781, "CSS": 49155, "ophobic": 23468, "\u0120Quality": 14156, "\u0120traff": 11878, "Know": 23812, "\u0120OG": 34498, "\u0120lump": 23844, "\u0120Authorities": 30756, "\u0120Hicks": 31750, "Mode": 19076, "\u0120Attend": 46502, "addin": 46782, "Repeat": 40322, "\u0120Twain": 49824, "Typically": 49321, "etics": 14596, "Quality": 35013, "\u0120stealing": 16568, "\u0120PID": 37022, "\u0120Formula": 19639, "\u0120Assistant": 15286, "\u0120intoler": 20619, "\u0120Beautiful": 23762, "\u0120Walton": 34468, "\u0120Mah": 8882, "\u0120Lee": 5741, "\u012072": 7724, "840": 40675, "Test": 14402, "ive": 425, "\u0120pur": 1308, "\u0120coh": 16883, "\u0120virgin": 21772, "fish": 11084, "Editor": 17171, "\u0120Birthday": 33511, "\u0120buy": 2822, "\u0120dismiss": 6735, "ancer": 8250, "\u0120crane": 41175, "aments": 12604, "hesive": 25938, "\u0120acts": 6529, "\u00a5\u0140": 13945, "\u0120explor": 39180, "\u0120audits": 41973, "legates": 37061, "\u0120~/.": 39763, "almost": 28177, "\u0120stair": 18761, "incial": 13744, "Moving": 33622, "casting": 19913, "\u0120futuristic": 36701, "\u0120maintained": 9456, "astern": 6470, "\u0120frowned": 32198, "ierce": 9798, "\u0120sailor": 43272, "\u0120pistol": 16790, "\u0120astronomical": 37209, "\u0120parcel": 25232, "Dam": 14550, "lish": 1836, "\u0120shaft": 18619, "\u00ef\u00b8\u0131": 37929, "\u0120Monetary": 34112, "\u0120VER": 33310, "Transform": 41762, "\u0120----------------------------------------------------------------": 16529, "\u0120Pew": 21805, "\u0120(?,": 32843, "osexual": 8542, "\u0120Trophy": 25640, "\u0120carving": 39510, "\u0120Reason": 23219, "psych": 23947, "states": 27219, "\u0120si": 33721, "endale": 41147, "focus": 37635, "thro": 26110, "arser": 28198, "medi": 2379, "\u0120pressures": 18895, "\u0120presenter": 39597, "\u0120story": 1621, "\u0120gem": 16840, "\u0120Ket": 43092, ":[": 33250, "\u0120sending": 7216, "\u0120BC": 11843, "\u0120Suc": 47352, "\u0120contest": 8414, "\u0120dismantle": 37890, "\u0120customs": 17112, "\u0120Mankind": 44231, "\u0120unwanted": 19125, "illery": 14920, "\u0120daemon": 33386, "Posted": 14231, "\u0120potentially": 6196, "\u0120Joker": 23582, "\u0120Apple": 4196, "\u0120acquainted": 36620, "\u0120Cooperative": 43457, "atom": 37696, "\u0120Freddie": 31658, "yx": 28391, "\u0120closely": 7173, "ipment": 4667, "\u0120unn": 41231, "leaning": 25909, "forums": 37141, "thel": 37274, "\u0120imaginable": 40758, "\u0120Gener": 2980, "\u0120Fa": 18350, "\u0120arrive": 9240, "\u0120staircase": 27656, "\u0120Hobbit": 43877, "undy": 45459, "Prin": 47231, "\u0120identifier": 27421, "light": 2971, "\u0120scams": 41718, "\u0120Houses": 34336, "\u0120converge": 47873, "driven": 15808, "heads": 16600, "\u0120Ble": 17175, "CN": 44175, "\u0120ceramic": 37973, "\u0120Sept": 2362, "\u0120players": 1938, "Strange": 38114, "arning": 4228, "\u0120quarter": 3860, "inus": 35237, "\u0120Aj": 22028, "1965": 45271, "\u0120whims": 38411, "\u0120308": 35617, "Xbox": 43377, "raining": 24674, "Integ": 34500, "UX": 31235, "ool": 970, "more": 3549, "\u0120Wak": 46033, "ired": 1202, "ridor": 44425, "\u0120Cause": 24228, "\u0120increment": 18703, "\u0120Band": 10243, "\u0120\u00ec": 23821, "\u0120Kron": 44732, "\u0120\"": 366, "\u0120malicious": 17412, "Nit": 33772, "\u0120materials": 5696, "\u0120strap": 23016, "camp": 16544, "\u0120Fake": 33482, "\u0120envelop": 16441, "igated": 26963, "\u0120commun": 1316, "\u0120Philadelphia": 8857, "\u0120unf": 3684, "BBC": 33833, "\u0120desserts": 47950, "bats": 50199, "hd": 31298, "\u0120gathers": 43609, "\u0120Norm": 11220, "intel": 48779, "ymes": 22009, "\u0120compliment": 19370, "\u0120tales": 19490, "\u0120leaning": 21804, "\u0120attends": 32743, "\u0120Viper": 34517, "\u0120APPLIC": 39421, "\u0120resolves": 38709, "ony": 1647, "content": 11299, "\u0120thrilling": 31610, "\u0120foam": 19828, "staking": 40031, "\u0120voter": 10765, "354": 32182, "\u0120ovarian": 45546, "YA": 44947, "quila": 43652, "\u0120hugged": 41130, "\u0120profitable": 17967, "\u0120trailed": 40060, "\u0120Tyson": 27320, "\u00ed\u0137": 47991, "\u0120overcoming": 36438, "llers": 13802, "obb": 21963, "ribed": 8725, "\u01208000": 38055, "\u0120Enough": 31779, "\u0120950": 38384, ")=": 47505, "0010": 37187, "\u0120piracy": 30955, "\u0120Hin": 29094, "sylvania": 9270, "\u0120spontaneous": 25319, "otor": 20965, "\u0120volatile": 22750, "\u0120Monthly": 27573, "\u0120amazingly": 32513, "\u0120adds": 6673, "\u0120reincarn": 41831, "achable": 34446, "\u0120Abrams": 32414, "\u0120teasing": 34417, "\u0120naive": 24354, "\u00d8\u00a7\u00d8": 34247, "!'": 13679, "\u0120stains": 43329, "\u0120Evening": 31867, "Chris": 15645, "Lou": 24016, "\u0120prett": 46442, "\u0120navigation": 16408, "\u0120Doctor": 9356, "DonaldTrump": 27674, "Kar": 37753, "\u0120know": 760, "\u0120textual": 40577, "\u0120song": 3496, "\u0120mountain": 8598, "blers": 43022, "\u00e2\u0122\u00a6\u00e2\u0122\u00a6\u00e2\u0122\u00a6\u00e2\u0122\u00a6": 15864, "Muslim": 17067, "\u0120strategist": 25651, "\u0120Thieves": 40392, "\u00c4\u0129": 38325, "\u0120Kazakh": 29766, "\u0120Mister": 43438, "\u0120https": 3740, "\u01201948": 21794, "\u0120disasters": 24193, "Response": 31077, "when": 12518, "hap": 45897, "\u0120repo": 29924, "\u0120LOC": 37347, "\u0120elev": 7662, "\u0120compensate": 21392, "\u0120Darling": 49825, "\u0120planned": 6027, "\u0120pestic": 20213, "interesting": 47914, "\u0120revers": 10372, "\u0120LI": 24653, "\u0120kilometers": 18212, "oad": 1170, "boxes": 29305, "\u0120nephew": 26301, "\u0120Cot": 42266, "\u0120deterior": 17975, "\u0120Dodgers": 23576, "\u0120Splash": 45275, "\u0120bod": 16429, "\u0120ribs": 27105, "kr": 38584, "\u0120critic": 4014, "stead": 28044, "\u0120lecturer": 40228, "peg": 22071, "\u0120adore": 47194, "\u0120rhet": 11388, "\u0120Arist": 23203, "\u0120y": 331, "\u0120Xi": 21313, "\u0120Column": 29201, "\u0120bri": 31013, "Real": 15633, "\u0120inadvertently": 29243, "\u0120Mal": 4434, "impl": 23928, "\u0120ev": 819, "Thanks": 9690, "\u0120Dustin": 37616, "iy": 7745, "\u0120hobbies": 45578, "aints": 6003, "\u0120Marketable": 11966, "\u0120Multi": 15237, "igraph": 45920, "\u0120134": 22352, "\u0120determin": 3416, "00": 405, "\u0120Bowman": 38774, "\u0120policy": 2450, "\u0120essentially": 6986, "\u0120century": 4289, "\u0120firing": 9645, "\u0120amassed": 39025, "raper": 38545, "\u0120Shoot": 17011, "\u0120VAL": 26173, "Fact": 29054, "789": 40401, "CVE": 31436, "\u0120User": 11787, "\u0120Communist": 14884, "\u0120Objects": 35832, "\u0120edition": 8313, "Monitor": 35479, "\u0120Windows": 3964, "\u0120pig": 12967, "\u0120Jakarta": 49251, "\u0120ball": 2613, "orr": 38890, "\u0120deserted": 36043, "\u0120Barkley": 45408, "\u0120263": 39135, "\u0120asserted": 21635, "alde": 35885, "\u0120Libyan": 28661, "\u0120shooters": 26191, "\u0120Caf": 35046, "\u0120gimm": 33135, "\u0120cardiovascular": 21134, "\u0120Portugal": 19101, "\u0120destroyer": 41056, "edge": 14907, "ut": 315, "usb": 43319, "\u0120Packs": 46780, "\u0120between": 1022, "\u0120suspend": 22004, "\u0120300": 5867, "Ali": 37893, "\u0120willful": 47860, "\u0120Slack": 36256, "\u0120Distribut": 46567, "irit": 3276, "\u0120Gut": 27549, "\u0120Missions": 46006, "mite": 32937, "\u0120spacing": 31050, "Michelle": 48736, "\u0120Presbyterian": 44150, "\u0120Stein": 15215, "\u0120Farrell": 37568, "\u0120Open": 4946, "\u0120occurs": 8833, "\u0120pi": 31028, "\u0120Greatest": 33575, "\u0120cocaine": 15144, "\u0120Cox": 18014, "\u0120iceberg": 34849, "\u0120wor": 476, "\u0120Congress": 3162, "\u0120mig": 37011, "\u0120eldest": 34331, "\u0120Woody": 37684, "\u0120prompting": 21550, "\u00de": 154, "iations": 40356, "ouncing": 18155, "\u0120deadly": 10309, "\u0120supporting": 6493, "\u0120Tamil": 32519, "\u0120collect": 2824, "buck": 27041, "artifacts": 50179, "launch": 35681, "Star": 8248, "ovie": 10739, "\u0120|--": 44233, "\u0120entrance": 10384, "\u0120bodies": 5920, "\u0120usage": 8748, "\u0120Xue": 47298, "Changing": 48333, "ukes": 31469, "\u0120noodles": 31103, "\u0120understatement": 46196, "\u0120nerve": 16384, "\u0120Virus": 40584, "\u0120Taiwanese": 41777, "ventory": 17158, "\u0120onions": 24681, "\u0120Echo": 21455, "\u0120Nak": 22255, "\u0120stray": 28583, "\u0120fined": 22643, "\u0120mov": 1409, "surv": 48846, "/#": 31113, "\u0120sniper": 26160, "paying": 32629, "\u0120distribut": 11309, "\u0120rock": 3881, "\u0120Armour": 23752, "Charl": 24453, "\u0120boarded": 35032, "\u0120ker": 41927, "\u0120browse": 25675, "\u0120vir": 5709, "\u0120haunt": 36334, "adeon": 12424, "\u0120modes": 12881, "\u0120mistrust": 48611, "\u0120fleeing": 19105, "\u0120Sustainable": 45276, "iky": 47536, "\u0120produce": 4439, "\u0120Kentucky": 11867, "\u0120Dialogue": 34709, "\u0120Rocket": 16920, "Ma": 21467, "achu": 32323, "\u0120justified": 14460, "\u0120segregation": 26718, "\u0120Zi": 45643, "Jac": 28821, "\u00e2\u0138\u00ba": 45717, "gue": 18701, "762": 48194, "\u0120Roz": 41334, "\u0120HAVE": 21515, "year": 1941, "\u0120pain": 2356, "Internal": 37693, "imal": 4402, "\u0120Forest": 9115, "money": 26316, "sided": 22339, "381": 36626, "\u0120tells": 4952, "tar": 18870, "Wow": 22017, "\u0120Shan": 14866, "\u0120spins": 37621, "\u0120Simpl": 45157, "\u0120Indeed": 9676, "\u0120Reporting": 29595, "\u0120Roses": 41244, "\u0120Sneak": 49475, "ieu": 22304, "\u0120Pieces": 44676, "Sharp": 44336, "rots": 24744, "\u0120salon": 46608, "\u0120Sc": 1446, "Kn": 25095, "Across": 40553, "MIC": 49884, "gall": 39580, "ugar": 35652, "\u0120Delta": 16978, "\u0120adversaries": 35177, "ulnerability": 40920, "\u0120prank": 33401, "erald": 12573, "oil": 9437, "\u0120Baghd": 18706, "\u0120LW": 38492, "\u0120satisfying": 19201, "\u0120Horror": 22732, "\u0120contrace": 17473, "\u0120aims": 12031, "nd": 358, "\u0120mush": 15026, "steel": 44822, "\u0120><": 28725, "\u0120Loop": 26304, "\u0120sincerity": 44053, "\u0120flame": 16506, "\u0120filmed": 18976, "\u0120threatening": 11123, "\u0120Simpsons": 34376, "\u0120SS": 6723, "\u0120disbel": 23935, "\u0120disgr": 19329, "\u0120sickness": 26359, "\u0120Daylight": 47743, "\u0120coworkers": 38945, "\u0120research": 2267, "\u0120Celebration": 44911, "\u0120KDE": 36632, "\u0120Exercise": 32900, "\u0120beautiful": 4950, "ishly": 29735, "\u0120rounding": 38185, "\u0120trainer": 21997, "\u0120planes": 13016, "\u0120Photographer": 43809, "\u0120wherein": 22881, "\u0120prejudices": 39800, "\u0120callback": 23838, "oni": 14651, "\u0120injuring": 34361, "NL": 32572, "\u0120heartfelt": 44018, "\u0120roundup": 48390, "\u0120despised": 44990, "\u0120Slav": 34314, "\u0120vulner": 6222, "orporated": 40132, "\u0120ago": 2084, "\u0120midterm": 44066, "\u0120Kramer": 41454, "\u0120argues": 11673, "ivalry": 47310, "\u0120\u00e2\u0139\u0131": 48049, "oine": 42722, "\u0120artistic": 17290, "rand": 25192, "like": 2339, "771": 46761, "Sanders": 26747, "\u0120(.": 20262, "\u0120unsure": 22147, "\u0120Communism": 39627, "\u0120'[": 44438, "\u0120McConnell": 18184, "\u0120===": 24844, "ARM": 33456, "\u0120Such": 8013, "\u0120adoptive": 49378, "\u0120Shal": 47974, "itized": 36951, "Reader": 33634, "\u0120garment": 30594, "\u0120beside": 13970, "Only": 10049, "\u0120Canadians": 14008, "anca": 42124, "\u0120photo": 4590, "\u0120Vulkan": 35977, "\u0120whipping": 44637, "ulf": 4754, "\u0120autoimmune": 46938, "class": 4871, "\u0120totalitarian": 34524, "\u0120DISTRICT": 45057, "\u0120Mortal": 40166, "RC": 7397, "\u0120skewed": 37543, "\u0120Toys": 35397, "\u0120viewing": 11681, "\u0120sugars": 34476, "\u012057": 7632, "\u0120Liu": 18258, "\u0120Appalachian": 45375, "\u0120Frank": 5278, "wright": 29995, "\u0120Even": 3412, "\u0120lesbians": 34210, "\u0120prom": 1552, "\u0120sensit": 44752, "Customer": 44939, "padding": 39231, ";;;;;;;;": 25887, "ctr": 24087, "\u0120exqu": 33954, "\u0120dam": 1801, "\u0120India": 3794, "\u0120metres": 18985, "\u0120GU": 19348, "257": 28676, "\u0120click": 3904, "\u0120Guys": 29899, "\u0120Vega": 30310, "iago": 29601, "\u0120alters": 40866, "irus": 19397, "\u0120Keystone": 29055, "\u0120outrageous": 23077, "\u0120Chancellor": 19477, "\u0120belts": 28617, "\u0120Persona": 41581, "\u0120hydro": 17173, "\u0120altercation": 38880, "\u0120IT": 7283, "\u0120bags": 11668, "\u0120daughter": 4957, "ERSON": 29086, "\u0120Griff": 12222, "\u0120blockade": 30974, "\u0120CF": 18551, "\u0120Pars": 23042, "\u0120infinity": 37174, "ulus": 23515, "enta": 29188, "\u0120politely": 34313, "Official": 28529, "fo": 6513, "\u0120msec": 43242, "\u0120clean": 3424, "\u0120reasoned": 37857, "\u0120Archives": 22275, "\u0120idol": 21580, "\u0120Ulster": 50026, "\u0120dusk": 46166, "paper": 20189, "\u0120emailed": 24315, "\u0120Pap": 14185, "\u0120Breaker": 44478, "\u0120workout": 17578, "\u0120Forbes": 22720, "Leg": 11484, "\u0120av": 1196, "\u0120Sundays": 32714, "\u0120volleyball": 50196, "\u0120apparel": 34273, "igan": 5516, "\u0120candles": 32268, "\u0120morality": 18016, "Power": 13434, "\u0120Riding": 36032, "\u0120taxes": 5704, "\u0120invocation": 43219, "\u0120iOS": 8969, "\u0120hex": 17910, "\u0120announce": 5453, "\u0120contradicts": 40081, "\u0120cond": 1779, "timeout": 48678, "\u0120Horus": 29698, "\u0120Metroid": 45430, "Show": 15307, "\u0120Alas": 45315, "\u0120entrepreneurs": 17038, "\u0120regenerate": 43519, "\u0120tune": 14009, "730": 43916, "ctl": 34168, "vered": 21917, "\u0120WW": 13505, "\u0120Sadd": 20454, "atform": 3390, "olving": 10890, "\u0120warranted": 32502, "domain": 27830, "raviolet": 44223, "ctors": 5217, "Apart": 39182, "\u0120recourse": 38424, "um": 388, "\u0120Pod": 17437, "\u0120Stellar": 39336, "ixed": 2966, "\u0120accomp": 7555, "\u0120Photo": 5555, "\u0120did": 750, "\u0120compet": 2307, "\u0120norm": 2593, "\u0120Hulu": 39739, "\u0120richer": 26192, "igion": 17035, "\u0120Extra": 17221, "Okay": 16454, "\u0120tail": 7894, "training": 34409, "g": 70, "nos": 39369, "\u0120quit": 11238, "ample": 1403, "\u0120dearly": 46379, "\u0120retailer": 21538, "\u01202006": 4793, "\u0120duplication": 50124, "\u0120Referred": 47361, "\u0120alle": 28654, "\u0120outsider": 30545, "\u0120vary": 7565, "\u0120Bunker": 44761, "\u0120scrub": 27268, "\u0120editorial": 13684, "\u0120paternity": 50064, "dominated": 34475, "\u0120sidew": 14910, "\u0120shady": 36135, "\u0120Torn": 31940, "\u0120violated": 13998, "\u0120Helsinki": 47688, "\u0120Mos": 5826, "\u0120Noise": 30964, "\u0120reign": 13580, "\u0120overt": 9929, "ixon": 12305, "\u0120compelling": 13206, "nesota": 8360, "\u0120Hor": 6075, "\u0120issuer": 44168, "\u0120asymm": 30372, "\u0120utterly": 15950, "\u0120Charter": 23006, "\u0120eman": 31184, "\u0120STEP": 49154, "\u0120Daddy": 26926, "\u0120Vox": 28035, "\u0120EVENT": 49261, "hz": 32179, "verified": 47684, "\u0120flag": 6056, "\u0120comedian": 23139, "self": 944, "\u0120optics": 36237, "Kin": 49681, "\u01201981": 14745, "Happy": 25082, "\u0120Waiting": 39669, "\u0120adopting": 22868, "));": 18125, "icative": 43058, "\u0120barrier": 13054, "IG": 3528, "\u0120Brock": 20501, "Shell": 23248, "\u0120crashed": 14997, "\u0120covers": 8698, "\u0120replacements": 36205, "\u0120deepening": 46539, "\u0120smuggled": 46738, "gang": 28284, "\u0120regulations": 6647, "580": 39322, "\u0120allele": 45907, "\u0120Patriot": 26888, "\u0120Joint": 16798, "\u0130\u012d": 23329, "bike": 32256, "\u0120CDC": 20434, "\u0120Barry": 14488, "\u0120Tool": 16984, "\u0120traveled": 14113, "\u0120Gold": 3561, "\u0120frozen": 12912, "\u0120Esther": 47533, "\u0120telescopes": 42067, "\u0120unbeat": 36499, "cats": 24619, "QB": 40291, "neck": 27235, "\u0120mundane": 30741, "\u00e2\u013a\u0128": 35283, "may": 11261, "liber": 33203, "appointed": 32924, "PH": 11909, "\u0120Helm": 28351, "\u0120Discrimination": 49298, "\u0120mph": 16462, "\u0120Clancy": 46255, "ILY": 33340, "\u0120regulator": 24161, "\u0120fastball": 38287, "\u0120Sn": 5489, "\u0120postseason": 22905, "Part": 7841, "urous": 29277, "\u0120sans": 38078, "politics": 34127, "oking": 5730, "\u0120HIGH": 34677, "quished": 39737, "\u0120Presidents": 35506, "\u0120Cap": 4476, "meal": 28208, "\u012e": 234, "\u0120roasted": 30490, "\u0120instrument": 8875, "046": 45438, "\u0120Minerva": 39367, "\u0120read": 1100, "ollo": 15578, "ormonal": 33792, "/-": 16327, "').": 27691, "\u0120undertake": 25340, "========": 2559, "\u0120adjustments": 16895, "\u0120featuring": 9593, "\u0120Tyrann": 38401, "\u0120anything": 1997, "\u0120Gaza": 11010, "Remote": 36510, "\u0120buffers": 39334, "\u0120frustration": 14285, "ubuntu": 32230, ")\u00e2\u0122\u0136": 27920, "\u0120black": 2042, "\u0120Morgan": 10805, "\u0120See": 4091, "\u0120bets": 29222, "\u0120designate": 32781, "699": 47325, "\u0120debating": 31174, "again": 17776, "ondo": 22311, "\u0120An": 1052, "Iterator": 37787, "\u0120transmitted": 18307, "\u0120embarrassment": 24655, "\u0120Invention": 49110, "\u0120Carm": 17998, "\u0120unpredictable": 22900, "\u0120cease": 13468, "\u0120Whis": 28424, "\u0120Sus": 8932, "\u0120metic": 30762, "\u0120develops": 21126, "\u0120non": 1729, "\u0120shout": 9191, "\u0120Psal": 40601, "\u0120Article": 10172, "\u0120levied": 43383, "\u0120cylinder": 24911, "ashington": 2542, "\u0120partly": 11476, "\u0120Franks": 50099, "\u0120enrol": 34311, "\u00e3\u0125\u0125\u00e3\u0125\u012b": 45435, "\u0120bases": 12536, "\u0120Orwell": 32226, "\u0120dep": 1207, "trap": 46670, "\u0120policies": 4788, "ittens": 34978, "weak": 38695, "\u0120Kabul": 34753, "\u0120Aph": 47067, "\u0120tre": 2054, "\u0120infantry": 21548, "\u0120rotor": 44883, "\u0120independence": 10404, "involved": 44697, "\u0120Mont": 5575, "\u0120specifies": 26052, "clinical": 47367, "\u0120ah": 29042, "Previously": 36837, "\u0120Section": 7275, "\u0120Rising": 17658, "\u0120above": 2029, "\u0120boycott": 23659, "\u0120Tough": 37223, "\u0120Brotherhood": 17987, "\u0120exquisite": 40123, "\u0120Bicycle": 48444, "\u0120excerpt": 20911, "\u0120Amber": 21896, "\u0120Shroud": 40246, "\u0120ballpark": 40598, "\u0120ze": 41271, "\u0120SAP": 48323, "\u0120Dynamic": 26977, "\u0120moving": 3867, "imgur": 19791, "\u0120},": 8964, "\u0120subsidized": 37317, "TN": 46559, "\u0120transcript": 14687, "\u0120Chung": 43915, "\u0120afternoon": 6672, "Italian": 45696, "\u0120repatri": 43083, "\u0120blatantly": 39340, "424": 40090, "\u0120acron": 33898, "Cert": 37608, "Defense": 27300, "\u0120Western": 4885, "\u0120appeals": 15192, "\u0120packaged": 25555, "\u0120Judgment": 36969, "\u0120Chemical": 24872, "relative": 43762, "\u0120Disney": 8519, "JO": 45006, "\u0120seen": 1775, "Yang": 38663, "\u0120Cycling": 25550, "\u0120discriminate": 28433, "\u0120enormously": 36005, "\u0120agriculture": 14510, "\u0120ko": 41727, "jun": 29741, "AZ": 22778, "effective": 16803, "\u0120PE": 18468, "\u0120fluid": 11711, "\u0120temples": 27081, "\u0120Prevention": 18313, "\u0120Voldemort": 26111, "girls": 36960, "Pie": 48223, "organized": 30280, "\u0120division": 7297, "abase": 5754, "ritional": 21297, "\u0120lawsuits": 17785, "\u0120contemplate": 39248, "\u0120directions": 11678, "Karl": 46063, "\u0120Shia": 27424, "395": 31010, "\u0120typ": 2170, "reck": 11402, "\u0120Symptoms": 49559, "VC": 15922, "\u0120thrill": 28576, "\u0120obsess": 24961, "\u0120Ol": 6544, "\u0120proto": 44876, "\u0120numer": 5470, "cision": 16005, "rage": 8394, "Americ": 5477, "\u0120tank": 6873, "\u0120UL": 44475, "\u0120quar": 36343, "\u0120mainstream": 8661, "\u0120silhouette": 41834, "\u0120raging": 30082, "\u0120talk": 1561, "Could": 23722, "\u0120standout": 35482, ":,": 45299, "\u0120exploiting": 29440, "\u0120extingu": 24995, "Several": 14945, "Dog": 32942, "\u0120Orc": 19083, "\u0120normative": 46219, "\u0120retaliate": 50081, "\u0120adolescence": 37258, "\u0120emphasis": 12476, "icts": 14137, "\u0120outlining": 36995, "channel": 17620, "\u0120flavorful": 47420, "\u00f0": 172, "598": 41292, "Stre": 30611, "\u0120\"\"\"": 37227, "istors": 46334, "aco": 10602, "\u0120Einstein": 24572, "\u0120Konami": 49531, "\u0120him": 683, "letcher": 29257, "\u0120Glory": 25778, "\u0120unstoppable": 40181, "\u0120bondage": 43473, "\u0120tam": 21885, "\u0120approach": 3164, "\u0120lineman": 33157, "emale": 10144, "\u0120Dirty": 32052, "\u0120intertw": 39458, "\u0120financing": 15435, "\u0120\u00e2\u012a\u00bc": 42783, "dll": 12736, "\u0120rem": 816, "inently": 26528, "\u0120potions": 28074, "\u0120salaries": 17058, "\u0120wedding": 10614, "\u0120icing": 41567, "\u0120Result": 25414, "ishing": 3929, "pan": 6839, "\u00e3\u0123\u00ae\u00e9": 33426, "\u0120Strateg": 17611, "\u0120internal": 5387, "ought": 2917, "\u0120Onion": 34733, "\u0120physical": 3518, "eryl": 44886, "lete": 5807, "C": 34, "icip": 4311, "\u0120Sidd": 44487, "\u0120Trading": 25469, "\u0120Women": 6926, "\u0120whim": 29923, "\u0120Pony": 30377, "\u0120juicy": 35075, "\u0120spirits": 13747, "\u0120MODULE": 33893, "\u0120beds": 20237, "Source": 7416, "pron": 31186, "iph": 13323, "\u0120veins": 32375, "\u0120ans": 9093, "\u0120shirt": 10147, "pose": 3455, "\u0120prisons": 19224, "\u0120enterprises": 23941, "\u0120Rage": 21663, "775": 34483, "\u0120Nept": 21974, "\u0120Str": 4285, "\u0120LAPD": 44776, "\u0120Gulf": 12108, "\u0120Stacy": 49523, "\u0120Ukrainian": 13053, "Sol": 36949, "allas": 7826, "\u0120Hou": 33790, "\u0120Elev": 37881, "\u0120Muller": 47508, "\u0120absorbs": 42909, "\u0120burns": 20246, "\u0120chiefs": 30217, "\u0120Mouth": 44764, "\u0120constituency": 28280, "hard": 10424, "ayn": 49987, "assador": 10623, "\u0120Brooks": 17704, "pieces": 34154, "\u0120moon": 8824, "\u00e0\u00a6": 48071, "\u0120Beef": 35309, "\u0120Forced": 40731, "||||": 42210, "Cart": 43476, "\u0120WWF": 43432, "cult": 40820, "\u0120Behind": 20787, "\u0120clinically": 36688, "ifications": 6637, "\u0120uproar": 40741, "\u0120respectable": 27721, "\u0120countless": 12925, "\u0120wrinkles": 49391, "\u0120yuan": 34847, "gee": 29622, "rict": 2012, "lies": 13508, "\u0120sterling": 46499, "\u0120congestion": 28014, "artisan": 19714, "411": 42224, "ei": 20295, "\u0120HIT": 46405, "\u0120127": 18112, "aniel": 6321, "\u0120discipl": 8311, "\u0120Need": 10664, "\u0120universal": 10112, "\u0120mechanics": 12933, "\u0120smartest": 44730, "ruce": 26524, "arted": 19112, "Zone": 26961, "\u0120aromatic": 48440, "ichita": 41940, "Boston": 31710, "\u0120massacre": 19050, "vious": 1442, "Wall": 22401, "\u0120easier": 4577, "antom": 11456, "\u0120Deadly": 26991, "\u0120flap": 37699, "assing": 19696, "\u0120Island": 5451,
[...]
