{"vocab": {"\u0120aides": 20163, "\u0120educating": 36267, "\u0120loyal": 9112, "\u0120concentration": 10368, "\u0120Lucky": 27963, "\u0120steady": 11831, "\u0120Ges": 45371, "\u0120Malt": 23729, "\u0120punitive": 32952, "\u0120GPS": 15472, "\u0120scare": 19437, "\u0120psi": 46231, "\u0120Sp": 1338, "integ": 18908, "\u0120disgusted": 36943, "outhern": 4927, "\u0120Defence": 16721, "\u0120assertions": 29965, "\u0120Clinic": 26690, "\u0120revers": 10372, "\u0120Cardinal": 25564, "oving": 5165, "\u0120coordinated": 22080, "ffield": 31374, "\u0120Mercury": 21673, "\u0120Horizons": 39519, "\u0120weigh": 10164, "\u0120adoptive": 49378, "\u0120capac": 18457, "\u0120dimension": 15793, "\u0120mock": 15290, "\u0120Bruce": 11088, "Rules": 37766, "ATE": 6158, "Kenn": 39324, "\u0120tweeted": 10830, "\u0120summoned": 20056, "Agent": 36772, "\u0120Waste": 35304, "riter": 43407, "\u0120feudal": 37591, "\u0120tumult": 38064, "\u0120maze": 31237, "\u0120authentic": 16425, "\u0120worthy": 12733, "\u0120Damon": 33572, "ivist": 30944, "\u0120consequ": 4937, "\u0120\\\"": 19990, "\u0120Crush": 40104, "=": 28, "atell": 7528, "\u0120Romney": 8431, "\u0120filtered": 29083, "ugh": 6724, "\u0120mer": 4017, "\u0120sensed": 39243, "plant": 15060, "dullah": 23969, "\u0120scales": 16252, "\u0120illusions": 34739, "Rex": 47389, "\u0120invari": 25275, "\u0120certs": 27802, "enders": 7338, "\u0120lawn": 21133, "\u0120eccentric": 29303, "\u0120subjug": 43629, "\u0120taunt": 48146, "\"\"\"": 37811, "\u0120Administration": 8694, "469": 42947, "ney": 1681, "\u0120inconsist": 26104, "qv": 44179, "li": 4528, "\u0120portrait": 18560, "\u0120MID": 25269, "\u0120EE": 27254, "raph": 1470, "asant": 8775, "\u0120Obj": 38764, "648": 34287, "\u0120embarrassing": 18997, "\u0120424": 48252, "\u0120vitri": 48950, "\u0120Tele": 14318, "\u0120gamers": 15072, "\u0120effective": 4050, "\u0120Memorial": 14861, "\u0120Trilogy": 37059, "\u0120116": 18693, "\u0120Galile": 32422, "\u0120evolves": 43576, "\u0120Velocity": 43137, "\u0120Calls": 27592, "\u0120Rum": 25463, "bet": 11181, "stick": 13915, "UN": 4944, "\u0120;)": 35540, "\u0120repaid": 48417, "\u0120Between": 14307, "azines": 15742, "irlfriend": 9872, "\u0120KKK": 42907, "erman": 2224, "arantine": 37996, "\u0120Days": 12579, "acies": 13433, "\u0120socket": 17802, "\u0120Like": 4525, "\u0120DOC": 37760, "\u0120reminded": 14516, "urses": 46998, "\u0120flashed": 30050, "since": 20777, "jet": 31173, "\u0120intermediate": 19898, "\u0120frivol": 43418, "\u0120Maritime": 45411, "olini": 43232, "apter": 3429, "\u0120Y": 575, "\u0120exploiting": 29440, "\u012070": 4317, "\u0120inspiring": 20886, "Myth": 41444, "\u0120amusement": 30184, "\u0120molecular": 18955, "tty": 42852, "\u0120\"/": 12813, "~~": 4907, "\u0120pamphlet": 42919, "pro": 1676, "utz": 27839, "\u0120remnant": 49332, "\u0120discount": 9780, "\u0120Achievement": 45511, "\u0120hemp": 28246, "\u0120580": 41234, "II": 3978, "escent": 45470, "\u0120societal": 26877, "\u0120intimate": 16584, "ophen": 47806, "\u0120insurgency": 35121, "\u0120toget": 1977, "\u0120Spe": 2531, "\u0120Essentially": 34039, "\u0120recreation": 27702, "\u0120Joyce": 25936, "353": 33319, "ika": 9232, "NOTE": 16580, "\u0120firm": 4081, "UL": 6239, "ressing": 11697, "roman": 47119, "\u0120Violent": 35615, "real": 5305, "\u0120Morsi": 41842, "onents": 3906, "anmar": 21708, "iron": 1934, "\u0120ACPI": 33465, "winter": 40078, "\u0120Balance": 22924, "\u0120Palestine": 17263, "shaped": 16760, "\u0120ensuing": 29543, "\u0120Engineering": 14044, "\u0120parad": 11497, "\u0120decon": 37431, "\u0120trailers": 33122, "\u0120Gum": 34587, "\u0120Comic": 19949, "\u0120Projects": 29898, "\u0120run": 1057, "\u0120opinion": 4459, "\u0120Ou": 42201, "\u0120clans": 38501, "\u0120practices": 6593, "\u0120sublime": 41674, "\u0120standby": 42020, "\u0120ether": 28475, "riger": 18096, "\u0120equity": 13598, "Male": 25486, "\u0120corpses": 26750, "\u0120inexperienced": 38003, "\u0120ALS": 27249, "\u0120warranty": 18215, "\u0120racing": 11717, "\u0120shapes": 15268, "\u0120cooler": 19346, "human": 10734, "employed": 36266, "\u0120Sneak": 49475, "illion": 1131, "\u0120largeDownload": 42728, "\u0120However": 2102, "\u0120Sung": 29802, "\u0120omission": 35725, "\u0120evacuation": 24663, "finder": 22805, "\u0120affordable": 10935, "\u0120cla": 26435, "enge": 3540, "ENA": 45510, "\u0120curs": 13882, "\u0120GABA": 47046, "\u0120grinning": 45702, "\u0120orderly": 39164, "\u0120Prepare": 43426, "\u0120flurry": 36418, "\u0120spectacle": 27519, "\u0120AV": 14661, "\u0120Christmas": 6786, "\u0120Kerala": 34649, "OK": 11380, "\u0120Partnership": 23270, "\u0120Worlds": 19946, "\u0120popul": 16595, "\u0120accumulation": 24106, "\u0120comrades": 24863, "\u0120shameless": 41564, "\u0120Reader": 25342, "\u0120nort": 17605, "\u0120fingertips": 40142, "\u0120Fired": 46223, "\u0120();": 13979, "\u0120collateral": 27907, "\u0120efficacy": 20179, "tera": 49600, "Justin": 33229, "enez": 11437, "1972": 41023, "atible": 16873, "\u0120airborne": 32726, "\u00e3\u0123\u00be": 30159, "\u0120hardcore": 22823, "\u01201930": 15533, "\u0120Lifetime": 40870, "urbed": 37694, "Grand": 23581, "hen": 831, "isa": 9160, "come": 2958, "\u0120Christians": 9316, "\u0120backed": 9763, "\u0120Moons": 48432, "\u0120Birthday": 33511, "\u0120Lazarus": 49093, "limits": 49196, "\u0120dancers": 35837, "\u0120Blade": 11671, "\u0120commun": 1316, "\u0120Opportun": 24922, "\u0120slain": 27029, "rase": 22789, "\u0120acquaintance": 35552, "Without": 16249, "\u0120INFORMATION": 38044, "\u0131": 237, "255": 13381, "\u0120thinker": 45206, "album": 40916, "\u0120playoff": 13119, "\u0120payoff": 43843, "\u0120plantation": 43206, "\u0120reported": 2098, "\u0120Wine": 20447, "\u0120Win": 7178, "iants": 17883, "\u0120PART": 16652, "\u0120emulation": 47065, "ustom": 1824, "\u0120TS": 26136, "MON": 27857, "\u012092": 10190, "ECA": 36600, "920": 37128, "\u0120Noct": 32809, "\u0120discretion": 14130, "\u0120Vortex": 49790, "\u0120READ": 20832, "\u0120footwear": 43463, "\u0120bullets": 16043, "redict": 17407, "\u0120approve": 14762, "\u0120Term": 35118, "\u0120laying": 16299, "\u0120glass": 5405, "\u0120Refugee": 42791, "roach": 28562, "Drug": 37943, "Paris": 40313, "\u0120Ts": 13146, "\u0120DeV": 29619, "\u0120sanctuary": 24050, "\u0120FINAL": 25261, "\u0120Aviv": 28890, "\u0120edition": 8313, "ends": 2412, "\u0120Osiris": 40925, "\u0120morality": 18016, "\u0120opacity": 45912, "\u0120within": 1626, "\u0120Darrell": 44882, "ONY": 40508, "Country": 33921, "\u0120grown": 7334, "\u0120wander": 27776, "meet": 47745, "DK": 48510, "\u0120committees": 17460, "\u0120horizont": 13736, "\u0120clan": 19065, "\u0120pard": 41746, "erent": 9100, "rawl": 13132, "Js": 49044, "Kh": 33155, "zes": 12271, "opy": 11081, "\u0120Kon": 17431, "\u0120Satisf": 48168, "\u0120diabetes": 12593, "\u0120roasted": 30490, "\u0120proced": 5131, "\u0120Randall": 29799, "(": 7, "\u0120Pharm": 19234, "\u0120Man": 1869, "\u0120albums": 16788, "RED": 22083, "\u0120Millenn": 19007, "hem": 4411, "VP": 8859, "\u0120Defendant": 43402, "\u0120Swing": 43650, "\u0120granddaughter": 46458, "\u0120firewall": 32928, "whatever": 39664, "\u0120Sierra": 17559, "\u0120climate": 4258, "\u0120Hernandez": 24687, "\u0120blank": 9178, "\u0120pointed": 6235, "\u0120overseen": 43097, "\u0120tongue": 11880, "Call": 14134, "\u0120Sabres": 45899, "\u0120Kath": 18341, "\u0120Blocks": 35111, "ife": 901, "\u0120cast": 3350, "Aut": 16541, "relevant": 49659, "vere": 4119, "\u0120submitted": 8948, "\u0120sear": 9622, "\u0120quantity": 12040, "Coun": 31053, "\u0120aer": 9551, "liest": 11318, "\u0120magnet": 19972, "\u0120Calories": 45133, "\u0120yelling": 22187, "\u00e8\u0122\u0127": 38519, "\u0120apost": 18584, "\u0120Greenpeace": 42793, "\u0120Ever": 10776, "ada": 4763, "overs": 13801, "\u0120punishments": 35518, "hest": 3634, "_-_": 31386, "\u0120alleging": 26116, "\u0120relaxing": 28175, "\u0120Different": 20615, "\u0120Gund": 23323, "\u0120Onion": 34733, "\u0120businessman": 19834, "unknown": 34680, "raltar": 45662, "\u0120complementary": 32150, "\u0120Bor": 12182, "\u0120Panel": 18810, "\u0120Qin": 31482, "\u0120Bard": 25654, "orns": 19942, "\u0120Chromebook": 39767, "\u0120Deputy": 15110, "\u0120Printed": 38482, "\u0120Broadway": 20617, "\u0120both": 1111, "\u0120idi": 46205, "\u0120disemb": 38110, "rolled": 8375, "\u0120Interactive": 21365, "\u0120Ber": 4312, "Analysis": 32750, "\u0120emergence": 22106, "ACY": 43300, "\u0120Gateway": 29916, "estro": 47692, "\u0120Bounce": 41474, "');": 24036, "astern": 6470, "\u0120Alexand": 21000, "\u0120SIGN": 36771, "\u0120unfocused": 28312, "evil": 23542, "\u01201080": 17729, "\u0120crushing": 24949, "\u0120injected": 25077, "\u0120Gov": 10964, "\u0120thrust": 14613, "ression": 2234, "\u0120harming": 37871, "\u0120smoked": 21603, "amboo": 27708, "\u0120cult": 2285, "take": 20657, "\u0120directs": 32254, "\u0120FB": 13186, "\u0120Audi": 26686, "\u0120neurological": 30232, "\u0120assorted": 46603, "Ray": 19591, "Mr": 5246, "\u0120BaseType": 31783, "Live": 18947, "\u0120casino": 21507, "\u0120alphabet": 24830, "\u0120squat": 22713, "\u0120Jenn": 9777, "\u0120Thou": 34048, "\u0120Canberra": 33452, "\u0120Gong": 47142, "eenth": 28117, "der": 1082, "BOX": 39758, "76561": 48527, "olitical": 13781, "\u0120isEnabled": 34842, "\u0120external": 7097, "isks": 36730, "agg": 9460, "rules": 38785, "\u0120Costa": 18133, "\u0120overrun": 33713, "osa": 8546, "Async": 42367, "MU": 42422, "x": 87, "\u0120213": 28658, "\u0120unlocking": 39052, "\u0120fractions": 49876, "\u0120holistic": 42923, "\u0120Kats": 47244, "\u0120report": 989, "\u0120intestinal": 32031, "Hill": 36369, "\u0120399": 43927, "\u0120Volunteers": 45646, "></": 12240, "idad": 32482, "Hon": 29478, "dating": 38734, "Next": 10019, "\u0120Miz": 29975, "ulia": 43640, "\u0120rented": 26399, "\u0120Nos": 32798, "Create": 16447, "\u0120positional": 45203, "auntlets": 39695, "\u0120Les": 11732, "\u0120eight": 3624, "\u0120mascara": 48430, "Fal": 41129, "\u0120Frey": 35086, "\u0120Pell": 43113, "\u0120Berkeley": 14727, "\u0120Crest": 40072, "\u0120prototypes": 32338, "\u0120root": 6808, "\u0120odds": 10402, "\u0120Hait": 19456, "\u0120pegged": 48781, "\u0120LU": 50168, "Versions": 45150, "\u0120knot": 29654, "\u0120Vice": 11079, "oxy": 23536, "\u0120standard": 3210, "\u0120scam": 19126, "\u0120Flask": 46947, "\u0120boards": 11490, "\u0120heavier": 20140, "\u0120\u00e2\u0138": 11019, "\u0120healed": 28557, "\u0120Record": 13266, "roid": 3882, "\u0120DOI": 40722, "\u0120lakh": 29002, "\u0120accompany": 13873, "\u0120breed": 15939, "\u0120Buckley": 41493, "\u0120gr": 1036, "punk": 30354, "\u0120Wee": 48643, "\u0120mocking": 31202, "\u0120Zin": 36971, "\u0120revealing": 13477, "\u0120cousin": 16933, "Lady": 38887, "ageddon": 33054, "\u0120Missouri": 11565, "\u0120analyzing": 22712, "\u0120concede": 33760, "\u0120meat": 6174, "\u0120oceans": 23744, "\u0120devise": 44668, "\u0120handler": 21360, "Th": 817, "opened": 26350, "\u0120Vietnamese": 23618, "aud": 3885, "ounty": 17705, "/": 14, "\u0120pres": 906, "\u0120embattled": 49118, "\u0120FIRE": 39110, "\u0120255": 14280, "\u0120axe": 23272, "\u0120module": 8265, "\u0120caffeine": 22511, "thora": 34261, "imir": 13057, "\u0120queer": 24506, "\u0120History": 7443, "azer": 19178, "\u0120microwave": 27000, "make": 15883, "nard": 40542, "illi": 50173, "\u0120writings": 19336, "VT": 36392, "\u0120Shift": 15576, "\u0120federation": 36986, "\u0120Mormonism": 49342, "\u0120succession": 22435, "\u0120peak": 9103, "\u0120Words": 23087, "\u0120\u00e2\u013e": 14519, "\u0120stitching": 48945, "Spell": 31221, "tw": 4246, "\u0120inadequate": 20577, "\u0120generals": 26770, "\u0120Outs": 46580, "group": 8094, "pter": 42104, "\u0120Decay": 39087, "acey": 25415, "ker": 6122, "iameter": 13173, "adding": 26872, "\u0120Oy": 39447, "spell": 46143, "\u0120DNA": 7446, "\u0120Tribunal": 31189, "\u0120richness": 46792, "general": 24622, "\u0120mirrored": 40070, "ential": 1843, "\u00b6": 114, "fin": 15643, "\u0120cheese": 9891, "\u0120predec": 14060, "\u0120coordin": 11385, "\u0120staged": 23393, "\u0120bribes": 39926, "\u0120conceptions": 49849, "opian": 37548, "\u0120fuzzy": 34669, "\u0120annihil": 36572, "20": 1238, "Cur": 26628, "\u0120jailed": 22159, "\u0120survive": 7866, "\u0120staring": 16143, "\u0120tofu": 40108, "\u0120Fitness": 34545, "\u0120Chef": 26383, "\u0120whoever": 16958, "AIR": 42149, "Car": 9914, "\u0120265": 32090, "hate": 37035, "\u00d0\u00b8": 18849, "\u0120geological": 41917, "step": 9662, "++)": 29577, "rophe": 22599, "\u0120Allison": 33461, "\u0120sprint": 18553, "\u0120policing": 21922, "\u0120Tid": 48957, "\u00e4\u00bd": 19526, "modified": 41771, "oo": 2238, "\u0120187": 27649, "\u0120analytical": 30063, "\u0120informs": 30375, "________________________________": 10221, "////////////////////////////////": 49704, "ARD": 9795, "gger": 26679, "1966": 44227, "\u0120spreading": 14342, "steen": 42580, "\u0120achievement": 13293, "\u0120Exchange": 12516, "\u0120resistance": 6625, "ilater": 38601, "008": 25257, "\u0120authors": 7035, "\u0120orig": 1796, "\u0120Dwar": 21469, "\u0120LIFE": 36821, "\u0120pret": 2181, "\u0120mixer": 33938, "\u0120accident": 5778, "atism": 26185, "Pick": 31686, "\u0120quant": 5554, "\u0120undet": 40615, "\u0120disaster": 9336, "\u0120Loading": 12320, "\u0120Gaming": 14426, "Else": 40674, "\u0120paramount": 37352, "\u0120traps": 20348, "\u0120inventive": 47602, "\u0120disreg": 18795, "\u0120bored": 17533, "\u0120tailor": 35280, "\u0120Cabrera": 49858, "urred": 12808, "\u0120riders": 13750, "vector": 31364, "\u0120patents": 21216, "\u0120SO": 12809, "\u0120eru": 13724, "\u0120iterator": 41313, "\u0120nearby": 6716, "218": 28727, "DEBUG": 30531, "utorial": 44917, "ryu": 49056, "\u0120massively": 28161, "\u0120strap": 23016, "\u0120composite": 24185, "loc": 17946, "emate": 47686, "\u0120rational": 9377, "\u0120prank": 33401, "worker": 28816, "\u00e3": 159, "\u0120Dutch": 10914, "\u0120fingert": 35676, "\u0120streams": 15190, "\u0120rooted": 19459, "\u0120ref": 1006, "\u0120atop": 20156, "irted": 48357, "lude": 38792, "\u0120lucrative": 22958, "ivan": 13809, "\u0120vows": 36605, "\u0120all": 477, "\u0120sadly": 21098, "itates": 38654, "\u0120Cortana": 45822, "\u00e2\u0122\u0142": 33912, "\u0120Ni\u00c3\u00b1o": 47931, "\u0120rec": 664, "Steam": 19109, "\u0120Veronica": 44498, "\u0120variability": 25364, "\u0120Rik": 50067, "\u0120activ": 1753, "\u0120witnessing": 31121, "\u0120mixture": 11710, "\u0120marry": 12479, "\u0120Jensen": 32623, "iped": 46647, "\u0120molded": 46725, "aucus": 16710, "\u0120Clar": 15420, "\u0120wrongful": 41545, "\u0120Columbus": 14939, "\u0120Ballard": 45415, "\u0120suspicion": 15123, "\u0120comparisons": 17909, "Dialogue": 41099, "\u0120showcase": 21742, "han": 7637, "tight": 33464, "est": 395, "T": 51, "\u0120Bows": 31417, "CCC": 46361, "III": 10855, "Season": 18960, "+,": 28200, "\u0120Num": 31835, "token": 30001, "doctoral": 44064, "\u0120pioneering": 36304, "126": 19420, "\u0120bundles": 36344, "odies": 5042, "\u0120Electoral": 27557, "\u0120Credit": 10504, "\u0120amidst": 31095, "\u0120Major": 8386, "eping": 7213, "govtrack": 41230, "\u0120eleph": 14695, "chains": 38861, "\u0120Edge": 13113, "\u0120Deaths": 37044, "mounted": 29728, "oths": 27118, "\u0120Reporter": 25869, "\u0120Council": 4281, "\u0120cloaked": 45853, "\u0120Paint": 23467, "\u0120nit": 13759, "\u0120620": 45469, "oca": 11216, "REE": 11587, "\u0120Survivors": 45998, "\u0120json": 33918, "\u0120vigil": 16729, "\u0120benefited": 25050, "enson": 19069, "\u0120counters": 21154, "whose": 38159, "ISIS": 29322, "ieth": 19235, "\u0120Valkyrie": 23620, "\u0120supernatural": 22239, "\u0120iPod": 26915, "Authent": 47649, "\u0120demonstrations": 18721, "\u0120Mam": 29926, "\u0120first": 717, "ply": 2145, "BILITY": 25382, "\u0120enlight": 19128, "Sort": 42758, "\u0120Farm": 11272, "63": 5066, "\u0120tin": 19783, "\u0120tonight": 9975, ")),": 36911, "woman": 8580, "erva": 32775, "Sing": 29974, "\u0120virtues": 27494, "olerance": 37668, "brush": 32680, "\u0120combating": 40975, "\u0120Pass": 6251, "\u0120knots": 33620, "\u0120thrill": 28576, "tank": 28451, "hematic": 23380, "Wire": 29451, "\u0120Treat": 11217, "\u0120establishments": 33228, "\u0120178": 27368, "\u0120fil": 1226, "igned": 3916, "\u0120Prometheus": 42696, ".\"": 526, "\u0120222": 27795, "\u0120novice": 38751, "jc": 48055, "\u0120dismiss": 6735, "\u0120signed": 4488, "\u0120malnutrition": 49290, "program": 23065, "WA": 15543, "\u0120prophet": 22298, "\u0120Err": 41512, "Five": 20029, "Ass": 8021, "\u0120accommod": 8930, "Physical": 31611, "\u0120BTC": 14503, "\u0120Copyright": 15069, "\u0120classics": 29039, "\u0120AU": 27548, "\u0120Exp": 5518, "\u0120exam": 2814, "\u0120aspirations": 27337, "\u0120damned": 28911, "\u0120agent": 5797, "\u0120Kimber": 36015, "\u0120Colbert": 31368, "Min": 9452, "\u0120Citizenship": 47002, "\u0120Opening": 25522, "\u0120milit": 2036, "URRENT": 39237, "\u0120elsewhere": 8057, "hall": 18323, "gression": 32383, "Inv": 19904, "orously": 24882, "\u0120Dread": 27005, "\u0120AS": 7054, "rah": 11392, "creation": 38793, "\u0120rang": 28077, "\u0120Lil": 16342, "\u0120Starting": 17962, "\u0120<=": 19841, "ancy": 3883, "istical": 19929, "\u0120308": 35617, "War": 13195, "\u0120sidelined": 39632, "\u0120containing": 7268, "\u0120hath": 22027, "\u0120persever": 45712, "\u0120enable": 7139, "\u0120Monsters": 21464, "\u0120Duration": 22920, "\u0120aggrav": 20072, "Cre": 12443, "\u0120FCC": 15915, "\u0120transl": 4779, "\u0120Giul": 35267, "\u0120000000": 41853, "\u0120Lebanon": 16849, "\u0120collided": 43449, "575": 36189, "\u0120dy": 20268, "\u0120fellowship": 37900, "oenix": 8538, "\u0120principals": 44998, "Br": 9414, "\u0120wor": 476, "\u0120cumbersome": 44491, "Cla": 47404, "\u0120phys": 2281, "\u0120taxes": 5704, "Filter": 22417, "formed": 12214, "\u0120Roller": 24945, "evaluate": 49786, "\u0120Criminal": 15531, "\u0120serum": 20502, "\u0120inadvert": 25373, "monkey": 49572, "\u0120188": 27778, "\u0120Andrew": 6858, "\u0120Belg": 10952, "\u0120culmination": 41089, "\u0120conflict": 5358, "\u0120accumulate": 29915, "\u0120mound": 31446, "\u0120Human": 5524, "\u0120fact": 1109, "BUS": 45346, "\u0120Strauss": 42971, "Marco": 37179, "\u0120reduction": 7741, "\u0120race": 3234, "\u0120begun": 9258, "Aren": 43199, "\u0120winding": 28967, "ridor": 44425, "Basically": 31524, "\u0120calculating": 26019, "\u0120Response": 18261, "\u0120placed": 4624, "586": 29796, "\");": 15341, "\u0120\u00e2\u0136\u013e": 33468, "131": 22042, "\u0120December": 3426, "\u0120carrying": 6872, "\u0120Sabha": 41941, "\u0120Loan": 32314, "\u0120destruction": 8166, "\u01202000": 4751, "NA": 4535, "\u0120deficit": 11807, "\u0120dream": 4320, "\u0120fabulous": 28294, "\u0120fueling": 43881, "\u0120Ghost": 9897, "\u0120plugs": 37008, "\u0120exceptionally": 24822, "\u0120Generator": 35986, "renched": 23437, "\u0120AIDS": 20408, "\u0120negro": 47255, "\u0120hands": 2832, "\u0120gardens": 25476, "\u0120Summoner": 49167, "\u0120just": 655, "\u0120financing": 15435, "final": 20311, "@@": 12404, "\u0120robber": 29979, "\u0120Herman": 25028, "\u0120abruptly": 25891, "\u0120favorably": 40594, "umers": 31260, "\u0120cir": 10774, "\u0120Details": 14890, "\u0120empath": 48004, "Adventure": 48289, "Brend": 48015, "\u0120inject": 8677, "\u0120cracks": 23217, "goal": 35231, "metadata": 38993, "\u00cf\u0122": 46582, "142": 23726, "\u0120Mali": 29599, "\u0120Icar": 48562, "\u0120drafting": 26931, "\u0120SHOW": 37041, "icipated": 40988, "\u0120manual": 10107, "\u0120barbaric": 48176, "\u0120rewards": 11530, "pathy": 16786, "Stars": 29366, "\u0120Goodman": 33318, "\u0120Ut": 7273, "comb": 24011, "cookie": 44453, "Related": 9819, "\u0120Pinball": 37010, "repl": 35666, "dl": 25404, "arte": 32074, "Em": 10161, "\u0120symm": 23606, "\u0120bursts": 29404, "\u0120Slovenia": 37562, "\u0120Mail": 11099, "\u0120General": 3611, "itably": 14829, "493": 43134, "\u0120must": 1276, "\u0120imperative": 23602, "\u0120ascend": 34800, "\u0120UNC": 39151, "\u0120INTER": 23255, "rial": 4454, "\u0120heir": 28625, "Others": 25599, "\u0120bridge": 7696, "\u0120navigation": 16408, "\u0120looking": 2045, "\u0120Click": 6914, "\u0120Fast": 12549, "post": 7353, "\u0120Elk": 40151, "rals": 30691, "\u0120Plaza": 23280, "\u0120disciple": 35567, "\u0120Files": 13283, "\u0120downtime": 45832, "\u0120Xan": 47482, "\u0120Editing": 39883, "\u0120Numbers": 27797, "KN": 29132, "\u0120feats": 35664, "IVER": 38757, "Harris": 41589, "Alright": 31442, "up": 929, "\u0120forensic": 23953, "\u0120subparagraph": 24077, "028": 46957, "inals": 6897, "lic": 677, "\u0120around": 1088, "nt": 429, "\u0120Fashion": 30958, "Thompson": 48942, "\u0120Ain": 31899, "\u0120CrossRef": 42750, "\u0120Video": 7623, "\u0120premier": 18256, "\u0120NPCs": 28167, "\u0120USD": 11403, "\u0120Rue": 45363, "yahoo": 40774, "rative": 13260, "\u0120clich\u00c3\u00a9": 43973, "\u0120bombed": 34221, "imil": 26641, "\u0120nob": 31801, "most": 1712, "entric": 22317, "\u0120anticipation": 24054, "\u0120Chris": 5180, "\u0120renew": 6931, "\u0120fuels": 18017, "\u0120impression": 10647, "oor": 2675, "\u0120preferences": 15387, "\u0120alright": 23036, "\u0120firing": 9645, "\u0120FDA": 14672, "\u0120dove": 38862, "\u0120Cancer": 15523, "188": 20356, "\u0120concoct": 46789, "\u0120motions": 25530, "\u0120Griffith": 30469, "\u0120Dodd": 32145, "\u0120behaving": 37722, "\u0120scratch": 12692, "\u0120Blow": 26588, "orno": 46447, "\u0120SEA": 41067, "\u0120JUST": 25848, "\u0120unification": 49080, "relation": 49501, "\u0120fellow": 5891, "\u0120}": 1782, "Simply": 35596, "\u0120banned": 9301, "rote": 2519, "ritional": 21297, "\u0120path": 3108, "\u0120129": 20248, "Sche": 27054, "\u0120Jewish": 5582, "ocket": 5459, "\u0120Craft": 15745, "\u0120bc": 47125, "\u0120visualization": 32704, "\u0120Sapp": 28675, "\u0120Germ": 14164, "arr": 3258, "\u0120Might": 24213, "\u0120taps": 34531, "\u0120waging": 41747, "\u0120ORIG": 43901, "\u0120Exam": 35909, "erald": 12573, "\u0120intermediary": 45193, "\u0120less": 1342, "Customer": 44939, "ounding": 9969, "uth": 1071, "Tech": 17760, "CNN": 18474, "\u00c3\u00a3o": 28749, "abetes": 11064, "Contents": 15842, "\u00d0": 140, "\u0120Joe": 5689, "ession": 2521, "\u0120illust": 6406, "\u0120brushed": 31782, "\u0120pro": 386, "\u0120transc": 23589, "\u0120Sawyer": 42371, "\u0120travelling": 16574, "\u0120Trace": 34912, "gregation": 17097, "\u0120lightly": 15376, "enth": 7944, "\u0120procurement": 31156, "\u0120Lud": 24177, "\u01201280": 37674, "\u0120Kiw": 40011, "\u0120DISTRICT": 45057, "\u0120launches": 18617, "\u0120crashing": 21899, "\u0120203": 27408, "ilant": 37794, "isbury": 47967, "\u0120conducive": 45645, "\u0120am": 716, "dm": 36020, "itting": 2535, "\u0120Schwartz": 28672, "\u0120lyr": 47188, "\u0120here": 994, "\u0120Varg": 44684, "aa": 7252, "GES": 48075, "\u0120rune": 35930, "\u0120keyword": 21179, "BB": 15199, "\u0120Piece": 27053, "Mut": 41603, "55": 2816, "INE": 8881, "\u0120Citadel": 32266, "\u0120defund": 47613, "},\"": 9063, "type": 4906, "\u0120discussed": 6693, "ifiers": 13350, "Context": 21947, "\u0120LLC": 11419, "\u0120lips": 11914, "\u0120Atlanta": 9371, "\u0120contends": 33799, "log": 6404, "\u0120Massacre": 40602, "ahah": 36225, "istrate": 28534, "\u0120lifeless": 46443, "FREE": 39274, "violent": 24498, "Manager": 13511, "\u0120glitch": 29204, "\u0120Services": 6168, "\u0120ages": 9337, "obby": 11369, "\u0120Tamil": 32519, "itz": 4224, "\u0120pint": 35245, "Political": 35443, "\u0120mercenaries": 37569, "pai": 49712, "\u0120constructive": 26938, "\u0120argue": 7267, "ren": 918, "\u0120recharge": 27978, "Translation": 48313, "iates": 32820, "\u0120params": 42287, "\u0120CITY": 27993, "\u0120Knights": 15188, "\u0120Curry": 20920, "\u0120hack": 8156, "\u0120hottest": 26896, "\u0120abnormal": 18801, "\u0120conclusive": 39689, "\u0120Sparks": 48117, "\u0120sigh": 19680, "vez": 33425, "\u0120squid": 45126, "empty": 28920, "\u0120outdated": 23572, "\u0120populous": 44042, "\u0120priest": 11503, "\u0120Patt": 24682, "ql": 13976, "shots": 20910, "\u0120broke": 6265, "trap": 46670, "\u0120neighbours": 23788, "training": 34409, "NBC": 13175, "\u0120Lect": 31209, "sh": 1477, "guards": 33427, "\u0120caf": 19945, "aml": 43695, "rared": 25122, "\u0120engine": 3113, "196": 25272, "tarians": 28266, "obook": 49776, "\u0120Blizzard": 20206, "\u0120drawbacks": 42763, "\u0120423": 49125, "Ell": 30639, "agents": 49638, "\u0120electoral": 13901, "\u0120high": 1029, "\u0120Joey": 26154, "\u0120Exc": 25268, "Jun": 22396, "\u0120humming": 41465, "PO": 16402, "\u0120Recording": 43905, "\u0120Crane": 38376, "\u0120according": 1864, "\u0120Metropolitan": 21609, "imens": 12117, "\u0120AX": 43051, "\u0120induced": 18268, "\u0120starred": 31636, "\u0120unified": 22706, "\u0120whence": 44012, "\u0120Authorities": 30756, "\u0120bal": 3652, "CHQ": 47831, "wid": 28029, "\u0120packed": 11856, "favorite": 35200, "\u0120analogous": 34657, "\u0120BELOW": 45339, "\u0120Misc": 29882, "lin": 2815, "\u0120Ferdinand": 44312, "\u0120filler": 41134, "\u0120aver": 9076, "\u00e3\u0125\u00af": 25589, "\u00e2\u013b": 17992, "oe": 2577, "ALK": 28082, "enny": 11870, "\u0120ath": 5782, "\u0120dependencies": 20086, "\u0120jealous": 19354, "uph": 25689, "\u0120applies": 8991, "\u0120illness": 8526, "\u0120warped": 43062, "\u0120redevelop": 33036, "\u0120widespread": 10095, "auder": 29233, "\u0120adject": 31129, "\u0120orally": 47311, "\u0120Errors": 44225, "\u0120RPM": 32381, "\u0120proposition": 19168, "\u00a8": 101, "\u0120Giants": 12056, "\u0120Kel": 15150, "\u0120salts": 37056, "758": 38569, "\u0120degener": 25419, "iban": 14278, "\u0120diam": 48428, "sur": 11793, "interstitial": 29446, "aff": 2001, "\u0120governed": 21825, "\u0120Deg": 25905, "\u0120Mole": 25726, "\u0120enzymes": 29120, "\u0120Hartford": 37118, "========": 2559, "\u0120expensive": 5789, "\u0120Tourism": 42057, "Joe": 19585, "reciation": 33950, "\u0120commissioner": 16248, "\u0120histor": 3752, "\u0120comic": 9048, "\u0120clearing": 17304, "delete": 33678, "ENGTH": 49494, "ependent": 8682, "\u0120Seller": 46555, "eking": 18754, "-": 12, "\u0120allow": 1249, "atted": 16898, "Multi": 29800, "\u0120lethal": 17769, "Inf": 18943, "\u0120dolls": 36062, "\u0120virtuous": 41276, "\u0120stalk": 31297, "oops": 44860, "\u0120jargon": 46468, "\u0120exponent": 28622, "\u0120arranging": 41878, "perty": 9287, "\u0120mitigate": 24237, "\u0120Ruler": 31808, "gorith": 7727, "\u0120Arch": 5579, "\u0120vendors": 17192, "\u0120Witnesses": 35165, "\u0120deregulation": 50202, "vable": 23765, "MS": 5653, "\u0120labs": 27887, "\u0120obstacles": 17648, "ppe": 27768, "\u0120salesman": 42414, "\u0120resolve": 10568, "\u0120Other": 3819, "\u0120baby": 5156, "igning": 38944, "\u0120Hive": 33235, "\u0120disagree": 12546, "ulk": 12171, "\u0120reacts": 30174, "\u0120Longh": 47513, "iration": 15297, "auna": 32837, "\u012086": 9849, "\u0120Fest": 26812, "\u0120Mages": 46796, "\u0120BD": 28023, "Through": 15046, "foreseen": 44952, "\u0120foundational": 43936, "\u0120marginalized": 31670, "progress": 33723, "\u0120reneg": 30780, "\u0120trib": 8433, "ishment": 17862, "\u0120discard": 27537, "online": 25119, "\u0120interviews": 9299, "\u0120vec": 43030, "\u0120sh": 427, "\u0120Labs": 23500, "\u0120immoral": 31756, "\u0120stimul": 11591, "\u0120babe": 42666, "\u0120Alchemist": 36084, "\u0120claw": 26573, "\u0120symptoms": 7460, "\u0120Pens": 38740, "\u0120SET": 25823, "\u0120sins": 18377, "\u0120impractical": 43994, "\u0120trivial": 20861, "\u0120ingred": 7677, "\u0120succeeding": 34195, "clusions": 11539, "\u0120206": 27253, "Edited": 45882, "\u0120instruct": 5048, "\u0120Ars": 24230, "\u0120gender": 5279, "\u0120click": 3904, "\u0120inf": 1167, "think": 14925, "\u0120specialized": 16976, "\u0120article": 2708, "and": 392, "\u0120Auction": 36071, "\u0120vicious": 17686, "otle": 23556, "suits": 16554, "\u0120ropes": 31001, "\u0120cats": 11875, "\u0120enthusiastic": 21848, "\u0120undeniable": 36332, "versive": 40099, "\u0120focal": 25397, "\u0120Azerbaijan": 33605, "Rand": 38918, "\u0120planets": 14705, "\u0120Round": 10485, "\u0120Nether": 11692, "specific": 11423, "\u0120swung": 28507, "\u0120NRA": 23962, "\u0120Clean": 5985, "\u0120resume": 15294, "collection": 43681, "\u0120Anim": 11586, "missions": 8481, "gie": 22699, "\u0120Smithsonian": 40131, "powered": 12293, "\u0120whats": 45038, "etition": 15620, "\u0120snake": 17522, "\u01201911": 32216, "\u0120scor": 34203, "adders": 45940, "\u0120395": 42321, "Liberal": 46650, "\u0120apartment": 7962, "mediately": 23802, "\u0120Havana": 40274, "\u0120adam": 23197, "\u0120Ib": 21089, "oche": 30848, "\u0120postp": 21826, "><": 6927, "\u0120dossier": 34602, "\u0120distress": 17087, "\u0120laund": 22138, "\u0120Romans": 22482, "\u0120saf": 1932, "\u0120thrott": 46692, "enture": 36697, "rub": 25089, "\u0120oversight": 15662, "Studio": 41501, "\u00c3\u0143s": 41200, "cube": 40296, "\u0120mice": 10693, "\u0120mutually": 26519, "\u0120Gree": 5251, "\u0120\u00ec": 23821, "Wiki": 32603, "\u0120coded": 30817, "\u0120attacker": 15250, "itness": 3659, "\u0120technical": 6276, "everything": 37814, "\u0120revelation": 16084, "\u0120notorious": 18192, "Al": 2348, "\u0120hunters": 21490, "Sep": 19117, "nar": 23955, "AR": 1503, "Dark": 17367, "\u0120ND": 25524, "addr": 29851, "Fel": 42493, "cam": 20991, "\u0120r": 374, "\u0120curtail": 45962, "\u0120prayed": 32168, "\u0120SQU": 45880, "\u0120sou": 24049, "\u0120wars": 9976, "\u0120Ital": 33857, "\u0120Bhar": 33653, "\u0120operated": 12228, "option": 18076, "\u0120hugged": 41130, "\u0120motivate": 35065, "\u0120farewell": 33458, "\u0120wrest": 10419, "\u0120surf": 9053, "\u0120epoch": 36835, "\u0120Fil": 7066, "Book": 10482, "atown": 41079, "rief": 3796, "\u0120Portug": 12775, "\u0120combines": 21001, "single": 29762, "\u0120administrator": 18382, "BuyableInstoreAndOnline": 40242, "\u012008": 8487, "Safe": 31511, "\u0120Dub": 10322, "bidden": 37978, "\u0120Quarter": 17264, "book": 2070, "OSE": 14058, "issued": 39361, "\u0120Kaufman": 46991, "\u0120neurotrans": 39307, "\u0120(%)": 11509, "\u0120conv": 3063, "\u0120232": 31773, "\u0120rac": 3444, "\u0120inconven": 20488, "Cover": 27245, "\u0120kios": 46739, "\u0120NGO": 22142, "\u0120thrilling": 31610, "\u0120shocking": 14702, "gressive": 19741, "\u0120acknowledged": 10810, "rington": 24833, "umn": 4182, "gdala": 40420, "BAT": 47379, "ack": 441, "herical": 37910, "Santa": 42694, "\u0120\u00c2\u00bb": 13355, "ugg": 6837, "\u0120Along": 17159, "\u012016": 1467, "ythm": 34853, "\u0120analyses": 13523, "\u0120starring": 20495, "\u0120Insurance": 17541, "\u0120darkened": 44261, "\u0120reap": 35860, "\u0120dolphin": 44136, "\u0120Philos": 18880, "\u0120Jiu": 42310, "\u0120waits": 28364, "\u0120exited": 34710, "Ken": 27827, "\u0120shri": 35064, "\u0120precisely": 10582, "\u0120injecting": 41750, "inical": 32352, "\u0120funeral": 14825, "\u0120gays": 28067, "Egypt": 39299, "\u0120Destroy": 19448, "\u0120WWE": 15247, "\u0120GU": 19348, "Flag": 34227, "Screenshot": 34204, "Jane": 41083, "\u0120resulting": 7186, "h": 71, "\u0120availability": 11500, "\u0120Watergate": 42128, "\u0120Newly": 43222, "iere": 13235, "\u0120501": 24555, "\u0120Genocide": 48721, "\u0120Blumenthal": 44888, "\u0120vehemently": 42327, "otto": 17631, "\u0120testers": 42891, "\u0120cabbage": 41266, "\u0120announces": 26459, "\u0120inconvenience": 31818, "\u0120strengthen": 12160, "\u0120Four": 6675, "\u0120pension": 13553, "\u0120231": 34598, "pired": 6474, "cher": 2044, "\u0120Vij": 49219, "ouse": 1076, "\u0120UFO": 19728, "\u0120enforcement": 5394, "\u0120devised": 28964, "Kyle": 42516, "\u0120district": 4783, "ubis": 46676, "\u0120Argentine": 36399, "\u0120LIMITED": 40880, "Williams": 27869, "\u0120Shoes": 41332, "\u0120gravy": 43779, "asters": 7060, "Extra": 27726, "Export": 43834, "ave": 1015, "\u0120voters": 4446, "\u0120dispensary": 50136, "\u0120zo": 40565, "\u0120wearing": 5762, "\u0120discriminate": 28433, "\u0120Blizz": 46100, "\u0120Hamp": 13039, "Boston": 31710, "\u0120Patel": 33110, "yk": 48361, "\u0120owning": 23107, "708": 32583, "\u0120historic": 9566, "\u0120inval": 29712, "Layout": 32517, "\u0120Sturgeon": 43623, "\u0120Ble": 17175, "\u0120pund": 24745, "\u0120=================================": 46111, "leader": 27940, "software": 43776, "\u0120457": 47996, "10": 940, "\u0120Vie": 47154, "\u0120Whis": 28424, "iced": 3711, "\u0120Presidents": 35506, "submit": 46002, "\u0120predicament": 44472, "\u0120Bot": 18579, "\u0120stared": 18484, "\u0120ferv": 28866, "\u0120lists": 8341, "047": 48000, "\u0120Manga": 27024, "\u0120Kau": 28148, "onson": 36742, "\u0120Ub": 12021, "THING": 39356, "\u0120indicating": 12739, "\u0120Neuro": 13782, "\u0120attitude": 9408, "\u0120recy": 15092, "zip": 13344, "utch": 7140, "ricting": 42870, "\u0120compens": 7144, "prints": 17190, "avy": 2830, "ute": 1133, "\u0120219": 30453, "\u0120HOR": 48345, "860": 45039, "\u0120plainly": 30723, "\u0120unlucky": 39411, "capacity": 42404, "America": 18165, "\u0120wip": 14763, "\u0120Calculator": 43597, "\u0120illustrating": 44000, "\u0120calmly": 30180, "\u0120withdraw": 8399, "\u00e5": 161, "\u0120agony": 35358, "\u0120Smooth": 37002, "lem": 10671, "ue": 518, "idi": 19830, "sie": 44524, "\u0120firefighter": 43105, "\u0120untreated": 41539, "\u0120persons": 6506, "\u0120viewed": 9569, "\u00e5\u00ae": 22522, "\u0120products": 3186, "\u0120entertaining": 17774, "plain": 25638, "\u0120armor": 8328, "\u0120ailments": 42549, "\u0120provoke": 29791, "\u0120Ronnie": 40892, "\u0120elected": 7018, "ANT": 8643, "bar": 5657, "ieties": 9545, "\u0120graphic": 13028, "et": 316, "Courtesy": 31825, "\u0120ammo": 16778, "epend": 2690, "\u0120socially": 18118, "\u0120Hey": 14690, "\u0120Maple": 21249, "\u0120Commands": 49505, "\u0120persuasive": 40116, "\u0120Xu": 33591, "ARP": 36035, "Hun": 25117, "\u0120demographic": 16728, "\u0120Param": 25139, "\u01201924": 37547, "\u0120dummy": 31548, "undown": 41609, "\u0120outsourcing": 44333, "\u0120nud": 26731, "\u0120Wikipedia": 15312, "orically": 26847, "\u0120browsing": 23182, "\u0120glyphosate": 38329, "\u0120connect": 2018, "\u0120Stress": 36957, "\u0120Brav": 32780, "\u0120Porter": 20890, "\u0120blockade": 30974, "\u0120Martha": 27243, "\u0120fuzz": 26080, "\u0120Public": 5094, "winning": 14463, "Iran": 23798, "tons": 27288, "\u0120emerge": 14740, "\u0120licenses": 16625, "\u0120rituals": 25797, "erick": 41556, "\u0120endogenous": 47064, "\u0120Burger": 28983, "\u0120horrified": 32816, "unn": 20935, "\u0120goalt": 30896, "\u0120Education": 7868, "iture": 8089, "dark": 21953, "under": 4625, "\u0120MHz": 19805, "oug": 20805, "\u0120ft": 10117, "factor": 31412, "\u0120conference": 4495, "\u0120245": 29637, "ospons": 35952, "\u0120bowed": 35737, "\u0120Marvin": 35105, "\u0120Reduced": 39963, "\u0120TJ": 41852, "\u0120Jerry": 13075, "\u0120unbearable": 45253, "\u0120Firefly": 40374, "\u0120privilege": 11941, "\u0120totaled": 39398, "\u0120companion": 15185, "\u0120Miscellaneous": 46253, "Warning": 20361, "iverpool": 10864, "\u0120Hemisphere": 42811, "\u0120Hiro": 25940, "472": 37856, "Fail": 39044, "\u0120Etsy": 38909, "ibliography": 45689, "194": 22913, "\u0120jumps": 18045, "\u0120Pol": 2165, "ogram": 21857, "\u0120Santa": 8909, "xd": 24954, "\u0120Elves": 35172, "\u0120Remastered": 22773, "Enc": 27195, "\u0120inexpensive": 24475, "\u0120escalated": 33190, "\u0120Schwarz": 34835, "\u0120FML": 28326, "otype": 8690, "\u0120consumed": 13529, "cs": 6359, "\u0120prog": 1172, "\u0120teleportation": 48285, "\u0120Burst": 30635, "\u012032": 3933, "\u0120datasets": 40522, "\u0120patriarch": 28915, "\u0120apex": 40167, "\u0120glanced": 27846, "612": 43610, "weet": 7277, "\u0120approached": 10448, "\u00d0\u00bd": 22177, "\u0120promise": 6991, "\u0120promul": 38040, "\u0120logically": 34193, "\u0120nerv": 8660, "\u0120Summit": 20014, "\u0120pron": 9668, "owered": 10387, "ick": 624, "hes": 956, "\u0120BJP": 18317, "\u0120shif": 7143, "\u0120calib": 27417, "293": 31675, "\u0120Mobile": 12173, "675": 42444, "ohm": 34028, "spec": 16684, "Aaron": 34451, "\u0120presumptive": 39715, "\u0120unidentified": 27022, "Or": 5574, "\u0120disgr": 19329, "\u0120cascade": 44847, "market": 10728, "fter": 637, "\u0120Hann": 14353, "Rogue": 48163, "Jimmy": 40335, "vertisement": 4060, "\u0120Includes": 29581, "\u0120isn": 2125, "\u0120cough": 22094, "\u0120Uniform": 35712, "\u0120Hung": 12149, "\u0120interpre": 16795, "landish": 45626, "\u0120Gork": 49882, "haw": 26615, "driving": 24255, "\u0120Berm": 36967, "innon": 45067, "anding": 27225, "\u0120Jackie": 24766, "\u0120Analytics": 30437, "\u0120demeanor": 40309, "\u0120Adjust": 20292, "\u0120sho": 7354, "\u0120Duterte": 25763, "iaz": 17890, "\u0120URI": 43975, "\u0120Alphabet": 45695, "\u0120hairs": 32908, "\u0120pigs": 22333, "rop": 1773, "\u0120influences": 16717, "\u0120idle": 21696, "\u0120fundament": 14387, "wo": 21638, "\u0120weights": 19590, "\u0120overpowered": 49313, "\u012027": 2681, "\u0120pacif": 47617, "\u0120RIGHT": 33621, "\u0120cannabinoid": 48175, "\u0120become": 1716, "\u0120CEO": 6123, "olved": 5634, "bsite": 12485, "\u0120fortunate": 20200, "\u0120Fisher": 14388, "Tweet": 47845, "\u0120GeForce": 12975, "requency": 28707, "\u0120Russians": 13234, "\u0120Reggie": 36586, "LG": 41257, "\u010f": 203, "=-=-=-=-=-=-=-=-": 46402, "inqu": 18934, "\u0120colonization": 40337, "\u0120built": 3170, "Trade": 35965, "requisite": 27614, "\u0120painter": 34537, "\u0120Zen": 14760, "\u0120cryptography": 45898, "\u0120caloric": 48413, "enter": 9255, "\u0120EC": 13182, "\u0120Tropical": 37956, "gener": 8612, "\u0120shenan": 48416, "hemat": 10024, "\u0120fastest": 14162, "\u0120Osw": 30317, "\u0120passers": 45378, "committee": 26799, "uild": 3547, "Huh": 46010, "\u0120forums": 14216, "\u0120HAS": 33930, "\u0120after": 706, "\u0120selector": 31870, "\u0120forging": 44096, "\u0120Rune": 28228, "\u0120locally": 15726, "\u0120libel": 40739, "820": 41739, "\u0120\u00ef\u00bf\u00bd\u00ef\u00bf\u00bd\u00ef\u00bf\u00bd\u00ef\u00bf\u00bd": 26825, "\u0120Orders": 30689, "\u00e5\u00b0\u0128": 49546, "End": 12915, "velt": 18065, "utes": 1769, "izzle": 44461, "laim": 20438, "\u0120competitive": 7606, "\u0120extrem": 8963, "atter": 1436, "\u0120replica": 30069, "\u0120inability": 16612, "\u0120compassionate": 32533, "\u0120whit": 20542, "\u0120physicists": 37898, "\u0120bloggers": 30357, "\u0120linebackers": 43081, "rix": 8609, "\u00e3\u0125\u0138": 24001, "-)": 25106, "\u0120pity": 26246, "\u0120brav": 49025, "\u0120lions": 31420, "\u0120Maurit": 46106, "Democratic": 33939, "\u0120seriously": 6411, "\u0120AAC": 47943, "inks": 2973, "\u0120poetry": 19518, "\u0120waist": 16139, "\u0120PKK": 35176, "\u0120socialist": 15889, "otechnology": 31201, "\u0120figured": 11638, "\u0120sugars": 34476, "\u0120Coil": 46639, "apters": 12126, "\u0120perceive": 19973, "114": 16562, "\u0120playful": 34264, "\u0120quirks": 48072, "497": 38073, "\u0120additives": 48348, "\u0120boil": 20667, "\u0120whim": 29923, "\u0120shove": 38332, "\u0120prolific": 28892, "\u0120chord": 25594, "\u0120Fug": 47832, "\u0120Mystic": 22936, "\u0120Qing": 28927, "\u0120feeble": 46299, "\u0120confid": 47830, "\u0120Given": 11259, "\u0120hoping": 7725, "\u0120purchaser": 39122, "\u0120pregn": 6112, "ign": 570, "\u0120tee": 30479, "tf": 27110, "\u0120defender": 13191, "\u0120DAV": 42274, "\"\u00e2\u0122\u00a6": 24426, "ulnerability": 40920, "\u0120dentist": 38408, "\u0120apples": 22514, "\u0120misunderstood": 33046, "\u0120else": 2073, "\u0120riddled": 47655, "\u0120fate": 10030, "redits": 20696, "\u0120Vince": 22376, "oring": 3255, "\u0120Nah": 35201, "\u0120Cater": 40742, "jl": 20362, "\u0120Hawai": 10847, "\u0120violate": 16967, "Monitor": 35479, "gradient": 49607, "\u0120Tir": 39847, "\u0120footprints": 48012, "ark": 668, "ima": 8083, "ka": 4914, "\u0120WI": 29360, "\u0120ETF": 31112, "ina": 1437, "\u00e3\u0123\u013b": 33623, "wake": 48530, "\u0120Shared": 39403, "\u0120counterpart": 11283, "ars": 945, "\u0120Until": 14303, "\u0120Stan": 7299, "\u0120Nat": 14393, "=\"#": 25698, "\u0120codes": 12416, "phase": 40715, "\u0120meal": 9799, "\u0120limiting": 15637, "response": 26209, "\u0120EVER": 20498, "\u0120Trinidad": 48269, "\u0120Sig": 21984, "ifying": 4035, "\u0120310": 28947, "\u0120guitars": 32497, "\u0120Alleg": 26326, "\u0120pushes": 20070, "ULL": 9994, "\u0120Cheong": 45348, "\u0120searched": 16499, "11": 1157, "\u0120allocate": 31935, "\u0120swath": 50176, "\u0120104": 14436, "\u0120\u00e2\u0124\u00ac": 10432, "\u0120javascript": 44575, "\u0120Offer": 33085, "\u0120Benjamin": 14533, "\u0120ones": 3392, "\u0120wra": 7917, "threatening": 26159, "\u0120Sept": 2362, "\u0120priests": 17345, "\u0120erect": 16417, "\u0120Celebr": 28921, "\u0120Marty": 29876, "\u0120HO": 40115, "\u0120sm": 895, "recorded": 47398, "\u0120palpable": 45061, "\u0120SJ": 31766, "\u0120Judgment": 36969, "\u0120delegates": 15265, "lander": 16235, "\u00f1": 173, "\u0120poorer": 26647, "\u0120Array": 15690, "\u0120associ": 2570, "\u0120Bradford": 28199, "black": 13424, "INGS": 20754, "\u0120Vit": 18271, "\u0120Hin": 29094, "\u0120Aval": 23587, "\u0120presidency": 12112, "\u0120gp": 27809, "\u0120Weston": 46949, "\u0120concurrent": 24580, "\u0120wound": 11699, "\u0120ridge": 32525, "Map": 13912, "\u0120tampering": 42471, "\u0120Argentina": 16519, "\u0120Encyclopedia": 36732, "\u0120updated": 6153, "req": 42180, "stat": 14269, "\u0120standalone": 27669, "\u0120reservations": 24722, "\u0120enchantment": 43706, "\u0120Suarez": 39992, "\u0120hitherto": 45053, "Dutch": 49717, "heng": 31753, "\u0120Marin": 36384, "\u0120casually": 27793, "\u0120leash": 40529, "reshold": 10126, "these": 27218, "aja": 27792, "\u0120spate": 48831, "ven": 574, "\u0120protocols": 19565, "ath": 776, "ostic": 15132, "\u0120Afghans": 48336, "\u0120athletes": 10856, "\u0120dismay": 29793, "OW": 3913, "aram": 41158, "ottage": 29480, "\u0120Hom": 8074, "\u0120Bishop": 16559, "\u0120Flying": 19903, "$$$$": 36737, "\u0120vot": 1993, "\u0120Marathon": 24828, "\u0120PL": 9297, "\u0120tea": 8887, "\u0120candidate": 4540, "\u0120shaman": 40632, "\u0120treats": 18432, "thinkable": 37510, "\u0120boxes": 10559, "\u0120Cutler": 37194, "Apr": 13680, "\u0120distributions": 24570, "\u0120Incre": 10791, "izo": 41282, "///": 20379, "aceous": 37797, "Ident": 33234, "\u0120manag": 2358, "\u0120lucky": 9670, "\u0120mail": 6920, "\u0120psychology": 15119, "\u012049": 5125, "\u0120scenes": 8188, "\u0120Buffett": 36611, "Breaking": 29449, "\u0120bombshell": 48714, "\u0120Mas": 11066, "Empty": 40613, "\u0120reliably": 26995, "\u0120incent": 9454, "especially": 16480, "alky": 18354, "\u0120inherent": 11519, "\u0120Activities": 36270, "\u0120Rohing": 32571, "\u0120unchanged": 21588, "\u0120teach": 4545, "\u0120detained": 14847, "\u0120aged": 9722, "\u0120Cage": 27577, "\u0120drawings": 23388, "itter": 1967, "\u0120maj": 16486, "Certain": 26469, "\u0120aspirin": 49550, "\u0120Amen": 34717, "\u0120viruses": 20547, "\u0120Dance": 17349, "\u0120Brune": 46070, "\u0120Environment": 9344, "cut": 8968, "\u0120atro": 38324, "\u0120Reed": 16105, "\u0120Casting": 39285, "\u0120concern": 2328, "\u0120semi": 10663, "\u0120burg": 15601, "\u0120depleted": 34069, "a": 64, "FIR": 39776, "\u0120Jennings": 30593, "\u0120Trevor": 25389, "\u0120mistrust": 48611, "\u0120Chin": 22604, "\u0120mustache": 49303, "sd": 21282, "India": 21569, "\u0120ours": 16903, "agu": 11433, "offensive": 45055, "ron": 1313, "\u0120Province": 22783, "\u0120outings": 47280, "\u0120shocks": 32392, "exp": 11201, "\u0120Photos": 9434, "alsh": 22114, "\u0120orbital": 32362, "mad": 9937, "\u0120navy": 23956, "\u0120Cincinnati": 16137, "\u0120anti": 3098, "\u0120hysterical": 46759, "onds": 24764, "\u0120thriller": 32251, "\u0120upscale": 44918, "\u0120machinery": 20230, "\u0120Centre": 9072, "\u0120evaluated": 16726, "\u0120Bradley": 16182, "\u0120sucking": 27904, "\u0120Professor": 8129, "105": 13348, "\u0120ALSO": 35912, "'-": 29001, "\u0120Foods": 23201, "\u0120Quality": 14156, "\u0120MTV": 31214, "Set": 7248, "soon": 36194, "\u0120*)": 31936, "urban": 32679, "\u0120Rabbit": 25498, "\u0120viewer": 19091, "\u0120burgeoning": 38935, "\u0120Ginny": 37877, "\u0120realities": 22072, "\u0120lamp": 20450, "El": 9527, "\u0120Levin": 32325, "\u0120MW": 29961, "ait": 4548, "\u0120respectful": 25923, "\u0120mostly": 4632, "\u0120Cous": 27456, "\u0120spells": 10377, "\u0120passions": 30477, "uni": 35657, "\u0120tucked": 29779, "\u0120Zoro": 42840, "driven": 15808, "\u0120heating": 16930, "\u0120shells": 19679, "\u0120bottom": 4220, "\u0120Ragnar": 32797, "\u0120cyan": 36818, "\u0120Lastly": 36778, "\u0120saved": 7448, "Alternative": 49788, "\u0120decay": 22119, "British": 25631, "\u0120analytics": 23696, "\u0120scheduling": 26925, "\u0120nicely": 16576, "\u0120Pier": 13762, "\u0120Rhythm": 45757, "\u0120Western": 4885, "unit": 20850, "rect": 2554, "Think": 22073, "\u0120Expedition": 38076, "pport": 4926, "\u0120Percy": 38506, "\u0120Final": 8125, "ving": 1075, "\u0120confronting": 31291, "riots": 44447, "119": 16315, "dam": 11043, "origin": 47103, "Element": 20180, "protection": 42846, "ROM": 33676, "\u0120io": 33245, "smanship": 49820, "\u0120simmer": 32857, "anova": 40993, "\u0120Lizard": 42452, "\u0120Prev": 43280, "bred": 36074, "\u0120sailor": 43272, "\u0120documents": 4963, "\u0120glossy": 40551, "edly": 49288, "Ware": 38824, "Summary": 22093, "GG": 11190, "absolute": 48546, "itially": 22640, "\u0120impatient": 33440, "\u0120spin": 7906, "\u0120Quarterly": 36082, "\u0120site": 2524, "Flying": 49095, "\u0120Weed": 43912, "\u0120hijab": 48492, "\u0120Sachs": 25158, "\u0120Far": 6755, "Female": 27273, "roo": 42407, "\u0120uncover": 23658, "\u0120behaviours": 38975, "\u0120Matrix": 24936, "691": 49541, "\u0120collaborator": 50160, "\u0120shot": 2823, "\u0120freedom": 4925, "\u0120ag": 556, "\u0120plague": 23684, "storm": 12135, "AV": 10116, "chenko": 45059, "\u0140": 252, "\u0120Cout": 40253, "\u0120baseline": 14805, "\u0120snatched": 43276, "\u0120Warren": 11328, "\u0120Gators": 47470, "akers": 3979, "\u0120Nancy": 18496, "\u0120urine": 18922, "\u0120drafted": 15937, "nsics": 49242, "\u0120bracket": 19096, "\u0120worker": 8383, "\u0120shakes": 29959, "\u0120Sioux": 37903, "\u0120torpedo": 39023, "\u0120intellect": 7654, "\u0120woes": 34072, "\u0120Hundreds": 32636, "\u0120lineman": 33157, "\u0120Whitney": 34701, "\u0120rendered": 15111, "\u0120shutter": 31168, "\u0120FIRST": 31328, "\u0120reg": 842, "amiliar": 19968, "dress": 49380, "\u0120subsections": 46310, "\u0120advantages": 13391, "undreds": 20960, "bring": 48580, "ociate": 47615, "--------------------------------": 3880, "LB": 30501, "aby": 3930, "urrence": 33928, "\u0120criteria": 9987, "\u0120reconc": 19331, "\u0120IPS": 37632, "398": 31952, "\u0120breakout": 31661, "\u0120Paras": 45020, "endment": 5904, "\u00e3\u0124\u0134": 31758, "\u0120bolster": 26091, "\u0120flexible": 12846, "\u0120surprised": 6655, "\u0120pp": 9788, "429": 11785, "\u0120Magazine": 11175, "\u0120church": 4928, "\u0120Archives": 22275, "idel": 5943, "secondary": 38238, "\u0120eyeb": 16067, "rics": 10466, "455": 30505, "\u0120bit": 1643, "\u0120dump": 10285, "417": 38547, "\u0120England": 4492, "\u0120convenience": 15607, "\u0120tuna": 38883, "Can": 6090, "\u0120templates": 24019, "\u0120Commodore": 48808, "\u0120McL": 18365, "\u0120commissions": 30421, "ocus": 10901, "\u0120torso": 28668, "\u0120Eur": 36554, "\u0120elig": 7453, "rencies": 14038, "\u0120Feinstein": 34861, "\u0120kilometers": 18212, "\u0120impro": 2015, "ahu": 12196, "\u0120499": 48391, "Comm": 6935, "Circ": 31560, "\u0120desperate": 12111, "\u0120Austrian": 25691, "\u0120pouch": 36594, "\u0120bas": 1615, "RT": 14181, "\u0120heirs": 40862, "\u0120Vil": 34037, "\u00be": 122, "\u0120twice": 5403, "\u0120fourth": 5544, "\u0120Westminster": 20353, "Ca": 24334, "\u0120Planned": 18451, "\u0120Nick": 8047, "\u0120showcases": 45064, "\u0120Rays": 36199, "\u0120invoice": 45458, "\u0120Dro": 21045, "\u0120appear": 1656, "\u0120KS": 34172, "\u0120Bre": 3719, "regnancy": 39982, "\u0120DON": 23917, "guide": 41311, "\u0120Cyan": 41025, "\u0120fulfill": 14658, "\u0120celebrations": 22861, "\u0120Ver": 4643, "\u0120tourism": 19277, "\u0120Butler": 17389, "\u0120Login": 23093, "pretty": 37784, "\u0120Leica": 50211, "+++": 45340, "nat": 32353, "\u0120boy": 2933, "\u0120pant": 15857, "Peter": 19727, "aleb": 32100, "pa": 8957, "\u0120lengths": 20428, "\u0120...\"": 35713, "\u0120discrepancy": 34466, "\u0120sd": 45647, "\u00e4\u00bd\u013e": 43291, "amm": 6475, "bots": 42478, "WORK": 33249, "\u0120learners": 46184, "\u0120Hydra": 31613, "Attempts": 48452, "\u0120takedown": 33341, "\u0120immunity": 16989, "Kat": 25881, "olithic": 30764, "\u0120cumulative": 23818, "\u0120vigilant": 30257, "\u00e6\u0142": 43718, "GGGG": 25611, "\u0120compost": 36541, "gee": 29622, "\u0120robbers": 46988, "ActionCode": 31573, "rien": 15355, "\u0120Fen": 19426, "vt": 36540, "photos": 24729, "contained": 45964, "\u0120nation": 3277, "\u0120picked": 6497, "\u0120cultivated": 30499, "anni": 31296, "\u0120Fresno": 39927, "\u0120volley": 32967, "sectional": 44330, "\u0120Korra": 38463, "\u0120Chuck": 14663, "\u0120census": 21649, "\u0120drum": 13026, "\u0120whiskey": 29219, "\u0120powd": 32279, "bound": 7784, "\u0120books": 3835, "\u0120abnormalities": 34615, "\u0120symbolic": 18975, "onomy": 30565, "\u00c3\u00a3": 26102, "GW": 33191, "\u0120willingly": 30981, "\u0120ban": 3958, "\u0120clinging": 40137, "October": 18517, "\u0120gas": 3623, "\u0120enthusiasm": 17131, "thouse": 23931, "\u0120distortion": 25100, "Wonder": 42337, "Forest": 34605, "\u0120concrete": 10017, "\u0120Leading": 43225, "iOS": 35742, "\u0120niece": 41803, "\u0120drainage": 37664, "igure": 7047, "\u0120exempted": 48521, "\u0120Legions": 48534, "Lost": 31042, "Whoever": 47896, "\u0120fres": 34093, "blance": 42757, "\u0120Cra": 11176, "\u0120walking": 6155, "\u0120graded": 44545, "\u0120Or": 1471, "\u01208": 807, "\u0120Strong": 13535, "\u0120smashed": 23354, "\u0120iPads": 48741, "\u0120pollen": 40362, "\u0120vain": 23469, "Gl": 9861, "\u0120Extend": 46228, "\u0120compat": 8330, "\u0120paradox": 22226, "\u0120dise": 3591, "\u0120tanker": 46335, "200000": 33470, "\u0120onwards": 31719, "hunter": 37488, "sale": 21378, "Delete": 38727, "could": 24089, "\u0120unim": 28418, "aries": 3166, "\u0120journalists": 9046, "\u0120careg": 32386, "\u0120Supports": 45267, "\u0120MIC": 35878, "\u0120touching": 15241, "\u0120passionately": 43136, "required": 35827, "\u0120np": 45941, "\u0120remarkable": 11004, "delay": 40850, "\u0120Bringing": 48985, "Entry": 30150, "Chel": 38292, "\u0120Passed": 23228, "imus": 20704, "\u0120opposing": 12330, "itty": 9760, "\u0120towering": 38879, "ogged": 42545, "\u0120graceful": 44363, "\u0120dign": 13469, "\u0120gate": 8946, "\u0120detected": 12326, "\u0120technology": 3037, "iot": 5151, "\u0120Body": 12290, "\u0120ranger": 43570, "\u0120bodies": 5920, "BS": 4462, "inside": 48787, "\u0120guitar": 10047, "mu": 30300, "\u0120correlations": 35811, "\u0120Je": 3852, "\u0120angrily": 34425, "\u0120Associate": 22669, "\u0120Hai": 36876, "\u0120hurdles": 34283, "\u0120Series": 7171, "iat": 5375, "\u0120Lowry": 44024, "\u0120STEP": 49154, "amiya": 38241, "nesty": 18718, "\u0120Politics": 17554, "episode": 38668, "\u0120habit": 7947, "\u0120joked": 27582, "\u0120FOIA": 41245, "bourne": 12544, "\u0120Tool": 16984, "\u0120TOD": 16926, "\u0120troll": 13278, "\u0120plants": 6134, "Cass": 43529, "\u0120Park": 3250, "Def": 7469, "\u0120passing": 6427, "\u0120cartel": 34430, "\u0120Pract": 13672, "\u0120chooses": 19769, "nec": 32984, "\u0120Robertson": 23590, "\u0120goose": 37246, "\u0120281": 39882, "icity": 8467, "S": 50, "\u0120cigar": 24518, "\u0120Restoration": 36155, "riages": 16451, "ippers": 16415, "\u0120monarchy": 35184, "\u0120terminating": 47985, "\u0120dow": 47276, "\u0120Aden": 48500, "amber": 7789, "\u0120Carn": 19659, "\u0120tooltip": 49472, "pod": 33320, "\u0120DMV": 49887, "\u0120screw": 9580, "\u0120mocked": 29180, "\u0120Stand": 5751, "icter": 36278, "\u0120harms": 34859, "athom": 32910, "\u0120Hard": 6912, "swe": 46280, "\u0120PAR": 29463, "\u0120Mad": 4627, "\u00e3\u0125\u0141": 27542, "ramid": 20255, "\u0120vets": 45024, "\u0120backup": 11559, "\u0120Degree": 34486, "External": 41506, "fs": 9501, "\u0120cunning": 34218, "ailability": 8994, "\u0120LAW": 38675, "\u0120stemmed": 44997, "\u0120deeds": 23777, "810": 40215, "989": 42520, "\u0120chest": 7721, "\u0120pl": 458, "\u0120designer": 11915, "\u0120Ruin": 46085, "OU": 2606, "\u0120north": 5093, "\u0120planes": 13016, "\u0120slashing": 37714, "}:": 38362, "\u0120portions": 16690, "\u0120prepaid": 46851, "\u0120Gest": 44641, "\u01201999": 7358, "\u0120off": 572, "\u0120October": 3267, "UT": 3843, "heet": 25473, "\u0120scar": 10153, "eri": 33442, "\u0120binary": 13934, "ortunate": 13651, "\u0120culinary": 35956, "\u0120conscience": 18346, "\u0120myst": 21619, "307": 22996, "\u0120Charlie": 11526, "\u0120Lauder": 39212, "\u0120contemplated": 39496, "\u0120db": 20613, "\u0120repairing": 39005, "arser": 28198, "\u0120archives": 22415, "\u0120swamp": 26837, "\u0120worthless": 28063, "\u0120Timeline": 43040, "\u0120Jessica": 17352, "\u0120shots": 6934, "\u00e9\u00bb\u0134": 44112, "\u0120belly": 19921, "jamin": 13337, "\u0120Change": 9794, "\u0120inventory": 13184, "\u0120maple": 31377, "\u0120citizens": 4290, "ution": 1009, "\u0120radar": 13428, "worms": 49617, "ERN": 28778, "\u0120Clock": 21328, "ifle": 8316, "\u0120rooms": 9519, "\u00ce\u00b2": 26638, "\u0120pores": 47683, "xp": 42372, "cry": 20470, "\u0120newcomers": 29661, "\u0120contempor": 36081, "\u0120planted": 18969, "\u0120Benz": 47891, "\u0120really": 1107, "\u0120donated": 15863, "\u0120Nas": 22767, "\"}],\"": 42785, "itals": 8321, "\u0120Ohio": 6835, "\u0120DP": 27704, "\u0120antidepress": 27293, "etry": 11973, "\u0120shutting": 25136, "\u0120Chronic": 40700, "\u0120Signal": 26484, "affiliated": 46818, "\u0120gotta": 17753, "fficiency": 35590, "\u0120212": 23679, "\u0120displeasure": 47313, "\u0120graves": 30055, "ocom": 42829, "agne": 21080, "\u0120Furious": 41018, "BN": 15766, "\u0120Im": 1846, "\u0120fam": 1145, "\u0120Wh": 854, "\u0120conceptual": 23355, "osures": 16091, "\u0120Duff": 50209, "anguard": 23521, "\u0120Previous": 21801, "unny": 16948, "\u0120Planetary": 43800, "\u0120bake": 28450, "Developer": 45351, "\u0120absorb": 17565, "281": 30368, "\u0120lining": 20883, "\u0120Requirements": 24422, "\u0120assistant": 8796, "\u0120Guid": 37026, "\u0120discipl": 8311, "always": 33770, "ym": 4948, "'?": 30960, "\u0120subjects": 7481, "\u0120Band": 10243, "\u0120GC": 20145, "\u0120Potential": 32480, "spring": 16469, "\u0120Prospect": 26736, "meal": 28208, "\u0120Carry": 36366, "\u0120covenant": 28173, "\u0120Cer": 17419, "\u0120Cantor": 44577, "\u0120modest": 12949, "\u0120DSL": 32643, "\u0120Rally": 27752, "\u0120Zig": 24992, "\u0120string": 4731, "\u0120Medieval": 30294, "utory": 17957, "\u0120Ginger": 38682, "\u0120SPR": 49068, "ect": 478, "HUD": 28410, "\u0120crowdfunding": 33851, "arijuana": 42834, "\u00d7\u0133": 49603, "\u0120density": 12109, "\u0120mutant": 30118, "\u0120335": 37144, "\u0120dagger": 31322, "\u0120Tycoon": 28222, "\u0120ancestor": 31836, "\u0120threads": 14390, "\u0120SPECIAL": 38846, "sl": 6649, "\u0120Originally": 19486, "\u0120inspections": 30287, "\u0120Graphic": 43029, "\u0120dwar": 15594, "assets": 19668, "\u0120GREEN": 47606, "\u0120clich": 35478, "aina": 42183, "hat": 5183, "\u0120props": 25744, "\u0120Takeru": 48497, "Ali": 37893, "\u0120predicts": 26334, "ades": 2367, "\u0120Prep": 19141, "Capt": 19209, "\u0120ticking": 40212, "blind": 27461, "Robin": 40656, "\u0120thence": 41952, "\u0120Geh": 49588, "auer": 16261, "achus": 9523, "itans": 43716, "\u0120mosaic": 47076, "Guest": 42481, "fired": 26803, "\u0120Honda": 20059, "\u0120law": 1099, "\u0120Bunker": 44761, "\u0120Fran\u00c3\u00a7ois": 50208, "\u0120counterparts": 16054, "\u0120close": 1969, "\u0120bun": 28773, "\u0120counteract": 47578, "provided": 41279, "Ge": 10082, "Earn": 49725, "\u0120dram": 4850, "\u0120corp": 24614, "\u0120Beats": 40210, "\u0120VC": 26706, "\u0120habitat": 20018, "\u0120UV": 22033, "comings": 30715, "\u0120worn": 12666, "inction": 9438, "\u0120Persons": 32884, "\u0120recomb": 44759, "\u0120trou": 4057, "letter": 9291, "\u0120Ont": 9463, "\u0120Hate": 28334, "\u0120opera": 27296, "\u0120Timberwolves": 48983, "ampunk": 46183, "\u0120peacefully": 30996, "\u0120blocking": 12013, "\u0120laid": 8104, "\u0120workplaces": 47364, "\u0120servants": 17523, "\u0120Whites": 29290, "\u0120twisted": 19074, "go": 2188, "\u0120grabbing": 23256, "\u00dd": 153, "Silver": 26766, "\u0120fringe": 26821, "\u0120alk": 32915, "\u0120ran": 4966, "\u0120interests": 5353, "\u0120Hungry": 42939, "\u0120legend": 8177, "rad": 6335, "Chart": 45488, "47": 2857, "Less": 22058, "956": 50148, "\u01207": 767, "\u01201953": 24217, "\u0120Dirty": 32052, "\u0120TRA": 29125, "\u0120instinctively": 43045, "\u0120Eddie": 19478, "illing": 4509, "\u0120Madrid": 14708, "\u0120charge": 3877, "proof": 13288, "\u0120corrected": 19267, "\u0120processes": 7767, "test": 9288, "\u0109": 197, "\u0120Calgary": 17842, "Kim": 26374, "organisms": 45165, "\u0120EPA": 10193, "SB": 16811, "landers": 32358, "\u0103": 191, "TIME": 34694, "\u0120Loss": 22014, "atural": 2660, "\u0120Burton": 27209, "\u0120Midlands": 47989, "\u0120Vel": 17378, "\u0120Hearing": 34663, "Services": 31007, "\u0120artery": 37646, "\u0120paramilitary": 43542, "ATES": 29462, "RC": 7397, "\u0120declaring": 18684, "\u0120dra": 28841, "\u0120\u00c3\u0139": 13958, "\u0120Egg": 14562, "\u0120bang": 20188, "\u0120historically": 15074, "\u0120confrontation": 19207, "\u0120stimuli": 25973, "\u0120ethnicity": 26289, "\u0120Stew": 12194, "\u0120girl": 2576, "\u0120159": 26422, "SELECT": 46506, "\u0120seemingly": 9775, "finger": 35461, "\u0120flattened": 45096, "\u0120rg": 48670, "\u0120projections": 19887, "\u0120Grad": 17701, "VOL": 44558, "\u0120Consequently": 24982, "\u0120teenage": 16330, "\u0120embodiments": 32403, "\u0120147": 22909, "\u0120MAG": 28263, "\u0120hearts": 11954, "893": 49682, "\u0120Ragnarok": 40451, "\u0120Zhu": 33144, "\u0120Us": 4021, "\u0120gearing": 40592, "all": 439, "\u0120TTC": 42662, "\u0120Vol": 4709, "\u0120colour": 9568, "ogy": 9868, "\u0120insurgent": 46062, "\u0120troubling": 20294, "\u0120wrongly": 31238, "\u0120sidel": 33614, "itect": 5712, "\u0120doctrine": 13115, "\u0120hailed": 27052, "\u0120stole": 18240, "\u0120appearance": 5585, "\u0120Network": 7311, "nu": 28803, "\u0120Ced": 25789, "\u0120because": 780, "\u00e5\u0133": 37772, "\u0120intersection": 16246, "\u0120Putin": 8144, "mercial": 15790, "\u0120dearly": 46379, "\u0120entity": 9312, "683": 47521, "\u0120Roman": 7993, "Style": 21466, "\u0120Said": 23885, "ctica": 28914, "\u0120Explain": 48605, "aut": 2306, "\u0120podcasts": 31969, "\u0120sad": 6507, "\u012000000000": 27551, "ivas": 38630, "esse": 35270, "\u0120Carolyn": 43450, "\u0120retained": 17383, "\u0120dolphins": 36798, "Soul": 36315, "\u0120Trash": 48161, "\u0120summarized": 31880, "\u0120resid": 15384, "berry": 8396, "liness": 26061, "\u0120Today": 6288, "':": 10354, "\u0120nexus": 45770, "culated": 49262, "\u0120written": 3194, "\u0120Antar": 20290, "\u0120Goodwin": 46653, "\u0120Starg": 44393, "\u0120shape": 5485, "\u00d7\u0137": 27072, "\u01201800": 21431, "Video": 10798, "\u0120tv": 31557, "\u0120mentors": 44691, "hari": 49573, "\u0120science": 3783, "\u0120fade": 22100, "\u0120benchmark": 18335, "\u0120Pip": 25149, "ZZ": 30148, "\u0120Snowden": 15015, "rov": 18657, "\u0120cannibal": 39904, "\u0120SUR": 41016, "\u0120poisoning": 22475, "\u0120Additional": 15891, "\u0120perspectives": 22582, "\u0120Tell": 14026, "arent": 1580, "usive": 11350, "\u0120Tsarnaev": 43760, "\u0120strive": 22076, "Holy": 33336, "\u0120yogurt": 32132, "\u0120ensu": 29084, "\u0120Concern": 32265, "\u0120mobs": 32208, "\u0120should": 815, "ospace": 24912, "made": 9727, "sequently": 20415, "ras": 8847, "\u0120Storage": 20514, "\u0120Cors": 26978, "\u0120EN": 12964, "Take": 12322, "\u0120Leh": 29921, "\u0120fort": 6285, "\u0120gazing": 50234, "\u0120Prime": 5537, "\u0120engagements": 40588, "\u0120accol": 45667, "\u0120Coordinator": 36831, "land": 1044, "\u0120Barb": 10593, "\u0120efforts": 4040, "\u0120lect": 11042, "\u0120lone": 13497, "\u0120Interesting": 43580, "\u0120alternating": 39623, "QL": 9711, "TOP": 35222, "\u0120apologised": 46397, "\u0120Raiders": 16120, "\u0120insect": 12833, "yi": 48111, "\u0120had": 550, "\u0120anarchist": 26177, "vs": 14259, "\u0120coordinates": 22715, "\u0120Structure": 32522, "\u00e3\u0122\u0131": 40549, "epad": 47852, "\u0120sketch": 17548, "\u0120tunnels": 22642, "ATER": 23261, "Adds": 46245, "\u0120imagine": 5967, "\u0120psychologist": 23540, "shake": 32431, "\u0120positioned": 19378, "\u0120entails": 35445, "oddy": 38553, "BOOK": 39453, "\u0120performed": 6157, "mble": 11306, "\u0120fun": 1257, "\u0120Trib": 10841, "inking": 8040, "\u0120disgrace": 27690, "op": 404, "\u0120deficient": 40043, "\u0120DEBUG": 16959, "\u0120Radeon": 13082, "\u0120therein": 27258, "\u0120Pocket": 27290, "\u0120weather": 6193, "\u0120Writer": 26606, "\u0120hundred": 3470, "\u0120progressive": 10393, "\u0120Grac": 38099, ">>>": 33409, "Neill": 26538, "aghetti": 35812, "\u0120Armory": 45388, "\u0120Emb": 13302, "chard": 30215, "\u0120Freak": 45328, "\"[": 17912, "\u0120GoPro": 49789, "fml": 38122, "\u0120continue": 2555, "\u0120impat": 28189, "\u0120friction": 23822, "\u0120diplomatic": 13093, "\u0120perme": 29298, "\u0120sniper": 26160, "\u0120boost": 5750, "\u0120Continuous": 45012, "leted": 33342, "\u0120Antioch": 46590, "attered": 10228, "\u0120expressive": 38084, "ugs": 10339, "\u0120picks": 11103, "brown": 33282, "\u0111": 205, "\u0120Faw": 46081, "\u0120remedy": 21210, "\u0120chip": 11594, "\u0120lod": 19527, "\u0120fishes": 49765, "ou": 280, "\u0120extend": 9117, "ENSE": 24290, "\u0120dismant": 27038, "\u0120Universities": 42571, "Fear": 37798, "Net": 7934, "\u0120Mellon": 49808, "ultimate": 44818, "gans": 39352, "Um": 37280, "\u0120Gerr": 45140, "rigan": 35631, "\u0120413": 46618, "verett": 33395, "\u0120carve": 36717, "roy": 3287, "\u0120DES": 22196, "\u0120wildfires": 48298, "Except": 30313, "\u0120grain": 13020, "\u0120Harbaugh": 39944, "ublic": 841, "799": 45455, "IFF": 29267, "\u0120oppressive": 30983, "ducers": 41213, "\u0120Enterprises": 41253, "VPN": 33883, "\u0120Owl": 37007, "\u0120Novel": 24467, "\u0120403": 38210, "arians": 13517, "\u0120While": 2893, "\u0120bred": 33592, "\u0120Sorce": 21477, "Keeping": 44815, "\u0120eth": 4555, "\u0120soundtrack": 21751, "\u0120magistrate": 38620, "Node": 19667, "1963": 45192, "ikk": 36073, "\u0120Setting": 25700, "\u0120savvy": 32800, "\u0120Chrys": 27856, "\u0120lurking": 36105, "UTC": 17429, "anth": 29313, "\u0120Jace": 49674, "\u0120downside": 25320, "US": 2937, "fill": 20797, "\u0120Accountability": 37159, "\u0120insulation": 32806, "ifty": 24905, "\u0120breaching": 46837, "325": 26582, "\u0120intrigued": 33720, "\u0120food": 2057, "\u0120forget": 6044, "\u0120Homes": 34698, "\u0120Hodg": 37480, "guyen": 39922, "\u0120Kathryn": 48674, "ppard": 43988, "\u0120Squadron": 27242, "\u0120277": 38703, "\u0120Moore": 8877, "id": 312, "\u0120thinks": 6834, "\u0120receptive": 41062, "\u0120ROM": 21224, "\u0120wicked": 20589, "\u0120proceeded": 18814, "frac": 31944, "Tur": 17483, "score": 26675, "nih": 37373, "sts": 6448, "\u0120Similar": 11014, "\u0120Govern": 3948, "\u0120homosexuals": 35655, "PRO": 31190, "751": 48365, "bern": 33900, "\u0120accuses": 35062, "\u0120midway": 37720, "\u0120Ys": 43740, "\u0120contracting": 29148, "\u0120enlisted": 30166, "bey": 23454, "\u0120caffe": 21121, "them": 18855, "\u0120Tax": 9241, "Tem": 12966, "\u0120shimmer": 34493, "Following": 14291, "\u0120Henri": 44485, "\u0120LONG": 44533, "\u0120us": 514, "\u0120balloon": 21190, "\u0120spicy": 26880, "\u0120sperm": 19311, "\u0120eld": 18441, "\u0120clinics": 21434, "\u0120jersey": 22383, "\u0120Gal": 5027, "\u0120override": 20957, "LES": 28378, "ividual": 1896, "\u0120Nor": 5414, "\u0120bamboo": 37252, "\u0120creditor": 45848, "\u0120rum": 7440, "\u0120wipe": 19916, "playing": 17916, "arine": 34569, "Typically": 49321, "amel": 17983, "actor": 11218, "\u0120TPP": 24322, "\u0120hashes": 46621, "\u0120draft": 4538, "arlane": 49344, "\u0120Netanyahu": 17104, "\u0120cooks": 38383, "EMS": 39201, "\u0120bolt": 18100, "\u0120mutated": 48865, "\u0120Halloween": 16032, "\u0120Chargers": 23559, "attr": 35226, "onal": 20996, "tt": 926, "Craft": 14467, "\u0120Gain": 21686, "osh": 3768, "VERTIS": 18000, "\u0120Inher": 47025, "\u0120footsteps": 27146, "\u0120delivered": 6793, "\u0120locks": 19253, "\u0120Eternity": 33410, "\u0120huge": 3236, "\u0120replicate": 24340, "253": 28592, "\u0120Maps": 20347, "\u0120puls": 22271, "omal": 18048, "\u0120Alexander": 10009, "comment": 23893, "\u0120helpers": 49385, "\u0120pudding": 44670, "\u0120palms": 39513, "\u0120harvest": 13222, "\u0120satur": 17373, "\u0120hotels": 18505, "\u0120vice": 7927, "\u0120misunderstand": 39653, "ree": 631, "lining": 21310, "\u0120Tribe": 27804, "dy": 9892, "\u0120Occasionally": 40659, "\u0120elder": 10550, "\u0120regions": 7652, "produ": 18230, "\u0120snapshot": 27479, "\u0120Metal": 12136, "\u0120draped": 38425, "steel": 44822, "innie": 49708, "\u0120Z": 1168, "random": 25120, "burn": 10899, "Quote": 25178, "\u0120spend": 4341, "\u0120agreed": 4987, "\u0120UNDER": 35219, "ieft": 49868, "\u0120Architects": 44610, "\u0120Berman": 43859, "ravis": 16956, "\u0120Proced": 23652, "Site": 29123, "\u0120Circus": 46658, "\u0120137": 21643, "\u0120transmit": 21937, "\u00e3\u0124\u012e": 39258, "COR": 44879, "195": 22186, "Tor": 15884, "Tam": 42061, "\u0120Finance": 15007, "\u0120Sophia": 39953, "\u0120volcan": 17516, "\u0120shaved": 39273, "\u0120Part": 2142, "\u0120Crim": 9822, "\u0120Hood": 17233, "\u0120destroyed": 6572, "\u0120hostile": 12524, "\u0120atheists": 28473, "\u0120smartphones": 18151, "\u0120Eva": 32355, "\u0120unfinished": 34419, "\u0120experimented": 42107, "yip": 39666, "\u0120wandering": 24504, "\u0120Hearth": 31069, "\u0120MOT": 42982, "acists": 33194, "\u0120beneficiary": 33867, "\u0120panties": 31571, "ethnic": 38546, "Charges": 36970, "boarding": 27794, "\u0120Compensation": 39059, "\u0120cardiovascular": 21134, "\u0120stickers": 28568, "\u0120Wag": 21309, "\u0120Orbital": 45453, "007": 25816, "\u0120cher": 21382, "\u0120Penalty": 41676, "heard": 23636, "\u0120chem": 4607, "inflamm": 29639, "\u0120820": 48964, "\u0120swings": 26728, "\u0120Mix": 15561, "\u0120manufacturer": 11554, "\u0120TYPE": 41876, "rank": 43027, "\u0120core": 4755, "\u0120Later": 11450, "\u0120Rash": 27620, "DA": 5631, "\u0120reading": 3555, "\u00e3\u0125": 1209, "\u0120disse": 22806, "\u00e3\u0122\u0132": 31854, "\u0120clut": 32170, "\u0120appellate": 43175, "\u0120Prompt": 45965, "\u0120shards": 39991, "\u0120tend": 4327, "\u0120murderers": 38313, "\u0120hills": 18639, "\u0120whispers": 37806, "outine": 28399, "\u0120Act": 2191, "\u0120Radius": 48838, "\u0120Fukushima": 34170, "ogi": 44381, "\u0120Everton": 27227, "vision": 10178, "\u0120livestream": 49683, "\u0120sparkling": 39072, "\u0120infectious": 25246, "\u0120southwestern": 46065, "\u0120rethink": 36437, "\u0120Cinem": 21932, "viol": 17069, "\u0120Wisconsin": 9279, "Prof": 15404, "\u0120ba": 26605, "ER": 1137, "================================": 10052, "\u0120outskirts": 30140, "\u0120turnout": 21666, "\u0120Countdown": 47555, "\u0120Yu": 10605, "\u0120mod": 953, "\u0120Garc": 16364, "holder": 13829, "pace": 10223, "terson": 23192, "\u0120voted": 7052, "\u0120solder": 42809, "\u0120experimenting": 27826, "\u0120Cind": 24445, "\u0120G": 402, "\u0120Recogn": 31517, "\u0120TAMADRA": 41297, "\u0120converter": 38394, "Coll": 22667, "TAG": 42197, "\u0120steadfast": 35690, "\u0120Pict": 10780, "\u0120stopped": 5025, "ves": 1158, "heast": 9522, "\u0120bathroom": 12436, "\u0120barrage": 33633, "\u0120flora": 48037, "\u0120quarterback": 7880, "complex": 41887, "near": 40093, "\u0120dwindling": 45215, "ohydrate": 46358, "strument": 43872, "\u0120Scott": 4746, "lyn": 6213, "\u0120packages": 10392, "\u0120evolutionary": 16673, "other": 847, "\u0120supers": 22754, "\u0120domination": 24288, "\u0120Abstract": 27741, "hiro": 49907, "\u0120adjustment": 15068, "\u0120Bo": 3248, "nuclear": 43131, "ister": 1694, "urtle": 17964, "Thankfully": 48387, "Protect": 41426, "\u0120XIII": 35302, "\u0120hyp": 5328, "\u0120overturn": 17586, "\u0120Physicians": 46206, "\u0120vulgar": 31016, "\u0120simultaneous": 29526, "\u0120Grape": 48315, "riott": 43517, "\u0120Unt": 26970, "\u0120Kimberly": 48685, "\u0120enjoyed": 8359, "\u0120Cook": 8261, "\u0120additional": 3224, "\u0120Holt": 28330, "\u0120Males": 43404, "lvl": 47147, "igue": 15212, "\u0120realised": 19169, "\u0120Gro": 10299, "\u0120bunch": 7684, "\u0120--": 1377, "\u0120kb": 47823, "\u0120scapego": 42374, "endi": 43109, "TERN": 31800, "callback": 47423, "holm": 22981, "\u0120broth": 32051, "\u0120pokemon": 43962, "\u0120intensify": 47697, "\u0120spores": 47306, "\u0120Mart": 3981, "\u0120Rowe": 44842, "Roll": 26869, "vest": 4223, "albeit": 45781, "\u0120tribute": 17547, "\u0120Jun": 7653, "\u0120Pan": 5961, "\u0120minister": 5342, "note": 11295, "\u0120justify": 12051, "\u0120Ox": 10736, "viously": 8647, "\u0120grounded": 22804, "\u0120Rockies": 35521, "\u0120670": 48136, "\u0120locale": 36693, "\u0120flash": 7644, "tools": 31391, "ified": 1431, "\u0120Cotton": 23915, "491": 41289, "\u0120tongues": 39413, "\u0120Me": 2185, "\u0120Modified": 40499, "\u0120Basics": 45884, "education": 40796, "beam": 40045, "\u0120Vegan": 34829, "Rocket": 50218, "jac": 30482, "\u0120XP": 11961, "\u0120annoying": 15774, "vind": 50172, "\u0120Livingston": 47717, "\u0120OVER": 28729, "\u0120manage": 6687, "\u0120During": 5856, "\u0120choking": 39302, "\u0120recovery": 7628, "Comments": 23903, "044": 43977, "\u013c\u00e9\u0128\u0134": 22757, "\u0120diary": 26339, "\u0120nour": 31219, "\u0120YES": 21560, "ensional": 37176, "\u0120Ruff": 42409, "arm": 1670, "\u0120massive": 4858, "\u0120Animal": 13792, "\u0120digestion": 44639, "\u0120apply": 4174, "\u0120unfolded": 34660, "\u0120fighters": 8486, "\u0120Rights": 6923, "ographed": 39620, "\u0120Coat": 39326, "\u0120Irvine": 37277, "rev": 18218, "\u0120PhD": 16394, "\u0120oct": 19318, "\u0120fairy": 25607, "\u0120culture": 3968, "OV": 8874, "\u0120neither": 6159, "45": 2231, "levision": 5024, "\u0120coordinating": 35449, "\u0120Xavier": 30825, "\u0120lonely": 21757, "ing": 278, "\u0120Premiership": 47435, "\u0120lubric": 33211, "\u0120Pars": 23042, "oun": 977, "\u0120LET": 37994, "\u0120properties": 6608, "obs": 8158, "?'": 8348, "\u0120m": 285, "\u0120guessing": 25260, "lab": 23912, "\u0120operations": 4560, "\u0120stitches": 28096, "\u0120stretches": 23687, "\u0120sponsored": 15901, "urat": 39928, "ifier": 7483, "lived": 24489, "\u0120living": 2877, "itizens": 34100, "\u0120exiting": 33895, "layout": 39786, "\u0120protecting": 10192, "\u0120bou": 35833, "\u0120Lind": 9329, "316": 33400, "\u0120bugs": 11316, "\u0120pediatric": 29775, "\u0120BBQ": 32083, "\u0120promotion": 12148, "\u0120Creed": 24299, "\u0120graft": 38455, "ien": 2013, "Everything": 19693, "\u0120Atkins": 47545, "\u00d0\u00b2": 38857, "\u0120Moj": 40120, "ISE": 24352, "CHO": 44899, "\u0120recycle": 48914, "\u0120base": 2779, "\u0120bullish": 50079, "February": 21816, "\u0120ESC": 40251, "\u00d8\u00b9": 44690, "\u0120sage": 35021, "\u0120tattoo": 18785, "switch": 31943, "\u0120Till": 17888, "ishops": 21863, "\u0120Murder": 23375, "\u0120diversity": 9573, "\u0120choke": 28504, "\u0120provocation": 41209, "\u0120disruptive": 28094, "\u0120Sahara": 46882, "\u0120autos": 44619, "\u0120exams": 26420, "w": 86, "rep": 7856, "rued": 21556, "isite": 16107, "\u0120PG": 23842, "\u0120hast": 19338, "versely": 21243, "ints": 29503, "\u0120lobster": 43657, "\u0120unint": 17679, "\u0120Markus": 46013, "rage": 8394, "\u0120Philippine": 29911, "agon": 1840, "\u00e3\u0125\u0137\u00e3\u0124\u00a1": 41939, "font": 10331, "\u0120privatization": 41110, "\u0120AHL": 35297, "348": 28978, "\u0120grounds": 9384, "\u0120Berk": 35595, "\u0120\u00c2\u00b1": 6354, "\u0120Sidney": 35727, "\u0120sail": 14936, "\u0120indisc": 30735, "Utah": 44350, "\u0120Borderlands": 47071, "\u0120pissed": 28674, "ese": 2771, "\u0120Pioneer": 31437, "\u0120mask": 9335, "\u0120superst": 23510, "\u0120prompting": 21550, "Eye": 24876, "Mah": 40936, "\u0120directions": 11678, "\u0120Aaron": 12139, "rolley": 42639, "peak": 36729, "Clock": 44758, "\u0120loudspe": 48792, "\u0120shut": 4423, "Eth": 40226, "364": 26780, "Stretch": 39181, "\u0120lux": 10632, "matter": 47635, "\u0120Median": 26178, "\u0120Hud": 16961, "IDENT": 25256, "\u0120Osborne": 29667, "\u0120narrative": 8689, "\u0120174": 27621, "Matrix": 46912, "Ranked": 36713, "\u0120cynicism": 49509, "\u0120rescuing": 48329, "Wr": 39213, "\u0120identifier": 27421, "aed": 8432, "\u0120apologized": 22893, "odic": 29512, "\u011a": 214, "\u0120Shooter": 35334, "\u0120imper": 11071, "\u0120Gou": 46531, "ened": 2945, "\u0120rabb": 19368, "\u0120Jessie": 43425, "____": 1427, "\u0120biological": 10685, "\"(": 18109, "mediated": 38363, "moon": 22977, "\u0120foreskin": 49877, "IO": 9399, "\u0120graz": 32703, "\u0120Collabor": 37322, "azeera": 28535, "asio": 29831, "square": 23415, "\u0120peripheral": 25514, "gars": 25821, "Market": 27470, "oooo": 13321, "\u0120Sloan": 43066, "\u0120recognizing": 22650, "headed": 15353, "],\"": 17241, "Around": 24472, "\u0120Macintosh": 48087, "Cal": 9771, "\u0120peninsula": 28080, "nes": 2516, "\u0120invoke": 26342, "\u01201946": 22717, "\u0120Guide": 10005, "\u0120cassette": 42812, "\u0120worked": 3111, "\u0120Hunger": 32367, "\u0120vary": 7565, "Dou": 40287, "Unique": 40257, "\u0120outputs": 23862, "\u0120Sage": 28733, "\u0120RandomRedditorWithNo": 36174, "\u0120Cycling": 25550, "\u0120frightened": 24776, "\u0120actor": 8674, "ocytes": 30309, "\u0120Chemical": 24872, "rue": 24508, "\u0120fodder": 41579, "\u0120testimonies": 49904, "ilial": 43475, "skin": 20407, "\u0120sixth": 11695, "\u0120landlords": 30658, "ushed": 7474, "\u0120edge": 5743, "\u0120Blair": 18520, "ined": 1389, "qs": 48382, "\u00e8\u00a3\u0127": 35318, "\u0120Dresden": 46993, "\u0120601": 49231, "It": 1026, "warm": 31975, "\u0120138": 21503, "\u0120establishing": 15010, "\u0120Belgian": 21402, "\u0120fills": 23816, "\u0120Ontario": 10553, "agraph": 6111, "\u0120shadows": 16187, "OHN": 27600, "ecided": 35503, "875": 31360, "\u0120hey": 17207, "\u00e3\u0125\u00bc\u00e3\u0124\u00af": 42869, "\u0120Wireless": 24365, "\u0120club": 3430, "\u0120submarines": 34031, "igate": 10055, "\u0120fet": 11351, "\u0120interpreted": 16173, "\u0120Surf": 43771, "\u0120eas": 1396, "\u0120ribbon": 29092, "\u0120Mormons": 33003, "JJ": 32178, "\u0120suggested": 5220, "555": 31046, "\u0120IPM": 50200, "\u0120featuring": 9593, "\u0120bellig": 45957, "Strike": 31584, "\u0120unpaid": 24268, "\u0120police": 1644, "asive": 17443, "\u0120placing": 12560, "\u0120Sc": 1446, "kins": 5331, "\u0120MORE": 12011, "Factor": 41384, "\u0120mural": 36192, "kept": 45089, "\u0120obnoxious": 43283, "\u0120Desert": 18692, "ominium": 46134, "\u0120verify": 11767, "\u0120cran": 41286, "\u0120animal": 5044, "leading": 12294, "\u0120tying": 28379, "al": 282, "\u0120TOP": 28662, "\u0120everlasting": 45697, "\u0120neighborhoods": 14287, "\u0120superf": 21176, "Council": 40940, "ushing": 8023, "Sound": 21369, "anco": 47699, "\u0120fumble": 41405, "augh": 1567, "idden": 4651, "\u0120DI": 14766, "\u0120formats": 17519, "\u0120stre": 1937, "\u0120Casino": 32802, "bs": 1443, "\u0120protects": 17289, "mented": 12061, "\u0120avoided": 13941, "night": 3847, "\u0120millennium": 39210, "\u0120mart": 11277, "ographics": 24188, "cture": 48715, "\u0120pear": 25286, "\u0120attention": 3241, "\u0120Dai": 39604, "\u0120HP": 6574, ")\\": 19415, "\u0120blackout": 45939, "\u0120Provider": 32549, "\u0120TECH": 44999, "\u0120Abbott": 16988, "\u0120caf\u00c3\u00a9": 40304, "hips": 5748, "\u0120MB": 10771, "\u0120<": 1279, "\u0120Brendan": 26134, "\u0120Twenty": 22381, "\u0120130": 11323, "igated": 26963, "avan": 12421, "ILS": 45484, "\u0120hosp": 10496, "RGB": 36982, "\u0120Kendall": 36779, "irling": 24297, "\u0120Pal": 3175, "\u0120anxious": 18116, "\u0120Wedding": 36679, "\u0120speeches": 18138, "\u0120northeastern": 38131, "\u0120supra": 28614, "\u0120favorable": 17070, "alian": 7199, "\u0120Oo": 45801, "sp": 2777, "\u0120Wallet": 37249, "\u0120plane": 6614, "large": 11664, "ictionary": 14188, "setup": 40406, "\u0120martial": 15618, "\u0120Taste": 29633, "ppo": 16634, "\u0120recount": 16369, "\u0120Millennium": 26139, "Kn": 25095, "\u0120unman": 29389, "pt": 457, "sis": 13429, "\u0120Graham": 11520, "\u0120Feminist": 46259, "\u0120miraculous": 40336, "remove": 28956, "\u0120Stronghold": 40092, "section": 5458, "\u0120Tem": 5825, "\u0120MRI": 30278, "\u0120restraints": 45369, "\u0120smug": 27590, "\u00e3\u0123\u012e": 35585, "ilyn": 38020, "\u0120archived": 33962, "Weapons": 41818, "\u0120Intervention": 43673, "\u0120pleasing": 28790, "CR": 9419, "\u0120VG": 34627, "\u0120circumference": 38447, "\u0120Pyro": 44954, "\u0120chopped": 20720, "\u0120loader": 40213, "\u0120Cunning": 30249, "\u0120foods": 9013, "\u0120flaming": 39518, "\u0120Lib": 7980, "\u0120MC": 13122, "\u0120ISPs": 28677, "\u0120fight": 1907, "\u0120Macron": 31362, "acqu": 43561, "\u0120Templar": 41741, "puff": 49357, "\u0120teammate": 20052, "Loading": 19031, "\u0120blender": 40047, "\u0120sketches": 34035, "\u0120Dominican": 32022, "rated": 4111, "minus": 40191, "gent": 6783, "French": 24111, "utor": 38409, "\u0120Discussion": 27766, "\u0120gast": 21956, "\u0120artifact": 24127, "\u0120together": 1978, "ement": 972, "\u0120Childhood": 40992, "\u0120entitled": 9080, "\u0120Barbarian": 38946, "ourgeois": 18924, "\u0120Ding": 46980, "talking": 48186, "\u00e4\u00b9": 20046, "\u0120tremendously": 34355, "\u0120weekend": 5041, "\u0120techniques": 7605, "\u0120\u00ce\u00b2": 27169, "\u0120Windsor": 31561, "!!!!!!!!": 34635, "sold": 24120, "date": 4475, "arms": 8357, "\u0120nost": 18216, "\u0120infantry": 21548, "\u0120DEA": 28647, "\u0120pixels": 17848, "umen": 20080, "\u0120Static": 36125, "aneously": 27683, "ensing": 26426, "526": 48531, "\u0120Firefox": 16802, "\u0120Health": 3893, "River": 42204, "Mother": 31398, "\u0120Alz": 21535, "\u0120families": 4172, "\u0120pocket": 10000, "\u0120kindness": 23887, "\u0120san": 5336, "eday": 23712, "\u0120label": 6167, "\u0120costumes": 24138, "\u00fb": 183, "hawk": 40624, "\u0120clenched": 47344, "ques": 13281, "\u0120Graves": 37729, "\u0120sew": 34249, "oyd": 12192, "\u0120abstract": 12531, "\u0120ga": 31986, "\u0120masturbation": 41054, "\u0120appropriate": 5035, "DIT": 49828, "Specific": 32419, "\u0120scent": 21212, "Arcade": 43763, "\u0120Dir": 36202, "Mag": 13436, "\u0120hust": 33376, "\u0120noticeable": 19787, "\u0120br": 865, "\u0120solidly": 49549, "inki": 38799, "\u0120insulted": 40102, "ULTS": 35342, "Population": 45251, "\u0120Excellence": 42525, "ead": 1329, "\u0120aerial": 17789, "\u0120recipes": 14296, "\u0120fail": 2038, "Reporting": 42159, "\u0120eminent": 37820, "\u0120spectacular": 15013, "\u0120reminiscent": 24960, "aux": 14644, "videos": 32861, "\u0120grate": 48612, "\u0120peace": 4167, "\u0120constitute": 15613, "\u0120PCIe": 41825, "\u0120Eucl": 48862, "\u0120Wynne": 45867, "duction": 11124, "Full": 13295, "\u0120citing": 12988, "\u0120Indonesia": 16256, "Correction": 43267, "\u0120fireplace": 44250, "\u0120waitress": 44511, "\u0120minced": 48427, "\u0120ambulance": 22536, "Warren": 43464, "Bill": 17798, "\u0120Checking": 39432, "lli": 15516, "\u0120responding": 14409, "\u0120fundamentalist": 42277, "\u00ce\u00bf": 26517, "\u0120underdog": 44288, "xiety": 35753, "\u0120Proceedings": 30641, "\u0120bona": 41602, "order": 2875, "liquid": 39250, "thel": 37274, "\u0120Lenn": 28423, "\u0120exiled": 38702, "\u0120Bid": 43484, "\u0120unrealistic": 31363, "\u0120poisonous": 32199, "focused": 18143, "rail": 30224, "\u0120sandy": 44039, "endas": 35624, "\u0120shadowy": 40175, "raft": 1617, "\u0120extant": 47862, "\u0120produ": 990, "ynchron": 24871, "rarily": 39000, "ensus": 7314, "\u0120remains": 3793, "essors": 23295, "\u00e2\u0128": 29705, "omin": 6351, "\u012054": 7175, "\u0120deceit": 37268, "\u0120gif": 9381, "\u0120demo": 13605, "\u0120st": 336, "454": 34229, "Ob": 5944, "\u0120prehistoric": 44741, "\u0120cardio": 47926, "\u0120currencies": 19247, "\u0120exclus": 10293, "woods": 39493, "\u0120haircut": 45548, "wark": 48542, "\u0120especially": 2592, "Represent": 40171, "\u0120missionaries": 37458, "\u0120favoring": 43567, "forth": 25718, "\u0120\u00e2\u012b": 15139, "\u0120RAW": 33782, "sun": 19155, "\u0120service": 2139, "\u0120Blaze": 33965, "\u0120disinteg": 29930, "\u0120overturned": 27153, "ratch": 36722, "worked": 32931, "\u0120fug": 31497, "\u0120Cel": 15248, "sych": 2924, "\u00de": 154, "\u0120agility": 33546, "acial": 18150, "ts": 912, "meaning": 24815, "\u0120tailored": 27571, "\u0120Mull": 19574, "\u0120backstory": 37998, "\u0120geo": 40087, "Atlanta": 43482, "rats": 46714, "\u0120anonymity": 18685, "onian": 27625, "wi": 37686, "\u0120quality": 3081, "sal": 21680, "\u0120memo": 16155, "709": 31495, "\u0120unfavorable": 38206, "Lean": 35806, "emn": 37705, "\u0120Stall": 35719, "card": 9517, "\u0120devastated": 25074, "\u0120Uran": 33287, "\u0120Car": 1879, "aito": 38995, "\u0120cloves": 45025, "hooting": 35486, "\u0120resist": 4180, "\u0120countryside": 25708, "\u0120tracts": 42385, "CLASSIFIED": 45449, "\u0120hesitated": 41723, "\u0120Rafael": 31918, "\u0120brains": 14290, "\u0120field": 2214, "\u0120\u00eb": 31619, "\u0120Lange": 47579, "urer": 15051, "\u0120classic": 6833, "\u0120Formula": 19639, "\u00d8": 148, "\u0120discharged": 26476, "\u0120explained": 4893, "\u0120Bluetooth": 19263, "\u0120cob": 22843, "\u0120Canterbury": 43581, "\u0120occup": 4977, "\u0120Shall": 38451, "\u0120Newsp": 36765, "\u0120Galileo": 45860, "irteen": 22530, "\u0120lords": 33200, "\u0120Domin": 11817, "\u0120cryptoc": 15149, "\u0120WC": 28387, "ari": 2743, "\u0120pregnant": 10423, "\u0120penetrate": 28302, "lol": 47288, "\u0120theorem": 44728, "formance": 10367, "anguages": 33213, "Try": 23433, "\u0120strategist": 25651, "\u0120snakes": 26042, "\u0120Mub": 40052, "Hum": 32661, "mary": 6874, "\u0120tweaks": 26957, "founded": 27060, "\u0120comply": 11997, "\u0120backs": 12983, "stores": 43409, "\u0120dispensaries": 40698, "\u0120Illinois": 9486, "ipping": 4501, "\u0120municipal": 13474, "\u0120Davies": 26618, "\u0120inaug": 14243, "\u0120Aware": 32828, "\u0120Actress": 47144, "\u0120Dan": 6035, "warn": 40539, "itten": 2621, "\u0120undertaking": 25971, "\u0120Melissa": 24164, "\u0120parts": 3354, "?\u00e3\u0122\u012f": 42943, "\u0120blah": 33367, "ur": 333, "\u0120Durant": 27686, "\u0120Sea": 6896, "aha": 12236, "\u0120Freedom": 10204, "utherland": 45384, "\u0120LCS": 38217, "\u0120kitten": 42143, "\u0120LF": 47629, "\u0120Christ": 1951, "Gameplay": 43241, "\u0120Midwest": 25701, "\u0120Oxy": 35471, "\u0120application": 3586, "station": 17529, "\u0120analyze": 16602, "\u0120fandom": 35387, "\u0120Nina": 36300, "\u0120Cob": 14828, "policy": 30586, "\u0120complied": 35413, "\u0120forgiven": 32350, "\u0120atom": 22037, "VW": 30133, "\u0120deputies": 21861, "\u0120Expect": 23600, "\u0120symptom": 25993, "\u0120trailed": 40060, "\u0120pounded": 49162, "\u0120suite": 18389, "\u0120disagreement": 25800, "Michael": 13256, "acher": 3493, "\u0120offensive": 5859, "asel": 48038, "anic": 26277, "\u0120aristocracy": 50025, "\u0120clustered": 49480, "\u0120lenders": 28086, "\u0120clashes": 21022, "\u0120always": 1464, "\u0120cooling": 15134, "aking": 868, "Instruct": 43993, "HOW": 37181, "\u0120George": 4502, "Monster": 40872, "\u0130": 236, "\u0120singer": 14015, "\u0120Rw": 31641, "\u0120570": 44626, "\u0120et": 2123, "\u0120fel": 10756, "ED": 1961, "\u0120Fundamental": 49983, "\u0120334": 42819, "nian": 44516, "\u0120extended": 7083, "\u01201024": 28119, "\u0120staffing": 36700, "\u0120width": 9647, "\u0120Grand": 5675, "radius": 42172, "\u0120erection": 42056, "\u0120manpower": 44803, "\u0120emissions": 8971, "\u0120chops": 44512, "\u0120Spiel": 34841, "thus": 26239, "\u0120embed": 11525, "orsche": 26164, "rero": 34785, "ofi": 39542, "las": 21921, "\u0120compare": 8996, "_": 62, "\u0120concentrating": 37367, "\u0120grassroots": 23783, "alyses": 43710, "\u0120Bore": 45409, "\u0120cartels": 41399, "\u0120accur": 4431, "odiac": 40096, "\u0120Participants": 26122, "\u0120collaborate": 30081, "\u0120Ct": 43166, "\u0120chopping": 45274, "\u0120fitted": 18235, "\u0120articulated": 36877, "\u0120Editors": 48073, "\u0120make": 787, "\u0120happy": 3772, "\u0120Reflex": 43214, "\u0120Pai": 41626, "ineries": 48858, "\u0120Bridgewater": 48218, "\u0120Everyone": 11075, "\u0120scandal": 10731, "\u00d0\u00ba": 31583, "\u0120suspicious": 13678, "\u0120sucker": 48431, "ropolitan": 14823, "virt": 48940, "\u0120earthqu": 13198, "urchase": 18737, "\u0120penal": 23634, "vm": 14761, "\u0120Portable": 44685, "\u0120Wagner": 26451, "stellar": 28732, "ilst": 11750, "\u0120Pound": 40852, "ishop": 10124, "chers": 3533, "\u0120accord": 8178, "\u0120Peak": 23974, "\u0120Kurd": 9778, "\u0120southern": 8372, "\u0120swinging": 25635, "\u0120organisms": 20296, "\u0120Venture": 35686, "\u0120Died": 34288, "%)": 4407, "\u0120tut": 9732, "\u0120oxidation": 37767, "gha": 46090, "\u0120affection": 17696, "\u0120Herz": 34321, "\u0120Hip": 29437, "\u0120soaking": 41714, "\u0120sab": 17463, "\u0120rhetorical": 38505, "mand": 22249, "Anyway": 23795, "\u0120BASE": 49688, "\u0120powering": 43067, "\u0120Royale": 49982, "\u0120log": 2604, "IGHT": 9947, "IGH": 18060, "SY": 23060, "\u0120Dodge": 26048, "\u0120disgruntled": 48967, "\u0120lantern": 41207, "then": 8524, "any": 1092, "\u0120leftover": 39191, "words": 10879, "\u0120Thousand": 39255, "\u0120Brooke": 46459, "\u0120lounge": 31893, "Especially": 48464, "apult": 41387, "\u00e3\u0125\u0128": 24336, "\u0120USDA": 29986, "\u0120ammon": 34946, "\u0120ge": 4903, "employment": 28812, "nings": 23400, "ovan": 22590, "\u0120398": 39260, "\u0120cakes": 30849, "\u0120promotes": 21068, "\u0120Kuh": 46035, "ollywood": 31777, "\u0120Shah": 18381, "\u0120enthusiasts": 23099, "\u0120necklace": 38987, "\u0120mobile": 5175, "\u0120Sundays": 32714, "\u0120F": 376, "itism": 18937, "niper": 45554, "\u0120APP": 43504, "\u0120Chao": 41024, "\u0120Engineers": 27170, "\u0120Sole": 37965, "\u0120subscrib": 11452, "\u0120workouts": 27197, "\u0120|": 930, "\u0120comprom": 8382, "Kid": 48374, "Russian": 16220, "\u0120organise": 42386, "center": 16159, "\u0120Po": 7695, "\u0120Lloyd": 22361, "\u0120butterfly": 35113, "\u0120evolve": 18101, "GB": 4579, "\u0120Metall": 35616, "\u0120possibly": 5457, "\u0120quarterly": 27868, "vg": 45119, "prof": 5577, "izzard": 16191, "sorry": 41599, "\u0120Fre": 4848, "\u0120travels": 17781, "\u0124\u00ac": 8955, "represented": 33469, "reath": 19367, "\u0120delet": 28128, "pard": 26037, "\u0120satisfies": 45104, "502": 35126, "\u0120lavish": 38957, "\u0120cheek": 19353, "aster": 1603, "Array": 19182, "797": 44673, "arrett": 34878, "\u0120shred": 21163, "\u0120Its": 6363, "\u0120improvements": 8561, "\u0120Welch": 41524, "Solid": 46933, "\u0120orbits": 37015, "\u0120patio": 39660, "otic": 6210, "B": 33, "\u0120contiguous": 48627, "\u0120orientation": 12852, "\u0120Shepherd": 30890, "\u0120Jean": 11320, "ruction": 2762, "\u0120BOOK": 39633, "\u0120Spoiler": 41958, "\u0120Lyndon": 47309, "\u0120Organic": 31734, "\u0120Dino": 39430, "\u0120Killing": 25536, "enne": 29727, "\u0120ber": 18157, "\u0120chau": 46901, "\u0120foc": 2133, "\u0120exported": 29050, "\u0120sanctioned": 30572, "\u0120laureate": 49734, "\u0120many": 867, "\u0120timeout": 26827, "\u0120Native": 12547, "\u0120monument": 17757, "Universal": 38747, "\u0120Alvin": 49939, "\u0120pand": 19798, "\u0120scalable": 43865, "DEP": 46162, "\u0120detention": 13280, "\u0120combined": 5929, "\u0120Boards": 48606, "try": 28311, "BUG": 12953, "\u0120curv": 46171, "\u0120Monstrous": 46976, "\u0120tuberculosis": 44222, "uten": 7809, "alcohol": 42142, "\u0120compliance": 11846, "\u0120enrol": 34311, "\u0120Such": 8013, "\u0120God": 1793, "prison": 35156, "jing": 49940, "Device": 24728, "Hel": 12621, "\u0120Drag": 12697, "\u0120Charisma": 44859, "amb": 4131, "\u0120INTO": 39319, "idation": 24765, "********************************": 17174, "\u0120parameters": 10007, "\u0120254": 35360, "\u0120Akin": 48857, "itled": 7803, "sylvania": 9270, "\u0120commits": 23463, "replace": 33491, "\u0120Investigator": 49499, "\u0120tray": 26473, "\u00c3\u00a9": 2634, "sole": 6753, "\u0120reflection": 14580, "\u0120MIA": 44903, "\u0120granting": 21787, "atto": 45807, "\u0120Falls": 17930, "\u0120ASP": 34658, "mint": 34289, "\u0120ignorant": 20109, "\u00c2\u00bb": 17730, "\u0120anarch": 14061, "\u0120U": 471, "\u0120ended": 4444, "reportprint": 30897, "\u0120http": 2638, "\u0120upgrade": 8515, "\u0120Butterfly": 39108, "\u0120formerly": 15734, "\u0120territ": 5771, "\u0120thickness": 20735, "427": 42363, "\u0120null": 9242, "\u0120cartoon": 16251, "ome": 462, "\u0120raspberry": 38973, "\u0120signs": 5895, ".\"\"": 32203, "falls": 23348, "fc": 16072, "\u0120prohibits": 24059, "\u0120braces": 47241, "sheets": 42011, "\u0120protesting": 23655, "inger": 3889, "clad": 29853, "\u0120greed": 25474, "\u0120Cornell": 27119, "\u0120WIN": 25779, "Rich": 14868, "\u0120Chun": 40958, "Bow": 39961, "\u0120threatening": 11123, "\u0120socks": 24359, "\u0120Gentleman": 42112, "\u0120levers": 48872, "\u0120Fay": 35136, "Italy": 45001, "bard": 23024, "\u0120Presbyter": 40507, "\u0120Cup": 5454, "untary": 26468, "\u0120photographer": 16413, "\u0120optionally": 42976, "\u0120(=": 46121, "\u0120obsolete": 26533, "\u0120Sections": 37703, "\u0120synthes": 24983, "\u0120XI": 30554, "\u0120MPH": 43822, "anche": 6362, "\u00e2\u0136": 6552, "staking": 40031, "\u0120seeing": 4379, "\u0120lights": 7588, "\u0120Understanding": 28491, "\u0120OpenGL": 30672, "\u0120Kislyak": 46467, "383": 34741, "\u0120polio": 42664, "807": 36928, "\u0120WARRANT": 34764, "\u0120TMZ": 46800, "\u0120saving": 8914, "SIGN": 46224, "shine": 19489, "\u0120slots": 17314, "atonin": 44248, "ili": 2403, "\u0120Money": 12911, "\u0120Save": 12793, "\u0120Layer": 34398, "\u00e3\u0124\u00a4": 11482, "\u0120tho": 42796, "\u0120660": 41717, "\u0120Hemp": 50060, "\u0120Sandwich": 45000, "ynchronous": 31301, "DI": 17931, "Created": 41972, "\u0120Gate": 12816, "\u0120prophe": 16951, "\u0120superv": 29745, "\u0120requisite": 37088, "ULAR": 37232, "km": 13276, "436": 43690, "\u0120Alice": 14862, "\u0120WP": 28993, "\u0120Kub": 24921, "\u0120Neb": 29837, "\u0120enlarge": 27475, "\u0120tiles": 19867, "\u0120Users": 18987, "Attack": 27732, "\u0120dev": 1614, "\u0120statistically": 19941, "\u0120hydro": 17173, "\u0120irre": 11331, "\u0120Zhang": 19439, "core": 7295, "\u0120output": 5072, "\u0120tactic": 18543, "IDA": 41957, "\u0120Dirk": 42761, "\u0120motors": 24699, "aretz": 48338, "\u0120apartheid": 38264, "\u0120McInt": 39086, "\u01202400": 48548, "\u0120applause": 28445, "\u0120Quote": 19879, "Bon": 20682, "sburg": 30359, "\u0120clearance": 19745, "\u0120325": 29524, "FM": 23264, "\u0120melan": 34963, "mire": 47004, "De": 5005, "Grad": 42731, "\u0120Torn": 31940, "\u0120shields": 21132, "sembly": 5997, "\u0120guiActiveUn": 29372, "\u0120Sett": 41479, "\u0120limestone": 48520, "\u0120outlaw": 23716, "\u01201966": 19322, "Static": 45442, "mort": 30171, "acs": 16436, "\u0120induces": 43614, "479": 31714, "\u0120administrations": 34790, "iper": 9346, "\u0120bass": 12702, "\u0120premise": 18659, "\u0120graph": 4823, "\u0120Alright": 40967, "\u0120Returns": 16409, "ilers": 34393, "\u0120spraying": 40170, "\u0120Smartstocks": 32437, "\u0120amazed": 24562, "247": 23753, "\u0120sighting": 42110, "dead": 25124, "\u0120Dalai": 41180, "\u0120Cedar": 36758, "thinking": 28973, "licted": 17823, "paralle": 37083, "\u0120bends": 44370, "risome": 47400, "Talk": 25685, "fields": 25747, "alions": 50022, "\u0120deliber": 8958, "ward": 904, "\u0120goto": 43197, "\u0120freed": 13459, "\u0120Sno": 42578, "\u0120216": 26881, "\u0120suspected": 9885, "iol": 1669, "\u0120shutdown": 18325, "\u0120169": 27191, "first": 11085, "\u0120veterans": 11255, "oused": 29997, "react": 45018, "\u0120Ost": 38919, "election": 14300, "\u0120Lev": 16042, "\u0120Bac": 35583, "\u0120racked": 41503, "\u0120revert": 34052, "lington": 17299, "\u0120motivations": 28140, "\u0120pretext": 35097, "\u0120Skywalker": 29715, "scribed": 47495, "Contin": 17875, "Magn": 48017, "\u0120date": 3128, "\u0120strengthening": 24175, "\u0120desolate": 50244, "\u0120env": 17365, "\u0120contended": 42397, "\u0120Croatian": 48853, "\u0120rushing": 15795, "ords": 3669, "Scient": 23010, "\u0123\u0138": 45433, "\u0120Tibet": 18910, "\u0120satell": 8983, "\u0120seminars": 44160, "\u0120fences": 35771, "UTH": 24318, "sexual": 18338, "\u0120prescribing": 39973, "\u0120meetings": 8292, "ursor": 21471, "ATOR": 25633, "268": 25022, "Tumblr": 39415, "\u0120necess": 2418, "\u0120SELECT": 33493, "\u0120circling": 43080, "225": 18182, "\u01201989": 11104, "\u0120collapses": 35752, "\u0120Organisation": 30801, "\u0120Lamb": 21114, "\u0120htt": 1841, "\u0120vegetables": 13701, "\u0120Return": 8229, "\u0120Wood": 5326, "show": 12860, "\u0120dinner": 8073, "unning": 16596, "\u0120inhibit": 26776, ":]": 47715, "ologically": 13437, "Rest": 19452, "\u0120never": 1239, "umption": 24098, "Brown": 20644, "\u0120Franco": 22198, "\u0120cover": 3002, "\u0120relay": 24248, "\u0120Derek": 20893, "\u00c1": 125, "\u0120winters": 45764, "oin": 36743, "\u0120($": 7198, "ony": 1647, "\u0120energy": 2568, "\u0120blaming": 24630, "\u0120swallowing": 45590, "\u0120cached": 39986, "\u0120fearsome": 46056, "\u0120tube": 12403, "\u0120outside": 2354, "\u0120Provides": 47081, "failed": 47904, "\u0120transported": 18665, "\u0120kh": 44081, "\u0120pas": 38836, "Phones": 32212, "\u0120organizational": 26564, "orld": 1764, "enton": 26673, ".\u00ef\u00bf\u00bd": 40670, "\u0120Alb": 17399, "AE": 14242, "\u0120inexper": 31830, "\u0120Individual": 18629, "geon": 6281, "\u0120Eaton": 48471, "\u0120ABS": 29950, "\u0120meaningful": 11570, "\u0120broadcast": 7025, "\u0120achie": 3302, "\u0120SPACE": 37253, "\u0120Device": 16232, "\u0120attacking": 9274, "342": 31575, "\u0120salty": 36021, "OWER": 36048, "notes": 17815, "\u0120WM": 30376, "erville": 33487, "\u00f6": 178, "\u0120UID": 25105, "\u0120flight": 5474, "\u0120compan": 2463, "\u0120Unreal": 42536, "\u0120Also": 4418, "\u0120longevity": 28188, "raised": 49309, "\u0120mont": 40689, "\u0120FRI": 48167, "iris": 29616, "\u0120TRE": 43236, "you": 5832, "IJ": 23852, "value": 8367, "uri": 9900, "arie": 49173, "\u0120Ent": 7232, "\u0120appropriations": 35081, "\u0120Older": 35527, "\u0120load": 3440, "\u0120Trump": 1301, "\u01202003": 5816, "\u0120officers": 3790, "\u0120regimes": 25879, "\u0120interrupt": 11313, "\u0120Base": 7308, "\u0120baking": 16871, "xf": 26152, "Looks": 41102, "\u0120dangling": 47270, "ippery": 29530, "reet": 2871, "\u0120hem": 16869, "\u0120populate": 48040, "$.": 35307, "ocalyptic": 28339, "Palest": 32570, "inder": 5540, "\u0120Thai": 18933, "\u0120Dale": 20412, "\u0120Translation": 33322, "ships": 26313, "\u0120worship": 11892, "ICA": 25241, "\u0120see": 766, "363": 35447, "rule": 25135, "\u0120TheNitrome": 42089, "\u0120extingu": 24995, "\u0120........": 20004, "aith": 3921, "\u0120Yesterday": 34668, "\u0120spring": 6076, "\u0120HAVE": 21515, "\u0120Robot": 16071, "\u0120hp": 27673, "\u0120retrieve": 19818, "\u0120recurring": 24824, "aur": 2899, "\u00e3\u0125\u012d": 30165, "\u0120effectively": 6840, "\u0120entertainment": 9739, "\u0120migrant": 23088, "785": 41172, "\u0120Pos": 18574, "\u0120Ivy": 27386, "\u0120Bonnie": 39203, "encia": 29634, "antly": 3875, "\u0120iso": 47279, "Former": 14282, "\u0120mint": 21043, "\u0120shield": 7614, "\u0120202": 22131, "\u0120Joan": 26640, "\u0120Diego": 9500, "\u0120Dusk": 42553, "OTHER": 31858, "Hyper": 38197, "\u0120UCHIJ": 39253, "Cooldown": 45953, "\u0120evangelical": 26477, "\u0120Samantha": 34778, "ritic": 46015, "Har": 13587, "\u0120unintended": 30261, "\u0120Nikki": 34108, "Stan": 32140, "\u0120Dimension": 34024, "\u0120Event": 8558, "\u0120Setup": 31122, "\u0120toured": 44035, "Enh": 35476, "stitial": 18167, "adra": 49456, "inct": 4612, "Home": 16060, "\u0120Luo": 25956, "Nazi": 31343, "\u0120petty": 25229, "\u0120Wrath": 28258, "cells": 46342, "\u0120repressive": 44430, "His": 6653, "\u0120inept": 43891, "\u0120cipher": 38012, "Send": 25206, "\u0120conced": 15096, "\u0120Permanent": 36814, "\u0120Rican": 44459, "Cap": 15610, "\u0120feedback": 7538, "\u0120mill": 3939, "\u0120Dept": 28786, "\u0120tx": 27765, "basic": 35487, "\u0120executing": 23710, "\u0120painfully": 32258, "ipe": 3757, "lights": 8091, "\u0120wealthier": 49311, "llo": 18798, "\u0120carving": 39510, "\u0120Neal": 29189, "\u0120devote": 24103, "\u0120Scythe": 45227, "ference": 4288, "\u0120Conditions": 27617, "354": 32182, "iveness": 6517, "\u0120skewed": 37543, "session": 29891, "\u0120Brooklyn": 12232, "\u0120Comp": 3082, ")-": 13219, "\u0120retweet": 38814, "\u0120Madness": 24452, "\u0120Democr": 2459, "\u0120To": 1675, "\u0120spray": 11662, "\u0120prep": 3143, "\u0120Gear": 10740, "YING": 45761, "\u0120somet": 1054, "\u0120Butt": 36041, "leys": 21325, "brand": 17938, "\u0120French": 4141, "\u0120wastewater": 42073, "\u0120discovering": 21611, "\u0120jeans": 21029, "\u0120skilled": 14297, "idia": 38513, "conservative": 43218, "urances": 31741, "root": 15763, "\u0120assassinate": 48327, "\u0120rear": 8286, "\u0120trigger": 7616, "\u0120velocity": 15432, "Saharan": 40461, "\u0120recreational": 18136, "Callback": 47258, "filename": 34345, "Che": 7376, "Hor": 27991, "\u0120Tiger": 17030, "\u0120Poss": 29265, "\u0120Nichols": 38403, "/**": 35343, "\u0120combust": 27500, "\u0120Marxism": 30634, "\u0120turbulent": 42291, "\u0120debut": 8886, "\u0120full": 1336, "\u0120attached": 7223, "\u0120crabs": 49172, "\u0120nomination": 11872, "\u0120Email": 9570, "\u0120starved": 47224, "\u0120apart": 5475, "\u0120Gallery": 12917, "utonium": 43078, "\u0120monet": 32153, "particip": 48013, "np": 37659, "\u0120thankfully": 36308, "\u0120withhold": 34224, "fp": 46428, "ithing": 44556, "\u0120supplemental": 34885, "\u0120unveil": 43784, "\u0120bind": 11007, "REG": 31553, "\u0120FEC": 44612, "\u0120Guns": 20423, "\u0120Brown": 4373, "\u0120Nazi": 12267, "raphic": 22262, "\u0120ceremonial": 39490, "AGES": 25552, "endix": 19573, "Fri": 30214, "\u0120collaps": 10777, "\u0120anything": 1997, "\u0120Storm": 8865, "\u0120imag": 3590, "\u0120normative": 46219, "'m": 1101, "\u012a": 230, "\u00e6\u012a\u00a6": 36704, "Ark": 42007, "adjusted": 29117, "\u0120completes": 32543, "owed": 6972, "\u0120OLED": 47463, "\u0120Od": 10529, "\u0120legally": 11119, "\u0120stainless": 25704, "\u0120lanes": 15296, "\u0120supplying": 28099, "\u00e2\u0122\u0137": 31857, "ean": 11025, "Unt": 35792, "INTON": 46812, "erous": 48411, "atters": 34387, "\u0120apprentices": 38523, "\u0120gateway": 24308, "\u0120Cory": 28785, "\u0120thereof": 15370, "mart": 13822, "\u0120refugees": 8015, "imoto": 43354, "\u0120principle": 7989, "\u0120Messenger": 24306, "owe": 47097, "\u0120Float": 48436, "\u0120mentally": 14946, "To": 2514, "write": 13564, "\u0120managerial": 43747, "Marsh": 41984, "\u0120Miguel": 29825, "\u0120Resistance": 17363, "159": 19707, "Nit": 33772, "\u0120scattered": 16830, "\u0120tablespoon": 33107, "\u0120Bas": 6455, "uve": 45177, "RS": 6998, "\u0120bully": 27410, "\u0120hates": 24702, "\u0120Unloaded": 25926, "\u0120Zucker": 27629, "Seeing": 36314, "\u0120pomp": 49435, "\u0120percentages": 28071, "density": 43337, "hod": 2065, "987": 44183, "\u0120shines": 32481, "\u0120nascent": 45419, "\u0120Coco": 48222, "\u0120hypers": 45086, "\u0120equivalents": 40255, "\u0120Peer": 41139, "keyes": 43174, "Ben": 11696, "\u0120Sit": 21131, "\u0120webcam": 49823, "\u0120Tosh": 47922, "\u0120chocolate": 11311, "\u0120Gamergate": 37337, "fold": 11379, "\u0120fading": 31465, "\u0120Dear": 23420, "\u0120cyclist": 34632, "\u0120McLaren": 33017, "\u0120(&": 35494, "\u0120Hayes": 25109, "last": 12957, "\u0120Pione": 27507, "\u0120rainy": 37259, "laun": 38722, "emp": 45787, "\u0120frantically": 42352, "\u0120Army": 5407, "\u0120disk": 11898, "\u0120Race": 12588, "\u0120following": 1708, "protected": 24326, "\u0120Yuan": 34071, "\u0120brutal": 12399, "\u0120taxp": 9065, "\u0120Lars": 31239, "\u0120Mom": 11254, "uber": 18478, "\u0120neglect": 17985, "\u0120drummer": 34269, "\u0120evil": 6181, "\u0120oats": 47009, "\u0120viewers": 10209, "rowd": 3986, "Elizabeth": 43568, "\u0120protect": 1805, "\u0120pars": 13544, "\u0120Poland": 12873, "\u0120Min": 1855, "\u0120frontal": 30424, "\u0120trope": 32463, "\u0120socio": 21790, "\u0120sacrament": 49081, "elaide": 25078, "amoto": 25384, "source": 10459, "float": 22468, "athering": 25545, "Capital": 39315, "Learn": 20238, "\u00e2\u0126\u00a2:": 41333, "\u0120qualifications": 24751, "accompan": 41974, "\u0120Property": 14161, "Examples": 27730, "arag": 29967, "\u0120adj": 9224, "ai": 1872, "orable": 10475, "\u0120gul": 47161, "\u0120Logan": 22221, "gru": 48929, "\u0120campaigner": 47219, "\u0120Triangle": 33233, "\u0120NAACP": 39829, "\u0120rice": 11464, "\u0120jugg": 24873, "rou": 472, "\u0120unique": 3748, "\u0120Kate": 16693, "aim": 1385, "Human": 20490, "258": 25600, "\u0120Tad": 50077, "\u0120Java": 7349, "\u0120dysph": 50111, "\u0120illuminating": 46717, "content": 11299, "nav": 28341, "\u0120brim": 49943, "Fox": 19399, "\u0120end": 886, "OUT": 12425, "compliance": 47587, "\u0120relegated": 36391, "\u0120omitted": 22532, "Types": 31431, "\u0120ratio": 8064, "\u0120Notes": 11822, "oresc": 45166, "aped": 5813, "\u0120Lic": 10483, "Repe": 47541, "\u0120QU": 19604, "\u0120composing": 49760, "\u0120dreaded": 39229, "ategic": 47917, "\u0120Parks": 20604, "balls": 21591, "\u0120sums": 21784, "\u0120Priority": 34416, "\u0120Ker": 17337, "\u0120Poc": 39375, "\u0120stacks": 24285, "Authorities": 28705, "\u0120Barber": 35338, "\u0120warrants": 23070, "\u0120dem": 1357, "\u0120NEC": 41804, "\u0120Swedish": 14023, "\u0112": 206, "DERR": 49643, "ipped": 3949, "*.": 24620, "\u0120Brus": 15507, "ML": 5805, "rane": 14579, "||": 15886, "178": 23188, "Three": 12510, "Parameters": 48944, "andon": 5063, "\u0120Molecular": 38275, "\u0120padd": 14098, "apolis": 11174, "\u0120continental": 29843, "Rain": 31443, "markets": 34162, "\u0120crippling": 37953, "\u0120seasons": 7028, "\u0120LO": 17579, "\u0120Ren": 7152, "\u0120powerfully": 48745, "\u0120factors": 5087, "\u0120dict": 8633, "\u0120daily": 4445, "search": 12947, "\u0120Gob": 16909, "\u0120vim": 43907, "weather": 23563, "\u0120fruition": 41675, "icone": 27981, "\u0120Throne": 28419, "\u0120surname": 40358, "\u0120fill": 6070, "Traditional": 48485, "inness": 32990, "\u0120immediately": 3393, "anny": 7737, "Aug": 12512, "wine": 39002, "\u0120exercising": 25352, "\u0120dread": 15157, "\u0120McCl": 23780, "\u0120intermitt": 30598, "\u0120noticeably": 33752, "animous": 45873, "\u0120Gina": 43002, "\u0120vortex": 42726, "\u0120delightful": 32327, "\u0120generosity": 31569, "avor": 5570, "img": 9600, "\u0120Funds": 34068, "\u0120tuber": 35813, "gun": 7145, "orted": 9741, "\u0120Sith": 26455, "\u0120outrageous": 23077, "\u0120startups": 21685, "uy": 4669, "estones": 30637, "\u0120eliminated": 15254, "\u0120Predator": 38871, "\u0120Students": 14882, "oss": 793, "\u0120Kart": 32872, "\u0120soul": 5848, "\u0120Khan": 11356, "\u0120leap": 16470, "\u0120appliances": 29834, "emaker": 32174, "\u0120caster": 31680, "\u0120joining": 9679, "\u0120gene": 9779, "\u0120ignite": 44794, "Faith": 45536, "omination": 27744, "\u0120Grow": 26936, "\u0120rappers": 50233, "\u0120highs": 28227, "\u0120safety": 3747, "\u0120account": 1848, "\u0120shuts": 44854, "\u0120numer": 5470, "\u0120hrs": 36201, "\u00a4": 97, "\u0120soccer": 11783, "riber": 24735, "\u0120substr": 47294, "HT": 6535, "\u0120ECB": 36285, "\u0120glands": 42093, "ING": 2751, "\u0120Citiz": 12662, "actory": 9548, "\u0120disappearing": 28867, "abilia": 48249, "\u0120landmarks": 41532, "exec": 18558, "elling": 9417, "\u0120exasper": 41851, "\u0120istg": 36940, "normal": 11265, "ol": 349, "\u012028": 2579, "\u0120Crypt": 15126, "\u0120finite": 27454, "\u0120Tyler": 14886, "\u0120Precision": 39281, "nox": 35420, "\u0120HOUSE": 46586, "product": 11167, "\u0120Roberto": 32076, "\u0120interfered": 46414, "\u0120Extended": 24204, "\u0120sim": 985, "actual": 50039, "Ruby": 32101, "\u0120Meet": 21167, "IER": 38311, "ry": 563, "lly": 12810, "\u0120Socket": 47068, "\u0120Newspaper": 49598, "\u0120PID": 37022, "Middle": 34621, "bye": 16390, "VID": 11008, "\u0120inserted": 18846, "\u0120Droid": 46546, "argon": 37920, "necessary": 49986, "roit": 7775, "\u0120anthem": 24577, "\u0120HT": 7154, "\u0120copyright": 6634, "\u0120Darling": 49825, "\u0120DOJ": 27055, "\u0120Julio": 48273, "oiler": 20837, "\u0120NEWS": 28840, "\u0120TNT": 42490, "gpu": 46999, "\u0120299": 31011, "\u0120unanimous": 28085, "Ask": 25214, "ik": 1134, "\u0120Alzheimer": 22434, "\u0120unethical": 38486, "\u0120bolted": 49647, "\u0120proble": 1369, "\u0120parking": 7647, "\u0120expanded": 9902, "453": 36625, "\u0120Side": 12075, "\u00e0": 156, "\u0120Eagles": 13785, "oppable": 35628, "\u0120neighbor": 4780, "\u0120absorbed": 19233, "\u0120Address": 17917, "\u0120dies": 10564, "uration": 3924, "\u0120statement": 2643, "\u0120secular": 14589, "conserv": 38925, "\u0120restored": 15032, "\u0120scarcity": 35501, "\u0120denounce": 38639, "\u0120KE": 47134, "ordes": 35770, "\u0120Sinai": 33745, "\u0120Contrast": 47011, "\u0120sustain": 8080, "\u0120glac": 25169, "dk": 34388, "\u0120Dou": 5728, "\u0120earnings": 12042, "\u0120regress": 50252, "PLA": 45710, "\u0120isol": 7010, "ongevity": 25454, ".\")": 19570, "\u0120attraction": 17416, "\u0120bount": 49937, "\u0120Gaga": 42192, "\u0120Persian": 22035, "\u0120connections": 8787, "\u0120STATE": 35454, "\u0120MSNBC": 22128, "\u0120Nim": 27168, "\u0120summoning": 40292, "\u0120sucked": 25669, "\u0120unbeliev": 20554, "Interview": 39945, "\u0120assassinated": 39981, "\u0120Prol": 44157, "\u0120overwhelming": 9721, "\u0120purposes": 4959, "\u0120frying": 45366, "\u0120GAME": 30517, "\u0120Orth": 47664, "\u0120Carnegie": 33976, "\u0120VT": 32751, "ag": 363, "\u0120engineering": 8705, "\u0120Showtime": 47908, "\u0120ms": 13845, "\u0120upbringing": 40678, "\u0120backing": 12285, "\u0120discovered": 5071, "Development": 41206, "aryl": 36822, "\u0120$": 720, "omi": 12753, "\u012000": 3571, "\u0120Juice": 35161, "\u0120Creek": 13509, "\u0120cloak": 24117, "Turkey": 31632, "\u0120Rising": 17658, "\u0120ammunition": 14271, "bo": 2127, "\u0120incredible": 8082, "hz": 32179, "\u0120Anniversary": 21967, "ovies": 20526, "\u0120reservoirs": 46637, "drops": 49253, "keeping": 19934, "sung": 9854, "children": 17197, "\u0120profession": 7573, "USH": 27143, "\u0120hint": 9254, "\u0120Bloom": 11891, "\u0120tournaments": 18130, "\u0120Erd": 16455, "bis": 41907, "\u0120{\"": 19779, "\u0120Tags": 44789, "\u0120skysc": 37885, "\u0120Queens": 14045, "\u0120consumption": 7327, "OSED": 48751, "\u0120wedge": 35901, "white": 11186, "\u0120ranking": 12759, "\u0120gritty": 39679, "Oregon": 41243, "pp": 381, "\u0120Snake": 16705, "\u0120Invest": 7488, "\u0120Revenge": 24366, "\u00c4\u0129": 38325, "AG": 4760, "\u0120equipped": 10911, "\u0120369": 45620, "\u0120agitation": 42209, "ainer": 10613, "\u0120IDs": 32373, "saving": 29336, "\u00d6\u00bc": 47903, "\u0120continued": 3767, "\u0120Tobacco": 28603, "\u0120unusual": 8468, "\u0120Rein": 22299, "\u0120rig": 7805, "\u0120shrouded": 50197, "\u0120remark": 6919, "\u0120migration": 13472, "\u0120Sorry": 19061, "\u0120commitments": 19405, "\u0120buff": 6940, "\u00e8\u00a1": 26193, "\u0120accredited": 37237, "estial": 21711, "\u0120nick": 14428, "/(": 29006, "\u0120Hutch": 30492, "\u0120Federal": 5618, "\u0120Univers": 26986, "TX": 29551, "\u0120lodging": 42906, "rip": 5528, "\u0120Palm": 18358, "\u0120Flex": 26719, "\u0120nonprofit": 15346, "Includes": 42986, "\u0120True": 6407, "\u0120vs": 3691, "\u0120commodity": 19464, "\u0120bomb": 5194, "\u0120subsequent": 8840, "qu": 421, "LL": 3069, "\u0120reward": 6721, "Fest": 45139, "\u0120mist": 4020, "despite": 41081, "Native": 31272, "\u0120Dupl": 49821, "\u0120Ave": 12761, "\u0120treadmill": 49246, "\u0120Door": 19821, "\u0120Andersen": 42356, "\u0120enabling": 15882, "research": 34033, "\u0120CLA": 47666, "\u0120people": 661, "\u0120versions": 6300, "\u0120vowed": 19982, "Wik": 33010, "ahan": 19210, "tti": 35671, "\u00e6\u013f": 30266, "\u0120Franklin": 14021, "\u0106": 194, "Stone": 34346, "\u0120licensing": 15665, "Pok\u00c3\u00a9mon": 46602, "\u0120Reborn": 37612, "\u0120disclosure": 13019, "\u0120unex": 8522, "aft": 14940, "parts": 42632, "\u0120Sham": 27957, "\u0120Worldwide": 33140, "\u0120Mayhem": 35450, "dro": 22285, "\u0120DOWN": 30320, "\u0120Fiction": 26756, "minecraft": 17761, "\u00e3\u0127\u012d": 35098, "\u0120annotation": 23025, "ending": 1571, "\u0120nightly": 37862, "\u0120flu": 6562, "\u0120Mex": 4413, "\u0120Ci": 37685, "esters": 8586, "%,": 7441, "ternal": 4358, "\u0120168": 23378, "allows": 47205, "58": 3365, "\u0120Headquarters": 32193, "\u0120stuck": 7819, "\u0120boolean": 25131, "\u0120punching": 29044, "ga": 4908, "\u0120Corporation": 10501, "amina": 18891, "\u0120SOC": 31430, "\u0120divisive": 29656, "\u0120irrelevant": 18046, "\u0120DeVos": 39503, "bly": 36874, "\u0120cars": 5006, "adies": 50192, "\u0120achievable": 47729, "sofar": 38649, "\u0120outl": 41528, "\u0120Which": 9022, "\u0120accus": 10458, "\u0120Wheel": 15810, "\u0120weighted": 26356, "\u0120prefrontal": 43118, "\u0120Sov": 6917, "proven": 42874, "Adams": 47462, "ounded": 6302, "\u0120Const": 4757, "ress": 601, "\u0120Bros": 14266, "\u0120Bread": 28731, "\u0120Irwin": 48470, "ged": 2004, "\u0120jail": 7356, "ptroller": 44913, "\u0120Kis": 30519, "\u0120Manual": 17969, "AC": 2246, "\u0120cons": 762, "adic": 23876, "\u0120MSI": 30781, "\u0120Detroit": 8488, "\u0120rapt": 38404, "\u0120Merch": 34414, "ising": 1710, "\u0120macros": 34749, "\u0120Jas": 21961, "gob": 44270, "\u0120Brighton": 33193, "\u0120bushes": 37413, "\u0120fungus": 39526, "All": 3237, "enforcement": 44976, "\u0120stalking": 34683, "cgi": 37157, "\u0120rede": 21459, "\u0120specially": 20905, "\u0120Walking": 21276, "FX": 17213, "ohl": 48988, "\u0120tokens": 16326, "Econom": 28489, "\u0120disobedience": 42366, "\u0120Substance": 50021, "\u0120REC": 19644, "\u0120convinc": 15609, "\u0120artisan": 43259, "\u0120shattered": 23273, "\u0120spawn": 10922, "\u0120frequencies": 19998, "\u0120Prior": 14481, "\u0120fools": 37323, "\u0120Month": 16061, "\u0120racial": 8425, "***": 8162, "\u0120Collins": 14006, "four": 14337, "Florida": 31135, "enz": 19471, "\u0120Decker": 47170, "\u0120mic": 12314, "\u0120beautiful": 4950, "\u0120mafia": 44371, "\u012046": 6337, "comfort": 21598, "\u0120transactions": 8945, "\u0120archaic": 40435, "\u0120Meta": 30277, "\u0120recipe": 8364, "\u0120Stern": 22990, "\u0120Implementation": 46333, "\u0120Guest": 22358, "\u0120Ends": 46756, "Exactly": 47173, "Ha": 23303, "\u0120YEAR": 32914, "\u0120cooker": 37171, "\u00e5\u0129": 49035, "\u0120multiplication": 48473, "\u0120Airlines": 16712, "Measure": 47384, "\u0120Garn": 30937, "600": 8054, "\u0120Reid": 16095, "Saturday": 19844, "\u0120predic": 41219, "\u0120revered": 37184, "279": 26050, "\u0120managers": 11663, "\u0120corpus": 35789, "\u0120Jackets": 41324, "\u0120Bans": 39535, "liter": 17201, "\u0120ranged": 17929, "\u0120Donna": 29216, "\u0120encoding": 21004, "\u0120Artist": 18902, "\u0120prefers": 26237, "\u0120dors": 37650, "\u0120separation": 14139, "\u0120Beam": 25855, "haven": 39487, "\u0120(+": 11502, "\u0120traction": 23692, "aled": 3021, "\u0120CF": 18551, "\u0120Norwegian": 22158, "packages": 43789, "\u0120ambient": 25237, "mix": 19816, "\u0120vines": 44439, "\u0120meteor": 19999, "\u0120Oswald": 34374, "\u0120amplitude": 37188, "\u0120Wild": 6183, "Australian": 38036, "\u0120Beaver": 42746, "\u0120attribut": 24548, "405": 26598, "FUN": 42296, "\u0120utilizing": 25137, "\u0120toe": 21189, "lene": 29466, "ractions": 37810, "\u0120rarely": 8365, "4": 19, "\u0120emphasizes": 31648, "\u0120allev": 23863, "Staff": 31449, "\u0120headed": 9153, "\u0120wholesale": 24005, "\u0120squeezing": 40237, "\u0120robbing": 47162, "\u0120Lei": 48579, "\u0120occurring": 14963, "cooked": 46591, "494": 39449, "\u0120clay": 21558, "\u0120wells": 22571, "onda": 13533, "\u0120nod": 18666, "\u0120subsc": 5294, "Desktop": 36881, "taining": 7339, "\u0120antidepressant": 41897, "ampions": 4350, "uga": 30302, "\u0120dumped": 24105, "\u0120predomin": 15960, "ivable": 21911, "\u0120momentum": 12858, "\u0120jihadists": 31395, "ignt": 16891, "Impro": 23028, "Cause": 42323, "\u0120register": 7881, "Remote": 36510, "674": 45385, "\u0120Wa": 15329, "=>": 14804, "\u01201969": 16450, "\u0120kindly": 26820, "\u0120possession": 7797, "\u0120collagen": 45452, "654": 39111, "\u0120fruit": 8234, "\u0120geop": 30324, "\u0120handic": 29103, "\u0120Folk": 36111, "\u0120claimants": 47841, "\u0120Surviv": 19455, "\u0120gorilla": 45314, "\u0120Maduro": 33007, "\u0120Policies": 42283, "\u0120Commons": 13815, "\u0120shoots": 20611, "\u0120fragrance": 36860, "\u0120Wilkinson": 46463, "\u0120Coach": 16393, "vious": 1442, "arling": 30045, "\u0120equ": 1602, "Police": 9039, "\u0120tunnel": 13275, "\u0120engineered": 23371, "\u0120oust": 50151, "\u0120include": 2291, "Look": 8567, "assert": 30493, "Blue": 14573, "\u0120bars": 9210, "\u0120sugg": 1947, "\u0120misdemeanor": 22403, "approximately": 47498, "ilibrium": 24741, "CD": 8610, "time": 2435, "\u0120hysteria": 38893, "\u0120960": 41263, "\u0120Management": 8549, "\u0120proposed": 5150, "Fax": 46512, "Add": 4550, "\u0120Holden": 43393, "\u0120Men": 6065, "Override": 37961, "\u0120Fees": 37691, "\u0120Hastings": 38330, "\u0120oxid": 18762, "\u01201890": 31982, "\u0120captures": 23007, "\u0120mult": 1963, "burst": 31961, "\u0120quarterbacks": 23643, "\u0120exploration": 13936, "\u0120underway": 17715, "\u0120Scots": 33860, "respective": 36990, "\u0120Fuji": 43694, "\u0120karma": 31789, "anyon": 21330, "FC": 4851, "\u0120Defin": 29589, "\u0120needed": 2622, "Frames": 35439, "\u0120regener": 16935, "\u0120Kaine": 37193, "\u0120enemies": 5775, "friends": 36154, "\u0120antigen": 50059, "\u0120Tig": 14189, "\u0120candy": 18550, "\u0120Citizen": 22307, "partial": 47172, "Companies": 49111, "\u0120learns": 22974, "Otherwise": 48059, "\u0120veto": 18860, "\u0120Achieve": 29027, "\u0120Escape": 14473, "\u0120Plague": 35236, "oeuv": 37600, "\u0120Akira": 46910, "\u0120106": 15696, "zinski": 46394, "\u0120saga": 26784, "\u0120past": 1613, "yellow": 36022, "\u0120Charles": 7516, "\u0120domest": 26026, "\u0120fine": 3734, "\u0120Elon": 32451, "\u0120took": 1718, "Canadian": 28203, "\u0120could": 714, "cluded": 10341, "Past": 34533, "ky": 2584, "nic": 6988, "\u0120Devi": 47509, "\u0120Harris": 10026, "\u0120Sultan": 37399, "\u0120Consumer": 18110, "\u0120Caf": 35046, "\u0120Curse": 19739, "\u0120instr": 6480, "\u0120Mets": 26053, "\u0120Upload": 36803, "\u0120ghost": 10905, "\u0120oscill": 24969, "\u0120histories": 25985, "itialized": 13562, "\u0120rupture": 46836, "\u0120upward": 18644, "\u0120needs": 2476, "asuring": 45925, "lying": 3157, "ighters": 6261, "\u0120spit": 27591, "\u0120building": 2615, "\u0120Alchemy": 43987, "\u0120mechan": 3962, "\u0120squared": 44345, "bro": 7957, "Captain": 27898, "\u0120BU": 20571, "forced": 12072, "ounter": 6828, "\u0120decidedly": 32343, "\u0120Middle": 6046, "\u0120Chapter": 7006, "ibur": 38616, "\u0120lungs": 21726, "aldehyde": 44895, "odan": 45561, "\u0120Firearms": 32389, "Gar": 27676, "hot": 8940, "ickle": 39423, "\u0120McCann": 48309, "\u0120Barkley": 45408, "Wa": 33484, "OA": 23621, "\u0120Schools": 20357, "\u0120journals": 22790, "\u0120Huffington": 23807, "andi": 26800, "\u0120bru": 18145, "\u0120Traps": 44110, "Spl": 26568, "ril": 22379, "\u0120Nieto": 49783, "axies": 25472, "\u0120director": 3437, "\u0120Horowitz": 47591, "Introduction": 21906, "\u0120magically": 34850, "OH": 12096, "\u0120Scores": 44654, "\u0120leadership": 5531, "\u0120runes": 32326, "ipal": 8521, "\u0120Spider": 12648, "lan": 9620, "git": 18300, "\u0120optical": 18480, "\u0120flexibility": 13688, "\u0120Squid": 48799, "\u0120vo": 7608, "assad": 30178, "\u0120diagnose": 37489, "\u0120protagonist": 20281, "\u0120Surprisingly": 47183, "\u0120fighting": 4330, "\u0120transplant": 23319, "writers": 34422, "\u0120Starship": 40172, "\u0120depicts": 28539, "\u0120excellent": 6275, "\u00e5\u0132": 28938, "\u0120NL": 22879, "\u0120Son": 6295, "\u0120deferred": 28651, "\u0120dopamine": 26252, "\u0120spokeswoman": 12262, "\u0120king": 5822, "\u0120Palestinians": 12890, "\u0120shone": 44193, "uckland": 28789, "\u0120consensus": 11529, "\u0120ramifications": 36093, "Improve": 47531, "mittedly": 43011, "\u0120disgu": 17360, "\u0120Caroline": 29037, "\u0120somewhere": 7382, "Zip": 41729, "\u0120Ru": 11667, "Accept": 38855, "\u0120Gets": 29620, "ureau": 6262, "\u0120Louisville": 21525, "\u0120PK": 29673, "\u0120agency": 4086, "\u0120microbiota": 42784, "clone": 21018, "istics": 3969, "Nothing": 18465, "\u0120nav": 6812, "\u0120Guan": 42305, "anuts": 37555, "\u0120Monument": 33075, "\u0120perimeter": 25317, "());": 35430, "\u0120TEXT": 40383, "\u0120Religion": 21741, "\u0120redesigned": 36240, "edes": 37507, "\u0120Manufact": 17858, "\u0120floods": 27283, "Pop": 16979, "\u0120Woman": 14381, "civil": 37636, "\u0120Chart": 22086, "\u0120consolation": 45194, "\u0120Viktor": 31096, "ouncing": 18155, "ampoo": 40239, "DOC": 38715, "\u0120Chick": 31939, "herent": 8334, "\u0120Indo": 40136, "\u00e3\u0123\u00a8": 30201, "\u0120lease": 15278, "\u0120outcome": 8055, "\u0120bathing": 39153, "\u0120festivities": 42735, "\u0120overc": 25676, "\u0120kilograms": 37075, "\u0120Voltage": 45444, "\u0120repentance": 45893, "Content": 19746, "\u0120hypocritical": 45259, "osis": 5958, "Austin": 40245, "\u0120sk": 1341, "\u0120confused": 10416, "\u0120tyrann": 44315, "\u0120Amazing": 23181, "\u0120politician": 14971, "\u0120shorth": 39147, "\u0120const": 1500, "\u0120sold": 2702, "\u0120intruder": 48927, "Collins": 49645, "\u0120chronic": 10726, "\u0120rook": 10929, "\u0120jo": 2525, "199": 19104, "\u0120confounding": 43849, "\u0120LIVE": 28323, "\u00bb\u0134": 36596, "\u0120replaced": 6928, "\u0120Eps": 43427, "\u0120El": 2574, "\u0120Valentine": 23078, "\u0120Pump": 23220, "Sen": 10445, "\u0120namely": 14811, "\u0120Commit": 35910, "cca": 13227, "\u0120be": 307, "assment": 45312, "\u0120payments": 7524, "\u0120compassion": 15213, "\u0120enc": 2207, "\u0120prejudice": 20226, "\u0120dissatisfaction": 41393, "\u0120Contracts": 49199, "Deploy": 49322, "\u0120Gohan": 45281, "\u0120Sean": 11465, "Romney": 42184, "olicy": 21424, "ription": 2918, "ihar": 38405, "VERTISEMENT": 18679, "\u0120All": 1439, "\u0120amusing": 28297, "\u0120participated": 14888, "Bloomberg": 47696, "omb": 2381, "041": 50049, "\u0120smashing": 35233, "\u0120dispar": 14455, "896": 48712, "\u0120gestation": 47110, "\u0120Dynamic": 26977, "\u0120initiation": 30122, "\u0120enigmatic": 48584, "\u0120exec": 2452, "Love": 18565, "\u0120stretching": 20880, "\u0120dracon": 27733, "\u0120panic": 13619, "Bear": 36352, "\u00c3\u0143a": 29690, "\u0120Jesus": 5803, "\u0120offline": 18043, "\u0120Linda": 21776, "\u0120ambiguity": 33985, "\u0120Polo": 49341, "\u0120Fore": 4558, "\u0120Generation": 16588, "adier": 38868, "\u0120omega": 37615, "\u0120parse": 21136, "\u0120lovers": 20175, "\u0120Airbnb": 35079, "\u0120Authority": 11416, "\u0120mates": 27973, "\u0120downfall": 38041, "\u0120manufactures": 46306, "\u0120propaganda": 11613, "\u0120enriched": 35601, "Acknowled": 39482, "\u0120Unless": 17486, "lust": 38878, "iov": 16664, "liam": 5058, "\u0120refriger": 19866, "\u0120Ai": 38230, "\u0120you": 345, "clipse": 17043, "security": 12961, "\u0120PLoS": 49832, "\u0120segreg": 32301, "making": 8601, "\u0120incentives": 16538, "\u0120chew": 34722, "\u0120answered": 9373, "fy": 24928, "\u0120Chicken": 16405, "\u0120Jama": 21661, "igon": 37107, "\u0120cav": 22357, "uebl": 45749, "\u0120Pil": 12693, "urch": 2575, "\u0120CNN": 8100, "\u0120Protective": 45004, "itbart": 17868, "otor": 20965, "\u0120React": 21492, "\u0120psychedel": 27477, "\u0120Classes": 38884, "click": 12976, "\u0120rankings": 16905, "humane": 44766, "\u0120Tribal": 40980, "\u0120extraordinary": 11359, "ophe": 43852, "\u0120scene": 3715, "\u0120weaker": 17642, "berger": 21041, "uffer": 13712, "\u0120financial": 3176, "\u0120Maid": 28454, "\u0120lightning": 14357, "\u0120imaginary": 26726, "\u0120Zion": 16899, "ucker": 12603, "\u0120Baghd": 18706, "\u0120Roche": 47765, "\u0120doctors": 7519, "\u0120Electric": 13944, "Stand": 15480, "Johnson": 25378, "san": 12807, "\u0120mammals": 23426, "\u0120diploma": 41220, "\u0120regiment": 34792, "\u0120hypertension": 37454, "\u0120Toro": 42952, "\u0120Sok": 37641, "\u0120jet": 12644, "\u0120Journal": 4913, "\u0120fiction": 10165, "\u0120Expansion": 25042, "\u0120havens": 47450, "\u0120ceremony": 10542, "\u0120Stephanie": 26085, "KA": 25123, "Est": 22362, "Johnny": 44960, "\u0120fright": 12773, "\u0120notch": 29838, "chev": 49916, "\u0120generator": 17301, "\u0120tex": 48659, "\u0120435": 42671, "\u0120euros": 21138, "\u0120accusation": 25984, "\u0120reader": 9173, "\u0120facult": 45101, "\u00e6\u00a9\u0141": 49960, "\u0120manually": 14500, ".'\"": 11496, "\u0120ceremonies": 27340, "\u0120Sta": 44919, "March": 16192, "User": 12982, "\u0120hugging": 46292, "\u0120condition": 4006, "\u0120laugh": 6487, "possibly": 39363, "Apart": 39182, "ato": 5549, "Until": 18273, "\u0120GDDR": 50092, "595": 35124, "\u0120Very": 9576, "687": 39925, "\u0120SATA": 35070, "\u0120decentralized": 26512, "\u0120snapshots": 47787, "Crime": 45580, "\u0120Pakistan": 7648, "\u0120pirates": 27516, "urden": 42568, "\u0120Britons": 43310, "irens": 42917, "\u0120Watt": 30263, "\u0120individuality": 48960, "AMD": 28075, "hyp": 36362, "\u0120Noon": 41035, "arton": 41328, "supp": 18608, "\u0120drain": 14782, "\u0120ISBN": 32429, "\u0120START": 33303, "\u0120occupation": 13755, "\u0120docker": 36253, "\u0120Protocol": 20497, "\u0120Snapdragon": 39508, "\u0120Subtle": 47419, "\u0120acron": 33898, "sted": 30679, "\u0120tribunal": 30105, "\u0120crus": 25164, "\u0120surely": 10403, "\u0120psychological": 10590, "\u0120numeric": 35575, "\u0120revital": 32951, "Lev": 32163, "\u0120intercourse": 22409, "CU": 43633, "\u0120RAND": 46920, "\u0120Glen": 20716, "\u0120falsely": 24566, "\u0120president": 1893, "(\"": 7203, "Malley": 33776, "\u0120implied": 17142, "Bo": 16635, "\u0120accessory": 28207, "Minimum": 44046, "95": 3865, "nant": 22057, "\u0120creditors": 29714, "\u0120translations": 25231, "585": 38905, "wh": 1929, "CI": 25690, "ispers": 27148, "\u0120Intake": 48885, "\u0120mainland": 22779, "\u0120oy": 35104, "blue": 17585, "\u0120wil": 39716, "\u0120Kraken": 43392, "\u0120crypto": 21473, "\u0120kn": 638, "AT": 1404, "kos": 46150, "\u0120redund": 22916, "\u0120chairs": 18791, "KING": 37286, "\u0120colleges": 15273, "\u0120filmmaker": 26479, "\u0120unsus": 39391, "west": 7038, "\u0120revived": 28910, "Whether": 15354, "\u0120spiral": 23642, "ern": 1142, "\u0120carniv": 41919, "\u0120of": 286, "VA": 11731, "\u0120challenging": 9389, "\u00e3\u0125\u0126": 41115, "\u0120erroneous": 35366, "\u0120PRE": 22814, "ITT": 22470, "pie": 21749, "\u0120warmer": 23254, "\u0120Founders": 45812, "7601": 42752, "ESH": 44011, "\u0120yells": 42675, "pool": 7742, "\u0120jacket": 15224, "\u0120Ideally": 40067, "\u0120relief": 8259, "\u0120Phone": 14484, "\u0120partnership": 10413, "\u0120awoken": 43532, "around": 14145, "Active": 13739, "\u0120dried": 16577, "ILA": 47164, "\u0120destructive": 17656, "amura": 37324, "scrib": 40075, "\u0120Ezra": 36999, "Chelsea": 41053, "\u0120recall": 10014, "\u0120refill": 47539, "q": 80, "\u0120Curtis": 25157, "\u0120increased": 3220, "\u0120disturbing": 14851, "\u0120There": 1318, "\u0120moistur": 41189, "\u0120Beyon": 37361, "\u0120railways": 45247, "Laun": 46182, "\u0120ED": 8392, "\u0120225": 18500, "short": 19509, "\u0120equival": 6854, "\u0120lady": 10846, "\u0120Constantin": 41766, "\u0120request": 2581, "\u0120Cove": 39534, "\u0120subdivision": 29648, "\u0120Fi": 23238, "\u0120Jar": 15374, "\u0120crane": 41175, "\u0120hippocampus": 38587, "\u0120contests": 22830, "\u0120unreasonable": 24673, "\u0120gay": 5650, "\u0120b": 275, "stand": 1481, "\u0120Levine": 38294, "\u00df": 155, "Month": 31948, "Application": 23416, "\u0120Purg": 49893, "iling": 4386, "orthern": 4824, "Ed": 7407, "\u0120md": 45243, "\u0120trembling": 39228, "02": 2999, "\u00d1\u0124": 20375, "outheastern": 27873, ".,\"": 44388, "\u0120interpretation": 10794, "\u0120Fraz": 36914, "\u0120imperfect": 23162, "\u0120relevance": 23082, "\u0120zombies": 19005, "\u0120Om": 16543, "%);": 49563, "oration": 6944, "\u0120redistribution": 41425, "\u0120consolid": 14652, "Shipping": 45169, "\u0120congen": 41174, "308": 21495, "ld": 335, "\u0120charm": 20024, "\u0120Tears": 40328, "\u0120Hyper": 15079, "Radio": 26093, "\u0120Coffin": 44159, "USER": 29904, "xious": 48392, "\u0120spins": 37621, "\u0120self": 2116, "\u0120srfAttach": 43065, "arbon": 42084, "\u0120insightful": 41696, "\u0120173": 28174, "\u0120newest": 15530, "\u0120exceeding": 23353, "\u0120landfall": 43682, "\u0120dye": 30121, "\u0120Restore": 42019, "\u0120read": 1100, "\u0120Elias": 41462, "arma": 10961, "properties": 48310, "\u0120intest": 20183, "\u0120advoc": 5271, "\u0120Corsair": 47345, "\u0120among": 1871, "\u0120precon": 49394, "Too": 23307, "\u0120Pent": 9696, "\u0120Eh": 31480, "\u0120Expl": 5905, "\u0120descriptive": 35644, "\u0120dedication": 22445, "\u0120laun": 2698, "\u0120Dia": 49838, "\u0120Heard": 49417, "JV": 41697, "\u0120driving": 5059, "\u0120GE": 22319, "\u0120originally": 6198, "\u0120BET": 38651, "\u0120tending": 44681, "\u0120Brewers": 35295, "\u0120vom": 20918, "{\"": 4895, "lus": 41790, "ill": 359, "virtual": 32844, "porary": 5551, "\u0120rocky": 26898, "\u0120Downloads": 50093, "Indust": 35848, "ufact": 3603, "\u0120Tips": 27558, "\u0120exqu": 33954, "\u0120storms": 20228, "\u0120rab": 27998, "aban": 45094, "\u0120Psychology": 18430, "\u0120improv": 37080, "\u0120Crime": 10003, "\u0120dim": 5391, "identified": 19107, "\u0120craving": 34357, "\u0120Animation": 23535, "\u0120Jury": 48705, "\u0120ie": 37941, "\u0120Ves": 36448, "\u0120rom": 9267, "\u0120scattering": 45765, "inburgh": 22222, "\u0120Junction": 44410, "\u0120Kant": 29576, "\u0120globally": 18309, "\u0120bruises": 42232, "idelity": 23091, "\u0120Ily": 49804, "SL": 8634, "\u0120Jinn": 48653, "\u0120goes": 2925, "\u0120Lab": 3498, "INA": 28893, "SS": 5432, "\u0120Certainly": 23631, "\u0120anal": 2037, "\u0120Measures": 45040, "NER": 21479, "earchers": 16604, "\u0120FN": 44260, "Best": 13014, "\u0120220": 15629, "\u0120Pengu": 20590, "helm": 33485, "Starting": 22851, "uria": 34484, "0002": 34215, "IFIC": 30643, "\u0120issu": 25731, "\u0120Fate": 20341, "\u0120discouraged": 30170, "\u0120Archbishop": 36746, ".--": 9816, "\u0120narrowing": 46426, "\u0120synerg": 39209, "177": 22413, "astered": 14054, "ENS": 16938, "rider": 49449, "\u0120?)": 41349, "\u0120tensions": 15733, "\u0120fulfilling": 26187, "\u0120equal": 4961, "\u0120Motion": 20843, "\u0120Lighting": 43150, "\u0120Europa": 29890, "\u0120reproduced": 31759, "\u0120apologizing": 47401, "\u0120hump": 49779, "HK": 38730, "\u0120bitcoins": 22690, "\u0120ignore": 8856, "raising": 32741, "\u0120murder": 5123, "\u0120Nadu": 46917, "\u0120attribution": 39629, "\u0120Delhi": 12517, "\u0120began": 2540, "\u0120admit": 9159, "\u0120ends": 5645, "\u0120airst": 20253, "\u0120Kur": 18132, "\u0120gracious": 43210, "Enable": 36695, "ctx": 49464, "\u0120Mushroom": 36482, "\u0120THC": 25728, "\u0120unlawfully": 48843, "\u0120centrif": 41563, "\u0120meticulous": 47628, "\u0120transfer": 4351, "Trigger": 48344, "\u0120Teach": 42015, "\u0120screaming": 14788, "\u0120license": 5964, "iseum": 38277, "\u0120Pew": 21805, "\u0120=": 796, "\u0120microbiome": 48465, "nington": 48405, "isance": 31872, "\u0120nodes": 13760, "\u0120Voyager": 34124, "08": 2919, "\u0120Flesh": 38998, "153": 21395, "\u0120quarrel": 41998, "grand": 23936, "eling": 10809, "\u0120Flare": 39833, "\u0120lively": 29696, "\u0120Kitty": 21168, "\u0120reluctant": 18416, "\u0120distributed": 9387, "\u0120portal": 17898, "\u0120Oops": 48002, "\u0120surrounding": 7346, "\u0120Prim": 11460, "\u0120kosher": 43951, "\u0120STUD": 49348, "\u0120flagship": 21336, "\u0120trustworthy": 34412, "published": 30271, "\u0120Declaration": 24720, "\u0120settling": 25446, "\u0120Rear": 30144, "\u0120Shopping": 39109, "Oracle": 48625, "\u0120confusion": 10802, "\u0120Justin": 10799, "\u0120coast": 7051, "izens": 44908, "\u0120Ten": 9368, "\u0120files": 3696, "_>": 49029, "\u0120rag": 34232, "\u0120Shattered": 48330, "rency": 5227, "\u0120Maw": 46598, "\u0120horrific": 19447, "\u0120evils": 33980, "\u0120Jamaica": 31620, "\u0120Len": 12592, "\u0120binding": 12765, "\u0120Regulation": 26472, "\u0120cc": 36624, "\u0120Irma": 41224, "\u012014": 1478, "\u0120Tools": 20003, "\u0120Hallow": 15400, "pletion": 24547, "\u0120Dr": 1583, "\u0120Influ": 46631, "onet": 36823, "\u0120your": 534, "\u0120Rangers": 13804, "nas": 24716, "\u0120Europeans": 20006, "\u0120Doc": 14432, "STE": 30516, "onga": 44294, "ku": 23063, "\u0120expressly": 27462, "\u0120credential": 49920, "itutes": 16845, "\u0120differentiate": 28754, "ved": 1079, "\u0120tripled": 43761, "\u0120Stamp": 40694, "noon": 6357, "Disney": 37338, "\u0120Brom": 31455, "\u0120Never": 7236, "\u0120luxury": 13064, "\u0120trade": 3292, "outed": 18534, "\u0120Sites": 37034, "Roberts": 45487, "\u0120calcium": 19700, "\u0120rabbi": 47326, "\u0120Pat": 3208, "\u0120lovely": 14081, "\u0120principled": 48070, "\u0120requirement": 9079, "\u0120Sever": 26434, "\u0120Ard": 34597, "\u0120opportunities": 6443, "Insp": 41502, "bered": 9451, "izes": 4340, "\u0120circuitry": 42344, "gallery": 24460, "\u0120145": 20299, "\u0120Boulder": 27437, "erto": 13806, "\u0120honorable": 33655, "\u0120Appropriations": 37552, "\u0120Benedict": 28697, "\u0120euro": 11063, "riction": 46214, "\u0120shortcomings": 31731, "\u0120mischief": 38625, "\u0120privately": 17092, "\u0120weekly": 10273, "\u0120Pipe": 36039, "irk": 14232, "\u0120Bei": 46731, "\u0120copied": 18984, "\u0120monitors": 19374, "\u0120Explosion": 45742, "\u0120doubled": 15229, "ipeg": 21700, "\u0120slang": 39306, "\u0120nurture": 43414, "\u0120ACLU": 24381, "\u0120FR": 8782, "\u0120feelings": 7666, "\u0120Kash": 20578, "\u0120___": 46444, "\u0120Lane": 15016, "\u0120horror": 9961, "535": 44465, "\u0120aggreg": 13262, "\u0120defeat": 7433, "\u0120from": 422, "\u0120relinqu": 36610, "\u0120ted": 28501, "\u0120financially": 18786, "520": 31211, "\u0120affairs": 9674, "\u0120exercised": 25805, "aks": 4730, "awa": 6909, "pton": 10972, "\u0120Having": 11136, "\u0120Rural": 36486, "\u0120Admir": 21177, "\u0120pressured": 32098, "\u0120renovation": 36011, "PLE": 16437, "\u0120shaming": 46382, "gery": 7076, "\u0120Sri": 20872, "\u0120Free": 3232, "\u0120tame": 37812, "helps": 35194, "hered": 6083, "\u0120adapters": 46363, "KS": 27015, "\u0120reopened": 37415, "\u0120hus": 4791, "\u0120XVI": 49090, "joined": 46416, "dec": 12501, "\u0120Ow": 11960, "\u0120Group": 4912, "negie": 32360, "\u0120cog": 43072, "\u0120indicator": 16916, "\u0120bits": 10340, "\u0120ethanol": 28829, "\u0120smile": 8212, "\u0120Canter": 38183, "\u0120maps": 8739, "\u0120mitigation": 33585, "ilated": 40080, "\u0120Hannibal": 41949, "olla": 33011, "\u012a\u00e8": 42062, "atom": 37696, "reenshots": 39551, "ctic": 11048, "\u0120Str": 4285, "Fixed": 13715, "\u0120interim": 19303, "spoken": 19842, "\u0120di": 2566, "ographers": 34063, "\u0120gases": 21678, "\u0120Jared": 19116, "\u0120festivals": 25575, "\u0120Premium": 17315, "\u0120375": 29414, "requent": 46018, "WARE": 33746, "\u0120promot": 4256, "assy": 11720, "\u0120dance": 9280, "occ": 13966, "\u0120etc": 3503, "\u0120Tyr": 14319, "\u0120Craig": 13854, "abulary": 22528, "central": 31463, "ENG": 26808, "erton": 29111, "\u0120pip": 7347, "\u00ef\u00bf\u00bd": 4210, "\u0120LG": 17370, "\u0120evoke": 44672, "NAME": 20608, "aird": 41620, "\u0120evangelicals": 44881, "\u0120tablets": 17255, "483": 38783, "pecially": 2333, "\u0120encyclopedia": 45352, "tag": 12985, "\u0120WITHOUT": 42881, "\u0120breaker": 46408, "\u0120dishes": 16759, "\u0120POS": 28069, "\u0120injure": 42206, "481": 40271, "arted": 19112, "\u0120powdered": 41642, "Materials": 41657, "\u00e3\u0123\u00ae\u00e9\u0143\u0136": 34633, "ctor": 2715, "\u0120rul": 2155, "\u0120inacc": 17595, "\u0120toolbar": 50149, "\u0120physically": 10170, "uador": 24201, "che": 2395, "\u0120Virtue": 39662, "\u0120matchups": 32033, "\u0120unst": 15014, "\u0120M\u00c3\u00a9": 43579, "ikawa": 40398, "reddit": 10748, "\u0120Trip": 18383, "aura": 33830, "\u0120ev": 819, "\u0120unavoid": 34804, "\u0120plastics": 42257, "Local": 14565, "\u0120SP": 6226, "\u0120bark": 21405, "InstoreAndOnline": 40241, "\u0120checkpoints": 36628, "\u0120seem": 1283, "\u0120unanimously": 28355, "estine": 27374, "techn": 23873, "\u0120Hutchinson": 43792, "\u0120hierarch": 28398, "\u0120bearded": 42634, "\u0120Nig": 13732, "\u00ff": 187, "\u00e7\u013c": 19021, "\u0120radiant": 43888, "nect": 1606, "\u0120moderate": 10768, "Rus": 35313, "\u0120rim": 20254, "\u0120quir": 26575, "\u0120ongoing": 7044, "\u0120images": 4263, "\u0120Aster": 38484, "\u0120Theme": 26729, "\u0120exercise": 5517, "cele": 49840, "\u0120features": 3033, "\u0120Muse": 32887, "\u0120Salvador": 26482, "\u0120endorsements": 40614, "iety": 1905, "fried": 25520, "\u0120divor": 21781, "\u0120Grail": 41036, "\u0120aids": 31378, "lect": 801, "\u0120residential": 12420, "\u0120undert": 10122, "\u00e3\u0125\u00bb": 4707, "\u0120Adapter": 43721, "Maximum": 40541, "\u0120Avoid": 24390, "\u0120suspend": 22004, "\u0120discretionary": 41314, "Mas": 38224, "aul": 2518, "\u0120Predict": 49461, "\u0120PARK": 42358, "icist": 48187, "iscons": 8795, "nb": 46803, "\u0120maneu": 16136, "!!": 3228, "\u0120box": 3091, "achable": 34446, "From": 4863, "\u0120DET": 38267, "agos": 48215, "Thu": 39902, "\u0120Stoke": 36178, "oci": 1733, "\u0120Central": 5694, "\u0120Blazers": 34766, "enough": 48229, "\u0120tob": 10773, "\u0120vigorously": 31609, "\u0120Patri": 9606, "\u0120Moose": 44833, "\u0120Indy": 26023, "\u0120Ware": 28593, "\u0120thereto": 44597, "\u0120352": 44063, "\u0120brethren": 29644, "\u0120POLITICO": 39817, "\u0120clutch": 22756, "\u0120DNC": 17824, "length": 13664, "\u0120swirling": 40431, "\u0120plenty": 6088, "romeda": 32291, "\u0120iPhone": 7133, "\u0120Kessler": 46474, "coal": 25140, "\u0120standout": 35482, "\\<": 49778, "speak": 47350, "\u0120condom": 33791, "\u0120honoring": 38276, "quickShip": 39752, "\u0120priceless": 49083, "\u0120sprite": 33810, "\u0120Faith": 16463, "2019": 23344, "\u0120useful": 4465, "Configuration": 38149, "workers": 22896, "MT": 13752, "\u0120fascination": 35556, ".-": 7874, "\u0120Guant": 27772, "\u0120flaws": 17978, "iping": 34690, "\u0120luck": 8458, "\u0120Clicker": 44051, "\u0120HOL": 49707, "\u0120acquired": 9477, "regulated": 27739, "igrant": 9893, "\u0120340": 28560, "\u0120Chi": 21380, "umi": 12994, "\u0120780": 41287, "reditary": 47333, "Smart": 25610, "\u0120defending": 11749, "True": 17821, "hatt": 11653, "\u0120outs": 12198, "NR": 24723, "indu": 10259, "ayan": 22931, "\u0120mood": 10038, "\u0120undo": 23981, "\u0120weave": 37982, "\u0120Kindle": 27114, "\u0120arising": 21539, "upon": 27287, "\u0120innovate": 47916, "phis": 18691, "\u00e9\u00be\u012f\u00e5\u00a5": 39820, "iversary": 9023, "\u0120Tests": 30307, "\u0120Lead": 20116, "Ab": 4826, "fixed": 34021, "\u0120swelling": 29844, "otions": 36083, "\u0120This": 770, "\u0120mods": 13743, "\u0120addition": 3090, "\u0120bel": 894, "adder": 26676, "\u0120inhibitors": 40272, "btn": 46118, "issue": 21949, "\u0120Germans": 16064, "\u0120ruin": 16866, "\u0120Sut": 45220, "\u0120traveling": 11300, "cpp": 20322, "\u0120instance": 4554, "\u0120PAC": 16741, "\u0120guess": 4724, "\u0120Poverty": 30627, "\u0120Years": 13212, "\u0120Ter": 3813, "ById": 48364, "980": 40022, "astery": 29310, "\u0120Secrets": 23561, "material": 33665, "Beat": 34979, "\u0120Sikh": 34629, "\u0120Guarant": 34234, "points": 13033, "\u0120bidder": 44848, "\u0120convert": 10385, "ation": 341, "ierra": 16367, "\u0120header": 13639, "\u0120Anyone": 17462, "uled": 6309, "bot": 13645, "\u0120186": 28481, "\u0120Entry": 21617, "ochet": 49579, "\u0120Suzanne": 45587, "isk": 1984, "\u0120contaminants": 46983, "ap": 499, "teen": 7821, "roll": 2487, "\u0120kit": 6220, "\u0120PIN": 34279, "Initialized": 28500, "004": 22914, "\u0120ploy": 46945, "\u0120aven": 27968, "Brother": 39461, "\u0120Becker": 40765, "\u0120tents": 29804, "\u00e3\u0125\u0131": 37412, "\u0120sar": 29008, "\u0120Syracuse": 29141, "\u0120maximal": 40708, "\u0120Ring": 12569, "\u0120woodland": 49609, "\u0120lawyer": 6853, "grey": 49502, "\u0120HIGH": 34677, "\u0120speeds": 12055, "umm": 13929, "Federal": 24099, "\u0120nearly": 3016, "\u0120Serve": 35557, "\u0120Estimated": 47737, "\u0120Und": 13794, "\u0120immutable": 40139, "\u0120Za": 44210, "\u0120continual": 37639, "itus": 17506, "\u0120wow": 28796, "\":[\"": 26358, "\u0120dishonest": 30549, "\u0120Tanks": 31508, "\u0120crow": 37593, "\u0120extremism": 25571, "\u0120Examination": 50105, "pe": 431, "location": 24886, "\u0120Qatar": 18286, "\u0120Docker": 25716, "\u0120Crimes": 32655, "rawn": 5791, "lighting": 43351, "\u0120morals": 35472, "\u0120dehuman": 48772, "\u0120defining": 16215, "\u0120compass": 31855, "\u0120roots": 11135, "\u0120definite": 21892, "Dream": 30571, "\u0120onboard": 25863, "\u0120Sep": 8621, "cases": 33964, "\u0120slug": 31065, "otally": 38908, "020": 33618, "\u0120Ju": 12585, "Provider": 29495, "\u0120Kare": 49396, "\u0120away": 1497, "\u0120Thurs": 48971, "\u01201886": 49539, "etheless": 12845, "erella": 36648, "\u0120Jal": 28649, "\u0120phenomenon": 10733, "angers": 6606, "\u0120bitterly": 40608, "\u0120Carlson": 33059, "inite": 9504, "\u0120Brotherhood": 17987, "\u0120comments": 3651, "used": 1484, "\u0120TH": 2320, "\u0120bestselling": 47791, "asu": 27345, "\u0120therapy": 9102, "\u0120Herb": 34858, "Microsoft": 15905, "\u0120half": 2063, "onde": 14378, "\u0120tied": 8165, "\u0120iPhones": 33845, "\u0120Monitoring": 37484, "\u0120Ober": 33753, "\u0120discern": 22024, "count": 9127, "\u0120Outdoor": 43047, "\u0120Bj": 34254, "\u0120Synd": 19148, "\u0120spikes": 27198, "1998": 21113, "\u0120intervened": 35018, "\u0120Bav": 37313, "\u0120Lori": 43741, "anging": 4924, "\u0120Holocaust": 18661, "oried": 42058, "\u0120training": 3047, "\u0120sensitivity": 14233, "uki": 11308, "riend": 1289, "\u0120coined": 33115, "\u0120enh": 5881, "wiki": 15466, "ysical": 15380, "\u0120vulnerabilities": 23805, "ockey": 8337, "nesday": 3462, "\u0120deterioration": 38495, "ess": 408, "\u0120Spells": 30656, "\u0120Cabin": 16804, "\u0120Lance": 18990, "\u0120baked": 22979, "\u0120basketball": 9669, "\u0120stake": 10171, "quick": 24209, "\u0120belt": 10999, "SIM": 48913, "mable": 44102, "\u0120Naturally": 30413, "\u00e3\u0124\u00b1": 41658, "\u0120Want": 16168, "\u0120sovereign": 18901, "\u0120Boo": 21458, "\u0120consolidate": 38562, "\u0120Adidas": 48976, "elfth": 44659, "\u0120Hawk": 26698, "\u0120Plastic": 33731, "\u0120specifies": 26052, "\u0120Well": 3894, "\u0120interven": 14118, "itech": 45396, "\u0120worsen": 47058, "\u0120:(": 36147, "\u0120Napoleon": 28283, "\u0120crab": 32202, "\u0120Tay": 25569, "opl": 20106, "\u0120Endurance": 43290, "\u0120bride": 26619, "\u0120revocation": 47275, "\u0120Sanford": 42862, "\u0120Circ": 7672, "\u0120blatantly": 39340, "\u0120unprotected": 42069, "\u0120MBA": 45517, "per": 525, "design": 26124, "\u0143\u0136": 18433, "\u0120Morton": 35766, "ECTION": 24565, "\u0120Eliot": 46082, "\u0120Azerbai": 29830, "\u0120.": 764, "\u0120Kern": 49132, "Penn": 39899, "757": 39251, "\u0120Honolulu": 43296, "\u0120minerals": 21622, "\u0120snapped": 20821, "\u0120Types": 24897, "Builder": 32875, ".'": 2637, "QB": 40291, "\u0120deletion": 39948, "\u0120continuum": 44422, "xb": 30894, "\u0120EST": 17160, "ilight": 15512, "\u01201997": 8309, "\u0120CSS": 17391, "anye": 23495, "fixes": 42624, "ouston": 6526, "\u0120coronary": 37151, "\u0120destabil": 27397, "\u0120halted": 27771, "\u0120disliked": 43252, "today": 40838, "\u0120Kre": 25732, "\u0120BO": 16494, "\u0120Getty": 7136, "maid": 23151, "\u0120Cart": 13690, "\u0120reve": 2697, "\u0120beverages": 24173, "\u0120Mech": 18202, "\u0120ice": 4771, "\u0120Burning": 21460, "\u0120concludes": 18978, "\u0120defect": 11855, "\u0120FALSE": 26563, "\u0120realism": 30787, "\u0120skipped": 26684, "ingly": 4420, "such": 10508, "\u0120HIS": 33700, "Attorney": 46319, "\u0120Whe": 5792, "Jul": 16980, "\u0120ups": 19649, "\u0120Marie": 20492, "Close": 26125, "verbal": 46953, "binary": 39491, "\u0120devastating": 14101, "\u0120inspir": 32285, "\u0120rarity": 32823, "Fig": 14989, "gnu": 41791, "\u0120lemon": 18873, "\u0120visa": 14552, "\u0120aggregation": 46500, "\u0120Lilith": 40155, "\u0120Fres": 32732, "kefeller": 31424, "\u0120Annual": 16328, "\u0120bringing": 6079, "\u0120lesbian": 17834, "\u0120War": 1810, "\u0120sweeping": 18404, "geries": 30230, "\u0120insufficient": 19022, "level": 5715, "\u0120emits": 48300, "ancouver": 10264, "-'": 19355, "\u0120beetles": 46716, "obo": 20391, "\u0120Sam": 3409, "ixtures": 25506, "\u0120since": 1201, "\u0120sense": 2565, "\u0120clerks": 44115, "\u0120Neptune": 26461, "\u0120admitted": 6848, "\u0120jurisdiction": 12934, "\u0120payable": 28538, "angering": 49470, "\u0120stereotypes": 22364, "\u0120Mess": 10626, "246": 26912, "\u0120media": 2056, "\u01202500": 33507, "rentice": 20098, "eter": 2357, "started": 46981, "\u0120Auschwitz": 37992, "\u0120satisf": 5244, "\u0120secession": 43314, "\u0120county": 7968, "\u0120insane": 13251, "verend": 37713, "uding": 26570, "\u0120ORDER": 38678, "\u0120Depths": 21903, "\u0120mimic": 26332, "\u0120recruitment": 19624, "regon": 8285, "\u0120Schiff": 41665, "wit": 39289, "\u0120meddling": 33545, "\u0120Covenant": 25489, "\u0120weren": 6304, "tto": 33955, "Cry": 26677, "\u0120TIME": 20460, "\u0120minute": 5664, "alogy": 48909, "\u0120Jon": 5966, "\u0120Yus": 41749, "Lex": 45117, "HER": 16879, "\u0120unusually": 23708, "\u0120illnesses": 24024, "240": 16102, "425": 32114, "\u0120Shelter": 36507, "\u0120offender": 19595, "Foot": 17574, "working": 16090, "\u0120GUI": 25757, "\u0120Wr": 15634, "\u0120vascular": 39495, "tags": 31499, "\u0120Cave": 18603, "bodied": 45190, "\u0120ost": 23619, "\u0120associates": 20093, "cific": 7790, "Mach": 49999, "\u0120Nutr": 37012, "\u0120wr": 1319, "\u0120Copenhagen": 31104, "\u0120skating": 33051, "\u0120Good": 4599, "mot": 27926, "midt": 21184, "\u0120loser": 30256, "\u0120Nvidia": 27699, "\u0120roy": 10611, "MA": 5673, "debian": 24689, "\u0120Institute": 5136, "\u0120Hawks": 23445, "Bay": 15262, "ERC": 47691, "visual": 41464, "ardless": 14694, "send": 21280, "\u0120posture": 24521, "\u0120Install": 15545, "sbm": 32310, "\u0120agg": 4194, "leness": 48795, "ocl": 38679, "stru": 19554, "ibaba": 37541, "\u0120hits": 7127, "\u00e5\u00a5": 25001, "\u0120predict": 4331, "\u0120Ending": 43626, "\u0120likely": 1884, "\u0120Protect": 21916, "\u0120splits": 30778, "\u0120robot": 9379, "\u0120Heck": 31679, "\u0120pool": 5933, "\u0120marker": 18364, "\u0120alternatively": 46596, "\u0120Burke": 23259, "\u0120exemption": 19572, "\u0120prevention": 14196, "610": 39132, "\u0120perverse": 43060, "\u0120assuming": 13148, "\u0120Jonas": 40458, "\u0120assigns": 46974, "inational": 26201, "Lib": 25835, "appa": 20975, "esame": 34038, "\u0141": 253, "\u0120Wim": 39999, "Contribut": 37146, "Sorry": 14385, "organized": 30280, "circle": 45597, "\u0120Anders": 25519, "\u0120clasp": 47425, "\":\"": 2404, "umbled": 11137, "fr": 8310, "\u0120similarly": 12470, "\u0120Fairy": 17746, "\u0120Suz": 22691, "\u0120Application": 15678, "029": 48891, "\u0120coupons": 45972, "Motion": 45740, "\u0120flank": 30172, "\u0120awakening": 33971, "MED": 30733, "Yu": 40728, "Da": 26531, "\u0120Ort": 31427, "Mur": 23830, "\u0120entangled": 47446, "filter": 24455, "\u0120boats": 16659, "\u0120tab": 7400, "tesy": 27090, "\u0120proportional": 27111, "\u0120shudder": 50130, "\u0120glitches": 43705, "588": 39118, "\u0120Quincy": 46884, "\u0120undermin": 16303, "\u0120Vanessa": 42100, "\u0120Py": 9485, "\u0120becoming": 5033, "umerable": 30831, "\u0120glam": 27240, "activ": 15791, "ens": 641, "\u0120Marketing": 22137, "\u0120cemetery": 27316, "proclaimed": 39865, "\u0120Mediterranean": 19517, "\u0120barrier": 13054, "Real": 15633, "\u0120ballots": 20103, "####": 4242, "alloc": 32332, "\u0120Perhaps": 8673, "Mid": 22622, "\u0120[": 685, "239": 23516, "\u0120colourful": 44799, "\u0120serv": 1113, "\u0120dominating": 30651, "\u0120March": 2805, "\u0120zone": 6516, "\u0120Hitler": 11908, "oret": 9997, "\u0120Signs": 37027, "\u0120Playing": 23911, "\u0120Foster": 18489, "Buyable": 39693, "\u0120floors": 18570, "fuck": 31699, "\u0120elves": 31959, "dn": 32656, "\u0120agencies": 5942, "\u0120neighborhood": 6232, "\u0120Persona": 41581, "Allah": 48620, "74": 4524, "Aust": 15160, "ura": 5330, "\u0120Panasonic": 46049, "heter": 43332, "win": 5404, "\u0120progression": 17085, "\u0120Use": 5765, "\u0120bonus": 7202, "\u0120magician": 42055, "\u0120river": 7850, "\u0120BCE": 37078, "\u0120Fernando": 31063, "\u0120monitor": 5671, "\u0120transforming": 25449, "ESA": 43279, "mie": 44871, "\u0120CRC": 45623, "umbnails": 13668, "\u0120tones": 23755, "\u0120url": 19016, "campus": 43842, "Crunch": 49384, "\u0120loosely": 28845, "Pad": 26114, "\u0120duel": 24662, "\u0120Culture": 17346, "\u0120cand": 2658, "\u0120West": 2688, "\u0120autism": 15998, "\u0120Directive": 34736, "\u0120nearer": 40671, "immigration": 47620, "!--": 28112, "\u0120toss": 12153, "\u0120doub": 3385, "\u01205": 642, "\u0120foss": 10967, "\u0120Abel": 42474, "\u0120sports": 5701, "\u0120solid": 4735, "entry": 13000, "\u0120swing": 9628, "MY": 26708, "\u0120tra": 1291, "\u0120Miliband": 38199, "ARB": 37304, "Indiana": 49153, "\u0120scenarios": 13858, "\u0120army": 5428, "\u0120Sid": 15686, "\u0120Alibaba": 41992, "\u0120manic": 38705, "\u0120Jab": 24404, "\u0120trailing": 25462, "\u0120Monthly": 27573, "\u0120coping": 35326, "\u0120virginity": 48533, "\u0120Robotics": 47061, "\u0120Oprah": 47857, "\u0120pul": 17472, "gang": 28284, "\u0120colonel": 46969, "\u0120veiled": 45694, "\u0120intensive": 18590, "\u0120stamina": 32312, "\u0120union": 6441, "esian": 35610, "\u0120crying": 13774, "uru": 14717, "ATTLE": 35455, "\u0120curing": 46053, "\u0120astonished": 40962, "\u0120156": 23871, "Spons": 43522, "\u0120overnight": 13417, "\u0120Study": 12481, "\u0120lobbyists": 26637, "Sys": 44387, "}": 92, "\u0120Planes": 42788, "udo": 12003, "brainer": 49334, "\u0120Liga": 39249, "\u0120hurricanes": 40370, "\u0120Poo": 41778, "MP": 7378, "wat": 47261, "\u0120Developers": 34152, "\u0120Perspect": 29845, "\u0120install": 2721, "Sin": 46200, "phia": 8193, "\u0120translates": 23677, "\u0120Berks": 45167, "rations": 9143, "\u0120PDF": 12960, "\u0120alterations": 29858, "\u0120rearr": 37825, "\u0120units": 4991, "\u0120Abram": 39631, "Scan": 33351, "\u0120Totem": 47469, "\u0120Sources": 26406, "\u0120Leo": 19632, "iotics": 18296, "\u0120extr": 22820, "\u0120done": 1760, "urized": 44796, "\u0120deline": 46925, "\u0120asshole": 29836, "\u0120enthus": 8485, "\u0120Menu": 21860, "\u0120Colony": 34480, "GEN": 35353, "\u0120saddle": 33083, "\u0120Kell": 25043, "\u0120Viol": 13085, "\u0120Unique": 30015, "\u0120corresponding": 11188, "\u0120Scouts": 30456, "RB": 27912, "ti": 20259, "\u0120gren": 17236, "\u0120imperson": 28671, "\">": 5320, "671": 46250, "72": 4761, "dB": 36077, "uci": 42008, "\u0120reign": 13580, "raper": 38545, "\u0120Wei": 29341, "\u0120alive": 6776, "\u0120Issa": 47410, "\u0120instincts": 26744, "Micro": 13031, "\u0120perished": 43181, "\u0120plot": 7110, "\u0120Absolute": 36532, "\u0120expenses": 9307, "\u0120Specialist": 36816, "\u0120religions": 18879, "\u0120rush": 10484, "http": 4023, "\u0120Gad": 20925, "\u0120Petition": 43723, "\u0120sex": 1714, "\u0120Liberty": 14734, "\u0120Resp": 10328, "\u0120Kick": 10279, "\u0120Only": 5514, "\u0120unsuccessfully": 40665, "\u0120Kw": 31767, "\u0120badges": 37583, "burse": 21780, "selection": 49283, "\u00cf\u0126": 32830, "\u0120unofficial": 27220, "\u0120incom": 15501, "\u0120certificates": 20835, "\u0120prote": 5915, "--------------------------------------------------------": 43801, "\u0120sang": 25889, "\u0120contextual": 38356, "Ti": 40533, "\u0120members": 1866, "ac": 330, "\u0120repet": 46152, "rim": 3036, "\u0120residing": 35173, "EMP": 39494, "\u0120subjective": 19088, "\u0120Floyd": 21150, "era": 8607, "\u0120201": 580, "/>": 15913, "\u0120lifestyle": 12263, "\u0120Merchant": 33508, "air": 958, "\u0120contraceptive": 37832, "\u0120impedance": 47472, "\u0120feel": 1254, "ination": 1883, "\u0120DEN": 37692, "\u0120grades": 19051, "\u0120Autob": 41735, "\u0120indo": 23046, "\u0120Stream": 13860, "\u0120fest": 15292, "\u0120Early": 12556, "\u0120Startup": 40472, "\u0120Yen": 47028, "\u0120pole": 16825, "2012": 6999, "\u0120responsibility": 5798, "\u0120Consult": 21651, "iencies": 22139, "\u0120Luigi": 39139, "\u0120temp": 20218, "\u0120Pyr": 27958, "\u0120Wales": 11769, "\u0120fleeing": 19105, "ichi": 16590, "jong": 32428, "Jason": 26497, "hal": 14201, "\u0120ly": 22404, "\u0120cerebral": 31169, "\u0120PROT": 48006, "\u0120Salman": 31995, "\u0120rifles": 18469, "\u00e2\u0138\u0122": 44033, "Charles": 28711, "atican": 18245, "\u0120suscept": 18163, "\u0120wealthiest": 35817, "\u0120runway": 23443, "\u0120Button": 20969, "ilar": 1794, "\u0120calves": 45889, "\u0120pouring": 23147, "\u0120dictatorship": 26457, "\u0120unison": 49418, "nesota": 8360, "\u0120surrogate": 37660, "\u0120Reduction": 33396, "\u0120Joy": 14087, "stakes": 32540, "\u0120appreciated": 16373, "eddy": 21874, "\u0120amuse": 26072, "typically": 48126, "Fore": 16351, "\u0120Master": 5599, "\u0120jobs": 3946, "\u0120TIM": 31742, "\u0120proficient": 39318, "\u0120elephant": 20950, "\u0120Dol": 25143, "\u0120advances": 14901, "\u0120readers": 7183, "\u0120analysts": 13440, "oslov": 50005, "\u0120schizophren": 19991, "naire": 24042, "\u0120Scottish": 11905, "ipp": 3974, "\u0120liability": 12247, "usional": 41780, "Joined": 24363, "\u0120respects": 19410, "\u0120coupled": 18064, "itte": 2654, "airo": 18131, "uli": 32176, "\u0120bog": 22922, "Mist": 49370, "\u0120bene": 10004, "\u0120Hispanics": 30714, "\u0120canceled": 19994, "\u0120debuted": 26376, "Miami": 41191, "\u0120computational": 31350, "otional": 25453, "\u0120primates": 41316, "\u0120wealth": 5129, "\u0120Tel": 12088, "\u0120pair": 5166, "\u0120nephew": 26301, "\u0120other": 584, "\u0120:=": 19039, "021": 46821, "TN": 46559, "\u0120failings": 46622, "\u0120Span": 49101, "\u0120Dor": 12528, "\u0120aeros": 41376, "\u0120lia": 35388, "respons": 16733, "03": 3070, "\u0120omnip": 40046, "\u0120wisely": 32773, "Amount": 31264, "\u0120blogging": 38310, "imating": 39204, "\u0120Tonight": 27117, "\u0120Hindi": 43443, "deep": 22089, "\u0120layouts": 38489, "ANCE": 19240, "\u0120contentious": 27154, "frey": 37425, "\u0120paraph": 38624, "\u00c2\u00a8": 37102, "Balt": 41312, "\u0120defiance": 35287, "\u0120Trad": 8397, "\u0120insurrection": 47376, "\u0120TW": 17306, "\u0120renal": 44375, "\u0120Vista": 25160, "managed": 39935, "\u0120Alec": 38285, "\u0120future": 2003, "assembled": 46826, "nir": 32986, "\u0120eyes": 2951, "\u0120bestowed": 40293, "\u0120$$": 32382, "\u0120Visa": 27645, "\u0120kickoff": 40532, "\u0120Accounts": 35584, "1981": 35411, "\u0120anthropology": 45424, "\u0120parasitic": 49238, "\u0120competitiveness": 36812, "\u0120WATCHED": 30134, "iggle": 24082, "utsche": 30433, "\u0120dishon": 32045, "\u0120protester": 34678, "\u0120Therapy": 30878, "\u0120Juventus": 40912, "\u0120fist": 18606, "uling": 16619, "\u0120paints": 32281, "\u0120jewelry": 22634, "\u0120Breitbart": 19923, "\u0120auctions": 48043, "\u0120unic": 28000, "\u0120as": 355, "\u0120dispro": 15493, "\u0120Valhalla": 48762, "\u0120Holder": 24210, "\u0120condemned": 15006, "\u0120Johnson": 5030, "\u0120rh": 9529, "\u0120Coke": 34723, "\u0120vulner": 6222, "\u0120dictated": 34756, "ITE": 12709, "\u0120match": 2872, "\u0120stem": 10717, "\u0120Genius": 32562, "\u0120Dome": 31390, "port": 634, "\u0120thanks": 5176, "\u0120Reviews": 20871, "\u0120Ether": 20017, "\u0120brushes": 36377, "\u0120coffers": 47295, "turn": 15344, "\u00c3\u00bc": 9116, "TPP": 31435, "obl": 45292, "\u0120VIII": 25197, "\u0120heter": 14445, "\u0120shades": 23787, "\u0120programmer": 24292, "raz": 3247, "irtual": 22341, "\u0120maneuver": 20186, "\u0120fundraiser": 27639, "College": 38951, "\u0120Assembly": 10006, "\u0120regeneration": 27597, "\u0120exagger": 15912, "\u0120Iranians": 34608, "\u0120Subaru": 30471, "TRUMP": 42473, "\u0120therapists": 39395, "Ger": 38069, "\u0120strategy": 4811, "\u0120ask": 1265, "\u0120dos": 23430, "\u0120Panda": 41112, "\u0120stressed": 15033, "\u0120toilet": 16146, "\u0120gn": 19967, "template": 28243, "\u0120Passage": 46169, "\u0120Holo": 49205, "'s": 338, "\u0120Pence": 17339, "\u0120Fro": 9734, "\u0120tours": 21284, "\u0120facade": 43562, "\u0120\u00d9\u012a": 42092, "\u0120unse": 38478, "\u0120Cas": 11294, "\u0120motif": 32702, "\u0120tightening": 36040, "PUT": 30076, "\u0120Releases": 48691, "\u0120Lyft": 38928, "\u0120Immediately": 34528, "\u0120Mongol": 42188, "\u0120nine": 5193, "piration": 10514, "\u0120experimental": 11992, "harm": 29155, "\u0120las": 39990, "\u0120Hear": 26319, "\u0120banging": 42028, "\u0120becomes": 4329, "\u0120loc": 1179, "\u0120Pet": 4767, "cost": 15805, "\u0120JJ": 38775, "\u0120unwitting": 38420, "\u0120Galactic": 23509, "\u0120hockey": 12217, "irled": 49376, "\u0120encompasses": 38932, "\u0120Fix": 13268, "\u0120web": 3992, "\u0120kilometres": 23990, "\u0120Forest": 9115, "\u0120billing": 26297, "UMP": 20476, "\u0120Stre": 9737, "\u0120Woodward": 40782, "lisher": 8191, "\u0120hordes": 41872, "\u0120veget": 7494, "hao": 23778, "\u0120resh": 27179, "\u0120announcement": 8009, "\u0120engines": 11874, "\u0120ramp": 10454, "\u00e4\u00b8\u0143": 40792, "\u0120Punjab": 33328, "\u0120healing": 11516, "Tomorrow": 49488, "07": 2998, "\u0120tails": 30514, "[/": 13412, "\u0120spears": 46842, "\u0120United": 1578, "\u0120Den": 5601, "\u0120248": 32996, "ifully": 17049, "Usually": 37887, "\u0120planetary": 27047, "\u0120manifested": 34300, "RPG": 46954, "\u0120Ladies": 37401, "Exec": 23002, "arella": 45494, "\u0120ridiculously": 32871, "designed": 30473, "\u0120maxim": 12991, "\u0120698": 39861, "\u0120vivid": 21002, "lbs": 32133, "\u0120Dru": 21295, "\u0120166": 26753, "\u0120shipment": 28652, "********": 4557, "\u012068": 8257, "box": 3524, "\u0120telecom": 30452, "encers": 42288, "Legal": 38263, "\u0120leaks": 17316, "aces": 2114, "\u0120scept": 30186, "\u0120MMA": 19055, "Experience": 44901, "\u0120strutConnector": 50009, "\u0120Russ": 1887, "\u0120Accordingly": 28386, "\u0120500": 5323, "\u0120Evolution": 15815, "tips": 41315, "\u0120tries": 8404, "\u0120stretched": 19110, "ush": 1530, "\u0120Rus": 9223, "ermanent": 30312, "\u0120Reward": 32307, "masters": 40706, "\u0120sent": 1908, "\u0120hed": 16418, "\u0120Shard": 32822, "IRED": 37819, "\u0120Kejriwal": 42792, "locked": 24162, "\u00e2\u012a\u0134": 14095, "Ins": 20376, "oren": 29578, "\u0120Securities": 22971, "oko": 16044, "\u00e2\u0122\u0136": 960, "\u0120decorated": 24789, "oning": 12484, "\u0120lighting": 12019, "\u0120Sylvia": 45425, "\u0120reforming": 40446, "itance": 42942, "705": 34801, "\u0124\u0130": 43518, "igenous": 12357, "\u0120scrolls": 32138, "\u0120original": 2656, "esi": 46551, "ogens": 26612, "\u0120essentially": 6986, "Strange": 38114, "\u0120Condition": 24295, "\u0120agrees": 14386, "\u0120Crusader": 33765, "\u0120Rodrig": 16114, "Length": 24539, "orks": 3647, "\u0120restaurants": 10808, "kel": 7750, "hover": 43753, "Terror": 40194, "\u0120DPR": 41176, "\u0120Weiss": 16152, "shot": 9442, "\u00ce\u00bc": 34703, "\u0120oper": 1515, "\u0120Puerto": 15295, "blogspot": 35217, "\u0120enjoyable": 20050, "\u0120ang": 3550, "\u0120contradict": 18372, "\u0120Epstein": 34594, "\u0120mus": 1928, "\u0120En": 2039, "\u0120abolished": 32424, "[]": 21737, "ossibly": 20846, "\u0120multiply": 29162, "flake": 47597, "\u0120sounding": 22655, "\u0120basic": 4096, "\u0120mother": 2802, "anto": 14723, "\u0120Three": 7683, "eanor": 17663, "\u0120Haku": 39222, "catching": 50106, "cers": 7999, "\u0120enshr": 46919, "sit": 48937, "\u0120Nielsen": 31154, "\u0120world": 995, "\u0120surfaced": 23786, "\u0120Gul": 23472, "\u0120believing": 14773, "\u0120Circuit": 13588, "\u0120predicting": 25539, "\u0120blocker": 38731, "\u0120paperback": 46771, "\u0120minority": 9137, "Debug": 27509, "oran": 31884, "\u0120furniture": 13091, "\u0120haunt": 36334, "\u0120deserved": 20143, "\u0120preval": 11967, "\u0120Psychiat": 26357, "\u0120Jenny": 28437, "ATURES": 47471, "\u0120photographed": 25880, "steps": 20214, "\u0120olds": 44979, "ternity": 19682, "overe": 33518, "ips": 2419, "\u0120gam": 9106, "\u0120bathrooms": 32601, "ultan": 30454, "monitor": 41143, "ibilities": 7992, "\u0120Fully": 40234, "\u0120dust": 8977, "ousands": 19983, "\u0120murderous": 34082, "hill": 12639, "\u0120Bild": 44406, "\u0120citations": 33499, "\u0120commanders": 22576, "HQ": 41275, "\u0120willingness": 16826, "\u0120Municip": 27338, "\u0120Phen": 34828, "\u0120massacres": 50010, "\u0120Kappa": 39553, "\u0120Cyp": 48881, "orough": 7985, "\u0120honored": 21014, "\u0120Castro": 21193, "\u00c3\u00a8re": 35979, "riad": 21244, "\u0120Ones": 32606, "\u0120Pv": 18367, "project": 16302, "\u0120type": 2099, "\u0120testim": 8844, "\u0120[+]": 47175, "ventures": 10065, "alias": 26011, "\u0120Jarvis": 46595, "\u0120Business": 7320, "\u0120Adolf": 35333, "\u0120CARD": 48731, "\u0120Shields": 30512, "aye": 48822, "\u0120equilibrium": 29163, "\u0120cor": 1162, "PG": 6968, "\u0120declare": 13627, "\u0120strikeouts": 36431, "antom": 11456, "\u0120MY": 17615, "\u0120103": 15349, "sent": 34086, "\u0120Fallon": 36503, "\u0120Radical": 38352, "ittens": 34978, ".}": 44587, "\u0120concluded": 8391, "\u0120decaying": 49240, "\u0120Oz": 18024, "\u0120Hath": 36556, "\u0120tirelessly": 47905, "ussen": 35951, "\u0120rehabilit": 44537, "\u0120UNHCR": 49558, "Tax": 27017, "\u0120edit": 4370, "EEE": 31909, "\u0120concealed": 18176, "\u0120lament": 23146, "\u0120beard": 21213, "\u0120Academic": 31421, "\u0120Colin": 18373, "-----------": 32284, "\u0120Responsibility": 42988, "\u0120Kin": 16645, "\u0120Relief": 30323, "\u0120incarnation": 29185, "\u0120radiator": 50036, "acca": 43552, "661": 47159, "\u0120Jenna": 45377, "eatured": 20980, "\u0120subdu": 35041, "aughtered": 32734, "oves": 5241, "RAFT": 44700, "\u0102": 190, "\u0120upgraded": 17955, "\u0120neurot": 42181, "\u0120Symptoms": 49559, "Stat": 17126, "\u0120activated": 13906, "\u0120Lowe": 34241, "lis": 27999, "\u0120throat": 13589, "\u0120sustainability": 26809, "\u0120Shares": 23997, "loads": 46030, "ffen": 46985, "\u0120politicians": 7602, "\u0120juxtap": 45273, "message": 20500, "ucha": 48022, "\u0120informing": 29140, "Er": 9139, "ishi": 21644, "\u0120mathematics": 19473, "\u0120centerpiece": 44595, "\u0120Bever": 22185, "\u0120dubious": 25292, "ioxide": 16671, "\u0120computed": 29231, "\u0120release": 2650, "\u0120basin": 34164, "shire": 10932, "company": 39722, "\u0120HER": 24906, "\u0120Eugene": 24532, "crete": 38669, "below": 35993, "\u0120amino": 23206, "\u0120circuit": 10349, "\u0120srf": 27924, "\u0120instant": 9113, "\u0120neutral": 8500, "Alexander": 38708, "\u0120Web": 5313, "responsible": 24358, "OTA": 29009, "\u0120directives": 34819, "\u0120Vest": 39034, "\u0120deform": 47577, "\u0120platoon": 39368, "\u0120heck": 22574, "\u0120Renault": 44083, "\u0120anybody": 9599, "\u0120conquering": 49977, "\u0120Rebell": 32032, "\u0120publishers": 17604, "aunch": 11429, "ountain": 18635, "\u0120tot": 2006, "508": 33042, "Ingredients": 41222, "\u0120kg": 14211, "\u0120irresponsible": 28726, "Default": 19463, "Hug": 48098, "directory": 34945, "\u0120Twisted": 40006, "USE": 19108, "\u0120Assistance": 25126, "\u0120Minion": 43786, "886": 44980, "\u0120suspense": 43527, "batch": 43501, "arnaev": 42311, "\u0120resumes": 42626, "\u0120underground": 11447, "\u0120pulses": 37783, "\u0120184": 28598, "\u0120Init": 44707, "regulation": 27727, "99": 2079, "\u0120cleanup": 27425, "stab": 39029, "\u0120stricken": 47455, "\u0120SSD": 21252, "legraph": 16606, "TEXTURE": 47648, "\u0120Renew": 29479, "\u0120miser": 18790, "\u0120federally": 33710, "\u0120Variant": 38215, "\u0120Gifts": 48462, "\u0120printers": 34654, "\u0120bargaining": 23189, "!\".": 48220, "\u0120halftime": 35185, "\u0120rebutt": 46472, "\u0120\u00e2\u0136\u0124": 19421, "\u0120loop": 9052, "\u0120inaccessible": 40604, "\u0120Sessions": 15184, "\u0120wages": 9400, "\u0120Active": 14199, "\u0120Wooden": 40143, "ocalypse": 15145, "\u0120protein": 7532, "\u0120Adv": 8007, "\u0120cafeteria": 43075, "\u0120years": 812, "std": 19282, "usters": 13654, "Star": 8248, "Dim": 29271, "\u0120chilling": 28010, "\u0120loading": 11046, "mitt": 20124, "Member": 27608, "\u0120abl": 46624, "\u0120tar": 13422, "\u0120Trayvon": 44037, "window": 17497, "\u0120eyebrows": 26928, "\u0120latter": 6846, "CHAT": 31542, "\u0120mul": 35971, "\u0120Advance": 25170, "Wind": 8731, "mingham": 17737, "ono": 29941, "yeah": 43669, "\u0120taught": 7817, "\u0120Intercept": 37127, "\u0120myster": 6141, "unity": 9531, "367": 27824, "\u0120dismantling": 41928, "\u0120ultraviolet": 49961, "UGC": 31179, "\u0120Girl": 7430, "\u0120reminis": 21484, "\u0120rabbit": 22746, "\u0120dreaming": 28368, "Japan": 16504, "cards": 27761, "\u0120analogy": 23970, "\u0120owner": 4870, "oglu": 49006, "\u0120differ": 13238, "\u0120moan": 44567, "onite": 46285, "end": 437, "px": 8416, "ze": 2736, "\u0120Probably": 18578, "Mod": 5841, "\u0120confusing": 15337, "\u0120automation": 22771, "Environmental": 47213, "elta": 12514, "\u0120louder": 27089, "\u0120Slack": 36256, "\u0120Syria": 4392, "us": 385, "\u0120vill": 4489, "\u0120paving": 47711, "OPA": 43345, "\u0120myriad": 24862, "\u0120Bastard": 47209, "\u0120raising": 8620, "\u0120NXT": 43308, "\u0120multiplied": 33096, "\u0120Michael": 3899, "\u0120barking": 48961, "iform": 6933, "berto": 32371, "asted": 8992, "blast": 39806, "\u0120\u00e6\u013e": 42164, "neg": 12480, "\u0120clipboard": 47999, "\u0120produce": 4439, "\u0120marriages": 20102, "\u0120central": 4318, "\u0120overwhelm": 43334, "\u0120Raven": 12552, "\u0120Redskins": 22038, "\u0120recreate": 32049, "\u0120LTD": 42513, "\u0120Cth": 34901, "\u0120questions": 2683, "\u0120Identified": 24517, "\u0120aloud": 32227, "ributed": 6169, "BALL": 45463, "\u0120storing": 23069, "\u0120bribery": 37388, "\u0120dialect": 23637, "\u0120Leone": 30399, "\u0120^": 10563, "Recently": 24661, "\u0120Late": 18319, "Setup": 40786, "\u0120Bengals": 24037, "\u0120initial": 4238, "\u0120Chinese": 3999, "Ber": 24814, "\u0120impulses": 37505, "\u00e9\u013d": 37239, "LP": 19930, "arios": 13010, "\u0120newcom": 22315, "Jay": 30568, "\u0120resil": 20036, "\u0120CTR": 34577, "\u0120televised": 30681, "\u0120Fathers": 30969, "ert": 861, "\u0120Ste": 2441, "\u0120ethos": 39676, "oling": 40949, "uders": 48739, "\u0120licking": 43390, "\u0120Conj": 37587, "\u0120cle": 1190, "*": 9, "kov": 21862, "Width": 30916, "social": 14557, "rouch": 48626, "\u0120CIS": 36159, "\u0120aux": 27506, "227": 24403, "eff": 14822, "\u0120chuckled": 39889, "997": 39647, "\u0120cubes": 34896, ":,": 45299, "iculture": 47428, "\u0120remix": 34471, "\u0120sill": 49276, "\u0120myths": 22886, "\u0120Salmon": 43956, "\u0120Nazis": 19147, "\u0120tcp": 48265, "\u0120murders": 17162, "\u0120Anyway": 21836, "NW": 27605, "\u0120Dwell": 42979, "cffff": 31727, "parable": 37064, "\u0120nursery": 41326, "\u0120Seeing": 25913, "\u0120ding": 44852, "000": 830, "\u0120authorities": 4773, "\u0120occurrences": 40279, "\u0120chiefly": 36305, "cpu": 36166, "288": 25270, "Avg": 48997, "\u0120unmist": 40016, "abil": 14991, "\u0120nests": 44382, "\u0120Desktop": 27850, "\u0120Kenny": 22102, "\u0120advised": 13030, "\u0120Constantinople": 46369, "commerce": 27061, "\u0120ali": 34965, "\u0120Joh": 16053, "\u0120domestic": 5928, "\u0120weeping": 45705, "angible": 39639, "vert": 1851, "mitted": 3291, "equ": 4853, "\u0120related": 3519, "\u0120disorders": 11916, "\u0120stra": 3534, "Muslim": 17067, "\u00ab": 104, "\u0120syn": 6171, "\u0120tmp": 45218, "pages": 31126, "\u0120Rookie": 36595, "\u0120Denmark": 16490, "\u0120settle": 12259, "tmp": 22065, "\u0120teeth": 9941, "surprisingly": 41199, "\u0120plugins": 20652, "\u0120Sammy": 44067, "\u0120Custom": 8562, "\u00e5\u00a4\u00a9": 25465, "getting": 37210, "\u0120Achievements": 49496, "\u0120wholly": 18174, "\u0120participation": 10270, "plays": 26024, "\u0120dormant": 41038, "frame": 14535, "\u0120Awesome": 25020, "ilogy": 19202, ")...": 26513, "\u0120w": 266, "\u0120Doyle": 31233, "\u0120ger": 27602, "\u0120referrals": 44285, "\u0120Kard": 37875, "561": 47915, "jack": 19650, "Dest": 24159, "\u0120Wil": 5187, "\u0120Meeting": 22244, "\u0120cryptocurrency": 20210, "\u0120cook": 4255, "\";": 8172, "xs": 34223, "\u0120meals": 13840, "enium": 47477, "zens": 8247, "\u0120Rates": 34864, "push": 14689, "avior": 15759, "\u0120sled": 46822, "Sel": 48767, "\u0120rectangle": 35991, "imeters": 31551, "\u0120bonuses": 17568, "\u0120Zerg": 37509, "\u0120Check": 6822, "\u0120Regiment": 35588, "OND": 18672, "leeve": 49189, "ERAL": 27130, "\u0120gamma": 34236, "remote": 47960, "\u0120regression": 20683, "Media": 13152, "javascript": 37495, "\u0120hi": 23105, "emet": 19261, "cknowled": 33165, "\u0120upstairs": 26148, "ulates": 15968, "\u0120Selling": 47919, "oteric": 38571, "opot": 43372, "\u0120Scope": 41063, "but": 4360, "olition": 50014, "idian": 19825, "\u0120cyt": 27104, "Lower": 31426, "\u0120coin": 10752, "olving": 10890, "\u0120sacrificing": 32698, "\u0120Scand": 26323, "ixie": 39291, "\u0120Flight": 13365, "mostly": 29471, "\u0120inline": 26098, "\u0120plaque": 35127, "Ne": 8199, "\u0120Rapt": 21301, "\u0120radically": 25330, "File": 8979, "mbol": 23650, "\u0120contagious": 43944, "\u0120redacted": 44740, "\u0120ANGEL": 44892, "\u0120scholarly": 31950, "\u0120Pref": 42195, "\u0120Frank": 5278, "\u0120treat": 2190, "\u0120cac": 40428, "\"/>": 26700, "\u0120mounts": 30790, "\u0120uncertain": 8627, "\u0120attracts": 33174, "VEN": 28290, "\u0120capture": 8006, "\u0120Sacrifice": 42036, "Gr": 8642, "\u0120organizer": 26311, "amsung": 30136, "\u0120evenly": 21894, "\u0120estimate": 8636, "\"\"": 15931, "\u0120cared": 19951, "\u0120cre": 1126, "pring": 12667, "\u0120297": 41103, "\u0120Wyatt": 39017, "470": 27790, "\u0120forg": 5784, "\u0120Hollande": 33590, "maps": 31803, ".):": 47308, "\u0120ordinary": 8850, "\u0120stitch": 24695, "\u0120Ramirez": 34783, "\u0120competing": 11780, "Ja": 33186, "\u00c3\u00a9e": 22161, "\u0120IMP": 30023, "quin": 21915, "ities": 871, "\u0120natives": 30962, "\u0120Jacobs": 27593, "\u0120TAG": 37801, "\u0120coil": 25661, "skill": 42401, "\u0120scholarships": 32055, "\u0120anecdotes": 44662, "\u0120Thanks": 6930, "Rot": 24864, "\u0120suggests": 5644, "\u0120Archangel": 28811, "\u0120tether": 49477, "\u0120methamphetamine": 39278, "\u0120enhance": 9494, "\u0120Coc": 18490, "finished": 43952, "drop": 14781, "\u0120assessing": 24171, "\u0120surprising": 6452, "rem": 2787, "uter": 11894, "\u0120fellows": 36627, "\u0120athletic": 15177, "\u0120constraint": 32315, "\u0120Jeffrey": 19627, "\u0120mere": 5019, "Davis": 36462, "\u0120Appearance": 43436, "\u0120poppy": 47867, "Care": 17784, "hesion": 32582, "\u0120entit": 26189, "\u0120whirlwind": 49676, "\u0120assumption": 13196, "uate": 4985, "\u0120Pru": 35511, "\u00c5": 129, "field": 3245, "enko": 32720, "\u0120brokerage": 48716, "\u01201982": 14489, "\u0120Citation": 42317, "\u0120Mim": 39312, "\u0120zombie": 15956, "ault": 1721, "\u0120WTO": 47074, "\u0120treacher": 32550, "Made": 24616, "\u0120320": 20959, "\u0120Interface": 26491, "\u0120cope": 19271, "\u0120proc": 13834, "mates": 7300, "\u0120Dew": 25075, "\u0120ethic": 29520, "\u0120reforms": 12506, "\u0120scorp": 47394, "info": 10951, "\u0120Heidi": 45518, "heimer": 16288, "\u0120Agricultural": 36694, "\u0120Leth": 34201, "\u0120linked": 6692, "heit": 29361, "\u0120tablet": 14147, "\u0120boyfriend": 13850, "\u0120cartoons": 30070, "str": 2536, "\u0120suspensions": 47228, "um": 388, "\u0120behest": 49672, "\u0120spontaneously": 37512, "\u0120mamm": 13418, "gebra": 29230, "ontent": 38564, "\u0120ops": 39628, "\u0120Warwick": 49398, "Item": 7449, "gers": 5355, "\u0120hep": 47585, "illegal": 47749, "\u0120LL": 27140, "\u0120grunt": 45836, "\u0120Step": 5012, "\u0120Teddy": 29345, "\u0120Through": 9561, "\u0120spans": 32727, "\u0120antibody": 35757, "Auth": 30515, "Je": 40932, "\u0120Puppet": 34447, "\u0120deviations": 47060, "\u0120Weir": 46669, "\u0120SUB": 28932, "\u0120Chain": 21853, "\u0120headsets": 44257, "\u0120sodium": 21072, "\\\"": 7879, "\u0120streaks": 48356, "\u0120oral": 12886, "\u0120amput": 40338, "\u0120Reflect": 36901, "\u0120doping": 42631, "\u0120Protesters": 46574, "quote": 22708, "\u0120resilience": 31307, "\u0120UN": 4725, "aucuses": 38271, "\u0120Shane": 24379, "Yep": 47834, "\u0120bids": 27837, "\u0120Sask": 23541, "\u0120Larry": 13633, "381": 36626, "\u0120hairc": 37363, "\u0120diamond": 15291, "\u0120cows": 22575, "\u0120alcohol": 5548, "PD": 5760, "\u0120Augusta": 46820, "IDS": 14255, "\u0120folders": 24512, "\u0120launched": 5611, "earing": 6648, "\u0120NON": 44521, "\u0120headline": 16534, "\u012057": 7632, "\u0120domestically": 42127, "\u01201993": 9656, "\u0120drank": 24070, "\u0120piracy": 30955, "\u0120Construct": 28407, "\u0120trace": 12854, "\u0120ST": 3563, "Dar": 32708, "755": 38172, "\u0120&": 1222, "\u0120gasped": 45236, "\u0120shift": 6482, "lock": 5354, "\u0120Ze": 9033, "\u0120Macro": 42755, "\u0120are": 389, "\u0120Vector": 20650, "ceive": 15164, "ck": 694, "\u0120Appalachian": 45375, "\u0120Album": 23999, "\u0120researchers": 4837, "\u0120Clinton": 2605, "pure": 37424, "\u0120joystick": 49485, "\u0120tumor": 22359, "hu": 13415, "\u0120remainder": 17675, "aroo": 38049, "checks": 42116, "\u0120disrespectful": 41987, "onte": 38599, "\u0120Bald": 17048, "orney": 4195, "\u0120Obviously": 16263, "\u0120BART": 42346, "\u0120compared": 3688, "nexus": 44520, "\u0120rape": 7262, "\u0120Samp": 42168, "o\u00c4\u0141an": 48030, "\u0120Foreign": 8708, "\u0120Observatory": 25758, "\u0120candidates": 5871, "keley": 13490, "e": 68, "lesiastical": 46360, "\u0120377": 42163, "\u0120compound": 13061, "\u0120leaps": 37312, "\u0120\u00c2\u0142\u0120\u00c2\u0142\u0120\u00c2\u0142\u0120\u00c2\u0142\u0120\u00c2\u0142\u0120\u00c2\u0142\u0120\u00c2\u0142\u0120\u00c2\u0142": 45706, "Haunted": 46979, "\u00e3\u0125\u0125\u00e3\u0125\u012b": 45435, "\u0120NAT": 10149, "\u0120Ab": 2275, "\u0120incess": 41106, "\u0120rebellion": 21540, "leave": 47408, "\u0120Fulton": 44373, "\u0120Mars": 8706, "\u0120Brit": 2490, "\u0120rebuilt": 30080, "indust": 23213, "oser": 13416, "\u0120Bee": 24719, "\u0120beforehand": 27091, "\u0120CIA": 7688, "\u0120Safety": 11233, "\u0120vel": 11555, "isible": 12843, "\u0120sprites": 42866, "natal": 33150, "\u0120Defeat": 41397, "ostics": 34558, "\u0120early": 1903, "nature": 21353, "\u0120dismissed": 11126, "Text": 8206, "\u0120Perry": 14105, "\u0120bets": 29222, "\u0120cycles": 16006, "\u0120Starr": 37884, "agonist": 15239, "\u0120ingenuity": 45207, "\u0120innovations": 25438, "\u0120sensors": 15736, "\u0120habitats": 35308, "CONCLUS": 47542, "Poll": 39176, "\u0120double": 4274, "\u0120enorm": 8885, "\u0120Maximum": 22246, "\u0120Prem": 6929, "\u0120Correct": 22941, "independent": 34750, "ishers": 39116, "ru": 622, "\u0120Laf": 31528, "\u0120Steph": 39644, "628": 48200, "Seven": 31334, "\u0120Concept": 26097, "olulu": 39814, "\u0120tackles": 18034, "\u0120ranks": 9803, "strous": 22501, "\u0120Helmet": 35900, "\u0120Signed": 36215, "\u0120Vigil": 39840, "\u0120Heather": 24253, "\u0120thou": 14210, "ator": 1352, "ilipp": 8908, "\u0120Satanic": 41518, "check": 9122, ".''.": 50113, "krit": 44531, "iciary": 13556, "\u0120collaborating": 38152, "\u0120Cree": 45699, "great": 18223, "\u0120FreeBSD": 35841, "pill": 27215, "\u0120yard": 12699, "\u0120nothing": 2147, "ela": 10304, "\u0120Cena": 46625, "\u0120mitochond": 25387, "imates": 26748, "\u0120newly": 8308, "\u0120dating": 10691, "\u0120redef": 34087, "Behind": 34163, "\u0120gamer": 26713, "\u0120510": 35148, "\u0120Alic": 34745, "ertility": 27651, "eton": 18483, "\u00c2\u00af": 5196, "arded": 10676, "={": 34758, "\u0120avoiding": 14928, "kt": 21841, "\u0120pierced": 41159, "\u0120Christina": 33673, "ocrats": 21988, "Round": 22685, "chip": 35902, "\u0120pref": 7694, "\u0120Strait": 41407, "\u0120Ancient": 13406, "\u0120grows": 13676, ":'": 32105, "Dep": 12156, "ria": 7496, "\u0120Danielle": 39808, "\u0120371": 47343, "\u0120moratorium": 41772, "\u0120Rounds": 49049, "\u0120\u00c2\u00b6": 30581, "lda": 18986, "\u0120Richards": 14743, "\u0120Ch": 609, "\u0120scr": 6040, "\u0120Schw": 20469, "\u0120ranked": 10307, "\u0120suburb": 23200, "\u0120Silicon": 18210, "\u0120bag": 6131, "\u0120promo": 30879, "\u0120Tammy": 50070, "\u0120fitt": 43500, "\u0120kill": 1494, "457": 33032, "\u0120UDP": 36428, "here": 1456, "\u0120sites": 5043, "\u0120raged": 49000, "\u0120beating": 11226, "\u0120dismissive": 49010, "Head": 13847, "\u00e2\u0136\u0122\u00e2\u0136\u0122\u00e2\u0136\u0122\u00e2\u0136\u0122\u00e2\u0136\u0122\u00e2\u0136\u0122\u00e2\u0136\u0122\u00e2\u0136\u0122": 28542, "\u0120Executive": 10390, "inho": 20327, "DEN": 41819, "\u0120Supply": 22663, "\u0120rate": 2494, "\u0120mini": 9927, "\u0120smells": 25760, "anski": 44978, "iscovery": 40821, "\u0120sub": 850, "\u0120diseases": 10040, "\u0120Appro": 20010, "\u0120ANG": 33278, "\u0120considered": 3177, "\u0120pragmatic": 33119, "\u0120pat": 1458, "\u012001": 5534, "\u0120Employment": 24656, "\u0120pioneered": 43185, "\u0120(/": 50247, "YR": 38162, "Rock": 19665, "\u0120Quan": 42312, "ctory": 25977, "agate": 37861, "NECT": 48842, "cko": 37549, "\u0120Sunni": 18592, "utsu": 36567, "\u0120Euras": 35769, "\u0120predecessors": 27677, "\u0120genius": 15632, "\u0120Bec": 15780, "\u0120surgeries": 33624, "\u0120Anch": 29253, "\u0120Rhino": 47759, "\u0120Impro": 12205, "\u0120buggy": 46542, ").": 737, "\u0120quitting": 34161, "\u0120backers": 18917, "\u00e3\u0123\u00ab": 28618, "\u0120builder": 27098, "posing": 32927, "reys": 46703, "\u0120recruits": 23096, "\u0120takeoff": 45306, "\u00e3\u0125\u00b3": 6527, "\u0120stubborn": 24444, "izza": 9990, "\u0120columns": 15180, "\u0120remorse": 34081, "ish": 680, "\u0120moms": 34015, "\u0120prick": 41409, "\u0120Section": 7275, "\u00e9\u0138": 38461, "\u0120militant": 18614, "\u0120transitioned": 49237, "\u0120DAM": 29506, "\u0120improvis": 47833, "\u0120Disco": 19718, "\u0120government": 1230, "\u0120burgl": 26574, "\u0120Twain": 49824, "AD": 2885, "ced": 771, "\u0120Growth": 19045, "\u0120misogyn": 22795, "\u0120Kil": 19902, "idget": 17484, "izations": 4582, "\u0120Mind": 10175, "ok": 482, "\u0120Ko": 17634, "Rap": 35230, "\u0120zero": 6632, "\u0120Fusion": 21278, "ibli": 29142, "serious": 34009, "commit": 41509, "If": 1532, "angered": 19041, "my": 1820, "\u0120Snow": 7967, "\u0120compatibility": 17764, "bean": 14289, "\u0120Frederick": 26113, "\u0120smiles": 21845, "\u0120insects": 19435, "akable": 29033, "\u0120behind": 2157, "\u0120ZIP": 42977, "Network": 26245, "\u0120Charter": 23006, "\u0120predatory": 35341, "')": 11537, "\u0120enough": 1576, "\u0120RX": 24202, "\u0120bears": 13062, "astical": 32044, "ergus": 13607, "IT": 2043, "\u0138": 244, "\u0120emb": 4072, "CO": 8220, "\u0120fear": 3252, "utterstock": 28819, "\u0120champagne": 37392, "\u0120BM": 29944, "Password": 35215, "\u0120Naj": 37135, "wd": 16993, "\u0120Admission": 44025, "zu": 27624, "\u0120Google": 3012, "\u0120crown": 12389, "\u00e2\u0122\u00b2": 17478, "enged": 47422, "imm": 8608, "\u0120DeL": 49571, "\u0120nails": 23361, "\u0120nausea": 32122, "\u0120Ens": 48221, "\u0120abortions": 19985, "\u0120Marines": 19586, "(_": 28264, "\u00e3\u0124\u0135": 22174, "\u0120trailer": 12268, "\u0120job": 1693, "\u0120meltdown": 37824, "\u0120Frequ": 22192, "\u0120blo": 24924, "\u0120fingerprint": 25338, "Dun": 30128, "OY": 21414, "essler": 33730, "2009": 10531, "\u0120Conce": 44530, "\u0120MV": 32947, "\u0120two": 734, "vation": 10473, "\u0120commuters": 36799, "\u0120medieval": 19955, "\u0120determines": 15947, "\u0120wat": 4383, "\u0120Vec": 38692, "\u0120routing": 28166, "\u0120cho": 1727, "\u0120Appeal": 31876, "\u0120ambassador": 14791, "starting": 38690, "\u0120CLIENT": 45148, "\u0120confirmation": 12641, "\u0120Ralph": 20993, "\u0120scra": 19320, "\u0120openness": 30913, "SPA": 50087, "ELS": 37142, "\u0120lightsaber": 45282, "\u0120rectangular": 36954, "\u0120defensively": 33352, "\u0120Georgetown": 31393, "Absolutely": 40501, "\u0120Watts": 27555, "NT": 11251, "\u0120stockpile": 45360, "\u0120AMC": 36239, "\u0120completion": 11939, "\u0120property": 3119, "\u0120ballpark": 40598, "Left": 18819, "\u0120Boom": 31824, "\u0120sorts": 10524, "\u0120ambig": 18203, "\u0120sv": 38487, "\u0120Parents": 28231, "\u0120softly": 26625, "elf": 7046, "\u0120boasted": 32758, "\u0120mileage": 33935, "gear": 31763, "\u0120specifying": 31577, "ilian": 35824, "\u0120transformation": 13389, "Ide": 41452, "\u0120personally": 7620, "lett": 15503, "\u0120browser": 6444, "\u0120every": 790, "hai": 44488, "\u0120minions": 22811, "\u0120Ka": 11611, "\u0120Wen": 31164, "\u0120lib": 9195, "ba": 7012, "\u0120Temperature": 34467, "makers": 6620, "\u0120lent": 26269, "\u0120luxurious": 35985, "\u00d8\u00af": 38843, "014": 28645, "\u0120Civ": 47909, "\u0120callback": 23838, "icularly": 22585, "edIn": 20801, "got": 23442, "\u0120by": 416, "\u00e7\u013e": 40367, "\u0120inciting": 47494, "ensical": 46165, "\u0120USC": 18928, "\u0120ma": 17266, "itor": 2072, "\u0120sun": 4252, "\u0120dogma": 40937, "optim": 40085, "\u0120Compl": 20011, "\u0120hybrid": 14554, "\u0120configuration": 8398, "1977": 37781, "\u0120Improved": 24125, "\u0120Cant": 16821, "\u0120deputy": 10636, "\u0120tire": 15867, "\u0120fu": 14035, "\u0120observable": 42550, "\u0120completing": 14339, "\u0120Brid": 28320, "\u00e2\u0122\u0136\"": 19056, "\u0120Mermaid": 45523, "place": 5372, "\u0120voter": 10765, "\u0120theorists": 33142, "\u0120Sample": 27565, "ition": 653, "\u0120vind": 29178, "\u0120MT": 19308, "\u0120357": 45210, "\u0120oxygen": 11863, "stated": 21989, "\u0120reps": 20982, "\u0120leve": 34002, "382": 36243, "pred": 28764, "anne": 21952, "\u0120salary": 9588, "\u0120Bab": 12400, "\u0120BIOS": 27553, "\u0120reim": 21123, "halla": 41911, "\u0120\u00f0\u0141\u013a": 30325, "\u0120Messiah": 38216, "\u0120abandon": 6871, "lete": 5807, "\u0120valves": 41843, "apest": 35746, "song": 34050, "role": 18090, "\u0120Coy": 26887, "\u0120Indonesian": 28259, "gb": 22296, "\u0120%%": 43313, "VILLE": 38526, "\u0120fish": 5916, "\u0120hilarious": 20105, "\u0120ticks": 36066, "510": 33690, "\u0120implant": 29016, "xton": 22874, "tom": 39532, "eral": 1691, "\u0120paran": 23511, "ardi": 22490, "\u0120interested": 4609, "acting": 27362, "\u0120transformed": 14434, "\u00e3\u0124\u00b8": 21091, "pin": 11635, "\u0120Bucc": 31978, "KY": 31159, "\u0120Slaughter": 41148, "\u0120radios": 40023, "\u0120Patriots": 13104, "\u0120scoring": 9689, "doms": 23686, "________": 2602, ">)": 43734, "\u00e3\u0122": 5099, "\u0120langu": 2786, "em": 368, "\u0120indu": 9318, "imedia": 20626, "abortion": 32396, "phant": 33959, "\u0120wart": 32943, "\u0120triumphant": 44005, "\u0120mandate": 14598, "\u0120millennials": 30418, "\u0120Giov": 36089, "abe": 11231, "\u0120constituency": 28280, "\u0120obs": 10201, "\u0120z": 1976, "\u0120prag": 23864, "LOAD": 35613, "\u0120ret": 1005, "\u0120revolutionary": 12253, "Water": 19184, "\u0120trust": 3774, "\u0120blessed": 18259, "\u0120Five": 10579, "\u0120Following": 14207, "\u0120Story": 8362, "although": 16670, "\u0120ejac": 39426, "\u0120works": 2499, "game": 6057, "\u0120metropolitan": 27953, "\u0120acquaint": 24852, "Con": 3103, "xa": 27865, "\u0120boosters": 47949, "stack": 25558, "\u0120deflation": 46507, "Wal": 21902, "\u0120consume": 15000, "\\/": 11139, "ighth": 10887, "ellen": 40635, "\u0120},": 8964, "HL": 6581, "oba": 19981, "\u0120Toys": 35397, "\u0120architectural": 27070, "action": 2673, "\u0120Yankees": 20082, "istence": 13274, "\u0120heaviest": 45568, ">>\\": 34516, "gan": 1030, "\u0120Baz": 47099, "rams": 9474, "\u0120Garcia": 18555, "\u0120Chatt": 39444, "\u0120knit": 30495, "paying": 32629, "leans": 11861, "\u0120teen": 6036, "\u0120data": 1366, "\u0120governor": 8153, "Marx": 45258, "\u0120philos": 5622, "\u0120depressed": 19095, "\u0120insight": 11281, "bed": 3077, "\u0120stages": 9539, "\u0120measurable": 40757, "\u0120caliber": 28139, "\u0120dungeons": 33062, "\u0120Merchants": 44682, "which": 4758, "\u0120bows": 37469, "\u0120colonial": 17091, "\u0120Jacqu": 44726, "\u0120kil": 8769, "\u0120effic": 4396, "owing": 7855, "\u0120hollow": 20596, "\u0120Russell": 11563, "\u0120imitate": 44638, "\u0120Timbers": 40200, "\u0120centered": 19254, "larg": 15521, "\u01202010": 3050, "\u0120wallpaper": 39328, "likely": 40798, "\u0120`": 4600, "\u0120cursor": 23493, "aw": 707, "\u0120Rebirth": 35538, "\u0120head": 1182, "\u0120complexity": 13357, "\u0120abst": 16552, "strings": 37336, "annis": 45017, "\u00a9": 102, "iologist": 31599, "Region": 47371, "Billy": 49640, "\u0120Batman": 9827, "ortium": 25182, "\u0120Sands": 35359, "\u0120compile": 17632, "\u0120serpent": 33727, "\u0120salmon": 24535, "\u0120LIA": 43031, "\u0120preclude": 44125, "arna": 28610, "\u0120interest": 1393, "\u0120echo": 9809, "sudo": 24032, "\u0120Representatives": 17132, "\u0120comics": 12770, "quila": 43652, "\u0120appe": 35787, "iosyncr": 48702, "\u0120Mis": 14136, "\u0120hun": 5494, "reement": 10237, "\u0120215": 22951, "\u0120Socialist": 21773, "\u0120Veget": 23892, "\u0120inoc": 49027, "\u0120Honor": 21071, "\u01204": 604, "Gary": 33820, "\u0120inhab": 11381, "wait": 17077, "\u0120relentless": 25488, "\u0120departed": 24057, "\u0120hinge": 41968, "\u0120concent": 5280, "asms": 34432, "\u0120Every": 3887, "\u0120gly": 13874, "],[": 38430, "sav": 39308, "ongs": 28079, "YS": 16309, "\u0120global": 3298, "\u0120reper": 23269, "\u0120ounces": 24405, "requently": 37971, "ww": 1383, "ology": 1435, "\u0120handful": 10089, "\u0120assessments": 21837, "\u0120apparatus": 21152, "\u0120universe": 6881, "\u0120Ake": 45296, "\u0120fame": 16117, "No": 2949, "\"},": 25719, "activity": 21797, "Hours": 39792, "Manufact": 44445, "Events": 37103, "Now": 3844, "\u0120internationally": 19765, "Meet": 29318, "\u0120regularly": 7987, "\u0120Kennedy": 10401, "\u0120Julia": 22300, "\u0120goats": 35199, "bably": 11921, "\u0120linemen": 41683, "Log": 11187, "\u0120oddly": 31414, "^^^^": 39397, "\u0120Table": 8655, "\u0120lb": 18360, "kus": 45614, "\u0120integ": 4132, "\u0120allows": 3578, "\u0120prohibit": 20767, "\u0120Sanskrit": 46178, "\u0120syntax": 15582, "uctor": 33029, "\u0120mc": 36650, "\u0120Webs": 47736, "players": 32399, "\u0120abandoned": 9958, "Pure": 49548, "\u00e3\u0125\u00ab": 9202, "\u0120Summary": 21293, "\u0120isolate": 28091, "\u0120Dwarf": 33196, "bug": 25456, "\u0120adventure": 8855, "\u0120diagnoses": 40567, "\u0120protective": 14153, "ificial": 9542, "\u0120laughed": 13818, "\u0120cessation": 35120, "\u0120legal": 2742, "luster": 48375, "\u0120punished": 16851, "\u0120inequality": 12791, "\u0120rift": 36788, "\u0120thyroid": 30523, "\u0120senators": 15469, "\u0120rs": 44608, "\u0120finish": 5461, "~~~~~~~~": 15116, "\u0120talents": 18054, "etta": 15253, "\u0120Went": 29866, "\u0120onion": 21670, "Samsung": 32334, "\u0120overview": 16700, "\u0120608": 39084, "Gy": 44802, "\u0120slot": 10852, "\u0120WAS": 21725, "\u0120Loop": 26304, "Series": 27996, "\u0120vou": 25211, "awatts": 46684, "\u0120Maharashtra": 41624, "\u0120knocks": 36539, "elle": 13485, "Depending": 41156, "\u0120Kodi": 44129, "\u0120guide": 5698, "imore": 9401, "\u0120Pastebin": 29582, "\u0120Airbus": 39173, "\u0120implemented": 9177, "\u0120Uganda": 30872, "\u0120incomp": 13352, "Source": 7416, "opsy": 44522, "Pont": 48039, "\u0120mundane": 30741, "loe": 24617, "\u0120inflicted": 27010, "\u0120Prosecut": 26233, "\u0120adept": 34080, "\u0120transformations": 38226, "\u0120Milan": 21574, "\u0120Lamp": 28607, "\u0120smell": 8508, "Stream": 12124, "ues": 947, "\u0120Pry": 32500, "\u0120Did": 7731, "\u0113": 207, "388": 30460, "\u0120forming": 14583, "\u0120Lowell": 47657, "\u0120cra": 15671, "\u0120CPU": 9135, "\u0120Prism": 35417, "\u01201100": 36566, "\u0120phylogen": 43422, "UTION": 35354, "\u0120in": 287, "\u0120sanct": 25417, "we": 732, "measures": 47336, "ptive": 21665, "\u0120Pog": 48974, "\u0120tarn": 40851, "gyn": 40183, "\u0120RF": 20445, "\u0120plotting": 29353, "\u0120objects": 5563, "TV": 6849, "\u0120Kham": 45159, "lund": 37525, "\u0120Cyber": 15101, "\u0120New": 968, "\u0120maritime": 30017, "\u0120ICO": 30674, "\u0120vaccinations": 46419, "\u0120Toledo": 36026, "\u0120inhabitants": 17622, "mod": 4666, "\u0120Sz": 27974, "\u0120nurt": 23868, "\u0120bounce": 20110, "\u0120Zombies": 23274, "YE": 48743, "\u0120122": 19409, "224": 24137, "\u0120furiously": 44896, "\u0120client": 5456, "\u0120everywhere": 8347, "\u0120Nebraska": 18329, "\u0120Rot": 18481, "rogram": 39529, "insky": 19870, "\u0120Jos\u00c3\u00a9": 36997, "\u0120CONTROL": 49833, "\u0120Messi": 36128, "\u0120exhibitions": 48130, "\u0120Morrow": 34693, "\u0120provisional": 37042, "oris": 37279, "\u0120stocking": 49774, "bart": 16575, "ILD": 26761, "ernandez": 18092, "\u0120monuments": 28814, "\u0120upper": 6727, "\u00e3\u0123\u00a6": 28134, "\u0120interacted": 49236, "\u0120shrink": 22085, "\u0120caus": 26846, "\u0120behaviors": 14301, "\u0120unloaded": 49975, "\u0120advisory": 20852, "\u0120Moment": 29278, "Chan": 48407, "\u0120practically": 14547, "\u0120354": 46752, "\u0120Female": 15396, "\u0120asynchronous": 39354, "ATH": 12599, "\u0120disabilities": 19358, "\u0120Sana": 44500, "very": 548, "\u0120Show": 5438, "\u0120Manip": 35045, "\u0120margin": 10330, "cephal": 43996, "dayName": 45392, "\u0120biology": 17219, "/)": 34729, "267": 25674, "\u0120multiplier": 33090, "\u0120Rez": 47753, "\u0120zones": 14123, "itable": 4674, "erker": 35779, "\u0120mattress": 33388, "571": 42875, "\u0120conspiring": 50186, "\u0120punct": 21025, "\u0120intriguing": 19827, "\u0120fund": 1814, "cap": 11128, "Adapter": 47307, "\u0120repeal": 14634, "\u0120ante": 29692, "\u0120Yep": 40810, "isan": 9057, "\u0120slightest": 24917, "\u0120hippocamp": 28253, "\u0120GMT": 16987, "Public": 15202, "ink": 676, "rors": 5965, "\u0120colours": 18915, "\u0120runoff": 37536, "\u0120Finished": 42931, "\u0120sparing": 43110, "gm": 39870, "\u0120Blooming": 44026, "\u0120Wiz": 41122, "\u0120Dram": 36736, "\u0120Dancing": 31799, "\u0120titanium": 41284, "play": 1759, "\u0120inform": 4175, "\u0120cans": 23916, "YouTube": 33869, "\u0120thigh": 19341, "soever": 15485, "\u0120Reports": 17905, "\u0120flex": 7059, "\u0120grocer": 34185, "\u0120heroism": 48661, "secut": 4552, "STAT": 35744, "PDATED": 49316, "779": 40393, "\u0120Turk": 8484, "entials": 14817, "\u0120pept": 34337, "\u0120orc": 26393, "OTE": 23051, "\u0120Line": 6910, "imet": 38813, "\u0120hacked": 19957, "\u0120Luke": 11336, "\u0120general": 2276, "19": 1129, "\u0120Hack": 18281, "Toronto": 31359, "\u0120Hug": 12905, "{\\": 31478, "\u0120NJ": 18732, "ORS": 20673, "\u0120foreground": 36282, "\u0120unrem": 49733, "\u0120fitting": 15830, "685": 35978, "\u0120memorial": 17357, "graph": 34960, "\u0120mineral": 18352, "\u0120accompl": 6424, "\u0120complaining": 18705, "\u0120subsidiaries": 34943, "\u0120Boss": 15718, "uk": 2724, "\u0120laughs": 22051, "Xbox": 43377, "\u0120resort": 12600, "\u0120correspondence": 22440, "\u0120possessions": 23309, "\u012f": 235, "ige": 10045, "\u0120tre": 2054, "\u0120reminding": 30047, "\u0120twilight": 45493, "\u0120NTS": 43754, "xtap": 42915, "\u0120ROS": 48263, "\u0120illegitimate": 41368, "\u0120minimalist": 44693, "\u0120hideous": 42269, "\u0120Kinnikuman": 43010, "\u00af": 107, "\u0120adult": 4044, "\u0120Equality": 31428, "olon": 43645, "hetically": 31786, "\u0120navigate": 16500, "naires": 43317, "Mac": 14155, "\u0120-=": 48185, "Normally": 43625, "\u0120rope": 17182, "\u0120reviewer": 37823, "Ont": 45984, "\u0120guys": 3730, "aimon": 49438, "\u0120inhibition": 30725, "\u0120loneliness": 37378, "\u0120botched": 44663, "Downloadha": 41551, "\u00c3\u012b": 38351, "\u0120Homeless": 47706, "ogen": 6644, "\u0120tracing": 35328, "\u0120Youtube": 27431, "\u0120circumst": 5397, "51": 4349, "bor": 2865, "\u0120charitable": 21803, "ators": 2024, "\u0120can": 460, "\u0120we": 356, "for": 1640, "\u0120Yards": 42673, "\u0120sausage": 31889, "CT": 4177, "\u0120Atkinson": 49042, "\u0120bomber": 24065, "\u0120revenge": 15827, "\u0120prospect": 6034, "Tab": 33349, "\u0120spelling": 24993, "\u0120whining": 48978, "\u0120comprising": 27918, "Fourth": 45530, "\u0120Air": 3701, "\u0120CW": 24006, "\u0120number": 1271, "\u0120unpopular": 24166, "\u0120bullpen": 35093, "\u0120Steam": 9094, "\u0120doct": 10412, "\u0120Judiciary": 22351, "pheus": 46421, "\u0120Eventually": 16178, "etermin": 13221, "\u0120rotating": 24012, "\u0120Identity": 27207, "Blocks": 45356, "inian": 24605, "JA": 37048, "\u0120Lund": 33609, "\u0120Tw": 1815, "\u00e2\u0122\u00a6.\"": 50248, "amed": 2434, "atar": 9459, "ANY": 31827, "\u0120creates": 8075, "\u0120confer": 35132, "\u0120exterior": 20897, "\u0120Steve": 6542, "\u0120stabbed": 21512, "\u0120apologise": 39012, "Abyss": 49073, "\u0120wishing": 24433, "\u0120PH": 9370, "akes": 1124, "\u0120175": 19038, "\u0120precinct": 28802, "\u0120paths": 13532, "MIC": 49884, "\u0120fiasco": 49023, "\u0120Fishing": 28944, "\u0120DG": 46133, "attacks": 38458, "\u0120externalToEVA": 30212, "\u0120accelerated": 23312, "\u0120Tag": 17467, "ittal": 39979, "\u0120does": 857, "\u0120standpoint": 22116, "\u0120Bet": 5147, "\u0120simpler": 18599, "\u0120connecting": 14320, "ench": 24421, "\u0120excel": 27336, "OVER": 41983, "rums": 45241, "cor": 10215, "\u0120agreements": 11704, "enic": 35866, "\u0120cap": 1451, "\u0120locals": 17205, "OTO": 26631, "\u0120Moscow": 9070, "\u0120285": 33015, "\u0120cups": 14180, "\u0120Yanuk": 37068, "Unlike": 18521, "\u0120heroic": 23523, "\u0120influenced": 12824, "Ar": 3163, "\u0120blinked": 40360, "conv": 42946, "things": 27971, "o": 78, "\u0120spac": 34752, "\u0120retract": 34449, "\u0120humanities": 47824, "\u0120Guards": 28135, "\u0120MH": 20752, "170": 17279, "\u0120Thrones": 20902, "\u0120originating": 37962, "WAYS": 42451, "\u0120packs": 15186, "\u0120optim": 6436, "\u0120today": 1909, "\u0120Uncle": 23169, "\u0120r\u00c3\u00a9": 40560, "\u0120aston": 16128, "\u0120Ice": 6663, "Aid": 44245, "izational": 22684, "alez": 22149, "sf": 28202, "468": 38472, "ursions": 42394, "\u0120waking": 23137, "\u0120marketed": 29450, "Comp": 7293, "\u0120Schl": 48467, "\u0120versatility": 31689, "\u0120pit": 6028, "oshenko": 43934, "\u0120dying": 9950, "Tap": 45081, "\u0120Harper": 12686, "\u0120customizable": 38322, "\u0120vectors": 30104, "democracy": 42017, "\u0120preference": 12741, "pipe": 34360, "god": 25344, "\u0120plunge": 32669, "\u012030": 1542, "\u0120trop": 14673, "0000000000000000": 25645, "OUS": 20958, "\u0120basil": 37792, "\u0120256": 17759, "REP": 35316, "OAD": 41048, "\u0120champions": 7827, "\u0120Arabia": 9671, "\u0120Songs": 31772, "\u0120Infinity": 22385, "\u0120DMCA": 49648, "edd": 6048, "\u0120Aadhaar": 47727, "\u0120Rouhani": 34915, "\u0120companies": 2706, "big": 14261, "\u0120slur": 40066, "rastructure": 6410, "\u0120Byron": 36719, "\u0120checked": 10667, "nesium": 27619, "\u0120descending": 31491, "\u0120tuned": 16524, "\u00e3\u0123\u00ae\u00e9": 33426, "\u0120findings": 6373, "\u0120likelihood": 14955, "property": 26745, "adian": 18425, "\u0120condemn": 15402, "\u0120search": 2989, "\u0120benefic": 25021, "cible": 37369, "\u0120Remember": 11436, "ollow": 950, "\u0120consisted": 19954, "\u0120Ali": 12104, "gas": 22649, "elsh": 21564, "itation": 3780, "Pict": 21300, "\u0120matt": 23963, "\u0120dreams": 10625, "\u0120scripting": 36883, "\u0120Policy": 7820, "\u0120jars": 33008, "\u0120mom": 1995, "\u0120comforting": 34228, "\u0120PSP": 48651, "\u0120Francisco": 6033, "\u0120Lair": 15067, "produced": 32783, "Audio": 21206, "\u0120primitive": 20049, "528": 49351, "wik": 20763, "\u0120194": 30483, "Fu": 41133, "\u0120reassuring": 36450, "dra": 32491, "\u0120Cow": 10417, "\u0120expelled": 27307, "\u0120Sauce": 37618, "\u0120Doll": 22209, "MAG": 45820, "\u0120obviously": 6189, "\u0120lodge": 35362, "Everybody": 28172, "\u0120Pyth": 48657, "\u0120promised": 8072, "ugi": 45659, "\u0120phen": 6566, "\u0120dozen": 8667, "Ancient": 44974, "]),": 46570, "\u0120insulin": 14588, "\u012023": 2242, "esar": 18964, "oice": 2942, "\u0120lodged": 31984, "\u0120Se": 1001, "\u0120injust": 19019, "\u0120grasped": 45569, "\u0120Conc": 13223, "tal": 39240, "issy": 36419, "compl": 23855, "\u0120Klux": 45092, "\u0120Ha": 9398, "\u0120Pres": 1763, "created": 25598, "\u0120impress": 14947, "\u0120limbs": 21755, "Ev": 15200, "claw": 43143, "\u0120With": 2080, "\u0120articulate": 32154, "\u0120Chero": 37156, "\u0120garment": 30594, "\u0120attaching": 39550, "\u0120Ey": 21566, "thro": 26110, "\u0120Stamford": 47604, "PP": 10246, "\u0120RNC": 37570, "ocal": 4374, "clip": 15036, "\"></": 23984, "\u0120principally": 41889, "umble": 10344, "\u0120pushing": 7796, "ribly": 16358, "La": 14772, "\u0120overloaded": 50068, "\u0120Duffy": 35829, "\u0120candidacy": 24514, "Eva": 44239, "Enough": 47323, "\u0120Pharma": 41845, "\u0120ageing": 41310, "\u0120Myst": 32347, "\u0120banners": 31931, "\u0120directory": 8619, "701": 41583, "\u0120Resort": 28345, "\u00bd": 121, "\u0120significance": 12085, "\u0120signifies": 43854, "ried": 2228, "Pir": 46772, "ge": 469, "ashington": 2542, "\u0120Myster": 12099, "\u0120Naruto": 22170, "availability": 47274, "\u0120relate": 15124, "\u0120Kickstarter": 14437, "\u0120PLA": 45838, "\u0120Gry": 33958, "founder": 15454, "\u0120Emil": 44272, "\u0120handsome": 22665, "EStreamFrame": 43177, "\u0120leak": 13044, "\u0120competent": 19701, "\u0120Hopefully": 19996, "\u0120Rah": 18655, "\u0120Bolt": 21764, "\u0120dignity": 16247, "\u0120mes": 18842, "\u0120slavery": 13503, "\u0120Spir": 25958, "\u0120WRITE": 44423, "elve": 9954, "\u0120trout": 49411, "\u0120negotiating": 19025, "\u0120respected": 14462, "\u0120enzyme": 27679, "herence": 23545, "olkien": 31052, "\u0120suits": 14803, "\u0120Portugal": 19101, "\u0120Classics": 40184, "\u0120pitchers": 25259, "\u0120Best": 6705, "\u0120sque": 35776, "\u0120Set": 5345, "\u0120implicated": 28344, "\u0120medd": 26551, "Gi": 33704, "\u0120',": 46083, "\u0120sts": 39747, "God": 13482, "303": 22572, "iger": 8254, "undai": 44591, "dream": 25966, "VC": 15922, "\u0120soft": 2705, "future": 37443, "\u0120Phelps": 40587, "\u0120Princ": 14117, "\u0120Dig": 7367, "\u0120Levy": 32036, "itia": 36723, "\u0120worth": 2861, "razy": 5918, "\u0120telling": 5149, "\u0120ii": 21065, "ctive": 14070, "\u0120Kra": 21553, "\u0120LORD": 35750, "\u0120sizeof": 39364, "\u0120weighing": 21990, "download": 15002, "\u0120Potion": 34018, "358": 31128, "\u0120existence": 6224, "\u0120conceivable": 40324, "\u0120descendant": 45923, "\u0120cad": 20603, "Mess": 36479, "\u0120HF": 42253, "\u0120Baby": 14801, "\u0120logs": 17259, "picking": 48864, "\u0120Word": 9678, "\u0120voluntarily": 22295, "\u0120turtle": 28699, "\u0120Penny": 25965, "\u0120rese": 1599, "\u0120impacting": 40288, "gian": 18299, "ictional": 47273, "hei": 27392, "ayer": 2794, "\u0120Eng": 1985, "\u0120wherein": 22881, "\u0120wasted": 18359, "\u0120lifetime": 10869, "\u0120inco": 44237, "updated": 43162, "\u0120conversations": 10275, "dd": 1860, "raud": 22863, "\u0120Sounds": 27107, "\u0120An": 1052, "1027": 40403, "\u0120Throw": 22481, "\u0120Catherine": 22578, "Un": 3118, "aniel": 6321, "\u0120Mit": 11707, "\u0120offered": 4438, "\u0120Crusher": 44711, "broken": 25826, "avia": 40543, "\u00e7\u00b7": 45784, "\u0120Mariners": 35109, "\u0120embedded": 14553, "\u0120Krish": 31372, "\u0120counts": 9853, "Cos": 36734, "536": 44468, "\u0120mid": 3095, "items": 23814, "\u0120searching": 10342, "mere": 34671, "Cmd": 40109, "\u0120Eleanor": 45566, "Sat": 20245, "\u0120retake": 41754, "quarter": 24385, "aah": 37500, "More": 5167, "\u0120Kids": 17476, "\u00e2\u013b\u00a5": 39908, "aos": 7495, "\u0120Bere": 37951, "\u0120obligation": 12990, "\u0120battalion": 36328, "\u0120Mae": 34673, "\u0120355": 36561, "\u01201963": 19342, "\u0120Maxwell": 28276, "\u0120subjected": 16164, "\u0120constitution": 11784, "1": 16, "\u0120consent": 8281, "\u0120neighbors": 12020, "\u0120flew": 13112, "\u0120warranties": 50174, "kers": 15949, "\u0120backfield": 45747, "uj": 23577, "NM": 32755, "\u0120peer": 12720, "\u0120GHC": 46615, "insured": 28409, "\u0120find": 1064, "onna": 6415, "VERT": 15858, "\u0120Ronaldo": 36309, "uity": 14834, "\u0120Ground": 13706, "yss": 33968, "\u0120specs": 25274, "\u0120BG": 34839, "\u0120mixing": 17090, "\u0120cl": 537, "aug": 7493, "veh": 33892, "\u0120midfielder": 18707, "\u0120extremist": 20440, "\u0120Exploration": 36806, "\u0120Smile": 48248, "utation": 7094, "\u0120symb": 5307, "rolet": 33087, "\u0120technically": 14497, "dat": 19608, "\u0120facilitate": 15570, "\u0120Rew": 16140, "Choice": 46770, "\u0120List": 7343, "\u0120Indian": 3942, "aney": 22297, "\u0120INCLUD": 47783, "\u0120Sunday": 3502, "\u0120marginal": 14461, "ijing": 11030, "\u0120153": 24652, "\u0120sale": 5466, "ore": 382, "\u0120starving": 34253, "ancing": 5077, "ICLE": 31419, "knit": 47095, "\u0120Ethereum": 20313, "\u0120Specific": 17377, "ining": 3191, "\u0120ferment": 38797, "\u0120scalp": 39287, "\u0120comes": 2058, "fail": 32165, "\u0120strawberries": 36973, "\u0120Scor": 36191, "\u0120chips": 12014, "rake": 33788, "\u0120thanked": 26280, "\u0120nozzle": 46031, "\u0120Matthew": 9308, "_(": 41052, "\u0120whisky": 39501, "using": 3500, "aund": 14677, "\u0120Taiwanese": 41777, "\u0120den": 2853, "\u0120friend": 1545, "\u0120tresp": 29723, "\u0120reasonable": 6397, "AUT": 39371, "Points": 40710, "\u0120inter": 987, "\u0120Agent": 15906, "BL": 9148, "Lat": 24220, "ipples": 27844, "onia": 11339, "uminati": 37200, "\u0120Newfoundland": 43867, "require": 46115, "\u0120Santiago": 34802, "\u0120Libya": 13465, "\u0120sequential": 35582, "\u0120enters": 14170, "\u0120cart": 6383, "ciples": 6418, "\u0120scaff": 41498, "\u0120evaluation": 12660, "\u0120Spectrum": 27217, "oco": 25634, "\u0120211": 28714, "\u0120registered": 6823, "\u0120immortality": 40079, "\u0120kneeling": 42687, "\u0120night": 1755, "\u0120Slow": 19054, "Depths": 42382, "\u0120splitting": 26021, "racist": 41131, "Spanish": 43584, "H": 39, "\u0120apparel": 34273, "\u0120vex": 41548, "Weak": 44898, "ocked": 3543, "\u0120Cody": 27035, "\u00e2\u0123": 46256, "\u0120superficial": 31194, "SD": 10305, "nets": 45938, "\u0120spokesman": 6523, "ube": 3266, "ive": 425, "ummy": 13513, "eds": 5379, "\u0120105": 13343, "IENT": 28495, "\u0120Respond": 33556, "\u0120respir": 21483, "\u0120freshwater": 40941, "\u0120boasting": 40776, "\u0120Supplementary": 43008,
[...]
