{"vocab": {"crowe": 25657, "bribe": 26470, "crumpled": 19814, "winner": 3453, "boot": 9573, "##ward": 7652, "ever": 2412, "migratory": 22262, "doomed": 20076, "reversal": 23163, "##cture": 14890, "306": 24622, "tub": 14366, "lincoln": 5367, "winked": 14217, "old": 2214, "##lp": 14277, "malibu": 29047, "ching": 19992, "bala": 21451, "defend": 6985, "##nz": 14191, "emotion": 7603, "missed": 4771, "unarmed": 23206, "montevideo": 22460, "monarchs": 19799, "##sar": 10286, "##building": 25820, "sonora": 26647, "inhibit": 26402, "discount": 19575, "casualty": 19844, "darius": 14861, "\u10e1": 1452, "challenges": 7860, "speechless": 25146, "clube": 24852, "cb": 17324, "pa": 6643, "\u6cbb": 1900, "afro": 17694, "backbone": 21505, "tree": 3392, "semitic": 20604, "predecessors": 16372, "tall": 4206, "lyrics": 4581, "##pressed": 19811, "##ctic": 13306, "##ial": 4818, "##jord": 24876, "##uation": 14505, "insanity": 19272, "186": 19609, "cried": 6639, "##poo": 24667, "\u2019": 1521, "##mart": 22345, "##lind": 27164, "dashboard": 24923, "rising": 4803, "carrier": 6839, "district": 2212, "##ovsky": 21983, "navigation": 9163, "cindy": 15837, "##uso": 26658, "ravi": 16806, "mattered": 13836, "forearm": 16148, "switches": 15924, "airplane": 13297, "natural": 3019, "[unused507]": 512, "##suit": 28880, "clive": 14675, "##chy": 11714, "bear": 4562, "trauma": 12603, "petty": 11612, "ought": 11276, "##vik": 13309, "ridley": 20608, "vulnerable": 8211, "mounds": 19503, "leighton": 26873, "utterly": 12580, "barnet": 26864, "elijah": 14063, "portraying": 17274, "salad": 16521, "##yo": 7677, "reservations": 17829, "a": 1037, "##lization": 22731, "lines": 3210, "mouth": 2677, "[unused155]": 160, "consecration": 24730, "necklace": 13016, "reacted": 14831, "pagan": 14318, "clinch": 29119, "impressions": 19221, "restricting": 26996, "allows": 4473, "peck": 18082, "whale": 13156, "\u662d": 1868, "##\u2014": 30052, "overs": 15849, "##acio": 21361, "##fin": 16294, "deity": 12764, "[unused700]": 705, "\u592b": 1813, "malawi": 18137, "cody": 13326, "sometime": 8811, "978": 4891, "xii": 14371, "\u0932": 1334, "cues": 23391, "correspond": 17254, "##oli": 10893, "[unused225]": 230, "wesleyan": 19858, "intact": 10109, "insurrection": 27860, "retro": 22307, "generates": 19421, "axle": 17290, "##nath": 16207, "exhibiting": 22922, "undertaker": 27568, "##ore": 5686, "paternal": 15112, "trolls": 27980, "kuwait": 13085, "##hold": 12640, "##work": 6198, "\u0ba9": 1387, "celebrations": 12035, "enterprise": 6960, "varsity": 11710, "graduating": 6800, "mural": 15533, "philadelphia": 4407, "##iger": 17071, "monarchy": 12078, "##cise": 18380, "wilkins": 22745, "81": 6282, "brown": 2829, "mummy": 22788, "fatty": 19101, "##eric": 22420, "loomed": 24358, "[unused430]": 435, "##fare": 17883, "giovanni": 9136, "postponed": 14475, "puddle": 25081, "buys": 23311, "##missible": 26770, "animation": 7284, "makes": 3084, "drastically": 21040, "aligned": 13115, "34th": 20460, "##48": 18139, "deaf": 12419, "frowned": 7335, "[unused954]": 959, "nov": 13292, "cardiac": 15050, "espn": 10978, "meters": 5563, "fundraiser": 28536, "attackers": 17857, "##\u05e8": 29811, "remarked": 10783, "proximity": 10039, "##igen": 29206, "##agi": 22974, "appears": 3544, "cis": 20199, "lenin": 17497, "experimentation": 21470, "wylie": 29152, "\u044f": 1210, "run": 2448, "groningen": 29070, "pancakes": 28470, "touching": 7244, "nile": 15179, "##mill": 19912, "bogota": 21240, "casablanca": 24592, "bubbling": 25054, "protections": 28548, "##\u8a01": 30475, "joking": 16644, "##\u0569": 29771, "##\u300a": 30165, "resist": 9507, "158": 17696, "became": 2150, "1910s": 28088, "##oration": 21223, "bauer": 17838, "##jana": 18803, "eurasian": 23399, "realizes": 10919, "##\u540c": 30320, "freaks": 29526, "##cha": 7507, "own": 2219, "premio": 23031, "sailor": 11803, "weeks": 3134, "##linson": 25051, "##ject": 20614, "scheme": 5679, "worrying": 15366, "flicking": 26259, "mechanized": 23387, "\u8279": 1939, "rifles": 9494, "mack": 11349, "blair": 10503, "redistribution": 25707, "motor": 5013, "slab": 17584, "##pies": 13046, "darrell": 23158, "calm": 5475, "ears": 5551, "##jing": 29518, "cassette": 13903, "inverted": 20037, "vicki": 25424, "\u00b4": 1084, "leapt": 13920, "engineers": 6145, "consultative": 28581, "marcus": 6647, "nantes": 25387, "abdomen": 13878, "alterations": 16705, "[unused642]": 647, "prowess": 26120, "##ntation": 23436, "media": 2865, "[unused78]": 79, "\u3088": 1684, "remainder": 6893, "michele": 15954, "civilization": 10585, "##ives": 24653, "establishments": 17228, "ctv": 28720, "aisles": 25442, "unreleased": 13270, "instances": 12107, "barber": 13362, "director": 2472, "layla": 19786, "everett": 15160, "##eurs": 26744, "\u0636": 1285, "avoidance": 24685, "kaplan": 22990, "seating": 10747, "[unused388]": 393, "emma": 5616, "centred": 16441, "squadron": 3704, "##ines": 10586, "untitled": 24819, "##ils": 12146, "##nse": 12325, "attributed": 7108, "piedmont": 18873, "skirmish": 27264, "nosed": 29338, "bless": 19994, "##recht": 28109, "padua": 24941, "14th": 6400, "jacob": 6213, "lowest": 7290, "tolerate": 19242, "barangay": 20937, "mbe": 20301, "arrested": 4727, "165": 13913, "buster": 18396, "commemorated": 19131, "ix": 11814, "drawer": 13065, "1086": 28196, "rainforest": 18951, "##aris": 23061, "\uff0d": 1990, "##fide": 20740, "restoration": 6418, ",": 1010, "uruguayan": 23464, "law": 2375, "shock": 5213, "lifts": 13695, "shining": 9716, "switching": 11991, "murmurs": 22888, "jesuit": 13840, "##grove": 21525, "diaz": 12526, "##\u03b3": 29721, "acquainted": 19056, "[unused310]": 315, "godzilla": 26631, "opens": 7480, "european": 2647, "gotta": 10657, "looked": 2246, "imminent": 17566, "commemorating": 20646, "##tlan": 28922, "ives": 23945, "##\u02bb": 29711, "flavour": 28126, "maynard": 22130, "\u056c": 1226, "temptation": 17232, "glistening": 25203, "##hr": 8093, "transient": 25354, "[unused768]": 773, "sentiments": 23541, "favoured": 16822, "scheduling": 19940, "celebrating": 12964, "dublin": 5772, "##bay": 15907, "##drick": 24092, "portfolio": 11103, "sheffield": 8533, "rhode": 9763, "struggle": 5998, "progression": 14967, "frame": 4853, "non": 2512, "carving": 18441, "ignatius": 26841, "marks": 6017, "jumped": 5598, "creates": 9005, "##\u10e2": 29989, "##cius": 25393, "\u0f66": 1436, "assured": 8916, "operating": 4082, "##\u305d": 30186, "##aq": 20784, "define": 9375, "1942": 3758, "incline": 27461, "portsmouth": 10913, "think": 2228, "ransom": 16540, "sun": 3103, "mariners": 18049, "ginger": 14580, "pedestrian": 14662, "[unused486]": 491, "marketed": 11625, "##jak": 18317, "o": 1051, "housekeeper": 22583, "glenn": 9465, "##iny": 24300, "##alis": 13911, "precision": 11718, "room": 2282, "sue": 9790, "##\u1da0": 30047, "chloride": 19057, "aubrey": 18961, "\u05e8": 1265, "threaten": 15686, "##\u0e27": 29955, "integration": 8346, "bounded": 10351, "##bation": 23757, "segregated": 24382, "330": 14210, "iberian": 21988, "scriptures": 22481, "granted": 4379, "##ugh": 8953, "jensen": 14857, "die": 3280, "adept": 26398, "[unused103]": 108, "##laya": 22923, "champ": 24782, "nj": 19193, "curb": 13730, "bram": 20839, "qatar": 12577, "butcher": 14998, "suspicious": 10027, "mundane": 24684, "singing": 4823, "##kou": 24861, "stunts": 28465, "nixon": 11296, "erich": 17513, "bs": 18667, "chatting": 22331, "laurie": 16450, "pinnacle": 26007, "##cake": 17955, "reprise": 16851, "cemeteries": 20973, "##aging": 16594, "regrets": 23161, "movements": 5750, "occupations": 23374, "goaltender": 21437, "##brick": 25646, "titus": 18828, "rutland": 27780, "iii": 3523, "adherence": 29235, "legitimacy": 22568, "jc": 29175, "##iver": 16402, "rails": 15168, "##raj": 14220, "slap": 14308, "insurance": 5427, "bruins": 18159, "universidad": 16501, "[unused71]": 72, "novgorod": 24338, "caring": 11922, "oasis": 18128, "blooms": 29037, "[unused297]": 302, "##iful": 18424, "adolescence": 29101, "worries": 15508, "##est": 4355, "weaving": 15360, "##ved": 7178, "enzyme": 9007, "wai": 23701, "platform": 4132, "moral": 7191, "incomplete": 12958, "##rized": 18425, "farms": 8623, "bryson": 26845, "##utter": 26878, "bouquet": 26700, "rein": 27788, "dangerously": 20754, "disappearance": 13406, "deals": 9144, "olympic": 4386, "1989": 2960, "ukraine": 5924, "holding": 3173, "labyrinth": 24239, "anderson": 5143, "minimize": 18478, "##tie": 9515, "##rove": 17597, "donegal": 25415, "peters": 12420, "quran": 21288, "##eration": 16754, "height": 4578, "seafood": 23621, "##ological": 10091, "disciplinary": 17972, "\u8033": 1937, "##esthesia": 25344, "archer": 11024, "filtered": 21839, "becomes": 4150, "brought": 2716, "feed": 5438, "##oca": 24755, "manipulate": 17708, "textiles": 18762, "[unused833]": 838, "usually": 2788, "cfa": 28125, "jakarta": 14426, "mouths": 15076, "jerusalem": 6744, "##eim": 12112, "vet": 29525, "taft": 19911, "cl": 18856, "chan": 9212, "grayson": 17556, "rolls": 9372, "ten": 2702, "peugeot": 26385, "natal": 17489, "rico": 7043, "teased": 13074, "\u2071": 1537, "1895": 6301, "guild": 9054, "difference": 4489, "pregnancy": 10032, "marianne": 19887, "consultancy": 24853, "horn": 7109, "\u30b5": 1705, "[unused11]": 12, "utilization": 27891, "arteries": 28915, "stirred": 13551, "1782": 16890, "delegates": 10284, "##ci": 6895, "##\u0638": 29829, "kilkenny": 17131, "1812": 9842, "paramilitary": 22258, "wo": 24185, "estimates": 10035, "distinguish": 10782, "##\u02b0": 29706, "258": 24398, "choi": 18151, "currency": 9598, "filled": 3561, "hardened": 15015, "equals": 19635, "level": 2504, "##itung": 28813, "vidal": 29259, "dismounted": 29580, "cushions": 27205, "##rting": 24097, "eve": 6574, "barefoot": 22985, "[unused295]": 300, "nonfiction": 25753, "understood": 5319, "##tead": 14565, "cocktail": 18901, "venom": 15779, "notably": 5546, "##eka": 19025, "regular": 3180, "[unused715]": 720, "sing": 6170, "craven": 21232, "convinces": 19480, "ismail": 19214, "##\u0442": 22919, "opinions": 10740, "infrared": 14611, "##10": 10790, "muslim": 5152, "destination": 7688, "tricked": 24929, "therapeutic": 17261, "negligence": 27988, "shy": 11004, "gregorian": 25847, "manor": 6952, "bp": 17531, "dialed": 21300, "##ieving": 25587, "val": 11748, "##\u0294": 29705, "sophie": 8234, "products": 3688, "recommend": 16755, "morrow": 19084, "organic": 7554, "##late": 13806, "dwarves": 29281, "generator": 13103, "somalia": 14717, "obama": 8112, "inmates": 13187, "squire": 21263, "queer": 19483, "echoing": 17142, "jin": 9743, "jenna": 13504, "differs": 12980, "longitudinal": 20134, "slovak": 12747, "rot": 18672, "salisbury": 13817, "vertex": 19449, "##\u090f": 29850, "fm": 4718, "student": 3076, "organist": 16397, "simpsons": 19047, "##lom": 21297, "manchester": 5087, "kapoor": 17129, "swim": 9880, "bergen": 12674, "maize": 21154, "##\u5206": 30301, "wu": 8814, "oneself": 25763, "whilst": 5819, "nrhp": 22424, "backs": 10457, "medley": 13863, "nash": 10594, "stairs": 5108, "stainless": 18676, "fashionable": 19964, "nomadic": 21702, "dart": 14957, "ludwig": 10302, "stat": 28093, "upstate": 29530, "entries": 10445, "[unused193]": 198, "##aid": 14326, "jewels": 15565, "tubular": 25147, "##\u8eca": 30480, "##nton": 15104, "\uff0c": 1989, "wholesale": 17264, "lacks": 14087, "opponents": 7892, "pretended": 14688, "loosen": 29476, "conception": 13120, "zambia": 15633, "##gf": 25708, "oral": 8700, "##\u3048": 30175, "rte": 20375, "peggy": 14911, "internally": 16058, "##grants": 27444, "walt": 10598, "##eth": 11031, "rocked": 14215, "shipped": 12057, "reporting": 7316, "richard": 2957, "modification": 14080, "karen": 8129, "sorrow": 14038, "physiology": 16127, "rudd": 25298, "capita": 8353, "[unused164]": 169, "potter": 10693, "riches": 26768, "executed": 6472, "escorts": 24877, "spread": 3659, "deportivo": 23696, "pre": 3653, "spatial": 13589, "botany": 17018, "##rio": 9488, "keel": 19602, "distracted": 11116, "persons": 5381, "##ignment": 24838, "sainte": 16947, "##\u09b6": 29910, "##cen": 27524, "##slow": 26338, "staggering": 26233, "##no": 3630, "survived": 5175, "amelie": 25285, "##glio": 29480, "##dened": 24589, "sic": 14387, "benedict": 12122, "prime": 3539, "[unused568]": 573, "##bus": 8286, "bile": 23974, "##had": 16102, "##vas": 12044, "roared": 14242, "everyone": 3071, "his": 2010, "bradley": 8981, "##rous": 13288, "sultan": 7544, "newfoundland": 11944, "anya": 21728, "brooks": 8379, "sharp": 4629, "repairs": 10315, "such": 2107, "indefinitely": 20733, "##del": 9247, "\u4eac": 1755, "355": 26271, "vapor": 20064, "welfare": 7574, "##aby": 21275, "dump": 15653, "##rkin": 26891, "listened": 7791, "[unused40]": 41, "enable": 9585, "specialty": 12233, "expect": 5987, "##tr": 16344, "amazon": 9733, "\u5b80": 1818, "thesis": 9459, "sal": 16183, "##ulating": 10924, "extraordinary": 9313, "hms": 7220, "whoever": 9444, "napoleon": 8891, "##ides": 8621, "[unused862]": 867, "1850": 7973, "\u300d": 1642, "christian": 3017, "351": 28474, "##war": 9028, "dudley": 12648, "turnover": 20991, "purposely": 24680, "honorable": 13556, "valkyrie": 26696, "moving": 3048, "roberta": 23455, "##\u7248": 30433, "coop": 21859, "1979": 3245, "logged": 26618, "delayed": 8394, "segments": 9214, "gunther": 19384, "##kk": 19658, "##\u30aa": 30225, "thousand": 4595, "chapters": 9159, "interned": 26345, "[unused91]": 92, "2010": 2230, "farmland": 16439, "##a": 2050, "stayed": 4370, "nfc": 22309, "drifting": 15013, "m2": 25525, "pretoria": 25366, "altar": 9216, "##\u82f1": 30467, "dietary": 23444, "##phy": 21281, "bluegrass": 21286, "welles": 23447, "maharashtra": 12434, "##\u0923": 29858, "bites": 15424, "milford": 22622, "##jin": 14642, "chevalier": 22019, "realms": 18814, "cranes": 27083, "##oum": 24778, "feminine": 12320, "thorpe": 20249, "##abi": 28518, "maximum": 4555, "##wee": 28394, "highway": 3307, "[unused657]": 662, "orthodoxy": 26582, "difficult": 3697, "depicts": 11230, "snow": 4586, "##iv": 12848, "constituted": 11846, "clips": 15281, "applying": 11243, "##er": 2121, "##tive": 6024, "\u4e3b": 1747, "aerodynamic": 28033, "faerie": 27498, "headlined": 25214, "bicycle": 10165, "carries": 7883, "##lley": 25105, "homes": 5014, "paintings": 5265, "airports": 13586, "uses": 3594, "elects": 27161, "speedway": 10688, "underlying": 10318, "sink": 7752, "picking": 8130, "banished": 21319, "triangular": 14023, "[unused868]": 873, "##\u0449": 29754, "eminent": 14953, "defamation": 27652, "landfall": 21042, "lips": 2970, "mayer": 14687, "not": 2025, "attracted": 6296, "emi": 12495, "veronica": 13133, "##ks": 5705, "enjoying": 9107, "educational": 4547, "roofs": 15753, "albrecht": 25542, "##oot": 17206, "[unused745]": 750, "morgan": 5253, "##lard": 20822, "unlimited": 14668, "##ads": 19303, "reason": 3114, "feeds": 14172, "wroc\u0142aw": 25160, "provide": 3073, "discrimination": 9147, "francesca": 15409, "translucent": 22897, "\u308a": 1686, "fordham": 27302, "excuses": 21917, "zoological": 26168, "dub": 12931, "rebuilding": 14584, "##khand": 25910, "##tness": 27401, "##\u307f": 30204, "kingsley": 22819, "fully": 3929, "shrimp": 20130, "ar": 12098, "##tics": 14606, "delivery": 6959, "service": 2326, "sampled": 18925, "posthumous": 19086, "typhoon": 15393, "##cao": 20808, "fault": 6346, "##group": 17058, "complicated": 8552, "marriages": 12743, "periodic": 15861, "exaggerated": 16903, "68": 6273, "##used": 13901, "lashed": 25694, "thankfully": 16047, "\u2286": 1611, "##ographer": 26145, "cyclic": 23750, "nietzsche": 28898, "consequently": 8821, "ultimate": 7209, "##bad": 9024, "abolition": 15766, "##rney": 27114, "maneuvers": 23802, "journalist": 4988, "fashioned": 13405, "dieter": 27976, "paper": 3259, "##nell": 9091, "356": 27509, "corrupted": 27279, "carlson": 22226, "bucks": 14189, "stallion": 19122, "[unused163]": 168, "##ld": 6392, "youthful": 22446, "realizing": 9301, "peerage": 18760, "2003": 2494, "vengeance": 14096, "keeper": 10684, "##lidae": 21595, "dhabi": 23153, "tattooed": 26464, "upstream": 13909, "[unused35]": 36, "sable": 23492, "169": 18582, "consultants": 22283, "[unused976]": 981, "[unused480]": 485, "oversaw": 14105, "reserve": 3914, "sprint": 9043, "circumstance": 25652, "##iti": 25090, "\u208a": 1557, "##endra": 19524, "supplies": 6067, "nuts": 12264, "goofy": 27243, "towering": 20314, "experiments": 7885, "examining": 12843, "pitchers": 23232, "convincing": 13359, "identities": 15702, "hobby": 17792, "tidy": 29369, "welsh": 6124, "29": 2756, "feldman": 26908, "refrain": 20703, "freshmen": 26612, "##hita": 23935, "gymnasium": 11288, "agrees": 10217, "vocalists": 27478, "theories": 8106, "touched": 5028, "deux": 24756, "##twined": 21077, "prophets": 23172, "##ution": 13700, "fleeting": 25085, "endured": 16753, "presentation": 8312, "##iable": 19210, "emissions": 11768, "briggs": 15487, "##sible": 19307, "reunification": 28044, "win": 2663, "nuclei": 23767, "##\u0628\u0627\u062f": 25799, "beach": 3509, "treaties": 16013, "##walk": 17122, "[unused24]": 25, "##aar": 26526, "prc": 26141, "prescott": 20719, "##mal": 9067, "government": 2231, "yamaha": 24031, "##rich": 13149, "repeal": 21825, "##rza": 24175, "##\u0e25": 29954, "##yi": 10139, "##\u25aa": 30145, "speaking": 4092, "torque": 15894, "\u02be": 1147, "##\u203a": 30068, "tampa": 9925, "##ave": 10696, "1833": 11040, "astronomical": 13674, "andrei": 18125, "tchaikovsky": 25900, "##\u5ba3": 30349, "populous": 20151, "waterford": 17769, "##lib": 29521, "##hd": 14945, "condemnation": 26248, "cabinet": 5239, "[unused112]": 117, "##\u10da": 29983, "##lizer": 28863, "##eptive": 22048, "188": 19121, "wedding": 5030, "legally": 10142, "##cke": 19869, "binoculars": 29549, "parked": 9083, "rotation": 9963, "reins": 19222, "##tative": 27453, "##jima": 19417, "despised": 26626, "seat": 2835, "clinic": 9349, "july": 2251, "slamming": 15209, "manipulated": 20063, "navy": 3212, "thirteen": 7093, "devoid": 22808, "\u4e95": 1754, "##osomal": 27642, "rook": 28620, "perfect": 3819, "##tern": 16451, "ethiopia": 11154, "##tos": 13122, "steamer": 18027, "##lessly": 10895, "mole": 16709, "ghz": 29066, "her": 2014, "reckon": 29072, "##music": 27275, "tolerance": 13986, "osborn": 26999, "lehman": 28444, "flourished": 17893, "chamberlain": 13904, "apologize": 12134, "##nier": 14862, "hindu": 7560, "fullback": 21803, "roofed": 26080, "[unused10]": 11, "schmidt": 12940, "redwood": 27552, "##\u2264": 30135, "ll": 2222, "venice": 7914, "hopkins": 10239, "1961": 3777, "petitioned": 22527, "hurdles": 18608, "1851": 8792, "independence": 4336, "yellow": 3756, "##cs": 6169, "##ve": 3726, "##urable": 23086, "posts": 8466, "shovel": 24596, "tulane": 27437, "shareholder": 18668, "rv": 27634, "##ka": 2912, "surrender": 7806, "[unused513]": 518, "##rco": 29566, "80s": 16002, "sideways": 12579, "##yne": 9654, "\u516c": 1772, "planted": 8461, "convey": 16636, "elisa": 29490, "neutrality": 21083, "tom": 3419, "pairing": 22778, "clint": 16235, "morse": 17107, "\u1169": 1475, "recapture": 27639, "[unused675]": 680, "rotting": 22005, "jordan": 5207, "couldn": 2481, "jae": 22770, "tensions": 13136, "##\u0baf": 29926, "##fera": 27709, "\u201c": 1523, "ignition": 17446, "have": 2031, "coated": 15026, "halftime": 22589, "derives": 12153, "consultant": 8930, "necessary": 4072, "totaling": 21798, "internet": 4274, "strap": 16195, "##pre": 28139, "lakshmi": 21352, "swamps": 22722, "squared": 19942, "prove": 6011, "stain": 21101, "chemistry": 6370, "ala": 21862, "hers": 5106, "cleopatra": 22003, "buccaneers": 21629, "commanded": 6311, "devin": 23601, "##rf": 12881, "##\u2666": 30153, "laboratory": 5911, "##ase": 11022, "##point": 8400, "pest": 20739, "dispose": 27764, "coloured": 11401, "##\u2665": 30152, "raining": 24057, "haired": 10681, "##ches": 8376, "natives": 12493, "betrayed": 12056, "sarcasm": 20954, "harcourt": 22714, "##eed": 13089, "legislator": 22964, "##parts": 26950, "detail": 6987, "shitty": 28543, "##rug": 26549, "marlborough": 22830, "favourites": 28271, "gentlemen": 11218, "##stream": 21422, "dso": 22951, "ebony": 27680, "outsiders": 22361, "warlock": 28861, "##gul": 24848, "##enity": 20693, "doom": 12677, "##erved": 25944, "##ko": 3683, "malley": 25271, "reader": 8068, "regulates": 26773, "wnba": 25554, "\u3072": 1673, "lectured": 19206, "ryder": 11731, "devastating": 14886, "rooster": 27681, "##\u0435": 15290, "apparently": 4593, "braking": 24427, "uno": 27776, "blockade": 15823, "##zin": 17168, "wooden": 4799, "remy": 22712, "hungarian": 5588, "gleamed": 25224, "##pathy": 20166, "##\u0433": 29741, "bathroom": 5723, "##ostal": 29381, "\u3082": 1681, "completely": 3294, "these": 2122, "matt": 4717, "sped": 16887, "created": 2580, "gin": 18353, "angelica": 19458, "##beat": 19442, "hub": 9594, "smart": 6047, "jase": 18626, "baltimore": 6222, "##quin": 12519, "\u0255": 1113, "le": 3393, "##elis": 29282, "119": 13285, "olympics": 3783, "berries": 22681, "viewers": 7193, "collapse": 7859, "duties": 5704, "\u1110": 1467, "##een": 12129, "whereabouts": 18913, "stirling": 15597, "trailed": 11145, "vampires": 6144, "foyer": 16683, "##\u308a": 30212, "complications": 12763, "curses": 23897, "rat": 9350, "celia": 18020, "\u0f0b": 1424, "passion": 6896, "rays": 9938, "\u7701": 1920, "achievements": 10106, "surpassed": 15602, "crouch": 21676, "blocks": 5991, "frightening": 17115, "syracuse": 11736, "1801": 12410, "mccarthy": 12584, "##oof": 21511, "judaism": 13725, "brandenburg": 16426, "booming": 24716, "viewing": 10523, "extending": 8402, "##hes": 15689, "vaughn": 18220, "##rac": 22648, "mal": 15451, "ron": 6902, "spans": 14798, "##boards": 15271, "bsc": 23533, "producer": 3135, "##rson": 17753, "carts": 25568, "##\u05e4": 29807, "convicted": 7979, "conner": 17639, "spirits": 8633, "herr": 23506, "visitation": 28877, "studies": 2913, "stillness": 29435, "persian": 4723, "##set": 13462, "104": 9645, "quiz": 19461, "clergy": 11646, "daytona": 18226, "furry": 28662, "rosalie": 29564, "boston": 3731, "gothic": 7788, "##rse": 22573, "thy": 15177, "kenji": 25894, "##\u0280": 29693, "##\u662d": 30394, "hanover": 14393, "wary": 15705, "wilcox": 23926, "microwave": 18302, "absence": 6438, "unfinished": 14342, "signalling": 21919, "sweetie": 22872, "peek": 19043, "##veda": 28614, "##ear": 14644, "grammatical": 24402, "[unused634]": 639, "linux": 11603, "braun": 21909, "##gl": 23296, "crawley": 28854, "beaming": 27910, "mccormick": 23213, "abnormal": 19470, "globally": 16452, "thinkers": 24762, "gentry": 20262, "parkinson": 20310, "adopted": 4233, "fines": 21892, "uniformed": 25189, "##cam": 28727, "engravings": 28611, "padres": 21577, "forced": 3140, "lord": 2935, "##\u30bf": 30235, "norton": 10770, "mingled": 25959, "waves": 5975, "inducted": 8120, "describe": 6235, "computers": 7588, "##b": 2497, "speculation": 12143, "##lav": 14973, "##tting": 13027, "qualify": 7515, "mask": 7308, "fiba": 13651, "emptied": 21764, "appreciate": 9120, "\u301c": 1645, "seasonal": 12348, "plumage": 28764, "amend": 27950, "scrambled": 13501, "edges": 7926, "come": 2272, "several": 2195, "dundee": 14252, "header": 20346, "##urus": 20089, "messed": 18358, "organizations": 4411, "responsible": 3625, "[unused780]": 785, "trumpeter": 28220, "living": 2542, "georgetown": 12982, "##acker": 25418, "##kt": 25509, "soprano": 10430, "staring": 4582, "1860s": 15914, "##dr": 13626, "jane": 4869, "coinage": 25396, "collaborations": 17437, "breakers": 24742, "201": 16345, "##miya": 29312, "quality": 3737, "furiously": 20322, "metadata": 27425, "npr": 21411, "ike": 25209, "fed": 7349, "##\u793a": 30449, "mills": 6341, "obsidian": 29042, "accustomed": 17730, "kota": 23856, "fled": 6783, "shown": 3491, "ballad": 11571, "regime": 6939, "enhance": 11598, "pak": 22190, "##erland": 22492, "upper": 3356, "normally": 5373, "playing": 2652, "bilateral": 17758, "recipient": 7799, "infancy": 22813, "displaying": 14962, "\u2070": 1536, "bergman": 24544, "legislatures": 27977, "moreno": 17921, "unsure": 12422, "##ach": 6776, "##das": 8883, "buffet": 28305, "smack": 21526, "maritime": 7803, "civilians": 9272, "isa": 18061, "branches": 5628, "anymore": 4902, "bobbed": 29579, "##bina": 21114, "threat": 5081, "##asa": 16782, "resultant": 28573, "\u00a31": 14534, "margin": 7785, "collaborators": 21315, "##her": 5886, "interdisciplinary": 18593, "christi": 21359, "navigate": 22149, "hurried": 9520, "##\u0dc0": 29943, "36": 4029, "##beck": 12750, "##rsa": 22381, "arrests": 17615, "##atz": 20501, "dignitaries": 27960, "barren": 20225, "##mina": 22311, "##\u6c34": 30419, "restraint": 19355, "raiding": 23530, "somber": 28587, "connector": 19400, "cat": 4937, "con": 9530, "[": 1031, "lil": 13451, "silence": 4223, "fra": 25312, "##imating": 22835, "expectations": 10908, "[unused892]": 897, "lyman": 27587, "indians": 6505, "sniffing": 27646, "stein": 14233, "facilitate": 10956, "\u0bc1": 1397, "\u0263": 1117, "sydney": 3994, "\u6708": 1872, "lured": 26673, "rae": 14786, "film": 2143, "291": 27173, "nicole": 9851, "farmhouse": 16870, "##nsis": 11745, "tin": 9543, "opt": 23569, "bai": 21790, "##oting": 20656, "orders": 4449, "nationally": 9582, "##boys": 24916, "distances": 12103, "keen": 10326, "[unused409]": 414, "rollins": 23502, "mostly": 3262, "second": 2117, "##\u110e": 30001, "disputes": 11936, "\u30d5": 1720, "stocked": 24802, "conserve": 27749, "##uance": 26620, "\u0997": 1355, "type": 2828, "suspicions": 17817, "\u3048": 1649, "trolley": 20820, "humble": 15716, "##patient": 24343, "favorite": 5440, "##ulf": 21007, "lao": 18805, "illustrating": 28252, "initiative": 6349, "thee": 14992, "catcher": 13795, "mind": 2568, "##hog": 25852, "##crats": 23423, "yong": 18999, "nuclear": 4517, "gazes": 23514, "##ground": 16365, "\u0f60": 1433, "breathless": 16701, "\u0283": 1130, "last": 2197, "playboy": 18286, "323": 25392, "cheltenham": 18763, "looks": 3504, "twitched": 16767, "mysterious": 8075, "##ouse": 15441, "[unused746]": 751, "biting": 12344, "theo": 14833, "moose": 17716, "increase": 3623, "##dae": 6858, "##washed": 27283, "crumbling": 24827, "easily": 4089, "##tang": 26067, "cruise": 8592, "crazy": 4689, "springs": 6076, "##\u2032": 30066, "over": 2058, "album": 2201, "outspoken": 22430, "buena": 27493, "cheerfully": 27403, "##\u06a9": 29841, "allow": 3499, "contra": 24528, "tatiana": 22725, "steven": 7112, "floyd": 12305, "332": 29327, "##orted": 15613, "foremost": 16097, "absolutely": 7078, "##\u056b": 29772, "[unused354]": 359, "admire": 19837, "nehru": 23556, "pressures": 15399, "60s": 20341, "skeleton": 13526, "##giri": 23243, "inhabit": 21490, "strangers": 12358, "blushing": 25771, "accounted": 14729, "graders": 23256, "allegations": 9989, "jung": 11810, "vicinity": 9884, "v6": 25275, "competence": 22219, "je": 15333, "ramos": 18882, "##mian": 20924, "atop": 10234, "essex": 8862, "featherweight": 27145, "\u66f2": 1870, "rams": 13456, "groans": 27778, "assume": 7868, "##fb": 26337, "button": 6462, "geologic": 22125, "sickness": 15556, "invented": 8826, "affinity": 16730, "adolescent": 20274, "stuffed": 11812, "[unused860]": 865, "girls": 3057, "##cor": 27108, "dining": 7759, "##\u10dd": 29986, "guantanamo": 23094, "attack": 2886, "##puram": 17809, "insulin": 22597, "subsistence": 27667, "[unused724]": 729, "elise": 14251, "##scribe": 29234, "refreshing": 27150, "clay": 5726, "\u4e8b": 1751, "systems": 3001, "\u10d2": 1440, "##ons": 5644, "advice": 6040, "grimes": 24865, "usd": 13751, "organization": 3029, "swimmer": 13361, "receipt": 24306, "calves": 28023, "##nbc": 28957, "##mobile": 17751, "l": 1048, "struggles": 11785, "dropping": 7510, "[unused887]": 892, "cheap": 10036, "nascar": 11838, "notion": 9366, "biotechnology": 20353, "[unused333]": 338, "routledge": 21180, "rampant": 25883, "worker": 7309, "delhi": 6768, "##gated": 11644, "feng": 19004, "metaphysical": 29081, "##kley": 22315, "##hawks": 16043, "composing": 16572, "bursts": 19239, "##\u963f": 30497, "1937": 4347, "vigor": 24474, "combining": 11566, "attacker": 17346, "renault": 14605, "smallest": 10479, "circulation": 9141, "shelby": 15294, "tax": 4171, "adviser": 11747, "slashed": 23587, "marvin": 13748, "##mas": 9335, "afterlife": 25115, "mandates": 25979, "quaker": 18844, "##iled": 18450, "##vary": 21639, "protective": 9474, "internationals": 27340, "[unused211]": 216, "##\u2122": 30108, "\u0634": 1283, "cabbage": 28540, "leaping": 21216, "mcgill": 17919, "##i": 2072, "gulp": 26546, "sorted": 19616, "##con": 8663, "archaeological": 7611, "##\u660e": 30391, "thomas": 2726, "condemn": 28887, "taxonomic": 27691, "##gles": 17125, "wandering": 13071, "##gy": 6292, "markham": 26197, "##23": 21926, "silvery": 21666, "ava": 10927, "slash": 18296, "martina": 23508, "medal": 3101, "##uis": 27020, "retain": 9279, "unmanned": 24075, "averaged": 11398, "ahmed": 10208, "kaufman": 23699, "suitcase": 15940, "creepy": 17109, "1720": 23535, "contains": 3397, "want": 2215, "hostel": 21071, "cadet": 12738, "involved": 2920, "sane": 22856, "kindergarten": 11793, "channels": 6833, "##iating": 15370, "##lana": 16695, "corridor": 7120, "owners": 5608, "\u30af": 1702, "worshipped": 22876, "##gging": 12588, "[unused84]": 85, "broadband": 19595, "unwanted": 18162, "stones": 6386, "##\u5948": 30340, "corona": 21887, "twilight": 13132, "##liest": 21292, "ti": 14841, "[unused985]": 990, "##\u062a": 29817, "drilled": 24311, "cheshire": 13789, "tonight": 3892, "malicious": 24391, "13th": 6122, "##vers": 14028, "bought": 4149, "gastropod": 10953, "glimpse": 12185, "repair": 7192, "marcelo": 24984, "counsel": 9517, "agree": 5993, "helens": 24074, "##pass": 15194, "##mos": 15530, "227": 21489, "##rem": 28578, "payment": 7909, "[unused825]": 830, "appalachian": 19682, "job": 3105, "\u1102": 1456, "beige": 28799, "heraldic": 28867, "##kari": 20224, "raced": 8255, "dumping": 23642, "merrill": 16239, "1803": 12651, "fulfilled": 16829, "extinction": 14446, "augustine": 14060, "spitfire": 28323, "weakened": 11855, "##act": 18908, "vicky": 22845, "scowled": 17474, "dragon": 5202, "##\u30e1": 30252, "initiate": 17820, "reconciled": 28348, "jessie": 10934, "##\u5c0f": 30355, "vulnerability": 18130, "cornish": 17797, "tuition": 15413, "temperament": 26270, "mast": 15429, "##eal": 15879, "imam": 17189, "mauritius": 18004, "##tung": 21847, "correspondent": 11370, "electric": 3751, "indie": 10271, "rid": 9436, "##comb": 18274, "hymn": 14825, "wage": 11897, "complement": 13711, "whitman": 21311, "overboard": 27089, "sally": 8836, "mum": 12954, "##gizing": 28660, "##rino": 17815, "counted": 8897, "occurred": 4158, "##ky": 4801, "holm": 28925, "spectra": 29237, "[unused920]": 925, "##ales": 23266, "\u0dba": 1404, "##\u02bc": 29712, "dictated": 23826, "moons": 23377, "burundi": 28836, "1765": 20797, "vacancy": 15619, "illuminating": 27816, "##scopic": 24895, "reduces": 13416, "spp": 26924, "accountable": 26771, "380": 17014, "279": 25745, "brew": 24702, "[unused322]": 327, "[unused114]": 119, "bonn": 19349, "zombie": 11798, "directly": 3495, "1887": 6837, "##bial": 21102, "##pped": 11469, "kicking": 10209, "##ook": 14659, "##ffled": 28579, "dogg": 28844, "price": 3976, "coating": 18898, "[unused177]": 182, "chao": 22455, "demanding": 9694, "##yoshi": 19196, "erroneously": 29411, "responsive": 26651, "seminary": 8705, "deportation": 23702, "[unused338]": 343, "contest": 5049, "reproductive": 15124, "##pling": 14353, "##sb": 19022, "rye": 20926, "lim": 18525, "##kian": 28545, "belgrade": 10291, "magnolia": 24659, "##uchi": 15217, "##itis": 13706, "[unused175]": 180, "persona": 16115, "find": 2424, "##\u043c": 29745, "concrete": 5509, "##life": 15509, "inquiries": 27050, "##oint": 25785, "loft": 19459, "rei": 24964, "communication": 4807, "wen": 19181, "##eta": 12928, "affiliated": 6989, "blurred": 18449, "afar": 28978, "boiled": 17020, "fucked": 21746, "rooftop": 23308, "especially": 2926, "ontario": 4561, "dung": 29328, "warship": 21905, "##phon": 20846, "##och": 11663, "limited": 3132, "techniques": 5461, "journals": 9263, "molecule": 13922, "rally": 8320, "silhouette": 21776, "fundraising": 15524, "inflammation": 21733, "vienna": 6004, "resembled": 15881, "##rdo": 20683, "graph": 10629, "vivid": 14954, "##og": 8649, "knot": 12226, "os": 9808, "##keeper": 13106, "yeast": 21957, "compound": 7328, "[unused258]": 263, "bromley": 27979, "\uff0e": 1991, "##ing": 2075, "##are": 12069, "shadowed": 25843, "hyun": 21108, "goats": 17977, "1400": 20652, "waters": 5380, "##eni": 18595, "transaction": 12598, "schemes": 11683, "raymond": 7638, "\u09b7": 1375, "capitalism": 16498, "##eyer": 20211, "battalions": 10157, "writhing": 26185, "sheridan": 13243, "baseman": 18038, "[unused196]": 201, "##uth": 14317, "scar": 11228, "ethnicity": 18240, "noteworthy": 19144, "preacher": 14512, "thrilling": 26162, "stake": 8406, "fluorescent": 22184, "acids": 12737, "vinci": 23765, "each": 2169, "resolve": 10663, "backpack": 13383, "##schen": 23796, "atkinson": 18646, "t": 1056, "women": 2308, "hypothetical": 25613, "paws": 24392, "[unused345]": 350, "comparisons": 18539, "assets": 7045, "suspended": 6731, "odessa": 19693, "divinity": 16968, "##52": 25746, "charters": 23010, "kat": 10645, "transverse": 18323, "875": 27658, "extremely": 5186, "explains": 7607, "nursery": 13640, "##\u0633": 29824, "gallery": 3916, "saxe": 24937, "vocal": 5554, "free": 2489, "nods": 11232, "metz": 24424, "undergo": 13595, "reprinted": 13603, "boxes": 8378, "dynasties": 23014, "essential": 6827, "titans": 13785, "peoples": 7243, "brit": 28101, "celebrate": 8439, "]": 1033, "##si": 5332, "##chee": 25923, "nat": 14085, "freeman": 11462, "monster": 6071, "bunker": 15742, "\u05d0": 1241, "policy": 3343, "wicked": 10433, "##trix": 29184, "scholastic": 24105, "##eza": 28640, "minority": 7162, "backstage": 20212, "disagreed": 18335, "##vation": 21596, "urgent": 13661, "grips": 24758, "shave": 27545, "disability": 11980, "gently": 5251, "oversee": 17467, "aix": 28443, "a1": 17350, "premium": 12882, "might": 2453, "kayla": 26491, "galactic": 21375, "spoken": 5287, "##gne": 10177, "woven": 17374, "spontaneously": 27491, "96": 5986, "differing": 16965, "##\u0bb2": 29928, "playoff": 7808, "leyte": 27214, "sequential": 25582, "clergyman": 22232, "organized": 4114, "phosphate": 17344, "nebraska": 8506, "milan": 6954, "panicked": 16035, "lyle": 21971, "nagasaki": 27107, "cane": 11942, "bones": 5944, "amiga": 24126, "misery": 14624, "takeoff": 19744, "western": 2530, "aided": 11553, "welding": 23604, "deprivation": 29516, "giggled": 15889, "jam": 9389, "funeral": 6715, "\u304d": 1652, "destinations": 14345, "reluctance": 21662, "[unused709]": 714, "triumph": 10911, "flown": 10583, "mcqueen": 29265, "exploited": 18516, "##att": 19321, "##ytic": 21252, "door": 2341, "roads": 4925, "voice": 2376, "pike": 12694, "waiting": 3403, "harmful": 17631, "##mies": 28397, "##ards": 18117, "clermont": 27956, "##inia": 23309, "rosario": 17496, "balcony": 11673, "musicals": 20103, "cellular": 12562, "zealand": 3414, "##vili": 21661, "wellington": 8409, "garland": 17017, "perceive": 23084, "rests": 16626, "cheers": 21250, "evelyn": 12903, "tighter": 12347, "[unused493]": 498, "chases": 29515, "##bles": 13510, "edinburgh": 5928, "drenched": 25265, "preparations": 12929, "ezio": 23043, "scissors": 25806, "##iciencies": 28227, "restraining": 28285, "buddy": 8937, "surfing": 19967, "desperate": 7143, "liv": 22135, "accelerating": 29494, "boring": 11771, "office": 2436, "amber": 8994, "lies": 3658, "staple": 18785, "##more": 5974, "neoclassical": 22657, "queen": 3035, "accepts": 13385, "antarctica": 12615, "outlined": 14801, "stranger": 7985, "tastes": 16958, "sale": 5096, "blu": 14154, "respectively": 4414, "amounts": 8310, "##gni": 29076, "[unused16]": 17, "cadence": 23620, "blah": 27984, "manpower": 22039, "##ses": 8583, "cv": 26226, "camel": 19130, "wounded": 5303, "implied": 13339, "##vinsky": 27704, "pendleton": 24349, "clothing": 5929, "como": 18609, "purification": 28406, "och": 28166, "synthesized": 23572, "visited": 4716, "hilda": 21589, "hornets": 24855, "muscles": 6650, "sentences": 11746, "firing": 7493, "stewart": 5954, "[unused714]": 719, "\u062f": 1278, "##genesis": 23737, "1896": 6306, "[unused553]": 558, "##\u10d1": 29975, "alba": 18255, "tools": 5906, "##rong": 17583, "yang": 8675, "bitterness": 22364, "armoured": 11104, "[unused375]": 380, "[unused400]": 405, "[unused597]": 602, "[unused365]": 370, "\u0638": 1287, "commencing": 25819, "tabitha": 21581, "latch": 25635, "league": 2223, "protein": 5250, "lauderdale": 23520, "hosted": 4354, "loading": 10578, "hardly": 6684, "puts": 8509, "astro": 28625, "sunderland": 15518, "felony": 24648, "##ibly": 17296, "42": 4413, "settling": 9853, "stretches": 14082, "1888": 6690, "##zzle": 17644, "deciding": 10561, "iran": 4238, "abbey": 6103, "##\u2190": 30111, "neill": 11511, "##qual": 26426, "michel": 8709, "\u044e": 1209, "gas": 3806, "ally": 9698, "gradually": 6360, "##pala": 19636, "baton": 15302, "heel": 12073, "manufacturer": 7751, "linden": 22066, "hassan": 13222, "truce": 18415, "woken": 22795, "hive": 26736, "ibrahim": 13477, "witchcraft": 21599, "##rained": 27361, "##oso": 19137, "hepburn": 22004, "jericho": 17309, "enduring": 16762, "wurttemberg": 16346, "typical": 5171, "es": 9686, "eighties": 27690, "outsider": 21002, "##coat": 16531, "disc": 5860, "parkway": 12602, "##\u3008": 30163, "[unused334]": 339, "##rank": 26763, "teachers": 5089, "outnumbered": 21943, "footsteps": 9717, "kaiser": 15676, "upset": 6314, "fledgling": 25954, "vishnu": 17647, "##athic": 20972, "##oney": 17791, "hundred": 3634, "young": 2402, "fielded": 20988, "##\u02e2": 29717, "liner": 11197, "installations": 14111, "massif": 24875, "sanitary": 25480, "manning": 11956, "excused": 28512, "provinces": 6941, "trustee": 13209, "billionaire": 22301, "##amo": 22591, "##\u30ce": 30243, "sporting": 7419, "sake": 8739, "clarified": 20485, "backyard": 16125, "rebecca": 9423, "enters": 8039, "wine": 4511, "who": 2040, "relativity": 20805, "##ffie": 29055, "manufacturing": 5814, "empire": 3400, "thanksgiving": 15060, "willed": 22705, "\u05e4": 1261, "rehabilitation": 11252, "sand": 5472, "##aw": 10376, "unable": 4039, "bald": 13852, "madagascar": 11934, "pleasant": 8242, "veto": 22102, "inevitably": 21268, "contents": 8417, "peered": 10757, "raked": 22438, "originating": 14802, "thirties": 26313, "dukes": 16606, "1750": 18171, "lcd": 27662, "th": 16215, "thieves": 15862, "angular": 16108, "contract": 3206, "bangor": 21895, "litigation": 15382, "##anus": 20849, "##gano": 29451, "venue": 6891, "unease": 27880, "##meo": 26247, "outdated": 25963, "reorganized": 14137, "\u00a3100": 27708, "version": 2544, "frozen": 7708, "purcell": 26429, "killings": 16431, "##olio": 29401, "##cht": 10143, "jury": 6467, "pomeranian": 17717, "exodus": 16388, "39th": 22702, "decorated": 7429, "expert": 6739, "fling": 27655, "mirage": 21483, "economically": 15318, "aggression": 14974, "scares": 29421, "twentieth": 9086, "compounds": 10099, "##ganj": 22738, "catholicism": 16138, "issn": 23486, "gymnast": 25055, "consider": 5136, "ordnance": 14445, "females": 3801, "1784": 16496, "piazza": 22463, "##rzburg": 29136, "##ulin": 18639, "ammunition": 9290, "incident": 5043, "confess": 18766, "sundays": 14803, "divisions": 5908, "bourgeois": 22846, "262": 21950, "##lim": 17960, "yawned": 27626, "##pace": 15327, "cabin": 6644, "\u0153": 1107, "cornice": 27848, "chronic": 11888, "group": 2177, "nicknamed": 9919, "instruction": 7899, "\u5b50": 1816, "leaking": 24325, "provided": 3024, "merely": 6414, "sri": 5185, "hussein": 16543, "\u2606": 1621, "##gang": 24930, "jenny": 8437, "schultz": 22378, "emir": 23434, "nasser": 26099, "supplied": 8127, "promote": 5326, "shi": 11895, "##ddle": 20338, "prevent": 4652, "cake": 9850, "##\u0580": 29784, "dane": 14569, "phillips": 8109, "[unused861]": 866, "##\u0916": 29852, "chant": 16883, "grange": 18203, "somebody": 8307, "##mate": 8585, "liverpool": 6220, "sank": 7569, "##\u09ad": 29905, "spherical": 18970, "ox": 23060, "clown": 15912, "folk": 5154, "neal": 11030, "disapproval": 21406, "nancy": 7912, "establish": 5323, "##\u00a6": 29649, "convicts": 24948, "[unused754]": 759, "rankings": 10385, "##ette": 7585, "empty": 4064, "southport": 27494, "archduke": 27463, "dresser": 16641, "##nk": 8950, "catalytic": 26244, "page": 3931, "dared": 15048, "##bered": 22408, "##a1": 27717, "shot": 2915, "macleod": 23075, "premise": 18458, "formed": 2719, "##nd": 4859, "338": 27908, "##lo": 4135, "##rix": 17682, "##lander": 22691, "##zos": 28370, "youth": 3360, "josiah": 24461, "##rm": 10867, "##cd": 19797, "##rmi": 28550, "fir": 21554, "##flow": 12314, "experimented": 20918, "banner": 9484, "[unused485]": 490, "##\u1109": 29997, "##\u1105": 29994, "##ain": 8113, "##kawa": 13069, "revenue": 6599, "47": 4700, "\u25aa": 1618, "sardinia": 21594, "\u674e": 1877, "pu": 16405, "worlds": 8484, "kingdoms": 12028, "tko": 26537, "com": 4012, "##yal": 21095, "kirk": 11332, "futuristic": 28971, "groundbreaking": 23222, "auditor": 20964, "peterson": 12001, "##lves": 20899, "billing": 25640, "multiplied": 28608, "##phi": 21850, "unleashed": 22416, "generic": 12391, "policing": 21107, "climbing": 8218, "provides": 3640, "racks": 27259, "bombs": 9767, "reiterated": 28960, "elemental": 19529, "maldives": 25059, "hills": 4564, "##\u1162": 30007, "employers": 12433, "basins": 22739, "##nad": 25389, "##tosis": 25950, "churchyard": 19812, "golf": 5439, "prepares": 20776, "##\u30ad": 30227, "frontiers": 28750, "einstein": 15313, "reindeer": 29495, "grafton": 28680, "golfer": 20601, "christchurch": 15880, "[unused37]": 38, "manson": 21440, "trousers": 15292, "originals": 23728, "washington": 2899, "rarely": 6524, "##oja": 22918, "##rrie": 22155, "##rana": 16737, "ein": 16417, "writes": 7009, "2011": 2249, "flawless": 27503, "abandon": 10824, "quarterfinal": 29380, "##\u0f0d": 29961, "\u2074": 1538, "sienna": 20210, "##eau": 10207, "apparatus": 14709, "##\u4ebb": 30283, "university": 2118, "wildcats": 19495, "##xide": 19491, "neutral": 8699, "quakers": 28301, "ghost": 5745, "tr": 19817, "sash": 24511, "bonus": 6781, "intel": 13420, "##hia": 12995, "ultraviolet": 26299, "baja": 19497, "goodman": 14514, "inhaled": 15938, "rations": 29559, "ornate": 18099, "writings": 7896, "thinks": 6732, "unfamiliar": 16261, "roche": 20162, "[unused827]": 832, "portrait": 6533, "accidents": 13436, "accordance": 10388, "##cchi": 25955, "\u0621": 1269, "participate": 5589, "stepfather": 21481, "hs": 26236, "spin": 6714, "fremantle": 20358, "ubiquitous": 28498, "balkans": 19733, "##try": 11129, "##han": 4819, "##creen": 24410, "cancelled": 8014, "##icient": 20132, "benji": 27231, "bedford": 12003, "raging": 17559, "dairy": 11825, "airplanes": 24042, "indicate": 5769, "capability": 10673, "deported": 17929, "jeep": 14007, "##tric": 12412, "##is": 2483, "developer": 9722, "bellevue": 26756, "woo": 15854, "gigantic": 20193, "modernist": 19770, "sorority": 27600, "mao": 15158, "widows": 24835, "clipped": 20144, "\u0938": 1338, "defendants": 16362, "can": 2064, "choices": 9804, "vested": 26003, "asset": 11412, "demand": 5157, "violin": 6710, "zulu": 27359, "officials": 4584, "review": 3319, "##lands": 8653, "set": 2275, "annum": 28907, "lightweight": 12038, "sk": 15315, "##olved": 16116, "martin": 3235, "ii": 2462, "barrier": 8803, "moritz": 28461, "\u9fb8": 1983, "refusal": 13948, "##lewood": 26580, "cookie": 17387, "blows": 13783, "vaults": 28658, "statewide": 13486, "nadu": 10703, "carlton": 12989, "finn": 9303, "junior": 3502, "##kovic": 14733, "vast": 6565, "##\u0575": 29777, "write": 4339, "opus": 16895, "wavelength": 19934, "inform": 12367, "##ggy": 22772, "##\u751f": 30436, "piles": 18526, "shriek": 24795, "tango": 17609, "fiction": 4349, "[unused733]": 738, "shuffled": 18764, "##rock": 16901, "outraged": 23558, "##lma": 19145, "##issa": 21205, "##34": 22022, "staged": 9813, "rolf": 23381, "za": 23564, "harold": 7157, "maurice": 7994, "authorised": 19256, "void": 11675, "violinist": 16609, "##pping": 14853, "assumptions": 17568, "galaxy": 9088, "locked": 5299, "bundles": 26825, "system": 2291, "vox": 29450, "indonesia": 6239, "actual": 5025, "174": 19492, "shaped": 5044, "formal": 5337, "##offs": 27475, "[unused302]": 307, "unlawful": 22300, "unsafe": 25135, "##ros": 7352, "rom": 17083, "centers": 6401, "morality": 16561, "reflections": 16055, "##hn": 7295, "stepped": 3706, "plots": 14811, "produce": 3965, "medalist": 12968, "relocating": 26811, "falsely": 23123, "##udged": 27066, "our": 2256, "##ander": 12243, "chickens": 21868, "hiv": 9820, "##free": 23301, "implying": 20242, "shepherd": 11133, "makers": 11153, "##ulia": 20922, "nipple": 14298, "breaking": 4911, "gladstone": 21765, "lucrative": 21115, "oregon": 5392, "##\u0e07": 29946, "likes": 7777, "##pathic": 25940, "monuments": 10490, "##\u0e32": 29958, "denounced": 17787, "awoke": 19179, "handed": 4375, "driver": 4062, "theaters": 12370, "govern": 21208, "erratic": 24122, "##\u1d3a": 30030, "ronin": 29249, "\u25cf": 1619, "[unused735]": 740, "plasma": 12123, "philanthropy": 29291, "mccartney": 15320, "ambitious": 12479, "mosaic": 16061, "flair": 22012, "token": 19204, "##vate": 16952, "communism": 15523, "diabetes": 14671, "unicode": 27260, "experimental": 6388, "venezuelan": 15332, "eaten": 8828, "human": 2529, "live": 2444, "\u0e1e": 1414, "##him": 14341, "consoles": 22659, "mvp": 12041, "intercepted": 16618, "wound": 6357, "\u0dc0": 1407, "##dies": 18389, "##ault": 23505, "greenberg": 24190, "possessing": 18840, "##\u05df": 29802, "##ored": 19574, "alias": 14593, "sailors": 11279, "commandant": 15254, "##eley": 22352, "fencing": 15962, "taxes": 7773, "royalist": 20796, "simone": 14072, "##tion": 3508, "##tel": 9834, "##27": 22907, "tends": 12102, "cinema": 5988, "##cz": 27966, "networking": 14048, "below": 2917, "lullaby": 29149, "sunshine": 9609, "abu": 8273, "reach": 3362, "pittsburgh": 6278, "incoming": 14932, "gore": 13638, "remastered": 19484, "truss": 24224, "##iente": 25099, "departmental": 28912, "##beam": 28302, "machinery": 10394, "italian": 3059, "jack": 2990, "corridors": 17506, "nightfall": 28018, "madness": 12013, "caps": 9700, "lough": 29504, "##mie": 9856, "hurry": 9241, "ahead": 3805, "isabel": 11648, "uncommon": 13191, "bwf": 21215, "51": 4868, "##nium": 14907, "gmbh": 18289, "plastics": 26166, "ny": 6396, "1867": 7517, "war": 2162, "reminds": 15537, "tense": 9049, "heavier": 11907, "ditch": 14033, "hours": 2847, "##\u05d5": 29792, "[unused63]": 64, "valley": 3028, "jew": 16522, "##eries": 28077, "##vy": 10736, "coral": 11034, "hawthorn": 21671, "\u10e3": 1454, "orion": 18747, "roman": 3142, "pleasure": 5165, "admiring": 24588, "nice": 3835, "ami": 26445, "##/": 29626, "agony": 12812, "pmid": 20117, "cowan": 25752, "1702": 26776, "realities": 22213, "##\u3068": 30192, "priest": 5011, "chose": 4900, "absently": 21284, "reilly": 13875, "ross": 5811, "oswald": 17411, "##esh": 9953, "##ern": 11795, "\u0261": 1116, "unspecified": 25851, "madeline": 16974, "hidden": 5023, "[unused352]": 357, "criticisms": 19628, "any": 2151, "samantha": 11415, "cleansing": 26799, "##ulton": 22145, "254": 22234, "##\u4eee": 30287, "##ez": 9351, "deemed": 8357, "reserves": 8269, "serial": 7642, "[unused468]": 473, "owner": 3954, "crunch": 24514, "robert": 2728, "\u0bb5": 1394, "[unused864]": 869, "platinum": 8899, "##ural": 11137, "oath": 11292, "subterranean": 28811, "##naud": 26160, "geschichte": 28299, "aragon": 16146, "carl": 5529, "##hen": 10222, "harvey": 7702, "piss": 18138, "sexes": 21024, "eastward": 17318, "pronunciation": 15498, "jumping": 8660, "howling": 22298, "hearth": 22885, "basha": 26074, "cozy": 26931, "[unused810]": 815, "indiana": 5242, "ely": 20779, "bone": 5923, "masses": 11678, "needle": 12201, "markus": 23030, "##rim": 20026, "##kki": 24103, "##lok": 29027, "transporting": 18276, "circuit": 4984, "fan": 5470, "hank": 9180, "##urg": 12514, "##loe": 26846, "hirsch": 28127, "\u1d62": 1507, "\u03b6": 1160, "tasha": 25448, "crypt": 19888, "lightly": 8217, "##nator": 27413, "inwardly": 28710, "hare": 14263, "equilibrium": 14442, "##win": 10105, "murdered": 7129, "class": 2465, "cutting": 6276, "lawrence": 5623, "concurrently": 15442, "##pop": 16340, "opener": 16181, "##ciation": 23247, "pleasing": 24820, "##ux": 5602, "against": 2114, "talon": 19048, "345": 23785, "band": 2316, "brentford": 26550, "siblings": 9504, "ufo": 24321, "radiation": 8249, "iv": 4921, "declining": 13993, "##\u05d6": 29793, "\u05d2": 1243, "claiming": 6815, "attacked": 4457, "##lf": 10270, "##tsk": 29064, "##jos": 19929, "committee": 2837, "##\u05de": 29801, "[unused848]": 853, "muttering": 22581, "bouts": 23666, "alta": 23647, "##lling": 13112, "xml": 20950, "!": 999, "curves": 10543, "##\u304b": 30177, "successive": 11165, "forbes": 10822, "acute": 11325, "justin": 6796, "repertoire": 13646, "blamed": 11248, "biceps": 27947, "submerged": 13563, "450": 10332, "##rera": 24068, "thessaloniki": 23162, "[unused186]": 191, "first": 2034, "##cta": 25572, "afforded": 22891, "pines": 17527, "##systems": 29390, "\u3063": 1663, "program": 2565, "cart": 11122, "##\u3044": 30173, "lena": 14229, "intricate": 17796, "234": 22018, "upgraded": 9725, "##fer": 7512, "##kra": 22272, "plantations": 14979, "erosion": 14173, "time": 2051, "tormented": 29026, "\u2228": 1603, "sprung": 22057, "steals": 15539, "##ode": 10244, "excursion": 26144, "collaborator": 18843, "genuine": 10218, "trailer": 9117, "massacre": 9288, "[unused267]": 272, "1940": 3878, "##air": 11215, "dail": 26181, "illusion": 12492, "ernesto": 22428, "34": 4090, "marxist": 15511, "outlaw": 19104, "adventurous": 29118, "fundamental": 8050, "opposite": 4500, "exit": 6164, "reeves": 17891, "billy": 5006, "highlights": 11637, "chimney": 17321, "##ue": 5657, "[unused853]": 858, "longitude": 20413, "computational": 15078, "valve": 10764, "354": 27878, "realises": 25924, "##bu": 8569, "counter": 4675, "##gical": 26715, "pretending": 12097, "poole": 19107, "rodrigo": 18943, "americas": 10925, "##cb": 27421, "verify": 20410, "affiliate": 8727, "remixes": 15193, "comedians": 25119, "socially": 14286, "##pressive": 27484, "delight": 12208, "countries": 3032, "pennant": 22690, "bon": 14753, "sutherland": 14274, "##hab": 25459, "border": 3675, "batman": 8942, "##hedron": 26440, "[unused581]": 586, "respective": 7972, "##cite": 17847, "boon": 23264, "tuna": 24799, "tracking": 9651, "advisor": 8619, "##\u5e7f": 30368, "tough": 7823, "##dt": 11927, "cycle": 5402, "##elli": 13348, "##elia": 13902, "alexandre": 16971, "completes": 28123, "##ista": 11921, "##dgets": 28682, "hoping": 5327, "##igny": 26978, "bloomfield": 25584, "campaigning": 18524, "orphaned": 27093, "beans": 13435, "creativity": 14842, "##oss": 15094, "renegade": 28463, "tailed": 14578, "proper": 5372, "293": 26953, "woodrow": 23954, "[unused294]": 299, "iced": 28248, "spawn": 25645, "burkina": 23089, "orchestra": 4032, "##lean": 20898, "collateral": 24172, "55": 4583, "[unused130]": 135, "minister": 2704, "1891": 6607, "moderator": 29420, "##oge": 23884, "motivated": 12774, "generalized": 18960, "rhodesia": 20340, "##ille": 10484, "[unused627]": 632, "typing": 22868, "narrows": 25142, "ions": 15956, "wielding": 26974, "##iss": 14643, "listed": 3205, "learns": 10229, "assassination": 10102, "forged": 16158, "30th": 13293, "##vres": 24790, "components": 6177, "asks": 5176, "##pres": 28994, "wales": 3575, "clarity": 15563, "memory": 3638, "##leg": 23115, "axe": 12946, "##\u014b": 29673, "sevens": 19463, "cabaret": 19685, "rockets": 12496, "narayan": 24331, "\u7684": 1916, "weep": 27874, "rewarded": 14610, "zoology": 22405, "##lium": 21816, "het": 21770, "monique": 26194, "##ady": 18632, "##ife": 29323, "gail": 18576, "##hae": 25293, "ik": 20912, "ranger": 11505, "respects": 17475, "wolff": 23498, "flee": 10574, "bellamy": 25544, "##ouin": 25058, "colored": 6910, "joachim": 17286, "shamrock": 28782, "purge": 24694, "authentic": 14469, "expense": 10961, "sparhawk": 13709, "[unused207]": 212, "\u5dde": 1836, "retail": 7027, "dunn": 14145, "him": 2032, "##tized": 23355, "650": 13757, "titular": 12960, "meade": 26501, "detector": 19034, "fresco": 26991, "transit": 6671, "alsace": 24922, "loved": 3866, "surfaces": 9972, "scheduled": 5115, "##nesia": 21509, "mesh": 20437, "##ull": 18083, "ballard": 21896, "horizontally": 23190, "indo": 11424, "suicide": 5920, "##shu": 14235, "##lco": 22499, "##holes": 19990, "219": 20636, "amended": 13266, "stay": 2994, "daniela": 28541, "bremen": 16314, "##ments": 8163, "organizing": 10863, "##apa": 22068, "cupped": 13740, "##tin": 7629, "gottfried": 26142, "yoo": 26823, "prop": 17678, "activated": 8878, "##odle": 26156, "adopt": 11092, "prescription": 20422, "strips": 12970, "distract": 15886, "crust": 19116, "everybody": 7955, "tangle": 24453, "auction": 10470, "violent": 6355, "involves": 7336, "##ando": 28574, "atletico": 16132, "sera": 26358, "##ayo": 28852, "benefits": 6666, "\u1d35": 1493, "720": 22857, "##cter": 21162, "##rgan": 16998, "bowls": 15220, "slightly": 3621, "[unused615]": 620, "circled": 14867, "kunst": 28145, "##itia": 29050, "tales": 7122, "documentary": 4516, "clone": 17598, "[unused589]": 594, "jenks": 15119, "[unused377]": 382, "stamford": 22469, "##\u5409": 30319, "reflecting": 10842, "wildlife": 6870, "##nka": 25804, "sampling": 16227, "aegean": 27198, "##\u2153": 30109, "steam": 5492, "declaration": 8170, "poking": 21603, "[unused529]": 534, "base": 2918, "hampered": 22532, "mineral": 9754, "wilbur": 26151, "specializing": 14055, "241": 22343, "urgency": 19353, "jody": 27562, "peacekeeping": 28364, "if": 2065, "##\u30eb": 30259, "##tage": 26702, "dun": 24654, "ithaca": 27939, "plurality": 29018, "attempt": 3535, "guarantees": 21586, "##taka": 28412, "bosnia": 9562, "shoreline": 17721, "mathew": 25436, "punches": 17957, "socks": 14829, "ability": 3754, "##dp": 18927, "oracle": 14721, "##par": 19362, "##gny": 19393, "[unused293]": 298, "mitchell": 6395, "outpost": 21080, "\u2091": 1561, "store": 3573, "conscience": 13454, "chambers": 8477, "crook": 19302, "[unused440]": 445, "tender": 8616, "435": 24125, "gunners": 29000, "vancouver": 6930, "inverse": 19262, "halfway": 8576, "2002": 2526, "[unused721]": 726, "yarmouth": 28792, "concerts": 6759, "##tucket": 29315, "seminole": 28909, "commodity": 19502, "\u043c": 1191, "##lysis": 26394, "homemade": 25628, "animal": 4111, "ages": 5535, "\u5802": 1805, "[unused417]": 422, "clerks": 26706, "felipe": 17095, "audio": 5746, "cornerback": 26857, "alexia": 21683, "citrus": 20418, "##\u05e1": 29804, "##\u0642": 29834, "fisherman": 19949, "##\u0636": 29827, "##al": 2389, "\u3089": 1685, "courtship": 28592, "##zel": 12638, "wrong": 3308, "services": 2578, "guinea": 7102, "affiliates": 18460, "bbc": 4035, "obeyed": 22665, "[unused136]": 141, "provisions": 8910, "followed": 2628, "##ease": 19500, "sockets": 27540, "##rked": 19849, "1731": 28446, "other": 2060, "mustache": 28786, "chihuahua": 28480, "\u2079": 1543, "pains": 20398, "unexpected": 9223, "submit": 12040, "germans": 7074, "partly": 6576, "baroque": 10456, "wipe": 13387, "hanson": 17179, "mellon": 22181, "fallout": 23902, "gleaming": 18242, "shooter": 13108, "removes": 20362, "mg": 11460, "goodness": 15003, "##ssion": 28231, "barak": 27739, "frankfurt": 9780, "inner": 5110, "centralized": 22493, "narrowing": 21978, "charcoal": 18872, "compete": 5566, "readings": 15324, "bravo": 17562, "cyclist": 14199, "\u20a4": 1572, "clarke": 8359, "##hot": 12326, "\u306b": 1668, "1635": 27426, "descriptions": 13271, "half": 2431, "gunpowder": 22220, "capitalist": 19640, "masonic": 21152, "parallel": 5903, "tong": 15740, "navarre": 21260, "mx": 25630, "through": 2083, "##bib": 28065, "viz": 26619, "thigh": 10120, "[unused742]": 747, "##leigh": 13615, "hint": 9374, "1907": 5528, "polynomial": 17505, "chalmers": 29069, "##\u1d4d": 30036, "##house": 4580, "response": 3433, "[unused147]": 152, "ma": 5003, "##pan": 9739, "fortunately": 14599, "literary": 4706, "trailers": 21389, "lawn": 10168, "doubt": 4797, "1995": 2786, "baptiste": 17329, "##\u00d7": 26306, "##cano": 23803, "pat": 6986, "##\u208e": 30088, "joshi": 26645, "doubled": 11515, "unpublished": 19106, "stipulated": 25729, "[unused886]": 891, "fingerprints": 27556, "convened": 19596, "##loid": 27710, "troops": 3629, "conspicuous": 19194, "##chet": 20318, "highs": 26836, "traffic": 4026, "missionary": 8696, "creative": 5541, "reggae": 15662, "thinking": 3241, "adopting": 16151, "hartman": 26766, "motorsports": 20711, "##urn": 14287, "planets": 11358, "regard": 7634, "latvian": 14698, "symmetrical": 23476, "##tled": 14782, "marcel": 13389, "##missive": 27876, "telephone": 7026, "##\u2663": 30151, "slater": 17916, "##dan": 7847, "carly": 18431, "##tadt": 18808, "rhythms": 17900, "gives": 3957, "ghent": 24202, "tipping": 25486, "##len": 7770, "lunch": 6265, "fists": 10006, "##utnant": 24620, "kenyan": 20428, "step": 3357, ">": 1028, "mas": 16137, "##\u6751": 30404, "##rit": 14778, "proof": 6947, "xiang": 27735, "organ": 5812, "1739": 25801, "bombing": 8647, "[unused206]": 211, "promenade": 26815, "signaled": 22319, "##mpton": 26793, "##\u0e1e": 29950, "handel": 21465, "747": 25374, "\u516b": 1771, "##bha": 22655, "albeit": 12167, "bandages": 27993, "australia": 2660, "premiered": 5885, "caravan": 17184, "stormy": 24166, "generals": 11593, "histories": 15215, "galloway": 22372, "tri": 13012, "removal": 8208, "refueling": 23026, "coca": 16787, "1789": 13739, "paterson": 19162, "isolate": 27152, "booklet": 19271, "bullets": 10432, "intensity": 8015, "mt": 11047, "pakistan": 4501, "belmont": 17449, "bombings": 20109, "##pate": 17585, "##athing": 22314, "crystal": 6121, "finished": 2736, "guildford": 26353, "pray": 11839, "crank": 27987, "bulldog": 28628, "surrounds": 20626, "ee": 25212, "named": 2315, "kristin": 25130, "inspiration": 7780, "sweep": 11740, "northampton": 15944, "segment": 6903, "##\u65e5": 30390, "##icles": 20921, "arabic": 5640, "terminates": 28790, "covenant": 16077, "sa": 7842, "\u30ab": 1700, "[unused541]": 546, "occurrence": 14404, "##race": 22903, "progressive": 6555, "di": 4487, "nonstop": 25493, "link": 4957, "prison": 3827, "teammates": 13220, "##\u3066": 30191, "madrid": 6921, "\u5f8c": 1846, "runaway": 19050, "wrexham": 27119, "scrap": 15121, "shan": 17137, "subsequently": 3525, "invited": 4778, "demographic": 15982, "widening": 17973, "huey": 29503, "imp": 17727, "figuring": 23218, "salvatore": 17485, "secrecy": 20259, "yelling": 13175, "\u30eb": 1733, "##kyu": 23076, "##rist": 15061, "##osing": 18606, "quicker": 19059, "grape": 14722, "thereafter": 6920, "\u06a9": 1304, "##icide": 21752, "##md": 26876, "##bas": 22083, "lamp": 10437, "galicia": 19017, "yesterday": 7483, "get": 2131, "ecole": 12431, "panchayat": 20079, "\u0995": 1353, "cao": 12966, "olsen": 18997, "\u05df": 1256, "morally": 28980, "naming": 10324, "accident": 4926, "##peration": 29487, "introductory": 23889, "\u767d": 1915, "zipper": 22082, "prelate": 26595, "governor": 3099, "republic": 3072, "outdoors": 19350, "##um": 2819, "adaptations": 17241, "conveyed": 21527, "##nais": 28020, "epsilon": 28038, "strained": 12250, "grades": 7022, "apartment": 4545, "sonic": 12728, "{": 1063, "diplomatic": 8041, "rq": 28134, "##sat": 16846, "jurgen": 23171, "floral": 18686, "vietnamese": 9101, "##drive": 23663, "missouri": 5284, "recruiting": 14357, "calmed": 20869, "350": 8698, "dee": 9266, "succeeding": 13034, "reefs": 21484, "skopje": 29255, "coordination": 12016, "latham": 28737, "shake": 6073, "stiff": 10551, "whites": 12461, "\u10da": 1447, "##orra": 24285, "##\u3088": 30210, "zaragoza": 25744, "seahawks": 21390, "returned": 2513, "joaquin": 16877, "distinctive": 8200, "progress": 5082, "exchequer": 28889, "economists": 22171, "scott": 3660, "seriousness": 27994, "lucia": 12337, "##tively": 25499, "unnoticed": 22719, "oder": 27215, "##aster": 24268, "benjamin": 6425, "babu": 20948, "##mussen": 29134, "[unused579]": 584, "consonant": 18265, "routed": 19578, "wits": 25433, "friend": 2767, "##dra": 7265, "evan": 9340, "candace": 22905, "dashed": 18198, "cleveland": 6044, "imported": 10964, "foe": 22277, "##ping": 4691, "histoire": 20088, "[unused484]": 489, "guarding": 17019, "authorization": 20104, "sighed": 5489, "22nd": 13816, "chart": 3673, "parts": 3033, "\u027e": 1126, "comforting": 16334, "fernando": 9158, "identifies": 14847, "enchanted": 22454, "shirts": 11344, "##coe": 16288, "biographies": 22056, "##sis": 6190, "obstacles": 15314, "albanian": 9408, "parted": 10277, "gains": 12154, "##tag": 15900, "medium": 5396, "egyptian": 6811, "past": 2627, "clearance": 14860, "saints": 6586, "biochemistry": 22419, "beautifully": 17950, "haley": 16624, "wakes": 17507, "popularly": 16071, "15": 2321, "returns": 5651, "strange": 4326, "[unused874]": 879, "demonstrating": 14313, "frey": 20068, "gangs": 18542, "grimm": 24287, "powerful": 3928, "chopped": 24881, "employs": 13495, "holds": 4324, "we": 2057, "[unused181]": 186, "thomson": 11161, "limousine": 28012, "##link": 13767, "##bri": 23736, "flood": 7186, "descendants": 8481, "leash": 26834, "poland": 3735, "necessarily": 9352, "photographic": 12416, "communicating": 20888, "##go": 3995, "[unused870]": 875, "joel": 8963, "internacional": 27607, "foreign": 3097, "eponymous": 15248, "furthermore": 7297, "bolivar": 22118, "##rma": 17830, "[unused739]": 744, "blog": 9927, "2d": 14134, "\u2095": 1564, "##ply": 22086, "originate": 21754, "continually": 14678, "grows": 7502, "faa": 17032, "sectional": 27197, "concerns": 5936, "costing": 22173, "putin": 22072, "kansas": 5111, "slots": 19832, "tipperary": 17333, "loud": 5189, "saved": 5552, "##rred": 20529, "bro": 22953, "apparel": 26278, "ari": 10488, "crowded": 10789, "##rang": 24388, "arcade": 10877, "[unused248]": 253, "##\u5929": 30337, "##makers": 12088, "thong": 27468, "slayer": 20005, "dentistry": 26556, "[unused567]": 572, "airs": 14369, "vamps": 24064, "reliability": 15258, "remove": 6366, "scores": 7644, "2009": 2268, "sensing": 13851, "immediately": 3202, "[unused963]": 968, "intellectuals": 17412, "twelfth": 11313, "##ril": 15928, "##gart": 27378, "hat": 6045, "throne": 6106, "lama": 18832, "##ouk": 27967, "pulmonary": 21908, "[unused512]": 517, "shortest": 20047, "##ba": 3676, "sought": 4912, "\u11b8": 1488, "##bra": 10024, "archipelago": 13888, "engineer": 3992, "flutes": 28453, "ecology": 13517, "[unused125]": 130, "sigismund": 26748, "acidic": 24171, "uefa": 6663, "##rdy": 17460, "originally": 2761, "burrows": 22009, "frequencies": 13139, "\u03c4": 1174, "gospel": 8036, "january": 2254, "constituency": 5540, "##\u25cf": 30146, "startup": 22752, "fury": 8111, "conditioning": 14372, "andy": 5557, "emotions": 6699, "instrumentation": 16015, "matter": 3043, "##oma": 9626, "##omba": 24991, "winfield": 24739, "##active": 19620, "[unused213]": 218, "colleen": 28385, "elite": 7069, "bangs": 28490, "so": 2061, "mat": 13523, "liability": 14000, "prototypes": 19599, "pumpkin": 25730, "\u00a310": 26812, "salazar": 25315, "paradise": 9097, "1755": 21417, "##\u884c": 30471, "transatlantic": 26617, "surroundings": 11301, "67": 6163, "229": 22777, "katrina": 16864, "##\u0268": 29684, "cruises": 23986, "jolt": 22538, "leigh": 11797, "latin": 3763, "##own": 12384, "##ging": 4726, "diffusion": 19241, "shook": 3184, "rumored": 22710, "engaging": 11973, "yvonne": 21684, "##\u0627\u0646": 18511, "cite": 21893, "weight": 3635, "stevenson": 13636, "wore": 5078, "##arian": 12199, "sometimes": 2823, "directional": 20396, "vest": 17447, "##beau": 26401, "##otted": 26174, "westwood": 21730, "##tooth": 19392, "deposition": 19806, "##\u110b": 29999, "assemblies": 17720, "##glia": 20011, "postgraduate": 15438, "sociologist": 25106, "##\u4e0a": 30268, "##ia": 2401, "\u0989": 1350, "tack": 26997, "flora": 10088, "richie": 14411, "27": 2676, "julius": 10396, "rugged": 17638, "enriched": 25202, "tracy": 10555, "mechanical": 6228, "[unused246]": 251, "amendments": 16051, "contact": 3967, "##rable": 16670, "##gues": 22967, "##ally": 3973, "dances": 11278, "lahore": 15036, "incredible": 9788, "scarf": 18982, "do": 2079, "490": 22288, "clary": 13145, "##bet": 20915, "##lved": 26832, "codes": 9537, "##udeau": 27627, "1938": 4260, "problematic": 18636, "ow": 27593, "##boat": 11975, "diane": 12082, "[unused500]": 505, "injunction": 22928, "2005": 2384, "licked": 11181, "[unused961]": 966, "referencing": 28789, "[unused749]": 754, "peeled": 20956, "tangled": 14170, "\u2099": 1568, "unreasonable": 29205, "obsession": 17418, "bids": 20723, "laurel": 11893, "\u0e27": 1419, "emmett": 25685, "##enne": 24336, "##os": 2891, "[unused690]": 695, "novels": 6002, "domestically": 27143, "\u0bc7": 1398, "stockton": 19161, "##lish": 13602, "melting": 13721, "seventies": 26232, "baritone": 14458, "##qing": 19784, "##icus": 14239, "##hetic": 20086, "islamabad": 26905, "##chen": 8661, "##suka": 26544, "##gnon": 26977, "milky": 21582, "mercenary": 22146, "cox": 9574, "1800s": 19878, "janata": 20308, "ominous": 23504, "federico": 20493, "sat": 2938, "brewing": 16005, "horned": 26808, "intersections": 26540, "authoritative": 23949, "asteroid": 12175, "continents": 17846, "appliances": 22449, "sixties": 22651, "stale": 26729, "rehearsals": 24760, "grain": 8982, "spreads": 20861, "##mium": 27759, "predicting": 29458, "##ece": 26005, "chili": 20238, "acts": 4490, "barrels": 13826, "larsen": 20094, "prince": 3159, "melee": 27868, "audition": 14597, "accommodate": 8752, "designate": 24414, "[unused865]": 870, "eastenders": 28936, "merit": 7857, "textual": 25304, "award": 2400, "##tura": 27431, "announcer": 14073, "2013": 2286, "japanese": 2887, "1822": 12307, "frequent": 6976, "patterned": 25336, "hobart": 14005, "pieter": 23759, "guerra": 24698, "escorting": 23831, "lodging": 26859, "##owski": 15249, "strive": 29453, "bodily": 20445, "?": 1029, "drains": 18916, "tara": 10225, "payments": 10504, "ice": 3256, "6th": 5351, "associations": 8924, "\u53e3": 1788, "[unused890]": 895, "reno": 17738, "##marks": 27373, "##bir": 17706, "author": 3166, "athens": 7571, "assassin": 12025, "tucked": 9332, "timbers": 26238, "conway": 14783, "##dier": 24612, "fran": 23151, "adolph": 28564, "atlanta": 5865, "maxwell": 10691, "earned": 3687, "brazil": 4380, "countered": 17970, "volleyball": 7454, "clapton": 24705, "1705": 29326, "1836": 10081, "##umble": 26607, "westphalia": 22952, "surname": 11988, "goran": 28356, "erika": 24900, "geometridae": 24687, "##ivist": 21997, "composure": 23619, "growling": 22413, "##holder": 14528, "zimmerman": 27946, "ts": 24529, "##ze": 4371, "described": 2649, "tourists": 9045, "\u7537": 1912, "erased": 23516, "aspiring": 22344, "soaked": 13077, "[unused459]": 464, "hedges": 25840, "##inator": 23207, "forums": 21415, "cleaning": 9344, "lecturer": 9162, "meiji": 23214, "\u7530": 1911, "[unused42]": 43, "potsdam": 26554, "##ges": 8449, "##tted": 16190, "##lene": 11474, "dreamer": 24726, "##nate": 12556, "##\u02d0": 23432, "partridge": 26079, "##\u30af": 30228, "marco": 8879, "photographed": 16164, "plot": 5436, "name": 2171, "brennan": 13962, "endure": 18094, "##finger": 20349, "twist": 9792, "solutions": 7300, "fences": 21549, "neue": 27713, "previously": 3130, "morley": 20653, "cables": 15196, "zeus": 15208, "surrounding": 4193, "science": 2671, "fog": 9666, "petroleum": 11540, "invitational": 20129, "discharged": 14374, "##\u304f": 30179, "##fur": 27942, "##\u0291": 29703, "blinked": 7948, "swaying": 21826, "significantly": 6022, "laser": 9138, "regina": 12512, "treat": 7438, "##ut": 4904, "twitch": 19435, "diminished": 15911, "[unused807]": 812, "shields": 11824, "constituents": 24355, "classical": 4556, "dessert": 18064, "snuck": 24492, "officers": 3738, "fascinated": 15677, "\u4e0b": 1743, "collaborated": 8678, "##atal": 27815, "expanded": 4423, "characteristic": 8281, "des": 4078, "##hop": 18471, "citizenship": 9068, "##sson": 7092, "weimar": 20695, "president": 2343, "##birds": 12887, "\u4e8c": 1752, "justify": 16114, "##iman": 18505, "326": 28188, "distributed": 5500, "maine": 7081, "##chment": 22729, "amnesia": 29222, "booths": 27612, "winchester": 12841, "##mer": 5017, "##fies": 14213, "\u03b3": 1157, "peninsula": 6000, "merlin": 15993, "neil": 6606, "ps": 8827, "medication": 14667, "intrigued": 18896, "institutional": 12148, "##yala": 28617, "sho": 26822, "##lit": 15909, "showered": 23973, "preventing": 10723, "collectively": 13643, "legends": 9489, "rodney": 13898, "##llin": 21202, "parapet": 27372, "watson": 7908, "emirates": 14041, "maru": 26280, "gill": 12267, "battled": 19787, "unofficially": 29322, "sen": 12411, "fc": 4429, "diablo": 28841, "regent": 11315, "credentials": 22496, "article": 3720, "illumination": 21203, "contender": 20127, "\u057e": 1235, "prakash": 22233, "suspects": 13172, "lair": 21039, "[unused908]": 913, "zev": 27909, "nails": 10063, "rules": 3513, "directive": 16449, "bamboo": 15216, "artefacts": 25762, "entertain": 20432, "cracked": 9630, "[unused972]": 977, "behaviour": 9164, "##tidae": 21861, "tonic": 28157, "icelandic": 14024, "nbc": 6788, "##hiko": 22204, "keenan": 26334, "##keeping": 18321, "onset": 14447, "##yah": 17560, "bracelet": 19688, "sinatra": 19643, "myles": 27056, "core": 4563, "hansen": 13328, "spins": 23371, "socio": 17522, "piston": 16733, "ba": 8670, "##ella": 8411, "\u2077": 1541, "##rence": 24413, "##\u2011": 30049, "companions": 11946, "##icle": 25128, "havoc": 22156, "[unused115]": 120, "interpreter": 19555, "exists": 6526, "\u9ad8": 1981, "nerve": 9113, "night": 2305, "kia": 27005, "drugged": 25483, "dillon": 14602, "manages": 9020, "juarez": 25398, "measure": 5468, "loans": 10940, "misunderstanding": 24216, "homosexual": 15667, "leaflets": 27306, "grande": 9026, "evade": 26399, "lunatic": 26594, "crashes": 19119, "fifties": 25942, "##abad": 10542, "crimson": 11466, "flooding": 9451, "[unused62]": 63, "tweed": 26922, "ramsey": 15092, "mia": 8764, "##optera": 25324, "whoa": 23281, "terraces": 25633, "audiences": 9501, "unemployment": 12163, "ding": 22033, "flanked": 15874, "beliefs": 9029, "duluth": 28218, "observer": 9718, "withdraw": 10632, "renewal": 14524, "pea": 26034, "norway": 5120, "ecological": 12231, "\u03b2": 1156, "presidency": 8798, "[unused99]": 104, "query": 23032, "undertaking": 18457, "conquest": 9187, "teamed": 12597, "tiny": 4714, "debate": 5981, "envelope": 11255, "daryl": 22514, "span": 8487, "##ror": 29165, "match": 2674, "farm": 3888, "##cking": 23177, "finale": 9599, "raised": 2992, "[unused467]": 472, "giggling": 21783, "bombardment": 10400, "hug": 8549, "##ergy": 24395, "\u0927": 1326, "harper": 8500, "inherently": 26096, "injected": 19737, "appear": 3711, "denote": 19090, "next": 2279, "[unused483]": 488, "shah": 7890, "\u6709": 1873, "vote": 3789, "translator": 11403, "keys": 6309, "brant": 29182, "18": 2324, "latest": 6745, "humanitarian": 11470, "##gent": 11461, "angelo": 12262, "[unused618]": 623, "reunite": 25372, "bar": 3347, "cheat": 21910, "##\u09af": 29907, "##&": 29617, "protruding": 23868, "russian": 2845, "knob": 16859, "rallies": 22867, "quiver": 29049, "\u2194": 1587, "cub": 21987, "##etched": 29574, "bob": 3960, "laughed": 4191, "inches": 5282, "##utive": 28546, "banks": 5085, "##evic": 17726, "allmusic": 10477, "##ties": 7368, "gubernatorial": 19100, "##cini": 27085, "[unused119]": 124, "adventures": 7357, "[unused276]": 281, "\u3078": 1675, "mach": 24532, "70": 3963, "##oric": 29180, "kyushu": 25885, "##land": 3122, "glacier": 10046, "guiana": 23568, "zeke": 18270, "toro": 23790, "apples": 18108, "[unused532]": 537, "noise": 5005, "solitude": 22560, "ucla": 12389, "##iate": 13143, "juno": 20788, "integer": 16109, "\u0f58": 1432, "outlet": 13307, "panting": 15601, "\u09c0": 1380, "rory": 14285, "vertebrae": 25517, "##lance": 23078, "caucus": 13965, "fountain": 9545, "campground": 29144, "scotch": 18937, "square": 2675, "##river": 24352, "mora": 26821, "expulsion": 18272, "##mage": 26860, "##ela": 10581, "167": 16785, "##ie": 2666, "unto": 19662, "##nen": 10224, "causal": 28102, "monograph": 24039, "regal": 21279, "advocated": 11886, "buchanan": 14349, "##iness": 9961, "assert": 20865, "quarries": 27069, "##ering": 7999, "[unused691]": 696, "braves": 13980, "treatment": 3949, "\u1d4f": 1501, "78": 6275, "marijuana": 16204, "thorn": 16337, "##plication": 21557, "cop": 8872, "brows": 11347, "ken": 6358, "infinitely": 25773, "##mme": 20058, "darkly": 27148, "poem": 5961, "hilltop": 25566, "clues": 15774, "aisle": 12485, "paint": 6773, "posed": 13686, "##broken": 29162, "##rus": 7946, "remained": 2815, "##wife": 19993, "ton": 10228, "80": 3770, "##gpur": 25758, "##hope": 26441, "folly": 26272, "\u0633": 1282, "narrowly": 11866, "hung": 5112, "##case": 18382, "hid": 11041, "##\u0434": 29742, "pioneers": 13200, "adjustments": 24081, "doo": 20160, "intersects": 17349, "anita": 12918, "brightness": 18295, "compilations": 22754, "tertiary": 13553, "##lmer": 23398, "triggering": 29170, "martyr": 17216, "##tzer": 29546, "squat": 26783, "throat": 3759, "##nnis": 27803, "interpretations": 15931, "planting": 14685, "##rath": 27362, "##\u0b95": 29918, "##\u25a0": 30144, "heap": 16721, "treatise": 15326, "tracey": 25984, "##base": 15058, "arjun": 26024, "dignity": 13372, "##one": 5643, "cong": 26478, "generated": 7013, "chu": 14684, "girl": 2611, "authoritarian": 27246, "[unused453]": 458, "##dial": 27184, "##\u2086": 30082, "variation": 8386, "fright": 25966, "lip": 5423, "kicked": 6476, "clemson": 25906, "##\u2022": 30063, "##fy": 12031, "almost": 2471, "samples": 8168, "##points": 26521, "demolished": 7002, "mclaren": 18590, "monterrey": 26843, "liszt": 26273, "##\u30e0": 30251, "newest": 14751, "##bies": 20536, "brushed": 7765, "##olf": 28027, "haven": 4033, "oil": 3514, "##pt": 13876, "##tner": 18885, "spun": 7455, "endorsed": 11763, "watering": 25813, "bit": 2978, "thru": 27046, "##ato": 10610, "abbreviation": 22498, "sounded": 5015, "[unused990]": 995, "##glers": 25555, "##\u2089": 30085, "tacoma": 22954, "chi": 9610, "\u5341": 1783, "delegation": 10656, "##yson": 25385, "yi": 12316, "nme": 23770, "ants": 16111, "turin": 13667, "appreciated": 12315, "wheelchair": 13204, "wonderful": 6919, "parental": 18643, "colby": 18650, "garfield": 20170, "claws": 10702, "dish": 9841, "heron": 22914, "caldwell": 16589, "apt": 26794, "aaron": 7158, "##\u0f66": 29972, "sergeant": 6722, "##\u060c": 29814, "organizer": 19012, "towns": 4865, "books": 2808, "roaring": 17197, "##linger": 23101, "ray": 4097, "noting": 9073, "weighted": 18215, "##elt": 20042, "linguist": 22978, "freeing": 22198, "utilizes": 21852, "devastated": 13879, "mhz": 11413, "gutierrez": 20836, "villages": 4731, "##ffin": 15379, "##quel": 22197, "##\u043d\u0430": 19865, "franz": 8965, "mounts": 19363, "depict": 17120, "##ison": 10929, "nc": 13316, "straight": 3442, "scraped": 20378, "##zman": 24340, "downfall": 22252, "##\u0647": 14157, "mavericks": 28330, "hq": 16260, "anhalt": 27088, "cc": 10507, "illicit": 25049, "9th": 6280, "questioning": 11242, "##wall": 9628, "##vna": 29207, "stakeholders": 22859, "##phobia": 24920, "mixer": 23228, "plainly": 24250, "traits": 12955, "##ented": 14088, "\u0580": 1237, "##\u044d": 29756, "juvenile": 11799, "rpm": 11575, "##ox": 11636, "##\u09be": 29914, "ah": 6289, "havre": 28890, "\u201d": 1524, "##orth": 28610, "marian": 14042, "##\u0985": 29883, "reporters": 12060, "##ending": 18537, "##dation": 20207, "devils": 13664, "brandt": 19407, "costume": 9427, "by": 2011, "##inton": 27028, "conclusion": 7091, "sitcom": 13130, "[unused199]": 204, "kellan": 19697, "renaming": 24944, "nyc": 16392, "entire": 2972, "attendance": 5270, "[unused240]": 245, "velocity": 10146, "reasonably": 16286, "##rooms": 29020, "##rb": 15185, "relaunched": 26391, "really": 2428, "##thi": 15222, "##break": 23890, "##duction": 16256, "resume": 13746, "griffin": 9258, "313": 22997, "millennia": 27620, "##rley": 12866, "\u028b": 1133, "chants": 29534, "crashed": 8007, "dynamite": 21719, "orphanage": 18504, "savannah": 10891, "havilland": 23994, "##bility": 8553, "##sities": 24279, "##bf": 29292, "patch": 8983, "##rnik": 26437, "##ours": 22957, "rangers": 7181, "scroll": 17186, "angled": 18756, "dormitory": 21538, "kylie": 9008, "felix": 8383, "##\u2227": 30129, "substitution": 20885, "wondered": 4999, "conductor": 7589, "##hre": 28362, "[unused580]": 585, "laid": 4201, "straining": 21366, "perkins": 13601, "##our": 8162, "guide": 5009, "undertaken": 10607, "alice": 5650, "clamped": 18597, "discus": 26047, "##\u0142a": 22972, "##ima": 9581, "corp": 13058, "societe": 18341, "##aro": 10464, "accounts": 6115, "##1": 2487, "##ford": 3877, "dahl": 27934, "conform": 23758, "ferns": 25715, "taps": 25316, "[unused439]": 444, "gardner": 11764, "prelude": 19508, "cubic": 11919, "unaffected": 24720, "instructions": 8128, "##gan": 5289, "##\u0bc7": 29934, "syrian": 9042, "spared": 16891, "rohan": 28605, "execute": 15389, "booth": 9065, "local": 2334, "##ivation": 25761, "##lette": 27901, "kala": 26209, "##berry": 9766, "\u0924": 1323, "kepler": 28219, "##\u2218": 30126, "fighting": 3554, "buyer": 17634, "aiding": 24791, "inception": 12149, "tallest": 13747, "restrain": 28467, "c1": 27723, "dammit": 20878, "##dick": 24066, "merge": 13590, "[unused743]": 748, "contention": 18974, "houston": 5395, "##\u2093": 30092, "##graphic": 14773, "saskatoon": 25447, "faculties": 18658, "headquartered": 9403, "libby": 19533, "earthly": 29520, "fit": 4906, "plural": 13994, "worn": 6247, "category": 4696, "##ncia": 22750, "devout": 26092, "manuel": 7762, "suspect": 8343, "##ater": 24932, "witnesses": 9390, "##sburg": 9695, "dispersal": 27602, "rallied": 24356, "submissions": 27842, "marriott": 26490, "pool": 4770, "##\u0936": 29872, "bethel": 19375, "stitches": 25343, "##some": 14045, "onslaught": 28644, "asher": 17243, "sciences": 4163, "256": 17273, "dominated": 6817, "cuthbert": 24583, "classics": 10002, "remembers": 17749, "naturalist": 19176, "terrace": 11134, "feminism": 20050, "truman": 15237, "observations": 9420, "experts": 8519, "sub": 4942, "\u0f53": 1429, "cause": 3426, "emotionally": 14868, "\u300e": 1643, "chin": 5413, "situation": 3663, "longtime": 11155, "www": 7479, "1703": 28366, "lynn": 9399, "alpha": 6541, "##wice": 23425, "02": 6185, "chorale": 26561, "char": 25869, "precedent": 20056, "utilized": 12550, "unharmed": 28150, "frustrating": 25198, "bacteria": 10327, "divert": 27345, "laden": 14887, "causes": 5320, "##ev": 6777, "lawsuit": 9870, "gather": 8587, "applicants": 17362, "travers": 29053, "matching": 9844, "##nstein": 15493, "clicking": 22042, "radius": 12177, "companion": 7452, "exchanging": 25620, "porch": 7424, "muriel": 27616, "brest": 22451, "drumming": 22980, "popular": 2759, "facto": 13743, "altitude": 7998, "##bey": 19182, "##s\u0142aw": 23305, "kyle": 7648, "lucknow": 23571, "chromosome": 16706, "##\u222a": 30132, "foreman": 18031, "##lls": 12718, "pearls": 21944, "deliveries": 23534, "1943": 3826, "\u2264": 1608, "gr": 24665, "forgotten": 6404, "school": 2082, "swallowing": 18468, "sorbonne": 28452, "vibe": 21209, "##fted": 18915, "##ndt": 26379, "emergencies": 26360, "rides": 12271, "salsa": 26509, "##\u30fb": 30264, "##nov": 16693, "weasel": 29268, "[unused49]": 50, "top": 2327, "winced": 15574, "\u30df": 1724, "flicked": 12777, "revolt": 10073, "external": 6327, "presented": 3591, "##tance": 26897, "beaumont": 16210, "##tri": 18886, "gang": 6080, "pisa": 25472, "circle": 4418, "northeast": 4794, "silently": 8601, "dame": 8214, "renal": 25125, "perrin": 28106, "genocide": 14052, "seton": 28796, "photographs": 7008, "chiang": 17684, "card": 4003, "[unused521]": 526, "brenda": 15507, "helicopters": 12400, "ledger": 27106, "resumed": 7943, "vanity": 18736, "guardians": 14240, "##cis": 22987, "sandra": 12834, "##spar": 27694, "##ddin": 18277, "collector": 10018, "##rag": 29181, "contempt": 17152, "reacts": 27325, "controversial": 6801, "supplementary": 26215, "rap": 9680, "rune": 23276, "##jah": 18878, "##book": 8654, "letting": 5599, "550": 13274, "withdrawal": 10534, "missions": 6416, "pga": 14198, "56th": 29087, "##cede": 22119, "cartoonist": 19659, "restriction": 16840, "deepened": 20183, "lengths": 10742, "pow": 23776, "##ol": 4747, "appointing": 28050, "luc": 12776, "devastation": 25594, "laureate": 17656, "1840": 8905, "marissa": 22767, "enabled": 9124, "cognitive": 10699, "e": 1041, "##nh": 25311, "panda": 25462, "flap": 20916, "makeup": 5789, "castile": 15656, "gps": 14658, "displaced": 12936, "\u6b66": 1889, "puppet": 13997, "unlocked": 14058, "robbed": 20114, "\u0435": 1185, "[unused107]": 112, "pie": 11345, "fourier": 26899, "339": 28977, "waller": 23550, "punched": 11696, "checked": 7039, "shards": 23327, "lattice": 17779, "musicians": 5389, "##son": 3385, "[unused873]": 878, "##jas": 17386, "senate": 4001, "spectrum": 8674, "[unused462]": 467, "inaccessible": 29104, "blackish": 22032, "manhattan": 7128, "principals": 27928, "##\u03c0": 29731, "bertrand": 20586, "dissolve": 21969, "reptiles": 20978, "tables": 7251, "fruits": 10962, "naive": 15743, "\"": 1000, "heidelberg": 16793, "unopposed": 17123, "squads": 20191, "cannon": 8854, "raleigh": 15842, "sprayed": 25401, "##ntes": 17340, "answering": 10739, "[unused790]": 795, "boilers": 20412, "motorsport": 21044, "sweater": 14329, "disclose": 26056, "##aur": 21159, "organism": 15923, "seater": 23392, "frs": 25188, "happen": 4148, "##sma": 26212, "##ec": 8586, "longest": 6493, "shakespeare": 8101, "##rangle": 21476, "al": 2632, "verse": 7893, "##ocation": 23909, "released": 2207, "motorcycles": 18580, "candidacy": 17057, "arches": 13540, "alphabet": 12440, "freestyle": 9817, "jeffrey": 10799, "##ism": 2964, "nord": 13926, "engraved": 16328, "loss": 3279, "rios": 25836, "bloomington": 26372, "balfour": 27560, "henderson": 9481, "enables": 12939, "deployed": 7333, "ph": 6887, "yeah": 3398, "fragments": 10341, "nhl": 7097, "ballet": 7250, "hilton": 15481, "##wright": 26460, "muscled": 24909, "inexperienced": 26252, "duc": 26363, "coventry": 13613, "punt": 18975, "##oll": 14511, "##eki": 26576, "claimed": 3555, "yeomanry": 26883, "cover": 3104, "archaeology": 12009, "##8th": 28264, "##vich": 12933, "##wr": 13088, "credited": 5827, "u2": 23343, "colleagues": 8628, "implant": 27159, "corporations": 11578, "unrelated": 15142, "rudy": 18254, "chimneys": 28885, "moniker": 21937, "hunter": 4477, "ss": 7020, "##ding": 4667, "hiss": 19074, "##ole": 9890, "sermon": 18408, "##osaurus": 25767, "##oe": 8913, "##hardt": 13778, "##zle": 29247, "1985": 3106, "outcomes": 13105, "##oi": 10448, "\u1d58": 1506, "hardship": 26479, "##sling": 28886, "0": 1014, "000": 2199, "adrian": 7918, "absorbed": 9063, "##hosh": 26643, "mph": 5601, "fishery": 22880, "withstand": 19319, "nothin": 24218, "##tler": 25091, "treasury": 9837, "patiently": 19080, "trier": 25487, "dyer": 23494, "romania": 6339, "reassuring": 21093, "##mm": 7382, "florence": 7701, "craters": 27561, "cassandra": 15609, "book": 2338, "##elled": 21148, "cleaner": 20133, "watch": 3422, "1950": 3925, "[unused716]": 721, "thanks": 4283, "sentencing": 23280, "baghdad": 13952, "##mut": 28120, "##you": 29337, "##ricting": 28827, "game": 2208, "crew": 3626, "darkening": 27862, "weston": 12755, "gee": 20277, "innsbruck": 28914, "catastrophe": 25539, "##irus": 26013, "##ker": 5484, "exported": 15612, "weir": 16658, "dividing": 16023, "focusing": 7995, "throw": 5466, "fades": 26784, "##tian": 10772, "savoy": 16394, "interacting": 21935, "##tas": 10230, "morris": 6384, "gm": 13938, "##\u6c35": 30420, "##bal": 10264, "##xed": 19068, "simultaneously": 7453, "stacy": 18566, "stacey": 19997, "1632": 28216, "##\u30b5": 30231, "##kha": 15256, "seizure": 18634, "##\u3063": 30189, "\u00bf": 1094, "disappointed": 9364, "headwaters": 25345, "resident": 6319, "##\u6cd5": 30427, "robb": 26211, "##americana": 27026, "[unused786]": 791, "beetle": 7813, "##nay": 16741, "showcasing": 27696, "dq": 25410, "terra": 14403, "pedestrians": 24946, "selected": 3479, "earle": 23888, "joined": 2587, "viable": 14874, "##vic": 7903, "##ured": 12165, "\u30ef": 1736, "mac": 6097, "gaga": 23332, "##hner": 28989, "equation": 8522, "secrets": 7800, "delivers": 18058, "patents": 13979, "\u30a2": 1693, "path": 4130, "stables": 16232, "captured": 4110, "##bund": 27265, "##core": 17345, "hereditary": 14800, "waited": 4741, "friendships": 28956, "sums": 20571, "poster": 13082, "plaid": 26488, "conventions": 12472, "##mento": 23065, "induce": 19653, "##nism": 28113, "pressure": 3778, "overwhelmed": 13394, "crossbow": 28692, "##power": 11452, "fumbled": 20054, "arden": 26225, "improves": 24840, "polly": 17543, "##uid": 21272, "raaf": 22709, "sight": 4356, "yelled": 7581, "additions": 13134, "squirrel": 18197, "scenery": 17363, "pradesh": 7970, "##bbies": 27982, "rigorous": 20001, "335": 24426, "whatsoever": 18971, "murmur": 20227, "nazi": 6394, "does": 2515, "nino": 20801, "drain": 12475, "connacht": 27062, "h\u2082o": 24833, "importantly": 14780, "playable": 16854, "##\u7cf9": 30460, "eagles": 8125, "crusade": 16282, "##uber": 21436, "compton": 18592, "[unused132]": 137, "cello": 10145, "##ility": 15148, "opined": 26084, "screaming": 7491, "inlet": 15824, "juveniles": 25406, "slot": 10453, "dislike": 18959, "supervisory": 26653, "migrant": 20731, "1967": 3476, "along": 2247, "mahmud": 25886, "herb": 12810, "christians": 8135, "redevelopment": 15582, "##master": 8706, "##nine": 19105, "##\u306d": 30196, "triumphant": 25251, "praised": 5868, "gavin": 9448, "##alo": 23067, "handle": 5047, "distributor": 16632, "sarawak": 21546, "bao": 25945, "##year": 29100, "lurking": 24261, "##rk": 8024, "torah": 16297, "\u043a": 1189, "aden": 16298, "##rke": 25074, "2008": 2263, "woman": 2450, "##yk": 15922, "1999": 2639, "##cave": 27454, "signals": 7755, "zion": 19999, "theorem": 9872, "##ein": 12377, "throbbing": 17061, "glasgow": 6785, "##aba": 19736, "##itarian": 25691, "##torm": 20654, "prep": 17463, "birch": 16421, "prints": 11204, "greenville": 20967, "research": 2470, "saturn": 14784, "\u30ad": 1701, "\u20ac": 1574, "rasped": 28459, "chilly": 24222, "search": 3945, "probing": 28664, "\u98df": 1978, "##chuk": 26516, "cyber": 16941, "plan": 2933, "##lbert": 23373, "slabs": 28761, "infected": 10372, "terrorist": 9452, "unconventional": 23693, "##ory": 10253, "breached": 25769, "cunningham": 13652, "space": 2686, "alan": 5070, "successors": 18530, "shades": 13178, "francesco": 11400, "concerned": 4986, "\u767a": 1914, "promised": 5763, "crane": 11308, "[unused638]": 643, "##inas": 15227, "coupled": 11211, "001": 25604, "changed": 2904, "gloucestershire": 15905, "fidelity": 22625, "mental": 5177, "patient": 5776, "liquidation": 28763, "##gative": 26792, "\u207a": 1544, "sixteen": 7032, "horizons": 24484, "stamps": 12133, "##ula": 7068, "##bby": 14075, "adele": 17623, "##en": 2368, "[unused572]": 577, "lt": 8318, "contexts": 18046, "member": 2266, "realism": 15650, "590": 25186, "curse": 8364, "noah": 7240, "chesapeake": 20867, "cathy": 18305, "##\u661f": 30392, "##out": 5833, "172": 18253, "tanzania": 11959, "\u09b6": 1374, "##care": 16302, "taking": 2635, "pardon": 14933, "##hiff": 25798, "congregation": 7769, "barn": 8659, "clancy": 24530, "gnome": 25781, "biomass": 28148, "baptized": 19775, "cramer": 29433, "southend": 26104, "accumulated": 14830, "##\u044b": 29113, "keane": 27228, "ranking": 5464, "stopped": 3030, "##ssed": 29417, "politics": 4331, "ample": 20851, "reigned": 21236, "officially": 3985, "unitarian": 25477, "##\u0f58": 29968, "##ounded": 26240, "adversary": 27248, "badminton": 14618, "inflammatory": 20187, "etymology": 26803, "##erative": 25284, "cellar": 15423, "brass": 8782, "seniors": 15995, "miles": 2661, "customs": 8205, "##uti": 21823, "will": 2097, "reveal": 7487, "scramble": 25740, "termed": 12061, "\u0ba4": 1385, "[unused157]": 162, "1728": 26833, "[unused296]": 301, "lane": 4644, "grief": 9940, "salvage": 18340, "districts": 4733, "ann": 5754, "integers": 24028, "novak": 19580, "##ff": 4246, "secret": 3595, "aus": 17151, "suppress": 16081, "inserted": 12889, "laundry": 14533, "alpine": 10348, "##\u967d": 30499, "##\u706b": 30432, "unless": 4983, "##zbek": 28733, "\u30b3": 1704, "yahoo": 20643, "hopeless": 20625, "cm": 4642, "[unused418]": 423, "##rella": 21835, "luigi": 15153, "extensively": 8077, "yankees": 11081, "stem": 7872, "##ssing": 18965, "corinne": 26879, "income": 3318, "formula": 5675, "ufc": 11966, "punishment": 7750, "waistband": 27553, "representation": 6630, "wish": 4299, "retains": 14567, "breaststroke": 28164, "1951": 4131, "backside": 25065, "knowledge": 3716, "##\u201e": 30060, "##nary": 24041, "##\u03c6": 29736, "instructed": 10290, "cheaper": 16269, "preface": 18443, "knesset": 27899, "41": 4601, "claw": 15020, "##sio": 20763, "fired": 5045, "steady": 6706, "geoffrey": 11023, "boarding": 9405, "loops": 15932, "housemates": 28152, "candle": 13541, "ye": 6300, "mentoring": 29192, "##rce": 19170, "##\u03b7": 24824, "43": 4724, "runoff": 19550, "transfers": 15210, "hollis": 27477, "##ak": 4817, "ob": 27885, "sheen": 20682, "invaded": 10836, "hodges": 19772, "##ea": 5243, "thou": 15223, "function": 3853, "[unused571]": 576, "councils": 10784, "theology": 8006, "\u58eb": 1807, "smoking": 9422, "viking": 12886, "brain": 4167, "terence": 22677, "##rca": 18992, "proposes": 17146, "cessna": 27664, "adventure": 6172, "invisible": 8841, "profound": 13769, "43rd": 25747, "pepper": 11565, "\u4f8d": 1765, "\u0282": 1129, "tucker": 9802, "alleviate": 24251, "nm": 13221, "thriving": 20319, "ltd": 5183, "barrie": 24953, "##fold": 10371, "argument": 6685, "callum": 15229, "awake": 8300, "temeraire": 23611, "pound": 9044, "competent": 17824, "[unused630]": 635, "crested": 25413, "euro": 9944, "##vani": 27760, "navigator": 20532, "believing": 8929, "compelled": 15055, "\u79c0": 1928, "relate": 14396, "replacing": 6419, "pony": 15606, "losses": 6409, "##\u897f": 30473, "gift": 5592, "lasers": 23965, "soc": 27084, "##well": 4381, "##eon": 10242, "\u026c": 1121, "##\u3072": 30199, "scattered": 7932, "subscribers": 17073, "miller": 4679, "my": 2026, "octagonal": 22340, "plateau": 9814, "archibald": 15917, "austrian": 6161, "oblivious": 18333, "cut": 3013, "mcdowell": 25005, "##reate": 29313, "mysteries": 15572, "ghana": 9701, "auto": 8285, "flyers": 16217, "presley": 17229, "carpets": 27997, "allocation": 16169, "destroying": 9846, "selects": 27034, "objected": 15959, "##bio": 26282, "warriors": 6424, "bonfire": 28698, "donate": 21357, "##eux": 20860, "[unused445]": 450, "##ees": 10285, "plymouth": 10221, "handy": 18801, "lent": 15307, "##atic": 12070, "higher": 3020, "mrs": 3680, "##tors": 6591, "oldham": 18285, "goods": 5350, "prophet": 12168, "glances": 13021, "##oted": 27428, "filmfare": 25648, "ranged": 15844, "accents": 24947, "[unused41]": 42, "converted": 4991, "macedonia": 11492, "##irs": 18894, "scaling": 25169, "##hp": 22269, "multiplayer": 17762, "coins": 7824, "##rva": 19146, "deleted": 17159, "pictures": 4620, "[unused321]": 326, "##\u03c7": 29737, "##nburg": 22642, "pulses": 23894, "janice": 20029, "si": 9033, "propeller": 15692, "taunting": 29442, "##ues": 15808, "liberals": 13350, "agricultural": 4910, "definitive": 15764, "auschwitz": 24363, "##poulos": 24662, "producing": 5155, "terms": 3408, "reads": 9631, "powered": 6113, "##tose": 22282, "authenticity": 21452, "##\u5b80": 30344, "[unused684]": 689, "term": 2744, "leary": 22986, "##\u30a7": 30223, "assisted": 7197, "bullet": 7960, "wing": 3358, "drum": 6943, "##\u0ba9": 29923, "##\u91cc": 30488, "##apes": 29040, "tremor": 27734, "armando": 26716, "antrim": 24142, "##\u0448": 29753, "kochi": 27603, "##\u1d35": 30029, "anchors": 24674, "honourable": 17164, "klaus": 16536, "verses": 11086, "##itt": 12474, "[unused214]": 219, "stefano": 19618, "1889": 6478, "##\u2096": 30094, "allied": 6035, "##rith": 24292, "develop": 4503, "femme": 26893, "johansson": 26447, "weed": 17901, "gross": 7977, "bach": 10384, "monitor": 8080, "architects": 8160, "[unused756]": 761, "uniform": 6375, "passport": 12293, "##thed": 23816, "alcoholic": 14813, "##kos": 15710, "##\u79be": 30453, "timeline": 17060, "##time": 7292, "timothy": 10805, "recycling": 17874, "claim": 4366, "icc": 16461, "##grant": 18980, "xl": 28712, "[unused702]": 707, "consulting": 10552, "union": 2586, "accreditation": 14893, "heavy": 3082, "##iard": 14619, "danielle": 18490, "bundle": 14012, "moors": 24812, "heritage": 4348, "vinnie": 24214, "emancipation": 22656, "swindon": 22350, "hooper": 23717, "nigel": 12829, "punching": 19477, "[unused215]": 220, "ja": 14855, "##itch": 20189, "\u898b": 1948, "##\u00f0": 29668, "montrose": 24990, "##rka": 22379, "##owed": 15096, "disagreement": 18185, "clearer": 24509, "proud": 7098, "gloucester": 13370, "tending": 25069, "sticky": 15875, "cecilia": 18459, "infirmary": 23453, "progresses": 22901, "[unused604]": 609, "[unused197]": 202, "prompted": 9469, "hospice": 29277, "##burn": 8022, "mcpherson": 24332, "barclay": 23724, "adulthood": 20480, "expansion": 4935, "muse": 18437, "##vera": 26061, "##enna": 24397, "traveler": 20174, "##oslav": 23085, "fated": 27442, "negro": 12593, "dh": 28144, "kilometer": 20595, "jazz": 4166, "dharma": 20669, "gale": 14554, "mexico": 3290, "220": 10545, "tires": 13310, "lulu": 21744, "served": 2366, "##ge": 3351, "betting": 19244, "awaiting": 15497, "relentless": 21660, "neighbourhoods": 27535, "growls": 27825, "vibration": 17880, "##\u0564": 29769, "##ene": 8625, "tully": 25724, "aim": 6614, "residues": 22644, "dirt": 6900, "##gram": 13113, "hull": 6738, "##bird": 9001, "ming": 11861, "consciousness": 8298, "widely": 4235, "[unused601]": 606, "agitated": 21568, "nervously": 12531, "[unused752]": 757, "convection": 23849, "dvds": 22477, "orbital": 13943, "intercity": 20651, "chick": 14556, "fulham": 21703, "##nist": 26942, "coma": 16571, "##mber": 21784, "premiership": 11264, "##dit": 23194, "idle": 18373, "notions": 21951, "odin": 26195, "ticking": 28561, "1611": 28769, "##br": 19892, "satire": 18312, "sensible": 21082, "##dice": 24598, "headed": 3753, "west": 2225, "edmund": 9493, "blending": 23293, "rebirth": 22785, "\u0926": 1325, "##ffa": 20961, "sponge": 25742, "incapable": 19907, "spartans": 24293, "cartridge": 15110, "sculpted": 19921, "ml": 19875, "serbs": 16757, "##riding": 21930, "\u09a3": 1361, "[unused152]": 157, "kinetic": 20504, "marley": 20326, "jessica": 8201, "nearest": 7205, "attracts": 17771, "porter": 8716, "laude": 21602, "malaya": 19979, "literacy": 8433, "evaluation": 9312, "##ury": 13098, "faculty": 4513, "##aday": 28039, "upon": 2588, "targeted": 9416, "mates": 14711, "transferring": 14391, "managerial": 24465, "dominic": 11282, "dumb": 12873, "nearby": 3518, "wong": 11789, "felicia": 27579, "damaging": 15011, "##nn": 10695, "imperialism": 28087, "humanity": 8438, "murmured": 7152, "robbie": 12289, "snacks": 27962, "launch": 4888, "cholera": 25916, "mercedes": 10793, "could": 2071, "employed": 4846, "stade": 15649, "ringo": 25589, "##nitz": 22792, "highlight": 12944, "chandler": 13814, "mars": 7733, "##ans": 6962, "chests": 28717, "##evich": 16277, "##\u0e19": 29949, "chunk": 20000, "continuous": 7142, "symphony": 6189, "##ure": 5397, "##ryl": 23320, "##eson": 21421, "vacation": 10885, "accidental": 17128, "##\u590f": 30334, "positively": 13567, "despair": 13905, "monumental": 15447, "drowning": 14759, "##l": 2140, "##actic": 28804, "insignificant": 27018, "purple": 6379, "##iri": 15735, "puget": 27879, "parcels": 28998, "markings": 13967, "##game": 16650, "craftsmen": 25736, "canoe": 14347, "twelve": 4376, "\u00b5": 1085, "pollen": 22482, "particular": 3327, "constraint": 27142, "sour": 14768, "sox": 9175, "\u305b": 1659, "##bai": 26068, "belly": 7579, "bombers": 10544, "stimulating": 27295, "attach": 22476, "wilder": 18463, "eine": 27665, "##ide": 5178, "songwriting": 14029, "subsp": 24807, "settled": 3876, "##\u09aa": 29903, "lifespan": 26462, "van": 3158, "##efined": 28344, "married": 2496, "yourselves": 25035, "##anial": 27532, "\u0127": 1103, "scars": 13521, "sincere": 18006, "wrist": 7223, "behaved": 26979, "hand": 2192, "168": 16923, "strata": 22913, "[unused595]": 600, "maha": 24404, "\u0448": 1203, "bearer": 20905, "warsaw": 8199, "comment": 7615, "##vey": 12417, "besieged": 17923, "##laze": 24472, "dash": 11454, "##oise": 23565, "drove": 5225, "##\u1d2e": 30027, "effort": 3947, "cabins": 20321, "diana": 8805, "bam": 25307, "comprises": 8681, "doing": 2725, "##rg": 10623, "##\u5802": 30331, "excelled": 23081, "fifth": 3587, "decidedly": 27873, "twenty": 3174, "##oon": 7828, "[unused933]": 938, "limerick": 15679, "maintaining": 8498, "imagining": 16603, "belarusian": 15626, "canadiens": 21247, "2020": 12609, "frescoes": 23360, "marge": 25532, "tariffs": 26269, "apprentice": 13357, "\u026a": 1119, "1962": 3705, "nowadays": 13367, "battleships": 21327, "boiling": 16018, "microscope": 24635, "editing": 9260, "##buch": 25987, "outlook": 17680, "boom": 8797, "##\u3084": 30208, "humane": 23369, "##ulio": 24825, "##mmer": 15810, "##ammed": 27479, "##morphic": 18078, "reverse": 7901, "##\u00f8": 16415, "basque": 13915, "##\u2217": 30125, "##ction": 7542, "castles": 15618, "[UNK]": 100, "##guard": 18405, "[unused821]": 826, "fearful": 19725, "patting": 26085, "metropolis": 18236, "nyu": 27935, "\u09aa": 1367, "schoolhouse": 26301, "biology": 7366, "compose": 17202, "penal": 18476, "##pio": 22071, "bruce": 5503, "sonya": 27926, "##abia": 29039, "##lington": 18722, "toxic": 11704, "##going": 26966, "dresden": 12983, "spaghetti": 26666, "##oteric": 29112, "##gence": 17905, "highest": 3284, "missile": 7421, "scents": 29254, "abd": 19935, "architecture": 4294, "clumsy": 22902, "configuration": 9563, "##hat": 12707, "##df": 20952, "ensure": 5676, "[unused12]": 13, "sole": 7082, "echoed": 10187, "\u05da": 1251, "keith": 6766, "lifting": 8783, "dar": 18243, "commotion": 23960, "wreckage": 21056, "tank": 4951, "aims": 8704, "##real": 22852, "arrogant": 15818, "##enbach": 21409, "##trom": 13887, "ease": 7496, "[unused140]": 145, "\u05de": 1255, "dwellings": 16707, "yd": 21076, "james": 2508, "workings": 24884, "efficient": 8114, "carousel": 27628, "sore": 14699, "##shot": 19040, "##nted": 14706, "inferno": 21848, "reorganisation": 24934, "castes": 26254, "nasal": 19077, "grenades": 21914, "##lea": 19738, "cheekbones": 27181, "##]": 29636, "##gged": 15567, "arrangement": 6512, "##storm": 19718, "ripple": 24644, "palms": 9486, "##\u0bb5": 29930, "1996": 2727, "##ation": 3370, "frigates": 22833, "nothing": 2498, "neighbourhood": 10971, "clemens": 27277, "traverse": 20811, "\u30c4": 1712, "[unused451]": 456, "clade": 21697, "eighty": 12021, "##\u27e8": 30155, "\u2030": 1530, "##ologist": 8662, "737": 22061, "hiatus": 14221, "shelters": 17177, "insult": 15301, "festivities": 21206, "mil": 23689, "marvel": 8348, "yet": 2664, "[unused771]": 776, "##eto": 18903, "##eet": 15558, "stanford": 8422, "als": 25520, "[unused872]": 877, "bachelor": 5065, "##oka": 12352, "dispersed": 15484, "protested": 11456, "##lip": 15000, "whatever": 3649, "##lena": 20844, "##mona": 21781, "method": 4118, "cartel": 21680, "blinds": 28279, "sensual": 18753, "undead": 17315, "soaring": 23990, "##kla": 26086, "1685": 25053, "etched": 20286, "sanjay": 29590, "limit": 5787, "accompaniment": 22205, "smartphone": 26381, "precise": 10480, "[unused928]": 933, "##hm": 14227, "summers": 10945, "mated": 28795, "jo": 8183, "dice": 18740, "public": 2270, "dragoons": 28069, "bombed": 18897, "personnel": 5073, "demons": 7942, "quickly": 2855, "controls": 7711, "##lings": 11227, "penis": 19085, "discussed": 6936, "influential": 6383, "nomenclature": 23718, "23": 2603, "complexity": 11619, "polgara": 27041, "beaufort": 23622, "doubtful": 21888, "vacant": 10030, "biggest": 5221, "megan": 12756, "screwed": 14180, "bret": 25626, "bulbs": 25548, "5000": 13509, "membrane": 10804, "sooner": 10076, "[unused934]": 939, "##aneous": 17191, "##\u53e4": 30315, "camilla": 26902, "faulkner": 25109, "##sey": 7952, "stockport": 26284, "december": 2285, "clue": 9789, "corrections": 20983, "foot": 3329, "wendell": 24526, "[unused847]": 852, "parachute": 13561, "funding": 4804, "liu": 8607, "##vira": 24093, "evening": 3944, "##\u043a": 23925, "muted": 22124, "##ign": 23773, "footballer": 4362, "reagan": 11531, "wrestler": 10706, "spartan": 20670, "bottles": 11015, "larson": 21213, "\u05e2": 1259, "judd": 20128, "ca": 6187, "ravaged": 25537, "carriage": 9118, "naturalized": 27558, "photographer": 8088, "eager": 9461, "##zell": 24085, "[unused696]": 701, "##igo": 14031, "amid": 13463, "##mori": 24610, "christy": 21550, "bull": 7087, "##wski": 10344, "kitty": 14433, "##\u092f": 29868, "wearing": 4147, "##\u30cf": 30244, "##end": 10497, "faulty": 28927, "cbc": 13581, "coyotes": 26880, "[unused866]": 871, "\u03b7": 1161, "initiatives": 11107, "pang": 20657, "multiplication": 24856, "referee": 5330, "bangladesh": 7269, "transcription": 14193, "tata": 23236, "september": 2244, "205": 16327, "foreigner": 29524, "##lain": 15987, "someplace": 24956, "certainly": 5121, "botswana": 19414, "crews": 10604, "susanna": 26681, "proportion": 10817, "\u65b0": 1862, "godfather": 23834, "amelia": 11556, "candidates": 5347, "\u03c1": 1171, "##re": 2890, "dmitry": 22141, "bitten": 19026, "blond": 8855, "atmospheric": 12483, "##ner": 3678, "sabres": 26969, "plumbing": 27902, "\u306d": 1670, "pipes": 12432, "daughter": 2684, "stereo": 12991, "flinched": 19201, "##kind": 18824, "quad": 17718, "##ail": 12502, "inland": 9514, "res": 24501, "preservation": 8347, "dalai": 28511, "##red": 5596, "1649": 26538, "leverage": 21155, "1708": 27337, "landmark": 8637, "##ulsive": 23004, "2015": 2325, "claire": 6249, "sector": 4753, "strongest": 10473, "tanker": 20135, "leah": 14188, "theory": 3399, "tuning": 17372, "charter": 6111, "jubilee": 13078, "beg": 11693, "uploaded": 21345, "1859": 8165, "sulfur": 17864, "suggestions": 15690, "##fest": 14081, "##efe": 27235, "##lding": 24573, "#": 1001, "maitland": 25511, "##pol": 18155, "elk": 18995, "arterial": 25543, "shanghai": 8344, "##stov": 29473, "\u2020": 1526, "mystery": 6547, "sensitivity": 14639, "heather": 9533, "40th": 16541, "heavenly": 16581, "playstation": 9160, "drums": 3846, "popcorn": 24593, "siberian": 21822, "yielded": 17544, "##iac": 20469, "ash": 6683, "##national": 25434, "luce": 19913, "28": 2654, "[unused983]": 988, "calculation": 17208, "crime": 4126, "koln": 28306, "constitute": 12346, "[unused554]": 559, "[unused665]": 670, "##christ": 26654, "comprehensive": 7721, "vichy": 29177, "##form": 14192, "interactions": 10266, "finely": 22126, "##olin": 18861, "amherst": 19850, "bravery": 16534, "ankara": 20312, "protect": 4047, "##db": 18939, "92": 6227, "basics": 24078, "overdose": 26641, "lifeless": 22185, "illnesses": 24757, "exiled": 14146, "##\u6c5f": 30423, "##isan": 29196, "sample": 7099, "propose": 16599, "1845": 9512, "[unused79]": 80, "translit": 28468, "continuity": 13717, "hugs": 24459, "##ique": 7413, "##cross": 16458, "confederates": 24627, "##apple": 23804, "meets": 6010, "military": 2510, "taylor": 4202, "resistance": 5012, "cavalier": 28778, "\u05d7": 1248, "navajo": 22440, "eruption": 17259, "heated": 9685, "trunks": 20509, "##\u0142aw": 19704, "267": 25491, "##geny": 17487, "##non": 8540, "ric": 26220, "tarzan": 24566, "pendulum": 28300, "##kker": 23793, "curtains": 14694, "representations": 15066, "exasperated": 24379, "##qvist": 28705, "forests": 6138, "ribbon": 10557, "bat": 7151, "objectives": 11100, "1945": 3386, "##cup": 15569, "performing": 4488, "grants": 8624, "byzantine": 8734, "##iter": 21646, "underground": 5230, "##29": 24594, "alloys": 28655, "##eur": 11236, "##\u2208": 30124, "##uan": 13860, "critical": 4187, "kneeling": 16916, "cho": 16480, "odisha": 21874, "chattanooga": 23351, "\u91ce": 1963, "##kara": 16566, "110": 7287, "posterior": 15219, "derivative": 13819, "pubs": 23598, "antony": 16262, "\u02b2": 1141, "det": 20010, "options": 7047, "brilliant": 8235, "48": 4466, "cyprus": 9719, "rabbis": 25602, "botanical": 13194, "enthusiastic": 14727, "accusing": 16723, "improve": 5335, "1824": 11617, "basement": 8102, "\u57ce": 1804, "##ised": 5084, "lumber": 13891, "groups": 2967, "\u03b5": 1159, "madden": 24890, "grasp": 10616, "cases": 3572, "##dley": 14232, "furnished": 19851, "greece": 5483, "##chase": 26300, "falling": 4634, "torture": 8639, "stranded": 15577, "gentleman": 10170, "allegiance": 14588, "discipline": 9009, "genoa": 15771, "devotion": 13347, "emerged": 6003, "flushing": 23519, "masterpiece": 17743, "1960s": 4120, "corporal": 14265, "1738": 28009, "explode": 15044, "poles": 10567, "versa": 18601, "publisher": 6674, "proved": 4928, "bargaining": 21990, "[unused410]": 415, "[unused168]": 173, "tasks": 8518, "always": 2467, "giles": 13287, "rosewood": 29528, "madonna": 11284, "morphological": 24012, "ankle": 10792, "warrior": 6750, "marius": 20032, "diesel": 7937, "bath": 7198, "gonzales": 24334, "hawks": 12505, "minneapolis": 11334, "panted": 28149, "dried": 9550, "composed": 3605, "[unused247]": 252, "contracting": 21012, "skirts": 18184, "madeleine": 19324, "acoustic": 6490, "livingstone": 27656, "flanking": 24958, "downwards": 28457, "cardinals": 9310, "##ele": 12260, "gundam": 26152, "quarterback": 9074, "##mbling": 29256, "accommodated": 28959, "analog": 11698, "##brook": 9697, "twists": 21438, "murdering": 21054, "##shima": 24772, "ferries": 20157, "[unused965]": 970, "styling": 20724, "tugs": 29306, "proprietor": 21584, "immediate": 6234, "legion": 8009, "views": 5328, "##ege": 24746, "spilling": 18054, "likelihood": 16593, "lobbied": 26421, "know": 2113, "patience": 11752, "shifting": 9564, "##oton": 25862, "[unused208]": 213, "reprint": 25364, "dal": 17488, "discovery": 5456, "stony": 16104, "##nction": 27989, "classes": 4280, "##cote": 19800, "somali": 16831, "tortured": 12364, "##eu": 13765, "porn": 22555, "hamburger": 24575, "##\u90e8": 30486, "austrians": 28439, "seal": 7744, "shandong": 25768, "##flight": 28968, "##+": 29622, "electrode": 28688, "alto": 10766, "diagram": 16403, "disappear": 10436, "##vish": 24968, "##lithic": 28508, "cantor": 26519, "municipalities": 7602, "slipped": 5707, "freddy": 19343, "religious": 3412, "garner": 18661, "##ged": 5999, "##vana": 27313, "##not": 17048, "casting": 9179, "quantum": 8559, "asserts": 19514, "##dson": 25112, "facade": 8508, "drinking": 5948, "[unused624]": 629, "##\u6708": 30398, "hermes": 24127, "fringe": 13548, "arrows": 12563, "usual": 5156, "treating": 12318, "menon": 25111, "##ular": 7934, "[unused339]": 344, "fig": 20965, "##ooped": 20671, "stifled": 27146, "##pe": 5051, "##ssee": 29522, "allegedly": 9382, "\u0274": 1124, "[unused600]": 605, "##\u02b7": 29709, "telling": 4129, "##nl": 20554, "curate": 27530, "##ndo": 15482, "thirsty": 24907, "##naire": 20589, "caracas": 21675, "diffuse": 28105, "##_": 29638, "gripping": 13940, "modernized": 27140, "secretaries": 23660, "rulers": 11117, "##\u0649": 29837, "11": 2340, "attached": 4987, "command": 3094, "cheney": 23745, "[unused617]": 622, "##pha": 21890, "##ication": 21261, "oval": 9242, "thirds": 12263, "marino": 17185, "\u9752": 1975, "sleeping": 5777, "##istan": 23137, "\u0629": 1272, "inclusive": 18678, "king": 2332, "station": 2276, "##uls": 28426, "britannia": 24677, "##ior": 25346, "mcgrath": 23220, "guns": 4409, "##ably": 8231, "charities": 15430, "[unused412]": 417, "emission": 15760, "groom": 18087, "\u6226": 1856, "##\u6c0f": 30417, "electoral": 6092, "mountainous": 14897, "troubles": 13460, "gymnastics": 14002, "prophecy": 14951, "decorations": 14529, "##pic": 24330, "##\u5f73": 30371, "cry": 5390, "modeling": 11643, "acquired": 3734, "weakly": 17541, "savage": 9576, "##mura": 16069, "masked": 16520, "##meric": 25531, "kilograms": 18857, "hulk": 16009, "johnnie": 27716, "prayer": 7083, "1990": 2901, "abrupt": 18772, "\u00a2": 1068, "cumulative": 23260, "sharpe": 22147, "permanent": 4568, "laws": 4277, "teatro": 16038, "spiritual": 6259, "##pel": 11880, "##\u2079": 30078, "##ha": 3270, "tripped": 21129, "looking": 2559, "##hoe": 14490, "##mmy": 18879, "b": 1038, "qb": 26171, "smith": 3044, "certified": 7378, "##rbin": 27366, "springer": 17481, "233": 22115, "##\u0438": 10325, "##rest": 28533, "et": 3802, "society": 2554, "consulted": 17535, "logistical": 28961, "harmony": 9396, "blockbuster": 27858, "\u0565": 1223, "spectator": 21027, "fins": 18564, "suriname": 25050, "cooking": 8434, "potentially": 9280, "hahn": 24266, "marital": 23143, "saint": 3002, "mustang": 18851, "animals": 4176, "dim": 11737, "headlines": 19377, "bomb": 5968, "tufts": 25252, "lone": 10459, "1860": 7313, "##\u0440": 16856, "lower": 2896, "##acion": 21736, "##itor": 15660, "1711": 28455, "sweeping": 12720, "guadalajara": 22887, "indictment": 24265, "hz": 22100, "taxon": 28521, "iqbal": 28111, "insults": 23862, "driveway": 11202, "despite": 2750, "##\u0f62": 29970, "colts": 14390, "students": 2493, "storytelling": 20957, "\u0456": 1213, "holmes": 9106, "tails": 17448, "[unused950]": 955, "loan": 5414, "dragging": 11920, "phonetic": 26664, "nationalists": 17934, "[unused110]": 115, "robe": 11111, "accountability": 17842, "brunei": 18692, "transformations": 21865, "##ulate": 9869, "bran": 24905, "densely": 19441, "downed": 20164, "ramp": 13276, "winners": 4791, "bahrain": 15195, "##rted": 17724, "charges": 5571, "sage": 10878, "stunned": 9860, "noted": 3264, "\u092f": 1332, "##aking": 15495, "lansing": 22304, "[unused725]": 730, "communities": 4279, "##rek": 16816, "800": 5385, "edited": 5493, "reed": 7305, "poured": 8542, "black": 2304, "[unused4]": 5, "\u09a7": 1365, "damon": 11317, "grotesque": 27707, "gao": 17377, "charged": 5338, "poses": 22382, "verity": 22178, "correctional": 20873, "##tres": 19168, "catalonia": 16711, "newborn": 20662, "21": 2538, "promotion": 4712, "lights": 4597, "keyboardist": 20173, "cupping": 25076, "backstroke": 28373, "##iques": 19516, "separates": 18600, "germain": 19192, "[unused198]": 203, "##iling": 16281, "gora": 26967, "helsinki": 12331, "originated": 7940, "lindsay": 12110, "anybody": 10334, "##ington": 7853, "inspectors": 28421, "hatch": 11300, "scientific": 4045, "liga": 8018, "mariana": 22097, "propelled": 15801, "##ino": 5740, "curran": 19649, "interests": 5426, "instinctively": 16607, "supporting": 4637, "researcher": 10753, "installing": 23658, "##via": 9035, "processor": 13151, "180": 8380, "bartlett": 20081, "\u11ab": 1485, "hollywood": 5365, "irene": 12855, "pokemon": 20421, "24th": 13386, "640": 19714, "abruptly": 9225, "incentive": 20438, "macbeth": 25182, "##lar": 8017, "survivor": 12084, "anterior": 15099, "##uta": 13210, "##rret": 27032, "robust": 15873, "17th": 5550, "roles": 4395, "##\u30c1": 30236, "##ike": 17339, "rolling": 5291, "collisions": 28820, "retreating": 17512, "decorative": 11584, "musician": 5455, "quantity": 11712, "accessed": 11570, "cove": 11821, "routes": 5847, "##ament": 24996, "gomez": 12791, "##zo": 6844, "##ager": 17325, "alberto": 12007, "loving": 8295, "\u211d": 1579, "##acle": 18630, "momentary": 29089, "saxophonist": 19977, "resources": 4219, "paramount": 11734, "flash": 5956, "mentor": 10779, "##bius": 17028, "related": 3141, "canadians": 16485, "##ley": 3051, "lectures": 8921, "tournaments": 8504, "##mist": 23738, "charles": 2798, "burn": 6402, "skyline": 21343, "durga": 28746, "satan": 16795, "immersed": 26275, "pitted": 25895, "fred": 5965, "[unused511]": 516, "anguish": 21782, "##umatic": 25360, "##leaf": 19213, "318": 27003, "flipping": 18497, "welcomed": 10979, "##ucher": 22368, "##feng": 24383, "showcases": 27397, "fl": 13109, "classmate": 23175, "buzzed": 21377, "shapes": 10466, "fabric": 8313, "padded": 20633, "trailing": 12542, "recognize": 6807, "thousands": 5190, "\u0268": 1118, "mar": 9388, "metal": 3384, "##rts": 21217, "lgbt": 12010, "georg": 12062, "shipments": 24636, "watford": 21740, "rd": 16428, "viva": 20022, "akron": 22735, "nrl": 20686, "cha": 15775, "218": 20741, "chuck": 8057, "club": 2252, "info": 18558, "nineteenth": 9137, "##proof": 18907, "pottery": 11378, "apps": 18726, "ritual": 8887, "separated": 5459, "symptoms": 8030, "1623": 29056, "475": 28245, "##ni": 3490, "philology": 29286, "rotary": 16933, "tobago": 17247, "aux": 19554, "organising": 21317, "karlsruhe": 26660, "llc": 11775, "##ggs": 21314, "exploded": 9913, "molecules": 10737, "operates": 5748, "##sden": 27903, "##\u00b2": 10701, "##ki": 3211, "approval": 6226, "##tment": 21181, "tv": 2694, "egyptians": 23437, "bum": 26352, "laps": 10876, "possibilities": 12020, "##kon": 19648, "##static": 16677, "fail": 8246, "wallet": 15882, "allen": 5297, "surveys": 12265, "hackett": 28630, "##hui": 20552, "unstable": 14480, "speech": 4613, "fatalities": 20871, "oppressive": 28558, "turmoil": 17930, "ewing": 24023, "manually": 21118, "\u5927": 1810, "\u4e0d": 1744, "royals": 15426, "nur": 27617, "printer": 15041, "rhys": 13919, "laos": 15786, "until": 2127, "tunisian": 22946, "##\u5b87": 30345, "galway": 14370, "metaphor": 19240, "irving": 12415, "parades": 26635, "fk": 14352, "frederick": 5406, "railing": 15747, "regained": 11842, "wiped": 8342, "##oro": 14604, "##\u2ea9": 30158, "rift": 16931, "rca": 12639, "scratch": 11969, "violence": 4808, "fuse": 19976, "cr": 13675, "breakout": 25129, "technological": 10660, "recycled": 22207, "lure": 17256, "##bil": 14454, "lastly": 22267, "##hra": 13492, "wants": 4122, "vegetable": 15415, "##nge": 15465, "organisms": 11767, "stroked": 11699, "bartholomew": 19866, "margins": 17034, "pointless": 23100, "loses": 12386, "layne": 22452, "spawning": 27957, "\u1d2e": 1491, "proposition": 14848, "ambiguity": 27637, "##iring": 24771, "berkeley": 8256, "##aco": 22684, "shipment": 22613, "porte": 25927, "bali": 20222, "tractors": 28292, "v8": 15754, "\u535a": 1786, "##date": 13701, "sitting": 3564, "##vez": 26132, "percent": 3867, "radha": 26498, "##vn": 16022, "tornado": 11352, "1900": 5141, "mbc": 27262, "1898": 6068, "cuts": 7659, "marvelous": 28851, "civilized": 25825, "foam": 17952, "422": 29269, "##emon": 26941, "upton": 26900, "slate": 12796, "##while": 19927, "opinion": 5448, "##script": 22483, "psychotic": 27756, "magnetic": 8060, "##dge": 11818, "danube": 16212, "##dog": 16168, "merry": 12831, "capacities": 21157, "hovered": 18190, "protest": 6186, "quentin": 15969, "fabio": 25616, "punch": 8595, "konstantin": 23989, "##\u09b8": 29912, "arrivals": 25470, "traditional": 3151, "toned": 27604, "effects": 3896, "fangs": 11738, "197": 19975, "rental": 12635, "hale": 13084, "husband": 3129, "##rgh": 27172, "forest": 3224, "defence": 4721, "[unused829]": 834, "son": 2365, "dramas": 16547, "olympiad": 25225, "patrice": 29527, "draft": 4433, "ram": 8223, "owen": 7291, "##gler": 17420, "contradiction": 26917, "crept": 13147, "alec": 9752, "stadiums": 28244, "dowager": 20508, "##urbed": 29595, "panzer": 16946, "putting": 5128, "##wan": 7447, "weakness": 11251, "morphology": 19476, "throttle": 24420, "persistent": 14516, "merchandise": 16359, "[unused502]": 507, "$": 1002, "##sti": 16643, "1620": 24259, "##icated": 17872, "pause": 8724, "money": 2769, "blank": 8744, "vicious": 13925, "christianity": 7988, "wills": 17234, "##\u211d": 30107, "##ord": 8551, "annette": 22521, "seminars": 17239, "booster": 23715, "\u53f8": 1791, "1905": 5497, "##sley": 8002, "##mberg": 29084, "jonah": 15617, "devote": 23313, "##ital": 18400, "1997": 2722, "like": 2066, "sovereignty": 12601, "cave": 5430, "toy": 9121, "sly": 18230, "rhine": 10950, "bucket": 13610, "##eo": 8780, "sizes": 10826, "##hic": 16066, "[unused594]": 599, "wondering": 6603, "[unused283]": 288, "onions": 24444, "queens": 8603, "[unused260]": 265, "seizures": 25750, "barack": 13857, "advertisement": 15147, "[unused953]": 958, "balloons": 22163, "rochester": 10541, "utopia": 26425, "sediment": 19671, "flute": 8928, "me": 2033, "selangor": 28904, "marlins": 27055, "##jun": 19792, "var": 13075, "hesitate": 16390, "corresponding": 7978, "laughing": 5870, "agile": 29003, "butler": 7055, "baker": 6243, "randall": 12813, "##arth": 22425, "parasitic": 26045, "coe": 24873, "sound": 2614, "##vern": 23062, "seaside": 20276, "albania": 10407, "lance": 9993, "jagger": 25827, "\u702c": 1905, "nelly": 29498, "credible": 23411, "polk": 20819, "##mat": 18900, "[unused481]": 486, "offerings": 14927, "fritz": 12880, "barracks": 10492, "stomach": 4308, "movie": 3185, "floated": 13715, "coherent": 18920, "argus": 25294, "digits": 16648, "property": 3200, "finish": 3926, "##rrier": 27051, "coldly": 24745, "##gis": 17701, "##hay": 24180, "fuss": 28554, "alberta": 7649, "slams": 25967, "woke": 8271, "##mes": 7834, "salts": 23480, "##stick": 21354, "emilia": 20417, "achievement": 6344, "multiple": 3674, "petition": 9964, "coach": 2873, "##gos": 12333, "##ville": 3077, "menace": 19854, "order": 2344, "m": 1049, "1941": 3874, "##qi": 14702, "##tein": 9589, "winter": 3467, "##ovich": 12303, "tomatoes": 12851, "\u062e": 1277, "busch": 15840, "chuckle": 15375, "luftwaffe": 17740, "taxonomy": 25274, "children": 2336, "emanuel": 21135, "canon": 9330, "victoria": 3848, "dismissed": 7219, "##bino": 21891, "prostitutes": 20833, "reappeared": 23040, "solos": 24339, "##hir": 11961, "fooled": 25857, "##ptive": 24971, "chateau": 11874, "chartered": 12443, "agnes": 11166, "acclaimed": 10251, "pigment": 28815, "156": 16734, "agustin": 26889, "1752": 24736, "311": 23532, "commitment": 8426, "##ishly": 19983, "cmll": 25395, "bowler": 14999, "ozone": 26443, "praying": 14488, "sect": 17831, "toxicity": 22423, "newman": 10625, "childhood": 5593, "handicap": 15822, "\u51fa": 1774, "outrage": 19006, "toad": 21344, "##lak": 23451, "jd": 26219, "apologies": 25380, "adoptive": 24787, "issuing": 15089, "threats": 8767, "ina": 27118, "recalling": 21195, "##nti": 16778, "pasture": 20787, "botanic": 27761, "jess": 12245, "##iidae": 15648, "monk": 8284, "telescopes": 28026, "##kir": 23630, "rainfall": 10101, "gibbs": 15659, "uncredited": 8104, "1837": 9713, "1628": 28627, "creeks": 24974, "##lum": 12942, "including": 2164, "boss": 5795, "cares": 14977, "referring": 7727, "bands": 4996, "halo": 17201, "##ttle": 26328, "##udy": 20217, "231": 20304, "##za": 4143, "streetcar": 21420, "outward": 15436, "philosophers": 17586, "##urne": 21737, "ia": 24264, "##ieu": 17301, "bakery": 18112, "##:": 29627, "##sque": 17729, "confirm": 12210, "##cula": 19879, "screenings": 25437, "coastal": 5780, "grandchildren": 13628, "[unused527]": 532, "eerie": 18823, "##zzled": 17269, "overseas": 6931, "browne": 15005, "##ts": 3215, "excluded": 12421, "##hesion": 21471, "cumberland": 12310, "##\u2078": 30077, "##main": 24238, "teenagers": 12908, "##rid": 14615, "##carbon": 26190, "##rum": 6824, "##kers": 11451, "##berman": 23991, "baltic": 11275, "massive": 5294, "champion": 3410, "decimal": 26066, "##moor": 17622, "rouge": 12801, "nobleman": 18487, "dale": 8512, "compensation": 9430, "broughton": 29187, "chevrolet": 14724, "ruthless": 18101, "aerospace": 13395, "enhancement": 22415, "destroyer": 9799, "##ous": 3560, "[unused788]": 793, "wheeling": 29142, "entrance": 4211, "av": 20704, "warships": 15964, "roasted": 28115, "schedules": 20283, "##inian": 15830, "ot": 27178, "severity": 18976, "ky": 18712, "\u304f": 1653, "ends": 4515, "afghan": 12632, "enter": 4607, "smiley": 27420, "##mable": 24088, "tau": 19982, "[unused161]": 166, "truly": 5621, "##ae": 6679, "practices": 6078, "##\u5cf6": 30359, "reclamation": 27389, "hendrix": 20645, "15th": 6286, "bikini": 20345, "shiver": 13277, "receptions": 16466, "bass": 3321, "franks": 21310, "##\u09a1": 29896, "loves": 7459, "screenplay": 9000, "##oshi": 24303, "track": 2650, "warwickshire": 18430, "conquered": 11438, "##egorical": 27203, "gaa": 19930, "mosquito": 22529, "reeling": 28515, "labelled": 18251, "cavaliers": 25096, "whitehall": 28361, "1949": 4085, "fairs": 21947, "jets": 9924, "fearing": 14892, "bilbao": 25427, "progressively": 20519, "##cco": 21408, "##pool": 16869, "levin": 20206, "iucn": 20333, "moist": 11052, "atlantic": 4448, "ultrasound": 27312, "##37": 24434, "syllable": 16353, "proficient": 27029, "temples": 8436, "ho": 7570, "umpire": 20887, "##ats": 11149, "##buro": 23670, "detached": 12230, "390": 20024, "ecstasy": 19069, "schooling": 14118, "##pose": 20688, "swirled": 19171, "retaliation": 18695, "##khan": 26370, "tobacco": 9098, "##ych": 17994, "limestone": 9771, "ngos": 22165, "subsided": 26588, "approx": 22480, "wry": 24639, "ing": 13749, "[unused831]": 836, "connectivity": 20831, "exiles": 27127, "axis": 8123, "##chan": 14856, "##\u516b": 30297, "resentment": 20234, "encompass": 25281, "blackened": 25788, "tentatively": 19325, "times": 2335, "decreased": 10548, "crusader": 25237, "##\u30a1": 30218, "131": 14677, "kosovo": 11491, "440": 17422, "odi": 21045, "recommends": 26021, "antigen": 28873, "trial": 3979, "reconstructed": 14858, "##zie": 14272, "place": 2173, "##bor": 12821, "trident": 26515, "tumbling": 21552, "##ens": 6132, "enigma": 26757, "##\u0281": 29694, "spectacle": 21177, "examiner": 19684, "##llet": 22592, "##onus": 24891, "##ex": 10288, "gestured": 11574, "fargo": 23054, "talmud": 24380, "solemn": 19487, "databases": 17881, "stripe": 18247, "voyages": 21993, "##bridge": 6374, "subsidiaries": 20178, "cats": 8870, "vila": 23840, "[unused546]": 551, "spec": 28699, "observes": 24451, "1953": 4052, "economist": 11708, "introduced": 3107, "curated": 17940, "boeing": 10321, "eps": 20383, "##mani": 20799, "\u110f": 1466, "panic": 6634, "air": 2250, "##hana": 15788, "guys": 4364, "eyebrows": 8407, "turf": 14585, "dna": 6064, "##ense": 16700, "calls": 4455, "##rand": 13033, "##romatic": 23645, "orient": 16865, "##awan": 25903, "leonard": 7723, "scarred": 21985, "##fc": 11329, "ska": 24053, "telecast": 28803, "##ection": 18491, "watt": 15231, "days": 2420, "lending": 18435, "##7th": 27506, "cast": 3459, "vertically": 20018, "mister": 12525, "face": 2227, "gravity": 8992, "[unused734]": 739, "##olar": 19478, "pageant": 12438, "blouse": 18149, "pembroke": 21457, "shivered": 13927, "opposition": 4559, "still": 2145, "consent": 9619, "stanza": 29509, "##dder": 20791, "##tters": 24168, "death": 2331, "##vin": 6371, "schedule": 6134, "##scope": 26127, "sin": 8254, "##pit": 23270, "shredded": 29022, "afford": 8984, "reaction": 4668, "borg": 28709, "dissatisfaction": 28237, "1769": 20663, "disruption": 20461, "##text": 18209, "skinny": 15629, "##bane": 27543, "vaccines": 28896, "[unused806]": 811, "len": 18798, "acknowledge": 13399, "puzzle": 11989, "southwest": 4943, "##cker": 9102, "ak": 17712, "resonance": 17011, "complaining": 17949, "whereby": 13557, "apr": 19804, "whimpered": 26184, "idf": 24011, "630": 23609, "##nsor": 29577, "[unused717]": 722, "buddies": 24115, "sobbed": 25960, "welcome": 6160, "horse": 3586, "martyrs": 18945, "unbelievable": 23653, "1831": 10937, "sweet": 4086, "noun": 15156, "1771": 20708, "cared": 8725, "[unused466]": 471, "quite": 3243, "summary": 12654, "vladimir": 8748, "similarly": 6660, "centenary": 17705, "fusiliers": 27207, "discreet": 29321, "##rigues": 22934, "##bh": 23706, "glittering": 20332, "##mania": 27010, "further": 2582, "[unused588]": 593, "biologist": 21477, "##nified": 25201, "whipped": 12428, "fridays": 26587, "1790": 13393, "kramer": 16322, "##aldi": 24657, "nasty": 11808, "greek": 3306, "apes": 27754, "[unused386]": 391, "numbers": 3616, "withdrawn": 9633, "undisclosed": 18206, "equivalence": 27841, "stared": 3592, "gym": 9726, "historia": 19891, "##kushima": 24917, "obsessed": 15896, "completion": 6503, "byrne": 14928, "##ices": 23522, "[unused223]": 228, "caucasian": 23368, "fixing": 15887, "\u72ac": 1908, "cure": 9526, "doe": 18629, "pursuits": 23719, "[unused433]": 438, "gossip": 13761, "daring": 15236, "enlarged": 11792, "andrews": 9261, "townsville": 27492, "avenge": 24896, "##urian": 29091, "##bone": 14417, "swallow": 10577, "add": 5587, "[unused706]": 711, "clair": 17936, "##11": 14526, "cleric": 29307, "wiltshire": 17045, "166": 18610, "lc": 29215, "##gin": 11528, "##\u064a": 14498, "##jured": 26949, "bending": 14457, "##\u0432": 25529, "racial": 5762, "happens": 6433, "##\u207b": 30079, "zack": 13658, "grimsby": 24470, "lorenzo": 12484, "olympia": 17096, "gmina": 7061, "significance": 7784, "romanized": 7651, "beech": 21760, "discussion": 6594, "full": 2440, "1910": 4976, "gerard": 11063, "wheeled": 17320, "regulating": 21575, "dam": 5477, "flooded": 10361, "winery": 23910, "##gens": 21230, "690": 28066, "jerome": 11120, "porsche": 16099, "1870s": 14896, "vaudeville": 19698, "drives": 9297, "guatemala": 11779, "##lellan": 25839, "jaguar": 16490, "lays": 19764, "and": 1998, "##kor": 21815, "1806": 12518, "incompatible": 25876, "wcw": 24215, "980": 25195, "mag": 23848, "techno": 21416, "##\u098f": 29887, "crossover": 16335, "##ona": 7856, "homeless": 11573, "[unused530]": 535, "says": 2758, "unpopular": 19657, "complied": 26946, "\u2088": 1555, "jacobs": 12988, "greenwich": 13861, "medial": 23828, "construction": 2810, "vent": 18834, "unconscious": 9787, "trap": 8132, "penguins": 18134, "##\u56d7": 30323, "##uven": 27346, "assembly": 3320, "mesopotamia": 25889, "##lk": 13687, "amino": 13096, "kidnapped": 11364, "wilkes": 20635, "reduction": 7312, "naia": 29511, "massage": 21881, "lisa": 7059, "##ower": 25114, "##tz": 5753, "magna": 20201, "mute": 20101, "solving": 13729, "##ffe": 16020, "arroyo": 23882, "bombardier": 29143, "eat": 4521, "bugs": 12883, "sixty": 8442, "serve": 3710, "fur": 6519, "interfered": 28976, "making": 2437, "alexis": 13573, "issues": 3314, "jokes": 13198, "\u056f": 1227, "foothills": 18455, "246": 22376, "blaine": 20002, "denies": 23439, "betray": 20895, "upwards": 14873, "[unused497]": 502, "concurrency": 24154, "\u0430": 1180, "scraping": 23704, "climatic": 27301, "##als": 9777, "##oed": 29099, "\u0454": 1212, "##ken": 7520, "[unused938]": 943, "enzo": 26218, "1820s": 28504, "[unused436]": 441, "websites": 11744, "county": 2221, "##lier": 14355, "suspiciously": 21501, "newark": 12948, "evolve": 19852, "\u2295": 1612, "89": 6486, "upheld": 16813, "sts": 8541, "moved": 2333, "##powered": 27267, "rib": 19395, "performer": 9256, "[unused487]": 492, "dustin": 24337, "lizard": 15450, "evidenced": 21328, "salvation": 12611, "training": 2731, "headlining": 26533, "##long": 10052, "sisters": 5208, "##\u671d": 30400, "\u0f54": 1430, "quintet": 18109, "136": 15407, "##edge": 24225, "succeeds": 21645, "erebidae": 25875, "##val": 10175, "galveston": 26630, "##mans": 15154, "sud": 19219, "visionary": 28036, "records": 2636, "simulated": 23599, "riverside": 12497, "vh1": 26365, "peel": 14113, "korean": 4759, "paths": 10425, "hated": 6283, "historians": 7862, "##vating": 26477, "out": 2041, "[unused792]": 797, "recommendation": 12832, "##agh": 17988, "exist": 4839, "murphy": 7104, "disgust": 12721, "[unused407]": 412, "cpi": 28780, "226": 21035, "country": 2406, "stable": 6540, "broad": 5041, "ashley": 9321, "sneakers": 28130, "displays": 8834, "##meyer": 24344, "presenter": 10044, "1779": 17616, "cooled": 12981, "horrors": 22812, "##zione": 20574, "##tama": 28282, "reinstated": 18671, "ted": 6945, "determination": 9128, "##\u11a8": 30020, "puck": 22900, "matteo": 24713, "indication": 12407, "fielding": 15452, "indian": 2796, "drill": 12913, "access": 3229, "##pus": 12207, "prone": 13047, "libertarian": 19297, "lister": 27177, "sarcastic": 22473, "informing": 21672, "locate": 12453, "defect": 21262, "uncertainty": 12503, "aviator": 24035, "##\u0925": 29860, "##lic": 10415, "##\u0d9a": 29939, "hobbs": 23748, "electrified": 18042, "brownish": 19437, "background": 4281, "##cino": 21081, "rubber": 8903, "appointments": 14651, "colony": 5701, "aarhus": 29173, "cycles": 12709, "enveloped": 25407, "\u0937": 1337, "\u1107": 1460, "##mbe": 18552, "bore": 8501, "decatur": 27783, "pioneering": 13280, "mutual": 8203, "presidential": 4883, "claudia": 13479, "elisabeth": 12877, "##roved": 26251, "voting": 6830, "##ulent": 27581, "consul": 11801, "weigh": 17042, "##kura": 28260, "##hearted": 27693, "ax": 22260, "shootout": 18297, "fluttering": 25001, "mclean": 17602, "satisfying": 17087, "##masters": 27751, "lebanon": 8341, "questioned": 8781, "maximal": 29160, "hk": 22563, "divisional": 14167, "yao": 23711, "confession": 12633, "conceptual": 17158, "eight": 2809, "specified": 9675, "##hus": 9825, "compressed": 16620, "subtropical": 11935, "fein": 27132, "arousal": 18905, "inspire": 18708, "[unused663]": 668, "enrolled": 8302, "custody": 9968, "widowed": 22874, "blessings": 24618, "healing": 8907, "\u2015": 1518, "brett": 12049, "pandora": 19066, "ac": 9353, "ammonia": 25874, "aires": 9149, "mayors": 21941, "states": 2163, "[unused170]": 175, "arrive": 7180, "shadowy": 22801, "##lov": 14301, "pressed": 4508, "kv": 24888, "seduction": 26962, "##iani": 25443, "sanchez": 10568, "sleepy": 17056, "infants": 16725, "pathology": 19314, "momentum": 11071, "erskine": 27139, "tenure": 7470, "m\u00b3": 14241, "enroll": 25612, "mixes": 21109, "reducing": 8161, "suffrage": 15178, "amulet": 25087, "##itated": 15198, "enforcement": 7285, "marshal": 8610, "contingent": 15445, "legislative": 4884, "camping": 13215, "branched": 21648, "mario": 7986, "rites": 17105, "relics": 16712, "dated": 6052, "2500": 25108, "covent": 29456, "ka": 10556, "##22": 19317, "##\u2207": 30123, "lindsey": 17518, "brazilian": 6142, "rosary": 28291, "medici": 22605, "\u571f": 1801, "##hong": 19991, "lieutenant": 3812, "daily": 3679, "##lika": 25421, "##clops": 28659, "[unused570]": 575, "##cc": 9468, "\u306c": 1669, "stems": 12402, "architect": 4944, "dying": 5996, "leipzig": 11222, "##\u3059": 30184, "craft": 7477, "skills": 4813, "fastest": 7915, "garion": 12523, "bible": 6331, "##\u30d2": 30245, "kobe": 24113, "##\u0648": 29836, "[unused473]": 478, "new": 2047, "##kka": 15714, "satellites": 14549, "elmer": 21464, "ascension": 18071, "emmy": 10096, "flinders": 29120, "##nce": 5897, "javelin": 23426, "nz": 20008, "overcome": 9462, "##\u1d47": 30033, "cooler": 14976, "badly": 6649, "folks": 12455, "mala": 28935, "archeological": 23005, "##jong": 21958, "terrifying": 17082, "tad": 18819, "encouraged": 6628, "axial": 26819, "##uru": 14129, "knots": 9439, "##bm": 25526, "wire": 7318, "kamal": 21911, "mikhail": 11318, "indigenous": 6284, "dhaka": 16479, "credibility": 21553, "advances": 9849, "smell": 5437, "favour": 7927, "##\u307b": 30202, "theater": 4258, "antiquity": 16433, "[unused220]": 225, "ashes": 11289, "traumatic": 19686, "happier": 19366, "lauren": 10294, "junk": 18015, "libre": 21091, "wagons": 14525, "correctly": 11178, "[unused695]": 700, "presents": 7534, "avon": 16131, "devon": 7614, "kato": 27496, "##ayan": 25868, "dominion": 13738, "425": 23285, "impose": 17607, "##market": 20285, "1828": 11517, "##cles": 18954, "olympian": 25977, "gurney": 25061, "##\u0261": 29682, "symbolic": 12613, "cam": 11503, "##rling": 22036, "\u2605": 1620, "heights": 7535, "artisans": 26818, "smyth": 28103, "##ib": 12322, "caine": 19881, "400": 4278, "honoring": 21494, "\u0982": 1346, "photon": 26383, "##nova": 13455, "lineage": 13321, "##by": 3762, "gilmore": 22999, "bound": 5391, "su": 10514, "emphasized": 13155, "caesar": 11604, "mahal": 27913, "fantasia": 29203, "[unused897]": 902, "football": 2374, "frost": 10097, "simon": 4079, "##ffen": 18032, "bipolar": 29398, "cricket": 4533, "nueva": 24536, "classifications": 26739, "lodges": 26767, "philippine": 7802, "##cit": 26243, "\u03bd": 1167, "peacock": 18931, "pissed": 9421, "pr": 10975, "struggling": 8084, "##oms": 22225, "simultaneous": 17424, "finds": 4858, "\u1019": 1437, "[unused925]": 930, "calf": 19134, "defeats": 14222, "volga": 26459, "##kovich": 28195, "##orus": 21694, "normal": 3671, "##ola": 6030, "[unused171]": 176, "please": 3531, "##riated": 25475, "slower": 12430, "affiliation": 12912, "belts": 18000, "mgm": 15418, "sparkled": 28092, "studios": 4835, "ollie": 25208, "average": 2779, "##vo": 6767, "demands": 7670, "scratched": 15047, "provincial": 4992, "virtue": 11870, "yates": 20356, "fetal": 25972, "bank": 2924, "chopper": 28057, "dismissal": 15322, "fronted": 23291, "##resh": 21898, "1809": 12861, "##dine": 10672, "socialism": 14649, "pills": 15345, "enhanced": 9412, "miner": 18594, "fights": 9590, "##\u2202": 30120, "daylight": 11695, "##ecin": 28191, "maui": 28566, "liechtenstein": 26500, "antibiotics": 24479, "legions": 23269, "hottest": 20930, "lombard": 23441, "presenting": 10886, "breath": 3052, "decade": 5476, "##hli": 27766, "1873": 7612, "neck": 3300, "voters": 7206, "racecourse": 15948, "nationality": 10662, "andres": 15614, "freaked": 22783, "##jar": 16084, "interfere": 15115, "ronnie": 11688, "##od": 7716, "enormous": 8216, "##arding": 29154, "##gn": 16206, "families": 2945, "targeting": 14126, "heroin": 19690, "##stein": 8602, "840": 28122, "ssr": 20896, "logan": 6307, "rubs": 28860, "paperback": 13611, "vowels": 15260, "##ever": 22507, "##avi": 18891, "cambridgeshire": 24197, "expired": 13735, "1830s": 20400, "sob": 17540, "##mail": 21397, "rebels": 8431, "relative": 5816, "swapped": 29176, "hair": 2606, "babe": 11561, "tactics": 9887, "gamma": 13091, "report": 3189, "##culture": 14561, "sp": 11867, "monsieur": 21380, "##\u09bf": 29915, "consecutive": 5486, "tomb": 8136, "286": 24921, "##se": 3366, "arctic": 10162, "annexation": 18985, "notification": 26828, "peeked": 18652, "depending": 5834, "trails": 9612, "beau": 17935, "tells": 4136, "stream": 5460, "ace": 9078, "aristocratic": 19774, "novo": 24576, "##lated": 13776, "prose": 12388, "b1": 29491, "##ep": 13699, "smirked": 18775, "streaks": 21295, "concessions": 20638, "sharpened": 26694, "governors": 11141, "which": 2029, "tanaka": 21829, "financial": 3361, "##works": 9316, "potatoes": 14629, "picnic": 12695, "complexes": 15420, "tory": 17117, "contributes": 16605, "lebanese": 12592, "killers": 15978, "glint": 25263, "painfully": 16267, "cruisers": 16722, "##\u6d77": 30428, "alexander": 3656, "applies": 12033, "##los": 10483, "caden": 23600, "carmichael": 23537, "##lli": 6894, "reid": 9027, "stern": 8665, "profiles": 17879, "##eck": 11012, "biography": 8308, "##eme": 21382, "discover": 7523, "30": 2382, "##ccus": 27631, "pushing": 6183, "protected": 5123, "^": 1034, "manitoba": 10512, "lass": 27333, "looming": 23430, "acid": 5648, "##yar": 13380, "\u0574": 1229, "twitching": 25402, "french": 2413, "generating": 11717, "[unused381]": 386, "##scan": 29378, "horde": 21038, "pornographic": 26932, "escalated": 26814, "grapes": 16575, "email": 10373, "##ciful": 26336, "marx": 13518, "vector": 9207, "sense": 3168, "disposal": 13148, "disused": 26958, "1892": 6527, "lazy": 13971, "##kas": 13716, "guaranteed": 12361, "hammer": 8691, "resolutions": 18853, "weekends": 13499, "[unused757]": 762, "252": 22898, "334": 29562, "defiance": 19674, "idol": 10282, "cloud": 6112, "gasoline": 13753, "standalone": 26609, "depicted": 8212, "\u00a35": 27813, "montgomery": 8482, "transylvania": 20816, "casper": 24602, "##\u611b": 30379, "\u751f": 1910, "entry": 4443, "199": 20713, "[unused720]": 725, "liquid": 6381, "1802": 13515, "##mo": 5302, "[unused57]": 58, "tapped": 10410, "graded": 21976, "obtained": 4663, "[unused70]": 71, "pipeline": 13117, "##vre": 12229, "centrally": 25497, "nearer": 20388, "foo": 29379, "february": 2337, "fishing": 5645, "##uate": 20598, "spending": 5938, "janet": 9965, "##\u2082": 8229, "##sd": 16150, "banned": 7917, "undercover": 16382, "emmanuel": 14459, "mtv": 8692, "cancers": 25409, "townland": 23635, "rivals": 9169, "moreover": 9308, "calendar": 8094, "scented": 25738, "[unused531]": 536, "liturgy": 21176, "land": 2455, "gate": 4796, "younger": 3920, "##uc": 14194, "##pot": 11008, "speaker": 5882, "dancing": 5613, "estuary": 18056, "beverly": 12218, "myths": 17218, "ligand": 27854, "millions": 8817, "##pa": 4502, "##trum": 24456, "1923": 4927, "covered": 3139, "knees": 5042, "kildare": 24275, "aide": 14895, "primal": 22289, "impetus": 27961, "chronicles": 11906, "painter": 5276, "##ders": 13375, "choose": 5454, "communion": 15661, "michael": 2745, "##ree": 9910, "cinematography": 16434, "sadler": 29012, "##key": 14839, "mann": 10856, "melville": 20154, "duo": 6829, "hurdle": 27630, "computing": 9798, "##\u03c1": 29732, "archives": 8264, "perez": 10730, "history": 2381, "demeanor": 21745, "##ot": 4140, "##hima": 16369, "checkpoint": 26520, "hunted": 14682, "wired": 17502, "barrel": 8460, "freaking": 13847, "mist": 11094, "liberation": 7931, "minsk": 20790, "disadvantage": 20502, "assemble": 21365, "messy": 18307, "qing": 13282, "refuses": 10220, "surface": 3302, "cooperative": 10791, "[unused471]": 476, "fork": 9292, "polite": 13205, "##sz": 17112, "southernmost": 21787, "russ": 18072, "td": 14595, "hamish": 28859, "invaders": 17347, "harmonica": 16527, "##le": 2571, "anaheim": 20835, "chilean": 12091, "louie": 17438, "leach": 24520, "georgina": 27358, "weber": 13351, "notices": 14444, "bosses": 23029, "##grating": 28183, "interlude": 25347, "##lick": 25230, "##ita": 6590, "infinite": 10709, "diplomat": 11125, "##ished": 13295, "wanda": 20848, "confronting": 26964, "handgun": 28497, "perth": 9300, "filter": 11307, "##logists": 18738, "fragrance": 24980, "marin": 16400, "##cure": 23887, "##urs": 9236, "##fs": 10343, "vin": 19354, "ideas": 4784, "perspectives": 15251, "##\u10e0": 29987, "\u05db": 1252, "radio": 2557, "ulysses": 22784, "whistled": 26265, "##inge": 23496, "monte": 10125, "1629": 27882, "nylon": 27201, "inverness": 22937, "##personal": 28823, "bodyguards": 25681, "mistake": 6707, "bus": 3902, "glue": 25238, "docking": 25776, "##codes": 23237, "brightly": 14224, "on": 2006, "saigon": 24001, "use": 2224, "\u5e73": 1839, "##\u5bae": 30350, "##iano": 15668, "taliban": 16597, "\u2021": 1527, "##tium": 16398, "gems": 20296, "\u03c5": 1175, "severe": 5729, "sixth": 4369, "connecticut": 6117, "chooses": 15867, "philippe": 11169, "stating": 5517, "jamie": 6175, "aura": 15240, "niche": 18111, "connell": 17199, "##vid": 17258, "organizers": 18829, "miranda": 9392, "##turing": 16037, "terrified": 10215, "rhea": 24775, "overthrow": 16857, "seamus": 24993, "mixtape": 18713, "kings": 5465, "starter": 11753, "shattering": 21797, "##\u6c37": 30421, "pedal": 15749, "pistol": 8779, "panther": 15133, "##krishna": 23017, "##osta": 28696, "wouldn": 2876, "##working": 21398, "hancock": 13849, "wars": 5233, "##\u00dfe": 17499, "##an": 2319, "respiratory": 16464, "paragraph": 20423, "propulsion": 16404, "[unused751]": 756, "##\u674e": 30403, "enzymes": 16285, "inspiring": 18988, "plato": 18858, "##ssen": 14416, "zinc": 15813, "creamy": 24519, "jul": 21650, "crossings": 20975, "54th": 29570, "mechanically": 27846, "republics": 24822, "[unused557]": 562, "corey": 18132, "autonomy": 12645, "giacomo": 22873, "supermarket": 17006, "##pheus": 22809, "proceed": 10838, "detectors": 25971, "tibet": 13319, "bain": 28477, "habitat": 6552, "##amen": 27245, "replacement": 6110, "shimmering": 22349, "incumbent": 7703, "chosen": 4217, "308": 24232, "davis": 4482, "slippery": 22274, "convert": 10463, "musee": 18070, "subway": 10798, "disasters": 18665, "cartwright": 27513, "##stor": 23809, "hostess": 22566, "sweaty": 19889, "photos": 7760, "[unused385]": 390, "freshly": 20229, "phenomena": 13352, "twisting": 12814, "##oder": 27381, "mats": 22281, "latvia": 12429, "mature": 9677, "307": 24559, "fees": 9883, "##dler": 21222, "shenzhen": 26555, "[unused75]": 76, "dolls": 14421, "sunny": 11559, "8": 1022, "fist": 7345, "smashing": 21105, "planck": 26486, "##stra\u00dfe": 24967, "outset": 26674, "heller": 25038, "barker": 12852, "defended": 8047, "mr": 2720, "theorists": 28442, "renowned": 8228, "multicultural": 27135, "explained": 4541, "[unused815]": 820, "lined": 7732, "grim": 11844, "\u116d": 1477, "creature": 6492, "pollard": 25513, "164": 17943, "static": 10763, "##ed": 2098, "dauphin": 29102, "[unused212]": 217, "##von": 17789, "increasing": 4852, "billings": 26124, "expand": 7818, "bibliography": 24751, "domes": 26193, "paraguay": 13884, "\u116f": 1479, "envy": 21103, "##yin": 25811, "[unused253]": 258, "wb": 25610, "wonder": 4687, "##\u09a7": 29901, "tomorrow": 4826, "engineering": 3330, "##aceous": 25560, "combinations": 14930, "musique": 25784, "##itte": 27100, "legs": 3456, "suppression": 16341, "disposed": 21866, "judiciary": 14814, "sandy": 7525, "sq": 5490, "##41": 23632, "[unused907]": 912, "materialized": 27075, "1870": 6940, "clarkson": 18648, "dye": 18554, "milling": 22491, "city": 2103, "##iki": 17471, "##piration": 16781, "reluctantly": 11206, "##eye": 17683, "sam": 3520, "cents": 16653, "dei": 14866, "[unused777]": 782, "eighth": 5964, "##bution": 29446, "slaves": 7179, "##cial": 13247, "bournemouth": 22882, "comprising": 9605, "convoys": 23083, "endelle": 29581, "biodiversity": 17194, "collarbone": 29600, "salesman": 18968, "repetitive": 23563, "##ining": 24002, "extensions": 14305, "##bc": 9818, "evenings": 16241, "##\u3080": 30205, "screen": 3898, "##\u0456": 29760, "[unused941]": 946, "weaken": 23021, "judges": 6794, "johor": 25268, "[unused694]": 699, "user": 5310, "swarm": 21708, "im": 10047, "eras": 28500, "privatization": 23966, "##zation": 9276, "##lux": 25148, "sellers": 19041, "540": 20263, "##eil": 24359, "rooney": 24246, "245": 21005, "shortly": 3859, "analogue": 21800, "staff": 3095, "oyster": 21480, "everything": 2673, "packaging": 14793, "_": 1035, "assessments": 20794, "pandit": 29331, "kettle": 22421, "picks": 11214, "san": 2624, "formations": 13197, "hugging": 17662, "adam": 4205, "crushing": 14527, "uprising": 10138, "borrow": 17781, "yugoslav": 12292, "##ogy": 15707, "undergraduate": 8324, "remnants": 11270, "\u1172": 1480, "iona": 22347, "gazette": 11391, "##ikh": 28209, "360": 9475, "otter": 22279, "mandy": 18193, "helmets": 22674, "##cin": 15459, "\u2297": 1613, "##lem": 16930, "intersection": 6840, "exceeding": 17003, "caves": 10614, "corners": 8413, "willie": 9893, "##mum": 27147, "##ura": 4648, "staffed": 21121, "##nee": 24045, "##\u0292": 29704, "##ioned": 19798, "greedy": 20505, "##oth": 14573, "reforms": 8818, "brandon": 8825, "sourced": 23184, "\u1d52": 1503, "compensate": 19079, "bop": 29432, "argyll": 27365, "50": 2753, "psalms": 26130, "entrepreneurs": 17633, "##35": 19481, "croft": 28983, "##iner": 26455, "fails": 11896, "[unused765]": 770, "ek": 23969, "\u092a": 1328, "caitlin": 27555, "337": 28489, "foundry": 19853, "##feld": 8151, "prices": 7597, "kemp": 20441, "##hein": 26496, "smile": 2868, "beginnings": 16508, "sedan": 15134, "belief": 6772, "hike": 21857, "archangel": 28185, "broncos": 14169, "##roup": 22107, "ambulance": 10771, "airspace": 29357, "park": 2380, "believe": 2903, "healer": 19783, "entertainment": 4024, "monroe": 9747, "float": 14257, "prisoners": 5895, "26": 2656, "biographer": 17121, "panama": 8515, "heinz": 17655, "##ink": 19839, "[unused590]": 595, "estates": 8707, "wc": 15868, "vibrant": 17026, "poems": 5878, "protects": 18227, "sarcastically": 23800, "qin": 19781, "[unused419]": 424, "hello": 7592, "[unused286]": 291, "##\u2282": 30137, "##card": 11522, "palo": 24326, "##26": 23833, "peng": 26473, "settings": 10906, "##oes": 22504, "guam": 16162, "stevens": 8799, "announcements": 25674, "chop": 24494, "minerals": 13246, "lex": 17244, "environments": 10058, "clapped": 18310, "baskets": 25946, "[unused659]": 664, "1b": 26314, "judging": 13325, "themes": 6991, "jersey": 3933, "peat": 23366, "indies": 9429, "##enham": 23580, "##\u2228": 30130, "aa": 9779, "##quisite": 24871, "silky": 18848, "##tee": 17389, "\u1d9c": 1511, "deny": 9772, "dion": 19542, "ballot": 10428, "##ntino": 25318, "##dom": 9527, "palazzo": 18482, "versatile": 22979, "##dran": 24914, "dagger": 10794, "congressional": 7740, "enrollment": 10316, "fade": 12985, "oilers": 19778, "##ened": 6675, "faust": 24021, "winston": 10180, "saskatchewan": 10068, "gasps": 23813, "##cum": 24894, "carroll": 10767, "vernacular": 18485, "mechanisms": 10595, "riddle": 21834, "nose": 4451, "##\u0f56": 29967, "crystals": 14438, "saliva": 26308, "##ient": 11638, "375": 18034, "suffix": 16809, "cinematographer": 19245, "\u00a9": 1075, "770": 29065, "cape": 4880, "##\u0289": 29697, "waterfall": 14297, "dixon": 11357, "provence": 19923, "belongings": 20033, "concepts": 8474, "##\u0446": 29751, "differed": 19541, "fleet": 4170, "broadway": 5934, "370": 16444, "##kit": 23615, "prospects": 16746, "guadalupe": 23529, "celebrated": 6334, "connections": 7264, "##hedral": 27310, "playoffs": 7555, "abandoning": 19816, "[unused631]": 636, "manifest": 19676, "uniquely": 20640, "##\u4e5f": 30276, "owes": 24381, "##9th": 25660, "##ay": 4710, "ronan": 18633, "##enay": 27727, "towed": 18948, "900": 7706, "barony": 19365, "schubert": 24645, "cole": 5624, "[unused888]": 893, "nbl": 28013, "mir": 14719, "deposited": 14140, "corvette": 22687, "elf": 17163, "academia": 16926, "dive": 11529, "##onia": 12488, "structured": 14336, "##\u6f22": 30430, "[unused257]": 262, "##chman": 19944, "##ra": 2527, "strasbourg": 18104, "crap": 10231, "##\u1d2c": 30026, "onstage": 23542, "monasteries": 15947, "mclaughlin": 23720, "bromwich": 27888, "dept": 29466, "1980": 3150, "##rates": 20370, "[unused245]": 250, "\u0925": 1324, "comparing": 13599, "##\u04cf": 29765, "ashe": 13402, "jon": 6285, "tentative": 19943, "##cent": 13013, "fuels": 20145, "cylindrical": 18797, "environmentally": 25262, "\u30c1": 1710, "floods": 14295, "vanish": 25887, "##yard": 14132, "shu": 18454, "derek": 7256, "930": 29359, "afraid": 4452, "exceptions": 11790, "##brate": 22008, "strictly": 9975, "parking": 5581, "\u0289": 1131, "armada": 25306, "##avs": 29553, "gt": 14181, "futile": 24495, "truth": 3606, "##vc": 25465, "greasy": 26484, "orgasm": 13892, "virtually": 8990, "texans": 23246, "scent": 6518, "wig": 24405, "vermont": 8839, "dot": 11089, "##mine": 11233, "\u570b": 1800, "fairbanks": 24502, "practitioner": 18742, "bitterly": 19248, "articles": 4790, "processing": 6364, "##wn": 7962, "##nca": 20909, "hellenic": 23122, "thai": 7273, "baronetcy": 25071, "\u2022": 1528, "[unused25]": 26, "atkins": 21087, "##ops": 11923, "ask": 3198, "distracting": 25012, "##47": 22610, "##uz": 17040, "ankles": 15392, "dispatch": 18365, "substance": 9415, "homecoming": 20772, "mischievous": 25723, "##mler": 18602, "overland": 21400, "taller": 12283, "[unused382]": 387, "relevance": 21923, "optics": 21026, "\u10d9": 1446, "provost": 18523, "launcher": 22742, "archdeacon": 21742, "interactive": 9123, "closeness": 28398, "practitioners": 14617, "seoul": 10884, "girlfriend": 6513, "veteran": 8003, "ursula": 20449, "knotted": 27039, "\u00b0": 1080, "bestseller": 24304, "[unused44]": 45, "tech": 6627, "[unused562]": 567, "##\u4e8c": 30278, "##scu": 28817, "525": 25621, "hubert": 15346, "lisbon": 11929, "portrayed": 6791, "briefcase": 21793, "machine": 3698, "electronically": 28926, "stunt": 15412, "##hari": 18428, "sb": 24829, "candy": 9485, "quiet": 4251, "##tructing": 26310, "usa": 3915, "distributions": 20611, "predominantly": 9197, "que": 10861, "overhead": 8964, "[unused708]": 713, "collapses": 25938, "turk": 22883, "i": 1045, "##hip": 5605, "##lman": 12624, "##iga": 13340, "vamp": 20279, "disturbed": 12491, "low": 2659, "eleventh": 11911, "\u91d1": 1964, "asserting": 27644, "##lynn": 27610, "footballers": 27784, "reportedly": 7283, "1744": 25846, "##kato": 26020, "\u2013": 1516, "cheated": 22673, "snorted": 15235, "nikola": 24794, "##graphs": 27341, "farming": 7876, "bk": 23923, "228": 22238, "\u66f8": 1871, "thames": 11076, "attributes": 12332, "touring": 6828, "spence": 22186, "[unused692]": 697, "##\u0bb3": 29929, "flutter": 23638, "tides": 22487, "poly": 26572, "rather": 2738, "cromwell": 16759, "[unused390]": 395, "bermuda": 13525, "marshes": 19257, "##lkirk": 23913, "hague": 14575, "##zan": 13471, "diploma": 9827, "sg": 22214, "hugely": 27564, "##chus": 16194, "##vyn": 23487, "ethical": 12962, "celestial": 17617, "exemplified": 28593, "laying": 10201, "##lion": 18964, "extensive": 4866, "##31": 21486, "##orne": 23846, "blazing": 17162, "##ience": 13684, "##use": 8557, "mild": 10256, "obscured": 23649, "yells": 22114, "life": 2166, "##\u4e3b": 30273, "academies": 20994, "begins": 4269, "oz": 11472, "triad": 25355, "erection": 13760, "##dd": 14141, "##ast": 14083, "##\u2609": 30149, "wolves": 8588, "terror": 7404, "lucha": 25390, "##rlin": 19403, "collier": 20466, "ralph": 6798, "##uron": 21017, "population": 2313, "poisonous": 22641, "charging": 13003, "colossal": 29523, "lesions": 22520, "rwanda": 17591, "landon": 20642, "missiles": 10815, "##dar": 7662, "filmmaking": 24466, "##channel": 26058, "applied": 4162, "passenger": 4628, "pronouns": 26028, "qualifiers": 18956, "##gh": 5603, "puppy": 17022, "easiest": 25551, "mississippi": 5900, "communist": 4750, "telugu": 12180, "##liche": 27412, "reacting": 24868, "distinctions": 25995, "[unused506]": 511, "naomi": 12806, "##\u045b": 29764, "merger": 7660, "[unused655]": 660, "timmy": 27217, "##how": 14406, "siena": 23754, "may": 2089, "\u05dc": 1253, "##gating": 16961, "xu": 15990, "##vir": 21663, "##fire": 10273, "1654": 27445, "flower": 6546, "imperial": 4461, "hilt": 21184, "asean": 27974, "[unused769]": 774, "contributors": 16884, "perpetual": 18870, "##tream": 25379, "##ias": 7951, "auditory": 28042, "reaching": 4285, "motorized": 26172, "authentication": 27280, "albanians": 25267, "##vies": 25929, "ottoman": 6188, "loire": 20399, "termination": 18287, "ngo": 17895, "left": 2187, "lowers": 24950, "hostage": 13446, "##kali": 28613, "carleton": 22273, "thrusting": 21468, "positions": 4460, "walton": 14290, "60th": 20928, "qualified": 4591, "conducts": 17976, "julie": 7628, "defensive": 5600, "beck": 10272, "##eti": 20624, "##bat": 14479, "meaningless": 25120, "##ental": 21050, "divided": 4055, "lied": 9828, "send": 4604, "nowhere": 7880, "##pani": 26569, "eta": 27859, "00pm": 27995, "additional": 3176, "benito": 23595, "bulging": 27569, "affects": 13531, "##head": 4974, "ya": 8038, "##tray": 28473, "anzac": 29224, "ata": 29533, "netting": 26909, "watershed": 12547, "ipa": 24531, "pneumonia": 18583, "oceanic": 18955, "##mata": 21022, "govt": 22410, "\u2207": 1595, "expressions": 11423, "usb": 18833, "shielding": 25553, "programs": 3454, "tool": 6994, "interrupt": 17938, "fallen": 5357, "harlow": 22545, "friedrich": 8896, "deaths": 6677, "gil": 13097, "familiar": 5220, "##ctuated": 25638, "vinegar": 29387, "mrna": 28848, "##notes": 20564, "birthday": 5798, "bruised": 18618, "horizon": 9154, "##ors": 5668, "lap": 5001, "instructors": 19922, "##\u1106": 29995, "egan": 27889, "starting": 3225, "coined": 13279, "pacing": 15732, "compared": 4102, "fontana": 27182, "posture": 16819, "pulling": 4815, "spaniards": 20999, "nobility": 11760, "##guide": 28582, "straits": 18849, "##wide": 22517, "blackburn": 13934, "manly": 19385, "willoughby": 24919, "richly": 26502, "##cule": 21225, "hide": 5342, "recipients": 15991, "\u00ab": 1077, "periodically": 18043, "tracked": 12808, "hiram": 27410, "meteor": 23879, "1876": 7326, "##ddled": 28090, "heaven": 6014, "enhancing": 20226, "##wat": 24281, "earning": 7414, "michelangelo": 27701, "berg": 15214, "rama": 14115, "##erine": 24226, "singer": 3220, "mw": 12464, "[unused491]": 496, "complementary": 21053, "faso": 22773, "[unused266]": 271, "\u30ed": 1735, "attorneys": 16214, "turrets": 21088, "needing": 11303, "1981": 3261, "contrary": 10043, "waist": 5808, "strikes": 9326, "##rch": 11140, "keyboard": 9019, "171": 18225, "##aka": 11905, "hodge": 23148, "smiles": 8451, "ahmedabad": 27249, "gateway": 11909, "confused": 5457, "unicorn": 21830, "##antes": 24985, "murderer": 13422, "picked": 3856, "darts": 17493, "leo": 6688, "unified": 10562, "##isen": 28992, "yuki": 24924, "midlands": 13256, "administrators": 15631, "prototype": 8773, "occupied": 4548, "eccentric": 18080, "[unused305]": 310, "kara": 13173, "batter": 23801, "makeshift": 19368, "positive": 3893, "kingdom": 2983, "##venting": 26703, "genie": 22519, "federally": 20892, "proven": 10003, "anglo": 7819, "soloist": 16504, "mercury": 8714, "jumper": 21097, "sarah": 4532, "motorway": 13119, "nicely": 19957, "recess": 28290, "abdullah": 14093, "\u706b": 1906, "deeds": 15616, "innocence": 12660, "reactors": 22223, "pump": 10216, "##ept": 23606, "##pia": 19312, "priorities": 18402, "##\u026a": 29685, "leasing": 26707, "##jean": 27687, "preparation": 7547, "windsor": 10064, "capped": 13880, "sandwich": 11642, "pollution": 10796, "volley": 28073, "[unused707]": 712, "oskar": 28626, "##ster": 6238, "biking": 28899, "##\u6c11": 30418, "pizza": 10733, "\u307e": 1677, "##rr": 12171, "goose": 13020, "envoy": 19918, "##eria": 11610, "chained": 22075, "beer": 5404, "juventus": 22760, "donated": 6955, "155": 14168, "[unused482]": 487, "courtesy": 14571, "##hiti": 27798, "\uff1a": 1993, "largely": 4321, "indonesian": 9003, "sister": 2905, "tay": 28117, "##vances": 26711, "tribute": 7050, "jai": 17410, "##logie": 27095, "rai": 15547, "##uder": 29190, "\u4ebb": 1757, "[unused411]": 416, "colonel": 4327, "oliveira": 24263, "celebrates": 21566, "things": 2477, "convention": 4680, "##vd": 16872, "migrants": 16836, "##nius": 20447, "contrasts": 23347, "litre": 16812, "barry": 6287, "maid": 10850, "##titles": 27430, "shielded": 25474, "horace": 12757, "##osity": 25949, "##elin": 18809, "##bilis": 27965, "uninhabited": 24749, "lately": 9906, "virtual": 7484, "reigns": 23481, "formulas": 25814, "armistice": 19125, "analysis": 4106, "##\u5bb6": 30351, "##essed": 23656, "flickered": 15999, "notice": 5060, "whose": 3005, "##oor": 16506, "##sir": 29481, "institutions": 4896, "sms": 22434, "vague": 13727, "##cine": 16567, "entertaining": 14036, "testimony": 10896, "seventeenth": 15425, "##ungen": 23239, "##ipe": 15457, "incorrect": 16542, "##g": 2290, "river": 2314, "[unused899]": 904, "[unused687]": 692, "hilarious": 26316, "##type": 13874, "##\u30b3": 30230, "##fp": 22540, "##weather": 28949, "melodies": 16106, "##zuka": 22968, "shift": 5670, "valentine": 10113, "##ories": 18909, "semantic": 21641, "characteristics": 6459, "mae": 11530, "directs": 23303, "jakob": 19108, "specifications": 15480, "gesturing": 22317, "contractor": 13666, "hapoel": 24208, "##osis": 12650, "##\u3061": 30188, "antics": 27440, "911": 19989, "beaches": 12212, "##30": 14142, "lobbying": 19670, "##asse": 27241, "wall": 2813, "populace": 22508, "viaduct": 20596, "bassist": 9858, "sikh": 17246, "meanwhile": 5564, "1977": 3355, "bis": 20377, "intimately": 29024, "ponder": 29211, "marrow": 24960, "##ir": 4313, "guidance": 8606, "seamen": 28671, "breach": 12510, "addressed": 8280, "##sel": 11246, "moaned": 12557, "beatrice": 14807, "potomac": 18854, "1798": 13036, "condemned": 10033, "donor": 15009, "##\u4fe1": 30293, "inexpensive": 23766, "##lis": 6856, "grip": 6218, "roger": 5074, "revolves": 19223, "31": 2861, "kern": 22762, "relationships": 6550, "##ii": 6137, "\u2500": 1615, "handful": 9210, "##ize": 4697, "\u5cf6": 1833, "##ami": 10631, "suits": 11072, "libel": 26201, "usher": 20774, "ricky": 11184, "kong": 4290, "variations": 8358, "##uming": 24270, "umar": 27981, "##berger": 14859, "lax": 27327, "314": 26257, "ridiculous": 9951, "##roi": 26692, "trying": 2667, "##nya": 17238, "bishopric": 20664, "coupe": 15130, "##pr": 18098, "##eased": 25063, "57": 5401, "##phones": 19093, "presses": 14616, "beaver": 13570, "144": 14748, "##cal": 9289, "[unused845]": 850, "reuters": 26665, "kan": 22827, "sgt": 17001, "bolt": 10053, "diego": 5277, "mecca": 21340, "bunny": 16291, "waivers": 28654, "distinct": 5664, "charm": 11084, "ferreira": 26135, "##chule": 20269, "pic": 27263, "##lase": 25002, "##\u0192": 29675, "armand": 20371, "expenses": 11727, "##formed": 29021, "goodnight": 22708, "work": 2147, "oxfordshire": 20124, "oblivion": 24034, "plains": 8575, "wilmington": 17025, "refuge": 9277, "nonsense": 14652, "\u2122": 1580, "495": 29302, "males": 3767, "[unused336]": 341, "##ndon": 19333, "mystic": 17477, "trinidad": 11856, "1726": 28342, "\u0679": 1301, "medicinal": 20632, "intimidation": 28973, "##schaft": 26527, "##ador": 26467, "##erving": 25164, "ghosts": 11277, "rebuilt": 7183, "##dl": 19422, "agency": 4034, "##mbo": 13344, "##\u10d7": 29980, "precipitation": 13511, "##asia": 15396, "##vb": 26493, "chromosomes": 26874, "attire": 20426, "expeditionary": 15372, "darryl": 22821, "superior": 6020, "##lio": 12798, "rang": 8369, "hurrying": 27951, "sous": 27411, "##hawk": 17998, "rower": 21984, "##lty": 24228, "greeks": 13176, "worcestershire": 20218, "##arians": 28369, "##\u5bbf": 30352, "hears": 14994, "owned": 3079, "deficiency": 18888, "sit": 4133, "[unused555]": 560, "april": 2258, "incorporation": 16935, "bulldogs": 15120, "damp": 10620, "##\u03c2": 19579, "degree": 3014, "[unused121]": 126, "rescue": 5343, "recounted": 22906, "\u0993": 1352, "##sight": 25807, "vomiting": 24780, "remake": 12661, "##kshi": 27488, "##ce": 3401, "intentionally": 15734, "plane": 4946, "##ying": 14147, "moshe": 27123, "acknowledging": 21894, "disperse": 28736, "trees": 3628, "rothschild": 19712, "libraries": 8860, "rub": 14548, "maintained": 5224, "##ntial": 19909, "[unused314]": 319, "##vance": 21789, "tenderness": 24605, "[unused88]": 89, "##ren": 7389, "rivalry": 10685, "##sca": 15782, "overlook": 27590, "accord": 15802, "superhuman": 27061, "from": 2013, "500": 3156, "knowles": 22815, "##sing": 7741, "violating": 20084, "private": 2797, "invites": 18675, "asia": 4021, "ars": 29393, "feminist": 10469, "secession": 22965, "salzburg": 18369, "notorious": 12536, "##olic": 23518, "##x": 2595, "\u0433": 1183, "rained": 28270, "transferred": 4015, "tsunami": 19267, "##itive": 13043, "recommended": 6749, "##wald": 11191, "##ises": 13087, "##gration": 29397, "1540": 27536, "kun": 28919, "disciple": 17849, "centro": 18120, "blanche": 18158, "##bl": 16558, "bundesliga": 14250, "ashok": 28916, "bowen": 16208, "showcased": 22443, "##mission": 25481, "fascinating": 17160, "investigations": 9751, "##cide": 27082, "animated": 6579, "\u96c4": 1974, "humphrey": 15462, "suggesting": 9104, "##runner": 23195, "stands": 4832, "##gt": 13512, "initials": 20381, "spokane": 21878, "##sitor": 28307, "1727": 25350, "squash": 18794, "jorge": 10853, "[unused39]": 40, "dawn": 6440, "kristina": 28802, "mail": 5653, "##bilities": 14680, "slapping": 22021, "religion": 4676, "##lab": 20470, "scala": 26743, "kw": 6448, "##kowski": 15449, "##yan": 7054, "celtic": 8730, "rosenthal": 29062, "##t": 2102, "kind": 2785, "naughty": 20355, "[unused789]": 794, "detroit": 5626, "choreographer": 17334, "roland": 8262, "flynn": 13259, "drive": 3298, "nucleus": 13502, "amp": 23713, "##lwyn": 29287, "##max": 17848, "impending": 17945, "izzy": 16699, "larger": 3469, "850": 15678, "starving": 18025, "##rd": 4103, "##drik": 28730, "##\u22121": 27944, "executions": 22679, "vip": 21722, "representatives": 4505, "\u2c7c": 1631, "potato": 14557, "spill": 14437, "##vision": 17084, "verbs": 16025, "vans": 21994, "##ota": 17287, "##edes": 18352, "gathered": 5935, "##xa": 18684, "vt": 28879, "helium": 22764, "christopher": 5696, "witnessed": 9741, "##ssi": 18719, "##ogical": 20734, "fitz": 27706, "ornaments": 24005, "\u3080": 1679, "pipe": 8667, "astronauts": 25881, "boyd": 12164, "believes": 7164, "twenty20": 22240, "documented": 8832, "102": 9402, "turkic": 22926, "pep": 27233, "730": 28004, "obe": 15578, "##ogenic": 24278, "easing": 24070, "apostles": 19178, "nils": 27282, "surgical": 11707, "bernardino": 21370, "ri": 15544, "casa": 14124, "##\u30c6": 30239, "##ulous": 16203, "##ian": 2937, "age": 2287, "##\u11af": 30022, "curtiss": 26431, "275": 17528, "wakefield": 16045, "criticizing": 21289, "##ou": 7140, "ella": 11713, "vs": 5443, "alarm": 8598, "sergio": 13983, "delgado": 26532, "terrible": 6659, "##\u0baa": 29924, "hartley": 20955, "##ods": 20620, "##with": 24415, "tunic": 23002, "unusual": 5866, "rabbit": 10442, "243": 22884, "140": 8574, "painters": 12499, "condo": 25805, "dickens": 19675, "italics": 19408, "addiction": 13449, "##dda": 25062, "pity": 12063, "##gua": 19696, "192": 17613, "##\u5fe0": 30378, "##vah": 21927, "snakes": 12971, "catalog": 12105, "##tana": 20496, "fascism": 23779, "nasa": 9274, "cheer": 15138, "mongols": 22235, "##\u21d2": 30119, "rosemary": 18040, "prizes": 11580, "predator": 15267, "specimens": 9908, "founding": 4889, "greensboro": 27905, "wise": 7968, "fluent": 19376, "marker": 12115, "push": 5245, "spaces": 7258, "sabotage": 20223, "##wari": 20031, "substantial": 6937, "papua": 13049, "##rad": 12173, "requirement": 9095, "[unused931]": 936, "sacks": 14918, "overhaul": 18181, "##wyl": 27740, "toured": 7255, "##\u207f": 30080, "mit": 10210, "182": 17691, "methane": 24481, "pale": 5122, "maternity": 23676, "electronic": 4816, "actually": 2941, "[unused584]": 589, "[unused271]": 276, "automobiles": 19207, "fathers": 11397, "lyricist": 19489, "##uck": 12722, "##analysis": 25902, "fills": 17469, "railroad": 4296, "elevators": 19406, "hurling": 10839, "143": 16065, "unesco": 12239, "averaging": 14985, "donovan": 12729, "commandos": 25144, "switched": 7237, "gained": 4227, "softer": 19013, "##js": 22578, "modest": 10754, "cylinder": 7956, "klein": 12555, "##anga": 18222, "volume": 3872, "##fect": 25969, "##ately": 28239, "##arded": 28037, "accumulation": 20299, "suite": 7621, "pueblo": 18273, "norfolk": 7735, "spring": 3500, "##lais": 28704, "cores": 25562, "stimulated": 25194, "thought": 2245, "ravine": 23188, "gottingen": 23607, "\u209c": 1571, "flowing": 8577, "prescribed": 16250, "##ake": 13808, "revelations": 22191, "freedom": 4071, "humour": 17211, "mango": 24792, "budget": 5166, "handing": 13041, "buck": 10131, "##he": 5369, "1781": 16788, "relevant": 7882, "occupants": 18837, "unincorporated": 7754, "providing": 4346, "shortstop": 25359, "bethlehem": 19360, "##orro": 29459, "##lism": 28235, "cruiser": 10844, "toys": 10899, "suited": 10897, "[unused987]": 992, "charity": 5952, "dealer": 11033, "fifteenth": 16249, "##ety": 27405, "york": 2259, "locus": 25206, "##et": 3388, "weddings": 20429, "barred": 15605, "pc": 7473, "##rre": 14343, "iihf": 26904, "##werk": 29548, "##filtration": 28674, "##lau": 17298, "##dington": 21504, "devil": 6548, "##jn": 22895, "drilling": 15827, "regulators": 25644, "texted": 24637, "dilemma": 21883, "##holm": 18884, "\u0280": 1127, "chinese": 2822, "lens": 10014, "requiring": 9034, "symbols": 9255, "baha": 13253, "meng": 27955, "vulture": 27588, "kids": 4268, "henrik": 18745, "distraught": 25348, "[unused2]": 3, "[unused494]": 499, "avail": 24608, "\u8a01": 1949, "sphinx": 27311, "##lers": 12910, "##sian": 17043, "finals": 4399, "alderman": 18977, "fueled": 17999, "farewell": 13407, "albuquerque": 19334, "arbitration": 18010, "\u30a7": 1697, "hayes": 10192, "maestro": 25270, "hornet": 26795, "suffers": 17567, "slated": 18517, "seconds": 3823, "shri": 14880, "eats": 20323, "academics": 15032, "joyah": 27098, "splits": 19584, "depression": 6245, "lou": 10223, "slacks": 27786, "pink": 5061, "dean": 4670, "##media": 16969, "[unused602]": 607, "sl": 22889, "anchored": 14453, "\u0575": 1230, "##\u266d": 24102, "fatally": 26292, "[unused783]": 788, "tight": 4389, "bend": 8815, "##pts": 22798, "ap": 9706, "[unused727]": 732, "quarterly": 12174, "##kko": 22426, "##bala": 25060, "##ezer": 25733, "hangs": 17991, "##ise": 5562, "deceased": 10181, "batted": 12822, "athletic": 5188, "##lusion": 24117, "hormones": 20752, "zip": 14101, "dancers": 10487, "195": 17317, "witnessing": 24740, "strain": 10178, "rescued": 10148, "wat": 28194, "[unused194]": 199, "geographically": 20969, "siegel": 27996, "[unused856]": 861, "catalyst": 16771, "commitments": 17786, "polytechnic": 14466, "groceries": 26298, "##eres": 18702, "consolidated": 10495, "\u10db": 1448, "dem": 17183, "torpedoes": 18544, "##ible": 7028, "has": 2038, "density": 4304, "integrated": 6377, "vaughan": 14461, "1930": 4479, "anti": 3424, "running": 2770, "yugoslavia": 8936, "acceleration": 16264, "magma": 28933, "pairs": 7689, "dependence": 18642, "##cek": 25368, "grandfather": 5615, "##nar": 11802, "reuben": 17294, "clayton": 11811, "healed": 15027, "irritated": 15560, "skipper": 23249, "\u30a8": 1698, "shoulder": 3244, "specimen": 11375, "248": 24568, "bills": 8236, "icy": 13580, "honest": 7481, "event": 2724, "##bley": 29538, "##vot": 22994, "##\u4e09": 30267, "barnard": 22266, "freeway": 10846, "##eland": 25689, "determines": 16463, "elegance": 27745, "hits": 4978, "zeta": 23870, "##cratic": 17510, "##tore": 19277, "ode": 24040, "ego": 13059, "depressed": 14777, "need": 2342, "##\u063a": 29831, "crescent": 13152, "raion": 24235, "##z": 2480, "[unused921]": 926, "knockout": 11369, "rail": 4334, "satisfied": 8510, "reclaimed": 23119, "presidents": 11274, "taxpayers": 26457, "argent": 23157, "gulf": 6084, "parentheses": 27393, "penned": 17430, "marjorie": 21562, "fingers": 3093, "##imo": 16339, "##sons": 23345, "##\u30d5": 30246, "going": 2183, "bono": 23648, "bryan": 8527, "real": 2613, "limitations": 12546, "gable": 13733, "sham": 25850, "##ific": 18513, "angeles": 3349, "##kin": 4939, "displacement": 13508, "##meister": 28824, "greer": 25939, "fe": 10768, "rihanna": 25439, "eventual": 9523, "##sport": 20205, "dimitri": 15953, "##\u0dbb": 29941, "malls": 25943, "[unused341]": 346, "star": 2732, "businessman": 6883, "##ressed": 16119, "[unused167]": 172, "##logic": 27179, "[unused143]": 148, "##\u0584": 29786, "\u2218": 1599, "iris": 11173, "frigate": 15437, "substitute": 7681, "verification": 22616, "occupy": 11494, "stimulus": 19220, "fare": 13258, "##isance": 28138, "leadership": 4105, "ridges": 16386, "bragg": 23678, "lbs": 20702, "ham": 10654, "flirting": 20661, "hannah": 8410, "mk": 12395, "ethernet": 26110, "\u30e9": 1731, "mystical": 17529, "added": 2794, "stance": 11032, "##guchi": 16918, "[unused556]": 561, "conductors": 23396, "demonstration": 10467, "furlongs": 26602, "watery": 28259, "hernandez": 13688, "configurations": 22354, "##\u03b9": 18199, "integrating": 22380, "##ssar": 25556, "embrace": 9979, "picket": 28972, "tower": 3578, "reformed": 9114, "seneca": 21224, "concession": 16427, "1712": 28460, "1819": 12552, "##otto": 23052, "[unused885]": 890, "bust": 13950, "tequila": 26791, "##watch": 18866, "welded": 29014, "thrill": 16959, "##bright": 26614, "nominally": 24207, "reporter": 6398, "##hers": 22328, "calculations": 16268, "celebrity": 8958, "mine": 3067, "regiments": 10435, "hamburg": 8719, "volvo": 21074, "dungeons": 20264, "symmetric": 19490, "glucose": 18423, "spitting": 24307, "##gr": 16523, "trash": 11669, "oceans": 17401, "[unused912]": 917, "05": 5709, "texture": 14902, "##gs": 5620, "sequences": 10071, "cease": 13236, "messing": 22308, "titanium": 23431, "rage": 7385, "reminder": 14764, "##erik": 27350, "without": 2302, "indicating": 8131, "anthologies": 25675, "dusseldorf": 18160, "##gm": 21693, "barr": 19820, "reese": 15883, "genealogy": 26684, "\u0935": 1335, "promoter": 15543, "donnell": 18016, "##\u90fd": 30487, "frantically": 16460, "##nan": 7229, "greed": 22040, "inorganic": 28256, "\u30ce": 1717, "##wo": 12155, "derived": 5173, "1660": 17954, "##kan": 9126, "disqualification": 27782, "hemisphere": 14130, "quantities": 12450, "honesty": 16718, "##cko": 19665, "brother": 2567, "immigrant": 11560, "##aker": 22626, "mini": 7163, "kei": 26679, "##jee": 16963, "dangling": 18737, "renumbered": 27855, "northbound": 20055, "##lina": 13786, "##uki": 14228, "nintendo": 10022, "hospitality": 15961, "inequality": 16440, "avoided": 9511, "maximilian": 18838, "snail": 10879, "subunit": 24312, "phrase": 7655, "[unused431]": 436, "conscription": 26329, "illusions": 24883, "\u2f65": 1634, "innate": 25605, "piano": 3682, "lagos": 16738, "##ood": 17139, "decca": 21079, "##illa": 9386, "delighted": 15936, "grasses": 21620, "stills": 26105, "1663": 29016, "sanskrit": 11353, "sacrifice": 8688, "[unused607]": 612, "pope": 4831, "zoe": 11199, "##15": 16068, "##ids": 9821, "saturated": 23489, "activation": 13791, "principal": 4054, "slicing": 26514, "tease": 18381, "disorders": 10840, "baroness": 21479, "toss": 10055, "nights": 6385, "comrades": 19033, "caller": 20587, "scrutiny": 17423, "germanic": 15139, "521": 26963, "tapes": 13324, "##aran": 20486, "begs": 27591, "##ight": 18743, "philosopher": 9667, "rejoined": 14311, "briefly": 4780, "##wani": 29092, "##rial": 14482, "sociological": 24846, "insulting": 23979, "humidity": 18213, "\u20a9": 1573, "modifying": 29226, "functioned": 20903, "##lu": 7630, "holt": 12621, "##ica": 5555, "crimean": 20516, "efficacy": 21150, "disguise": 14249, "trek": 10313, "physician": 7522, "quarry": 12907, "##\u0250": 29676, "multimedia": 14959, "suspension": 8636, "rite": 14034, "[unused760]": 765, "closed": 2701, "stephens": 15037, "##inae": 16414, "comprehend": 22346, "##mun": 23041, "\uff1f": 1994, "irregularities": 28868, "ribs": 10335, "munitions": 21061, "magnate": 27470, "[unused981]": 986, "##\u6cbb": 30426, "bangladeshi": 24267, "chasing": 11777, "ejected": 22607, "liking": 16663, "golden": 3585, "garnered": 13056, "##ilde": 23891, "immensely": 24256, "tactic": 19717, "wikipedia": 16948, "##zziness": 29212, "orbiting": 26472, "par": 11968, "cock": 10338, "jiangsu": 28091, "\u7592": 1913, "##uy": 26230, "##ys": 7274, "introducing": 10449, "##tering": 17989, "\u2016": 1519, "neighborhood": 5101, "421": 29403, "destiny": 10461, "hooker": 17074, "han": 7658, "##wk": 26291, "1917": 4585, "constructive": 26157, "climbs": 18881, "##yman": 17906, "breton": 16659, "prosperous": 18241, "dartmouth": 16960, "experiencing": 13417, "teaser": 27071, "##valent": 24879, "dishes": 10447, "benny": 11945, "remembering": 10397, "##chev": 16179, "pune": 16920, "radicals": 23618, "##\u06cc": 24830, "gregg": 18281, "##auer": 21126, "freighter": 27945, "killer": 6359, "proposing": 21991, "##nick": 13542, "290": 17222, "disorder": 8761, "behaviors": 15592, "francis": 4557, "burned": 5296, "shiny": 12538, "##sun": 19729, "grenade": 17038, "\u5973": 1815, "error": 7561, "##\u306f": 30198, "restrained": 19868, "hygiene": 19548, "filly": 22062, "similarities": 12319, "##zu": 9759, "missy": 25019, "markedly": 29295, "shadow": 5192, "##uri": 9496, "##loading": 18570, "1954": 4051, "negative": 4997, "anastasia": 19447, "tome": 21269, "fraser": 9443, "samoa": 15075, "improvement": 7620, "stick": 6293, "##res": 6072, "unused": 15171, "massey": 21402, "##hurst": 10510, "dorian": 16092, "showers": 23442, "jesse": 7627, "##\u6709": 30399, "referees": 25118, "scrolling": 28903, "[unused105]": 110, "mentioned": 3855, "files": 6764, "[unused858]": 863, "##ive": 3512, "##pods": 22925, "consequences": 8465, "\u1112": 1469, "##\u2192": 30113, "##tsa": 27110, "santana": 21158, "deadly": 9252, "9": 1023, "balance": 5703, "enrico": 21982, "##cat": 11266, "exploitation": 14427, "##ists": 5130, "##tility": 18724, "fact": 2755, "leiden": 20329, "wizards": 16657, "archie": 13255, "nano": 28991, "when": 2043, "slang": 21435, "peaked": 6601, "triggered": 13330, "pussy": 22418, "exceeds": 23651, "drops": 9010, "noses": 27518, "##plate": 15725, "engagements": 20583, "differentiation": 20582, "##ssa": 11488, "retorted": 24056, "friction": 15012, "##ures": 14900, "provoke": 27895, "##\u5149": 30296, "##rled": 27501, "[unused222]": 227, "worldwide": 4969, "\u044d": 1208, "mergers": 28585, "##uman": 19042, "##ina": 3981, "violated": 14424, "meath": 26856, "pickup": 15373, "##hid": 27511, "kinship": 27866, "aperture": 18892, "[unused667]": 672, "##tv": 9189, "##hood": 9021, "declan": 16494, "heterosexual": 28229, "##bruck": 28985, "gotham": 22814, "\u091f": 1320, "peppers": 23582, "bid": 7226, "whether": 3251, "adorned": 19189, "danes": 27476, "sighted": 19985, "muscle": 6740, "##mel": 10199, "##ati": 10450, "irritation": 17373, "\u0e40": 1423, "expressway": 11720, "madam": 21658, "noel": 10716, "scarborough": 18603, "labeled": 12599, "queensland": 5322, "macdonald": 10406, "hesitantly": 24626, "\u0627": 1270, "martinique": 29365, "repeat": 9377, "logical": 11177, "historically": 7145, "\u79cb": 1929, "aggregator": 24089, "##lr": 20974, "singleton": 28159, "purchasing": 13131, "commons": 7674, "##ei": 7416, "dungeon": 16633, "blind": 6397, "[unused270]": 275, "mumbai": 8955, "englishman": 25244, "[unused200]": 205, "[unused150]": 155, "however": 2174, "sobs": 21503, "jameson": 22324, "raf": 7148, "gemini": 21424, "debt": 7016, "moderately": 17844, "paige": 17031, "##chenko": 25872, "cheerful": 18350, "##gra": 17643, "ness": 23384, "norm": 13373, "dante": 9649, "derelict": 28839, "hui": 17504, "glamour": 22439, "rubbed": 7503, "quarterfinals": 9237, "##ound": 28819, "intermediate": 7783, "unnatural": 21242, "zhou": 14367, "stanley": 6156, "mildred": 25452, "lit": 5507, "frowning": 14587, "infectious": 16514, "ropes": 14607, "##heim": 8049, "restart": 23818, "grin": 5861, "impossible": 5263, "##~": 29643, "##\u05d3": 29791, "tilting": 21788, "personality": 6180, "blinking": 15997, "##shed": 14740, "shouldn": 5807, "tian": 23401, "cheung": 22632, "salim": 27490, "pauline": 15595, "mirror": 5259, "southeast": 4643, "meadow": 13244, "mabel": 19486, "randolph": 13031, "##unce": 17457, "hurts": 13403, "senses": 9456, "##connected": 24230, "cuffs": 24347, "battery": 6046, "horses": 5194, "standard": 3115, "lang": 11374, "sterling": 10933, "[unused394]": 399, "pointing": 7302, "##dication": 25027, "biker": 28988, "transform": 10938, "surgeon": 9431, "tingle": 25792, "daddy": 8600, "begging": 12858, "pamphlet": 19899, "##pore": 26691, "##bit": 16313, "augusta": 13635, "build": 3857, "jax": 13118, "propaganda": 10398, "littered": 24777, "enthusiastically": 24935, "daemon": 12828, "coastline": 15458, "##shing": 12227, "televised": 13762, "##dling": 14423, "names": 3415, "kristen": 22435, "richardson": 9482, "shreveport": 23740, "sniff": 27907, "values": 5300, "tasted": 12595, "philanthropist": 15246, "sabre": 22002, "[unused469]": 474, "patna": 29565, "refugee": 13141, "willy": 16172, "aggregation": 28041, "##\u6c38": 30422, "##\u043e\u0432\u0438\u0447": 16198, "builder": 12508, "vii": 8890, "\u7a7a": 1930, "\u4e5f": 1750, "\u09a1": 1360, "owing": 11427, "ag": 12943, "diaspora": 18239, "bombay": 11831, "did": 2106, "bra": 11655, "fever": 9016, "endangered": 10193, "237": 23297, "\u043e": 1193, "##wl": 13668, "wears": 11651, "yours": 6737, "##\u0459": 29762, "nectar": 24816, "##ographic": 13705, "wild": 3748, "\u0e01": 1409, "lowry": 27281, "##vil": 14762, "temperature": 4860, "##\u20a4": 30100, "neither": 4445, "length": 3091, "wave": 4400, "manipulating": 26242, "circumstances": 6214, "be": 2022, "barron": 23594, "spare": 8622, "investigated": 10847, "meridian": 17984, "##kee": 20553, "##\u0259": 29681, "webb": 10923, "mumbled": 11567, "lobster": 27940, "third": 2353, "blooded": 26064, "[SEP]": 102, "##ai": 4886, "##nally": 26827, "angus": 13682, "omar": 13192, "elaborated": 25187, "fortunes": 18023, "baldwin": 10970, "ignorant": 21591, "now": 2085, "vol": 5285, "##oh": 11631, "##imeters": 28136, "##ft": 6199, "##aint": 22325, "implementing": 14972, "vial": 28475, "fragmented": 26872, "herzegovina": 11453, "frequently": 4703, "copper": 6967, "turnpike": 17116, "\u672c": 1876, "funny": 6057, "wichita": 18614, "derivatives": 16942, "##tze": 23102, "cale": 21854, "preserve": 7969, "maison": 26420, "reduce": 5547, "wander": 17677, "handwriting": 24149, "##\u300c": 30167, "##venor": 26806, "promptly": 13364, "davey": 20436, "##gling": 18483, "militias": 29271, "##oo": 9541, "cid": 28744, "##tua": 26302, "shaggy": 25741, "genus": 3562, "shareholders": 15337, "backgrounds": 15406, "trucks": 9322, "fairness": 26935, "##uded": 13936, "interviewed": 10263, "##eke": 23941, "\u3001": 1635, "economics": 5543, "poke": 26202, "schumann": 29448, "##oya": 18232, "locating": 26339, "block": 3796, "aerial": 9682, "propped": 16863, "wealthy": 7272, "##\u03bf": 29730, "pounding": 9836, "##fia": 22749, "claus": 19118, "parting": 20254, "##qu": 28940, "##achal": 24409, "toe": 11756, "continuously": 10843, "oblast": 10379, "fellow": 3507, "souls": 9293, "##sell": 23836, "windy": 27370, "mansfield": 15352, "##tti": 6916, "naturally": 8100, "##bate": 20179, "cfl": 18830, "ionic": 24774, "determine": 5646, "alternatively": 14084, "##uram": 27618, "goodwill": 22875, "edwards": 7380, "hating": 22650, "##\u4e8b": 30277, "governing": 8677, "decreases": 17913, "labourers": 24043, "hari": 21291, "##iec": 23783, "martinez": 10337, "unnamed": 13294, "\u6238": 1857, "[unused910]": 915, "persecution": 14522, "recipe": 17974, "stu": 24646, "characterization": 23191, "79": 6535, "implementation": 7375, "##nus": 10182, "internationale": 21339, "clerk": 7805, "horatio": 27752, "friendly": 5379, "##mism": 26725, "convictions": 20488, "lotus": 13030, "##39": 23499, "portable": 12109, "##ropriation": 26121, "injustice": 21321, "captives": 21496, "##tarian": 28897, "vastly": 24821, "shay": 18789, "mythology": 11327, "poetry": 4623, "##ria": 4360, "##ious": 6313, "founder": 3910, "##kal": 12902, "finalized": 23575, "sky": 3712, "mirrors": 13536, "##reen": 28029, "\u057f": 1236, "abundance": 14531, "steiner": 21264, "eki": 23174, "##olt": 27914, "blur": 14819, "wounds": 8710, "\u00fe": 1101, "appealing": 16004, "[unused678]": 683, "roll": 4897, "curved": 9203, "freshman": 10452, "\u4f1a": 1763, "##e": 2063, "109": 11518, "##\u4f8d": 30291, "boo": 22017, "santa": 4203, "##pon": 26029, "##ity": 3012, "killing": 4288, "professionally": 12145, "##ois": 10054, "confessions": 21444, "joint": 4101, "cheerleading": 25721, "wei": 11417, "##esa": 22447, "cloth": 8416, "\u85e4": 1944, "planes": 9738, "##aurus": 17342, "##ila": 11733, "ethics": 9615, "1734": 27367, "cow": 11190, "explodes": 27583, "publishers": 8544, "davenport": 16273, "python": 18750, "reza": 26323, "##\u27e9": 30156, "santiago": 8728, "secure": 5851, "tessa": 13167, "egg": 8288, "brighter": 16176, "transition": 6653, "applicant": 23761, "mirza": 18366, "##zia": 12871, "stumble": 21811, "sharks": 12004, "volunteer": 6951, "\u0584": 1239, "##rona": 26788, "bhp": 22245, "forbidden": 10386, "ems": 29031, "ic": 24582, "beckett": 20599, "##encia": 27742, "joseph": 3312, "badges": 23433, "\u2ea9": 1632, "hinted": 21795, "glance": 6054, "##ym": 24335, "branded": 11180, "theologians": 29013, "fairfax": 17833, "pushes": 13956, "##lining": 16992, "cowboys": 11666, "1795": 13397, "##mics": 22924, "bluff": 14441, "##mbs": 29232, "secretive": 28607, "possess": 10295, "telenovela": 25754, "promise": 4872, "exhibit": 8327, "benefited": 19727, "[unused435]": 440, "target": 4539, "printed": 6267, "##lle": 6216, "jace": 10352, "sadly": 13718, "##phine": 20738, "kick": 5926, "postseason": 17525, "und": 6151, "levi": 11902, "##\u0153": 29674, "posting": 14739, "kinda": 17704, "411": 27517, "revelation": 11449, "[unused943]": 948, "##\u0e23": 29953, "ambition": 16290, "accessible": 7801, "weighing": 15243, "calmly": 12885, "episodes": 4178, "[unused946]": 951, "bryant": 12471, "route": 2799, "[unused153]": 158, "wal": 24547, "lobes": 24423, "1805": 13126, "##\u4e00": 30266, "measurement": 10903, "##rgeon": 28242, "pencil": 14745, "u": 1057, "\u30a4": 1695, "bridges": 7346, "disbelief": 12537, "[unused151]": 156, "tits": 25671, "exclude": 23329, "leads": 5260, "implemented": 7528, "profitable": 15282, "nix": 23330, "ireland": 3163, "##rice": 17599, "##sp": 13102, "##ming": 6562, "\u611b": 1853, "treated": 5845, "##\uff0c": 30515, "verdi": 20580, "\u0905": 1311, "melvin": 20993, "stalked": 15858, "semiconductor": 20681, "tailored": 21727, "\u02b0": 1140, "having": 2383, "brightened": 28996, "board": 2604, "##kie": 11602, "failure": 4945, "##van": 6212, "##nica": 12782, "137": 14989, "commuted": 26704, "liver": 11290, "scoop": 23348, "destroyed": 3908, "interior": 4592, "##\u1112": 30005, "complaints": 10821, "classification": 5579, "even": 2130, "concentrated": 8279, "barley": 21569, "conduct": 6204, "colonization": 18962, "unaware": 11499, "##hone": 27406, "wool": 12121, "##tries": 21011, "gladys": 22386, "rovers": 9819, "##onne": 18256, "quit": 8046, "spectral": 17435, "##`": 29639, "\u221e": 1601, "percussion": 6333, "guernsey": 24640, "orlando": 10108, "inflation": 14200, "p": 1052, "auckland": 8666, "##ium": 5007, "mri": 27011, "dispatched": 14501, "hardy": 9532, "storm": 4040, "islamic": 5499, "##\u09a5": 29899, "cosmos": 21182, "##\u76ee": 30444, "cage": 7980, "enclosed": 10837, "hopeful": 17772, "49th": 25726, "cope": 11997, "##ogist": 22522, "sipped": 17735, "burton": 9658, "ty": 5939, "##yp": 22571, "sebastien": 28328, "vikings": 13468, "sterile": 25403, "51st": 26017, "php": 25718, "gasped": 8535, "hunt": 5690, "##uter": 19901, "hey": 4931, "joked": 19700, "sicily": 12071, "mantle": 16019, "|": 1064, "##bush": 22427, "##\u3078": 30201, "##lvis": 28530, "##smith": 21405, "labs": 13625, "distraction": 14836, "\u06c1": 1308, "shaw": 8233, "##lian": 15204, "##gned": 19225, "wan": 14071, "napoleonic": 18813, "csa": 27804, "sexy": 7916, "benevolent": 25786, "##lateral": 28277, "nape": 23634, "ha": 5292, "presbyterian": 10133, "council": 2473, "ellison": 21513, "testosterone": 25937, "principality": 18018, "trio": 7146, "programmes": 8497, "##dable": 20782, "##86": 20842, "slim": 11754, "slipping": 11426, "dual": 7037, "true": 2995, "geek": 29294, "brad": 8226, "migration": 9230, "##ca": 3540, "cpc": 28569, "##mpt": 27718, "censorship": 15657, "gesellschaft": 27482, "[unused916]": 921, "bot": 28516, "\u2014": 1517, "downloaded": 22817, "[unused30]": 31, "telecommunication": 25958, "hubbard": 16580, "solo": 3948, "1749": 24704, "scouts": 10158, "##rew": 15603, "faltered": 26015, "skinned": 19937, "illustrate": 19141, "kazakh": 25907, "expertise": 11532, "tun": 27112, "everywhere": 7249, "riga": 17557, "tb": 26419, "skulls": 21542, "##rup": 21531, "1856": 8708, "transmitter": 11659, "smooth": 5744, "heir": 8215, "conservatory": 11879, "independently": 9174, "charlie": 4918, "##gno": 26745, "journalism": 8083, "extends": 8908, "##\u062d": 29820, "lid": 11876, "sculptures": 10801, "##\u0982": 29882, "##ule": 9307, "dona": 24260, "[unused753]": 758, "canary": 17154, "[unused495]": 500, "1732": 27582, "impairment": 25172, "##\u2193": 30114, "amount": 3815, "##vington": 21827, "##hiro": 18334, "chairperson": 19072, "committees": 9528, "regaining": 28657, "##akh": 27573, "##ap": 9331, "hunting": 5933, "figure": 3275, "[unused816]": 821, "creeping": 18266, "##ruck": 29314, "crete": 19111, "sharon": 10666, "safely": 9689, "##vier": 14356, "explicitly": 12045, "\u0578": 1232, "##\u30a6": 30222, "00": 4002, "sabrina": 21876, "##\u09a6": 29900, "jasmine": 14032, "##cu": 10841, "relief": 4335, "[unused755]": 760, "scans": 27404, "arguing": 9177, "##bing": 10472, "bloomberg": 22950, "fished": 26281, "##\u6797": 30407, "dominican": 10104, "\u5e78": 1841, "[unused980]": 985, "##unciation": 24101, "newtown": 26382, "minh": 19538, "mountain": 3137, "fluffy": 27036, "executing": 23448, "viral": 13434, "arrondissement": 20522, "##cer": 17119, "cherry": 9115, "##sed": 6924, "\u044b": 1206, "diplomacy": 17610, "760": 24643, "waldo": 28806, "arranging": 19018, "\u221a": 1600, "##ishment": 21808, "repeats": 17993, "solely": 9578, "138": 15028, "##carriage": 21539, "\u0642": 1292, "secluded": 27044, "##partisan": 26053, "emptiness": 23397, "sells": 15187, "assist": 6509, "sharma": 14654, "sheppard": 24976, "##lity": 18605, "##balls": 18510, "reared": 23295, "damn": 4365, "utilities": 16548, "##orum": 20527, "jennie": 27557, "uncle": 4470, "kidd": 25358, "smelled": 9557, "##\u5916": 30335, "those": 2216, "ministerial": 18645, "albion": 13392, "mart": 20481, "flux": 19251, "pagoda": 27387, "##gai": 23805, "##obe": 20891, "sustaining": 22663, "agent": 4005, "rejected": 5837, "currently": 2747, "rippled": 26862, "offs": 12446, "##ario": 16843, "##\u3042": 30172, "glare": 10982, "proportional": 14267, "unicef": 29073, "##bold": 27495, "globalization": 24370, "[unused820]": 825, "[unused582]": 587, "##sol": 19454, "automatically": 8073, "dc": 5887, "[unused308]": 313, "seem": 4025, "sadness": 12039, "##ouring": 27897, "roma": 12836, "lying": 4688, "sited": 28603, "mckenzie": 18506, "warden": 13745, "\u0909": 1313, "[unused516]": 521, "##anta": 26802, "\u09b0": 1372, "laird": 21964, "##iii": 28954, "brunswick": 9192, "casts": 23942, "shelly": 28360, "rand": 14566, "whore": 17219, "stockholm": 8947, "##ceae": 9071, "playfully": 22608, "1982": 3196, "ariel": 16126, "myra": 23020, "[unused210]": 215, "pam": 14089, "16": 2385, "\u116e": 1478, "provisional": 10864, "lad": 14804, "museum": 2688, "northernmost": 22037, "lateral": 11457, "carmel": 19443, "sadie": 21330, "sided": 11536, "peninsular": 22682, "observe": 11949, "##\u5fc3": 30375, "rotating": 13618, "510": 23475, "##lifting": 26644, "baird": 20866, "graduates": 10845, "\u1d65": 1510, "##hly": 27732, "[unused154]": 159, "structural": 8332, "parchment": 22433, "inhabitants": 4864, "progressed": 12506, "recipes": 19328, "utc": 11396, "perry": 6890, "poker": 11662, "grille": 26192, "##gol": 24141, "helene": 20149, "partnering": 27001, "synonymous": 22594, "shares": 6661, "explosions": 18217, "##ailed": 17440, "choking": 18329, "off": 2125, "bean": 14068, "investing": 19920, "##roid": 22943, "receptor": 10769, "unprecedented": 15741, "\u0251": 1110, "syndicate": 16229, "##\u7f8e": 30461, "sheds": 25999, "##ulation": 9513, "ninety": 13568, "##top": 14399, "1719": 28162, "omitted": 16647, "##nson": 15551, "##lash": 27067, "paused": 5864, "novel": 3117, "radiant": 23751, "pivotal": 20369, "accomplished": 8885, "help": 2393, "##ecure": 29150, "watered": 27129, "catchment": 22865, "[unused361]": 366, "sure": 2469, "weightlifting": 29305, "##rians": 23543, "##\u093f": 29877, "initially": 3322, "bourbon": 15477, "endings": 21306, "##lb": 20850, "\u00b7": 1087, "##ausen": 25701, "##lub": 27959, "hoc": 21929, "anger": 4963, "vivo": 24269, "familiarity": 24666, "hindi": 9269, "retrieval": 26384, "energies": 19320, "gage": 10012, "##xton": 14226, "garbage": 13044, "camera": 4950, "settler": 18556, "yun": 22854, "patent": 7353, "##\u6238": 30383, "1796": 13885, "parcel": 20463, "se": 7367, "##ving": 6455, "##mbled": 23931, "##\u10d5": 29979, "domains": 13100, "##stad": 16917, "patented": 16719, "##dham": 17661, "sheikh": 12840, "passed": 2979, "##iface": 29164, "##\u1019": 29973, "##\u2261": 30134, "oven": 17428, "##oxide": 28479, "wear": 4929, "noticing": 15103, "experience": 3325, "sandwiches": 22094, "famous": 3297, "##j": 3501, "pro": 4013, "##ailing": 29544, "judy": 12120, "##mity": 16383, "spaceship": 25516, "examined": 8920, "doubted": 12979, "##pl": 24759, "vargas": 20556, "saying": 3038, "1908": 5316, "[unused945]": 950, "\u222a": 1605, "pleistocene": 25080, "longing": 15752, "radial": 15255, "eugen": 29273, "##pants": 27578, "hertfordshire": 18889, "ending": 4566, "##ocytes": 28788, "arrow": 8612, "appropriate": 6413, "sweden": 4701, "##rl": 12190, "comes": 3310, "chefs": 27828, "##ne": 2638, "hungarians": 24027, "##\u0251": 29677, "beyond": 3458, "exclusively": 7580, "[unused942]": 947, "ready": 3201, "bring": 3288, "consolation": 24831, "##42": 20958, "bidding": 17534, "##oom": 17650, "summon": 18654, "croatian": 7963, "emphasize": 17902, "occurs": 5158, "skipping": 25978, "potassium": 18044, "boogie": 21495, "memories": 5758, "##icate": 24695, "##\u1d63": 30043, "zimbabwe": 11399, "slavery": 8864, "##dalen": 26414, "prospect": 9824, "attitudes": 13818, "avalanche": 18846, "gaelic": 11196, "assisting": 13951, "torso": 15190, "performed": 2864, "marguerite": 15334, "finer": 26954, "oman": 16640, "lids": 26122, "##\u00b1": 29657, "tempered": 22148, "##dhi": 19114, "##yx": 17275, "worm": 15485, "\u2660": 1623, "christina": 12657, "##urity": 25137, "miraculous": 26106, "hunched": 20498, "##low": 8261, "[unused249]": 254, "smeared": 25400, "cincinnati": 7797, "funds": 5029, "nathan": 7150, "##\u0629": 19433, "papyrus": 29575, "formulation": 20219, "keynote": 25569, "encryption": 21999, "brianna": 25558, "supper": 15264, "arranger": 13981, "lithium": 22157, "vimes": 28482, "distress": 12893, "devices": 5733, "##bel": 8671, "craftsman": 26286, "doctrine": 8998, "##pis": 18136, "medicine": 4200, "farrell": 16248, "##kova": 18810, "##placed": 22829, "##hal": 8865, "rebranded": 18233, "##buck": 24204, "liberated": 19553, "##ains": 28247, "obscure": 14485, "recreation": 8640, "bern": 16595, "trough": 23389, "[unused162]": 167, "shang": 29382, "interspersed": 25338, "although": 2348, "##ija": 14713, "starboard": 25211, "##sham": 21010, "indifference": 25920, "stuart": 6990, "declaring": 13752, "improving": 9229, "##med": 7583, "start": 2707, "hypnotic": 28322, "imprint": 15738, "separating": 14443, "workforce": 14877, "##table": 10880, "orbit": 8753, "hamid": 24811, "lo": 8840, "bender": 25386, "\u304a": 1650, "garment": 19002, "surround": 15161, "##lee": 10559, "uhf": 20131, "##\u5b89": 30346, "boost": 12992, "aftermath": 10530, "sexually": 12581, "tiled": 26510, "sant": 15548, "contractual": 27948, "\u99ac": 1980, "sediments": 20476, "\u6c35": 1894, "##oun": 23709, "herbs": 17561, "##nne": 10087, "hove": 25215, "##cera": 19357, "chargers": 18649, "testament": 9025, "autopsy": 24534, "doug": 8788, "##gible": 18507, "[unused606]": 611, "zebra": 29145, "##ab": 7875, "android": 11924, "docks": 15093, "##drome": 29171, "##dly": 18718, "snyder": 17840, "[unused18]": 19, "\u30b9": 1707, "joints": 17651, "##lten": 29005, "\u5409": 1793, "1881": 7005, "words": 2616, "witness": 7409, "##mere": 13759, "substantially": 12381, "newt": 25597, "rahman": 14364, "incurred": 22667, "canterbury": 9976, "scope": 9531, "[unused633]": 638, "intellectual": 7789, "##cans": 26642, "\u0635": 1284, "princes": 12000, "##blood": 26682, "overly": 15241, "memoirs": 13251, "rhapsody": 29395, "##bedo": 28759, "##\u02be": 29713, "##ople": 27469, "barbecue": 26375, "inherited": 7900, "urbana": 27929, "1763": 18432, "require": 5478, "arcs": 29137, "jail": 7173, "##ingdon": 29138, "[unused318]": 323, "1664": 28485, "dazed": 19720, "##\u5e74": 30366, "##ult": 11314, "pablo": 11623, "maxim": 20446, "##jet": 15759, "##litz": 24725, "sullivan": 7624, "osman": 28609, "[unused447]": 452, "goddamn": 16477, "degradation": 16627, "element": 5783, "genuinely": 15958, "reelected": 20847, "physics": 5584, "admiralty": 14179, "identify": 6709, "priests": 8656, "occult": 27906, "communists": 13009, "prosperity": 14165, "chronology": 17873, "philanthropic": 25321, "clapping": 27104, "disastrous": 16775, "ensures": 21312, "intruder": 22841, "##ings": 8613, "improvised": 19641, "whiskey": 13803, "s": 1055, "earrings": 27212, "rita": 11620, "##ized": 3550, "depart": 18280, "jasper": 14791, "##icides": 22698, "isn": 3475, "##tub": 28251, "helm": 16254, "[unused587]": 592, "hybrids": 23376, "[unused54]": 55, "destructive": 15615, "tak": 27006, "capitol": 9424, "jocelyn": 23786, "zheng": 20985, "ds": 16233, "higgins": 13466, "astrid": 27376, "supportive": 16408, "raider": 27826, "photographers": 17008, "cayman": 26164, "jaime": 14519, "calming": 23674, "presenters": 25588, "\u6c5f": 1897, "superseded": 19886, "philosophical": 9569, "##\u2090": 30089, "habitats": 10746, "[unused883]": 888, "plausible": 24286, "##\u09b0": 29908, "voss": 24878, "volunteered": 14382, "inched": 25330, "emerge": 12636, "##dur": 24979, "tc": 22975, "silenced": 25030, "##mba": 11201, "allison": 10786, "[unused644]": 649, "burning": 5255, "##cology": 19824, "replacements": 23936, "pdf": 11135, "mendes": 27916, "descending": 15127, "blunt": 14969, "sato": 20251, "affair": 6771, "##\u56db": 30324, "mikey": 25998, "masjid": 27779, "decide": 5630, "reich": 14365, "redeveloped": 28053, "##owe": 29385, "appellate": 23240, "hats": 16717, "uk": 2866, "dramatic": 6918, "thermal": 9829, "##\u2018": 30055, "##ched": 7690, "tempo": 13657, "stood": 2768, "poznan": 18320, "wyoming": 10622, "beth": 7014, "lore": 19544, "correlated": 23900, "building": 2311, "lambert": 12838, "processes": 6194, "sparrow": 19479, "prefect": 19402, "cube": 14291, "defective": 28829, "weekend": 5353, "[unused730]": 735, "blades": 10491, "##rons": 28212, "colchester": 20115, "hydra": 26018, "searches": 17193, "shark": 11420, "##rion": 14772, "jain": 17136, "obedience": 22645, "[unused408]": 413, "townsend": 16139, "shrieked": 22383, "graveyard": 16685, "nirvana": 26530, "troll": 18792, "\u30e7": 1730, "\u2248": 1606, "likewise": 10655, "rusty": 13174, "##nberger": 28825, "##hausen": 13062, "fleetwood": 23866, "preferring": 21393, "duty": 4611, "##ppel": 27877, "sudbury": 26487, "concludes": 14730, "merchants": 10310, "##\u30e2": 30253, "flats": 14201, "##finder": 23695, "leaked": 15748, "philipp": 20765, "creole": 21414, "clarinet": 12089, "md": 9108, "##sation": 26652, "motors": 9693, "grassroots": 23299, "[unused898]": 903, "trans": 9099, "%": 1003, "fiancee": 19455, "bladed": 27402, "atheist": 23503, "##piece": 11198, "stint": 12116, "##iko": 12676, "juliet": 13707, "calhoun": 22982, "##rose": 13278, "##gger": 13327, "plates": 7766, "soaking": 22721, "1622": 28133, "pbs": 13683, "aimee": 23551, "fitting": 11414, "lithuania": 9838, "sensor": 13617, "flickering": 20046, "foreigners": 15040, "bourne": 15803, "##sul": 23722, "enoch": 28178, "tug": 12888, "passionate": 13459, "45": 3429, "gallo": 25624, "##erian": 27549, "##uising": 28580, "syndrome": 8715, "##moral": 22049, "##\u03c4": 29734, "walls": 3681, "comments": 7928, "mess": 6752, "banners": 23562, "shotgun": 13305, "designs": 5617, "vanessa": 13226, "alumni": 9441, "##ct": 6593, "deeper": 6748, "suffered": 4265, "sailing": 8354, "cote": 17155, "sawmill": 24744, "occurring": 10066, "ban": 7221, "possibility": 6061, "hunger": 9012, "##hair": 26227, "southwestern": 8772, "patron": 9161, "riding": 5559, "journalists": 8845, "festival": 2782, "##zuki": 24015, "shadows": 6281, "energetic": 18114, "1650": 21875, "successful": 3144, "oro": 20298, "organisations": 8593, "cypriot": 18543, "berger": 16758, "remember": 3342, "narrowed": 8061, "[unused263]": 268, "1655": 28438, "advance": 5083, "loudly": 9928, "dozen": 6474, "221": 19594, "pius": 14363, "serbian": 6514, "[unused805]": 810, "texas": 3146, "##ua": 6692, "siding": 17326, "cultivated": 13237, "##am": 3286, "tunnel": 5234, "overtook": 28920, "kelly": 5163, "campbell": 6063, "england": 2563, "##\u027e": 29692, "hagen": 24047, "geoff": 14915, "##ici": 28775, "adored": 28456, "mcdonald": 9383, "##\u00f7": 29669, "followers": 8771, "graves": 9729, "elephant": 10777, "glasses": 7877, "##vsky": 15904, "##\u0932": 29870, "while": 2096, "statehood": 28000, "##vat": 22879, "exposure": 7524, "basin": 6403, "[unused639]": 644, "\u2190": 1583, "cruel": 10311, "wynn": 25328, "hillary": 18520, "abbas": 17532, "##ael": 21147, "##ead": 13775, "proclamation": 16413, "milton": 9660, "fingered": 28842, "niagara": 15473, "\u0292": 1138, "transvaal": 28336, "recognition": 5038, "elites": 27021, "relaxing": 19613, "wreck": 12006, "hickory": 28158, "liberia": 18039, "contrasted": 22085, "disciplines": 12736, "entities": 11422, "forested": 15205, "waived": 16301, "genevieve": 20245, "devi": 14386, "lima": 12967, "algebra": 11208, "genius": 11067, "##fers": 24396, "daisy": 10409, "\u0294": 1139, "rev": 7065, "simplified": 11038, "tags": 22073, "##ulator": 20350, "hardness": 23608, "parish": 3583, "pork": 15960, "junctions": 27169, "populations": 7080, "corsica": 27047, "disks": 23999, "down": 2091, "shear": 18330, "montana": 8124, "fry": 14744, "kendall": 14509, "grazed": 26627, "##illo": 10486, "agreements": 10540, "marketing": 5821, "##\u025b": 29275, "carried": 3344, "gaulle": 28724, "clients": 7846, "refusing": 11193, "##nta": 12380, "##uni": 19496, "quietly": 5168, "peanuts": 27613, "##economic": 23035, "##ffer": 12494, "trace": 7637, "lennon": 14294, "swore": 12860, "1965": 3551, "selena": 19166, "1808": 13040, "lanka": 7252, "progressing": 27673, "motto": 12652, "1969": 3440, "##\u6cb3": 30425, "rancho": 18123, "pepsi": 27237, "050": 28714, "\u2212": 1597, "##\u30e3": 30254, "##\u2016": 30054, "f": 1042, "advocating": 20324, "decor": 25545, "##ywood": 26985, "ostensibly": 23734, "conviction": 10652, "oclc": 12258, "leagues": 8121, "turner": 6769, "founders": 8759, "tomas": 12675, "1605": 28202, "##hering": 22658, "chunks": 24839, "##\u548c": 30322, "crossed": 4625, "ensemble": 7241, "lois": 15815, "irritating": 29348, "sunni": 18883, "##bread": 27035, "12": 2260, "[unused36]": 37, "approximate": 15796, "gunnar": 26138, "circulated": 17640, "##mia": 10092, "##atics": 17592, "740": 25833, "jamaican": 17851, "cantonese": 22241, "##forth": 15628, "cook": 5660, "##bain": 29148, "asbestos": 29191, "catholic": 3234, "eliminating": 15349, "recognized": 3858, "1665": 27676, "##\u0f0b": 29960, "document": 6254, "##\u02b3": 29708, "[unused20]": 21, "##\u6ca2": 30424, "##sten": 16173, "rely": 11160, "##inger": 9912, "immigration": 7521, "maureen": 19167, "bill": 3021, "buzzing": 20386, "sleeves": 15114, "\u028e": 1135, "pawn": 19175, "rats": 11432, "muslims": 7486, "este": 28517, "lei": 26947, "delivering": 12771, "gaza": 14474, "stellar": 17227, "cabinets": 20053, "gibbons": 22194, "nedra": 28240, "workout": 27090, "jude": 12582, "##\u2606": 30148, "christ": 4828, "locality": 10246, "suggestion": 10293, "[unused229]": 234, "##tter": 12079, "nitrate": 29607, "##tara": 27115, "##raf": 27528, "hc": 16731, "274": 25586, "##owing": 14138, "honda": 11990, "mainstream": 7731, "actresses": 19910, "happily": 11361, "##kes": 9681, "##claiming": 27640, "kanye": 29270, "lack": 3768, "##cks": 10603, "brittany": 12686, "calgary": 10112, "turning": 3810, "dependency": 24394, "decommissioned": 14394, "1894": 6539, "[unused723]": 728, "convent": 10664, "##aring": 22397, "carol": 8594, "azerbaijani": 18325, "grumbled": 17030, "[unused73]": 74, "##ess": 7971, "##ham": 3511, "##tham": 22536, "since": 2144, "1758": 16832, "thud": 20605, "rey": 12569, "side": 2217, "equivalent": 5662, "occasional": 8138, "incomes": 29373, "physicians": 11572, "##lva": 22144, "\u0443": 1198, "condemning": 28525, "1804": 13140, "stabbed": 13263, "[unused710]": 715, "morton": 11164, "bertie": 20743, "bristol": 7067, "backdrop": 18876, "bosch": 25936, "ride": 4536, "\u2082": 1549, "dance": 3153, "nova": 6846, "compelling": 17075, "##dal": 9305, "mckinley": 22121, "treason": 14712, "awkward": 9596, "compares": 22963, "j": 1046, "mana": 24951, "[unused550]": 555, "[unused926]": 931, "huddled": 20258, "##pta": 22799, "dotted": 20384, "timetable": 23839, "icon": 12696, "telegram": 23921, "humid": 14178, "196": 20035, "interrupting": 22602, "##rak": 16555, "##\u4e45": 30274, "aston": 14327, "slovenia": 10307, "art": 2396, "##ale": 9453, "guard": 3457, "##hett": 28499, "##pal": 12952, "camped": 27077, "drone": 18465, "vocalist": 8032, "variants": 10176, "salt": 5474, "promotions": 15365, "everton": 18022, "seeks": 11014, "rest": 2717, "##cased": 28969, "stephane": 26624, "##\u03b8": 29725, "miami": 5631, "grassland": 20331, "##miento": 28883, "##can": 9336, "milk": 6501, "##sted": 14701, "\u5dff": 1837, "lists": 7201, "huddersfield": 19715, "##pati": 24952, "vanuatu": 27625, "##shin": 17426, "newfound": 27608, "pile": 8632, "riley": 7546, "drunken": 15967, "tractor": 16358, "kiara": 28870, "##iae": 19001, "flawed": 25077, "[unused22]": 23, "cary": 20533, "visually": 17453, "microsoft": 7513, "manner": 5450, "tones": 12623, "\u00a32": 21853, "shops": 7340, "dd": 20315, "bumper": 21519, "480": 17295, "depths": 11143, "1560": 29185, "marek": 29318, "specializes": 16997, "##aga": 16098, "##dating": 16616, "##ieri": 21939, "nik": 23205, "##nging": 22373, "##bbling": 15343, "specialist": 8325, "submitted": 7864, "\u5c07": 1828, "templar": 27850, "misses": 22182, "##mma": 14760, "huffed": 25014, "chaplin": 23331, "closely": 4876, "dismay": 20006, "\u09af": 1371, "[unused612]": 617, "sections": 5433, "kruger": 27823, "sighting": 29426, "\u090f": 1314, "commissioned": 4837, "simpler": 16325, "vikram": 29063, "pharmaceuticals": 24797, "pee": 21392, "vortex": 23463, "infamous": 14429, "perception": 10617, "stalled": 20659, "sensation": 8742, "mckenna": 21749, "natalia": 21521, "tate": 9902, "neatly": 15981, "bananas": 26191, "##sier": 20236, "[unused616]": 621, "##ingham": 16445, "numbered": 8597, "armenia": 10110, "grow": 4982, "zhao": 15634, "ecuador": 10378, "pointedly": 28713, "hydraulic": 14761, "patti": 22732, "118": 12963, "alex": 4074, "canton": 8770, "\u5fb7": 1848, "told": 2409, "reddish": 14182,
[...]
