{"vocab": {"##missible": 26770, "none": 3904, "ballots": 17069, "pond": 8644, "##dae": 6858, "168": 16923, "sudden": 5573, "##pf": 14376, "munchen": 25802, "xbox": 12202, "sexes": 21024, "inflammation": 21733, "aerial": 9682, "bonaparte": 20830, "crambidae": 21585, "political": 2576, "cop": 8872, "slashed": 23587, "fog": 9666, "graded": 21976, "tempest": 22553, "380": 17014, "sheer": 11591, "ferocious": 27863, "clarkson": 18648, "1863": 6899, "avila": 29079, "longest": 6493, "crusaders": 18831, "##lund": 18028, "nursing": 8329, "[unused647]": 652, "\u826f": 1938, "gentle": 7132, "syriac": 24109, "##ej": 20518, "ceased": 7024, "1810": 11786, "filmmakers": 16587, "pratt": 13208, "kb": 21677, "invites": 18675, "joo": 28576, "##lika": 25421, "##tsky": 26824, "\u062d": 1276, "thought": 2245, "smoothed": 17966, "speedy": 26203, "mariana": 22097, "grind": 23088, "recording": 3405, "counterattack": 27835, "outdoor": 7254, "mussolini": 22554, "dominic": 11282, "theresa": 14781, "horst": 28565, "shooters": 28310, "activate": 20544, "disturbing": 14888, "motors": 9693, "shuttle": 10382, "lithuania": 9838, "solely": 9578, "[unused697]": 702, "oblivion": 24034, "##sal": 12002, "thailand": 6504, "attempting": 7161, "erection": 13760, "symbolism": 22050, "anderson": 5143, "tooth": 11868, "erase": 22505, "##\u0686": 29840, "winston": 10180, "\u03c4": 1174, "urgency": 19353, "encyclopedia": 12204, "songwriters": 20602, "reformed": 9114, "shaking": 5513, "mccann": 28641, "template": 23561, "puddle": 25081, "schoolhouse": 26301, "abandonment": 22290, "podcast": 16110, "maud": 21696, "##laze": 24472, "##gist": 24063, "profit": 5618, "##\u53e4": 30315, "controlling": 9756, "##trick": 22881, "da": 4830, "##cca": 16665, "dual": 7037, "blessed": 10190, "##iko": 12676, "italiana": 28059, "pertaining": 20246, "cliffs": 13333, "##be": 4783, "britannia": 24677, "steal": 8954, "northumberland": 16205, "reserved": 9235, "##enberg": 11029, "\u266f": 1628, "explosives": 14792, "singapore": 5264, "disregard": 27770, "soho": 23771, "sorcerer": 23324, "gs": 28177, "catch": 4608, "jerking": 22387, "splashed": 22055, "##bid": 17062, "estonian": 12029, "##\u91d1": 30490, "israel": 3956, "vascular": 21449, "##ours": 22957, "electronically": 28926, "[unused576]": 581, "squirrel": 18197, "struggling": 8084, "##ka": 2912, "bedroom": 5010, "##plane": 11751, "robert": 2728, "fiancee": 19455, "andover": 29463, "spoil": 27594, "##alic": 27072, "##uven": 27346, "##clave": 23650, "\u1112": 1469, "##ye": 6672, "expedition": 5590, "moans": 24675, "##nt": 3372, "knighted": 19572, "salzburg": 18369, "atmosphere": 7224, "doubles": 7695, "toni": 16525, "temperament": 26270, "fulham": 21703, "prison": 3827, "beaumont": 16210, "appropriated": 29223, "nellie": 25365, "benito": 23595, "occupational": 16928, "driveway": 11202, "exchequer": 28889, "blankets": 15019, "cathedral": 5040, "##zone": 15975, "##plin": 28296, "##\u2153": 30109, "appealed": 12068, "##tile": 15286, "answered": 4660, "ventilation": 19536, "accustomed": 17730, "[unused288]": 293, "russian": 2845, "guadalupe": 23529, "exponential": 27258, "chairperson": 19072, "hawks": 12505, "machine": 3698, "[unused602]": 607, "overnight": 11585, "complexity": 11619, "thumb": 7639, "angola": 13491, "acacia": 24766, "acquisition": 7654, "##piece": 11198, "newman": 10625, "medium": 5396, "mango": 24792, "ontario": 4561, "excused": 28512, "hunt": 5690, "corvette": 22687, "b1": 29491, "##dable": 20782, "proctor": 28770, "totaled": 23596, "\u2098": 1567, "dhabi": 23153, "tunisia": 13437, "moravian": 28131, "reflected": 7686, "##sque": 17729, "honoring": 21494, "##oire": 26250, "advent": 13896, "cook": 5660, "therapy": 7242, "##\u09b6": 29910, "##lls": 12718, "soldiers": 3548, "prelate": 26595, "shrieked": 22383, "wales": 3575, "##wled": 28365, "maclean": 22528, "309": 25048, "resembles": 12950, "awakening": 16936, "disabilities": 13597, "this": 2023, "backwards": 11043, "swim": 9880, "emergencies": 26360, "six": 2416, "wessex": 27886, "reddy": 18998, "scuba": 28651, "minimal": 10124, "88": 6070, "strike": 4894, "concord": 16557, "knelt": 12804, "crops": 8765, "\u2191": 1584, "##uw": 25974, "nine": 3157, "artificial": 7976, "shivering": 19197, "travels": 7930, "quantitative": 20155, "situation": 3663, "##rated": 9250, "okay": 3100, "grafton": 28680, "devout": 26092, "penalties": 12408, "##wski": 10344, "cache": 17053, "##met": 11368, "partnering": 27001, "nz": 20008, "tested": 7718, "worked": 2499, "##to": 3406, "payne": 13470, "##cter": 21162, "macy": 20914, "1989": 2960, "poe": 18922, "[unused720]": 725, "bavarian": 15097, "raf": 7148, "##\u9999": 30505, "bid": 7226, "shout": 11245, "drawers": 22497, "tattooed": 26464, "ornamental": 18200, "presiding": 18131, "imprint": 15738, "classified": 6219, "livestock": 11468, "shadowy": 22801, "archie": 13255, "\u4ecb": 1759, "rats": 11432, "eighteen": 7763, "nods": 11232, "\u6c38": 1896, "wishing": 10261, "ransom": 16540, "deficit": 15074, "magazines": 7298, "owned": 3079, "##33": 22394, "ling": 17002, "evolved": 7964, "\u53e4": 1789, "activist": 7423, "##wire": 20357, "bolivar": 22118, "incorrect": 16542, "regretted": 18991, "towards": 2875, "governments": 6867, "biographical": 16747, "181": 18596, "##jk": 15992, "johanna": 21498, "[unused749]": 754, "apology": 12480, "eps": 20383, "maldives": 25059, "caliph": 22733, "dear": 6203, "veteran": 8003, "##imating": 22835, "cure": 9526, "alligator": 28833, "wraps": 19735, "confront": 14323, "yates": 20356, "intercept": 19115, "southeastern": 8252, "somethin": 27941, "##ifer": 23780, "wiping": 14612, "##mies": 28397, "finishes": 12321, "literal": 18204, "##vances": 26711, "##iam": 25107, "contact": 3967, "styles": 6782, "killings": 16431, "##upt": 29441, "sixth": 4369, "ing": 13749, "dans": 18033, "astor": 25159, "twins": 8178, "[unused718]": 723, "elusive": 26475, "drugs": 5850, "accordingly": 11914, "apr": 19804, "chased": 13303, "dreamed": 13830, "taboo": 27505, "[unused26]": 27, "houston": 5395, "dry": 4318, "##ated": 4383, "501": 16202, "edna": 21051, "michelle": 9393, "forrest": 16319, "atletico": 16132, "asha": 24595, "survives": 13655, "fingered": 28842, "rook": 28620, "rallies": 22867, "[unused24]": 25, "[unused873]": 878, "dared": 15048, "wigan": 15598, "defenders": 12534, "##dents": 28986, "welcome": 6160, "[unused374]": 379, "awhile": 19511, "boilers": 20412, "raymond": 7638, "timely": 23259, "career": 2476, "attacking": 7866, "fighters": 7299, "##\u540c": 30320, "##eses": 23072, "irony": 19728, "jeremiah": 17526, "falsely": 23123, "intern": 25204, "adapt": 15581, "pursuing": 11828, "been": 2042, "##ganj": 22738, "shores": 13312, "perch": 21836, "shrine": 9571, "yusuf": 23495, "laden": 14887, "reservation": 11079, "napoli": 29485, "525": 25621, "effectiveness": 12353, "lazarus": 23623, "weed": 17901, "witches": 12566, "woodstock": 21028, "armistice": 19125, "dubious": 22917, "##inging": 23180, "vitro": 25714, "dying": 5996, "350": 8698, "gay": 5637, "greenish": 23753, "##active": 19620, "[unused605]": 610, "paternal": 15112, "criteria": 9181, "\u0f54": 1430, "hurdles": 18608, "bharatiya": 24243, "##scia": 27210, "whisper": 7204, "[unused669]": 674, "archaeologist": 18821, "duration": 9367, "clever": 12266, "matching": 9844, "catching": 9105, "smashing": 21105, "viktor": 13489, "[unused707]": 712, "openly": 10132, "##icing": 23553, "##\u09bf": 29915, "loves": 7459, "pantheon": 24152, "isa": 18061, "##vered": 25896, "dough": 23126, "\u0430": 1180, "classrooms": 12463, "netting": 26909, "jose": 4560, "deals": 9144, "##ellant": 24178, "union": 2586, "gemma": 19073, "lashed": 25694, "##\u0436": 29743, "##ghan": 22218, "grabbed": 4046, "couch": 6411, "pitchers": 23232, "wires": 14666, "bubba": 19606, "ham": 10654, "1811": 13086, "[unused526]": 531, "##iny": 24300, "subtly": 28797, "tagged": 26610, "genius": 11067, "ballad": 11571, "physicians": 11572, "\u4f1a": 1763, "accolades": 27447, "walls": 3681, "spielberg": 28740, "blamed": 11248, "boat": 4049, "1864": 6717, "glover": 20012, "##not": 17048, "panthers": 12915, "erie": 13374, "playstation": 9160, "alternatives": 15955, "{": 1063, "##\u1d57": 30041, "photos": 7760, "intimidated": 28028, "popularly": 16071, "##graphs": 27341, "##nen": 10224, "##ulton": 22145, "landowner": 20270, "warmer": 16676, "ton": 10228, "\u738b": 1909, "inscriptions": 12920, "daniela": 28541, "individually": 14258, "carol": 8594, "fun": 4569, "##\u0430\u043d": 28995, "spartans": 24293, "foundations": 10100, "perfect": 3819, "##burn": 8022, "##cked": 18141, "pia": 24624, "lamp": 10437, "migrant": 20731, "212": 18164, "##nob": 25083, "set": 2275, "dame": 8214, "##phine": 20738, "settlements": 7617, "underwater": 11564, "bertrand": 20586, "##mbit": 28878, "refuse": 10214, "benefactor": 27398, "##egorical": 27203, "##)": 29620, "quiver": 29049, "blonde": 9081, "144": 14748, "rebellion": 7417, "developer": 9722, "settles": 27221, "charlemagne": 27257, "r": 1054, "commerce": 6236, "size": 2946, "announcing": 13856, "scouting": 14299, "heaving": 23907, "pretty": 3492, "##kow": 24144, "\u0292": 1138, "thompson": 5953, "doubts": 13579, "sip": 10668, "installations": 14111, "schooling": 14118, "##zd": 26494, "karlsruhe": 26660, "yourself": 4426, "[unused893]": 898, "##law": 14919, "tracked": 12808, "##ractive": 26884, "suites": 19796, "ugly": 9200, "##\u2606": 30148, "onstage": 23542, "usaf": 18531, "##fen": 18940, "\u308d": 1689, "crowds": 12783, "mineral": 9754, "varsity": 11710, "rosary": 28291, "culminated": 16943, "##aro": 10464, "[unused155]": 160, "##lets": 13461, "tony": 4116, "orchestras": 19505, "\u99ac": 1980, "[unused887]": 892, "##edge": 24225, "inherent": 16112, "##\u6b66": 30415, "mystical": 17529, "secession": 22965, "workforce": 14877, "ornate": 18099, "##kai": 11151, "210": 12875, "receptions": 16466, "ultra": 11087, "masterpiece": 17743, "pm": 7610, "fuselage": 13478, "maze": 15079, "bis": 20377, "halves": 23672, "##stein": 8602, "animation": 7284, "attacks": 4491, "suspect": 8343, "##\u56d7": 30323, "creative": 5541, "speech": 4613, "brawl": 23244, "audience": 4378, "##cable": 21170, "buds": 26734, "mounts": 19363, "riot": 11421, "folded": 6999, "benign": 28378, "##\u1165": 30008, "intrinsic": 23807, "shelby": 15294, "rebuild": 14591, "require": 5478, "impossible": 5263, "renault": 14605, "subcommittee": 18052, "conclusion": 7091, "initiating": 26616, "icc": 16461, "31": 2861, "equal": 5020, "##\u1d49": 30035, "airs": 14369, "holt": 12621, "69": 6353, "lia": 22393, "##erian": 27549, "cancelled": 8014, "variants": 10176, "bandwidth": 20235, "flashbacks": 28945, "adam": 4205, "cas": 25222, "leopard": 16240, "[unused447]": 452, "seating": 10747, "martini": 24480, "remarks": 12629, "##ppa": 13944, "gustave": 27973, "##14": 16932, "visibly": 19397, "sterile": 25403, "##\u0f58": 29968, "referenced": 14964, "extracted": 15901, "800": 5385, "marathon": 8589, "lust": 11516, "clasp": 23465, "digit": 15340, "eased": 10987, "muddy": 15405, "[unused558]": 563, "assured": 8916, "##\u706b": 30432, "murder": 4028, "planned": 3740, "\u2018": 1520, "##*": 29621, "echoed": 10187, "\u0f0b": 1424, "sven": 21313, "\u90e8": 1960, "##ading": 23782, "examples": 4973, "soon": 2574, "##emi": 23238, "regulations": 7040, "alain": 15654, "skip": 13558, "periodically": 18043, "ascending": 22316, "astronaut": 19748, "reno": 17738, "substantive": 27737, "baffled": 29088, "[unused459]": 464, "jennie": 27557, "##inatory": 28230, "##ma": 2863, "kildare": 24275, "marko": 28003, "##athan": 29246, "##pus": 12207, "ore": 10848, "kisses": 8537, "dynamics": 10949, "gottfried": 26142, "reclamation": 27389, "pin": 9231, "contra": 24528, "carpenter": 10533, "continental": 6803, "nice": 3835, "##aar": 26526, "ascent": 16354, "beverley": 29057, "earning": 7414, "\u9234": 1965, "joy": 6569, "thirst": 21810, "conventional": 7511, "wired": 17502, "##ile": 9463, "##hyl": 29598, "vatican": 12111, "commemorative": 17524, "##rave": 22401, "siege": 6859, "##wani": 29092, "1736": 28192, "lantern": 12856, "##dron": 19440, "clermont": 27956, "races": 3837, "\u516c": 1772, "criterion": 19229, "\u05dc": 1253, "kindly": 19045, "sharing": 6631, "[unused906]": 911, "renegade": 28463, "outsiders": 22361, "employs": 13495, "needed": 2734, "ramsay": 19460, "darius": 14861, "distinctive": 8200, "susan": 6294, "##rry": 12244, "instinct": 12753, "dolphin": 17801, "andersson": 28643, "weapons": 4255, "case": 2553, "veil": 15562, "austrians": 28439, "instituto": 22596, "resting": 8345, "albums": 4042, "piles": 18526, "firstly": 15847, "klan": 26613, "resumed": 7943, "projectile": 25921, "##onale": 22823, "staging": 15308, "##vot": 22994, "1683": 27414, "disconnected": 23657, "accommodation": 11366, "implementing": 14972, "##io": 3695, "##asa": 16782, "[unused425]": 430, "totally": 6135, "fortified": 13313, "##iere": 21253, "annoyed": 11654, "apart": 4237, "plant": 3269, "goodwill": 22875, "[unused888]": 893, "gujarati": 26428, "corinne": 26879, "haifa": 21303, "\u03b8": 1162, "##smith": 21405, "##sty": 21756, "green": 2665, "unbearable": 24257, "##xton": 14226, "josef": 12947, "celtics": 23279, "##iers": 10136, "suffix": 16809, "mermaid": 22322, "titan": 16537, "##logy": 6483, "pbs": 13683, "##bill": 24457, "agent": 4005, "vols": 18709, "eve": 6574, "##sume": 23545, "blanco": 20036, "1833": 11040, "[unused347]": 352, "112": 11176, "##lat": 20051, "##\u03c6": 29736, "nursery": 13640, "phillies": 15711, "label": 3830, "retention": 20125, "##shaft": 25679, "nes": 24524, "accounting": 9529, "nationalities": 24904, "\u0dba": 1404, "choral": 14564, "visited": 4716, "gifts": 9604, "satin": 19412, "barefoot": 22985, "mexican": 4916, "cpu": 17368, "attracted": 6296, "resigned": 5295, "seats": 4272, "ic": 24582, "scarred": 21985, "driven": 5533, "kawasaki": 27324, "bey": 20289, "closer": 3553, "mouse": 8000, "##nal": 12032, "art": 2396, "processed": 13995, "vanished": 9955, "modifying": 29226, "kelley": 19543, "##igny": 26978, "inhuman": 29582, "friedrich": 8896, "footprints": 24629, "dubbed": 9188, "supermarkets": 26676, "proximity": 10039, "illustrated": 7203, "heinrich": 10952, "metallic": 12392, "158": 17696, "shaved": 20665, "##\u110a": 29998, "hannah": 8410, "##oney": 17791, "durga": 28746, "boarded": 17383, "aggregation": 28041, "##lent": 16136, "crossings": 20975, "sulfate": 26754, "bully": 20716, "visitors": 5731, "termed": 12061, "staged": 9813, "[unused809]": 814, "route": 2799, "##gc": 18195, "##enas": 26474, "peering": 16740, "nick": 4172, "questioned": 8781, "daughter": 2684, "barrel": 8460, "##nard": 16564, "panchayat": 20079, "morality": 16561, "[unused163]": 168, "\u0454": 1212, "handheld": 27291, "governors": 11141, "davidson": 12017, "275": 17528, "essence": 11305, "didn": 2134, "invitation": 8468, "circumstance": 25652, "##gard": 13444, "##rts": 21217, "##\u72ac": 30434, "allah": 16455, "merritt": 26701, "[unused455]": 460, "##ouin": 25058, "howl": 22912, "##text": 18209, "##uan": 13860, "##acion": 21736, "illusions": 24883, "pierced": 16276, "ensured": 16316, "##ffie": 29055, "bu": 20934, "##tracted": 24301, "dalton": 12413, "##act": 18908, "laundering": 28289, "166": 18610, "\u1d57": 1505, "snap": 10245, "##riam": 25557, "[unused831]": 836, "susannah": 20471, "remarkable": 9487, "##\u2202": 30120, "usa": 3915, "\u51fa": 1774, "harmonica": 16527, "bands": 4996, "##dr": 13626, "ruth": 7920, "cylinders": 18729, "sending": 6016, "kerry": 11260, "formation": 4195, "bust": 13950, "planting": 14685, "sofa": 10682, "lexie": 24123, "\u5e73": 1839, "meant": 3214, "##\u30ec": 30260, "##gui": 25698, "induction": 15946, "\u03c1": 1171, "vlad": 19163, "gleaming": 18242, "##waite": 29601, "supplier": 17024, "slams": 25967, "glanced": 3887, "translit": 28468, "ivan": 7332, "misconduct": 23337, "1892": 6527, "##tm": 21246, "ankles": 15392, "padded": 20633, "108": 10715, "glasses": 7877, "scratch": 11969, "playable": 16854, "persisted": 19035, "stupidity": 28072, "instructed": 10290, "##hesis": 24124, "slowed": 9784, "eats": 20323, "##ses": 8583, "please": 3531, "palette": 27396, "roberts": 7031, "tristan": 9822, "##ski": 5488, "rotate": 24357, "##\u304a": 30176, "attending": 7052, "##fan": 15143, "addict": 26855, "mane": 23055, "linebacker": 15674, "thirteenth": 14725, "lehigh": 23241, "##ad": 4215, "thomas": 2726, "hear": 2963, "confesses": 22826, "hove": 25215, "[unused382]": 387, "\u671d": 1874, "##ord": 8551, "mum": 12954, "1803": 12651, "translated": 5421, "rehearsals": 24760, "morning": 2851, "##hana": 15788, "friendships": 28956, "niccolo": 27033, "offender": 25042, "compared": 4102, "expertise": 11532, "##aka": 11905, "pancakes": 28470, "##stellar": 29028, "trends": 12878, "##lus": 7393, "##jun": 19792, "bitterness": 22364, "##xt": 18413, "externally": 27223, "joker": 19318, "chile": 7029, "brandon": 8825, "bournemouth": 22882, "gt": 14181, "[unused800]": 805, "sparkling": 16619, "rotary": 16933, "wrote": 2626, "thriller": 10874, "##\u03c8": 29738, "##\u301c": 30171, "spent": 2985, "##llin": 21202, "penetrating": 22391, "culture": 3226, "##ative": 8082, "tall": 4206, "dollars": 6363, "1610": 25800, "regina": 12512, "palo": 24326, "little": 2210, "survival": 7691, "commit": 10797, "##!": 29612, "illuminating": 27816, "\u6751": 1878, "boulders": 22177, "balance": 5703, "maori": 12600, "cale": 21854, "ultimatum": 29227, "[unused88]": 89, "following": 2206, "airship": 27636, "evolve": 19852, "jasper": 14791, "##rna": 12789, "##ules": 16308, "director": 2472, "\u2113": 1577, "delivery": 6959, "seth": 6662, "##hini": 20535, "biographies": 22056, "gag": 18201, "lan": 17595, "fundamentally": 24670, "wong": 11789, "##aman": 23093, "ian": 4775, "keeps": 7906, "memphis": 9774, "singled": 25369, "rex": 10151, "answering": 10739, "##rator": 16259, "ideological": 17859, "##pre": 28139, "tend": 7166, "tapped": 10410, "evacuated": 13377, "skyla": 21738, "##roller": 26611, "1659": 28288, "analysts": 18288, "saber": 25653, "falcons": 14929, "conjecture": 22647, "flowed": 13230, "compliance": 12646, "rouse": 27384, "hornet": 26795, "moth": 5820, "restaurant": 4825, "enroll": 25612, "##ders": 13375, "followers": 8771, "performed": 2864, "##\u1107": 29996, "graf": 22160, "cloak": 11965, "condoms": 29094, "\u8a01": 1949, "algae": 18670, "rivals": 9169, "guarded": 13802, "entrusted": 18011, "philharmonic": 12355, "enlist": 28845, "growls": 27825, "photographed": 16164, "siding": 17326, "lakes": 6597, "distributor": 16632, "equations": 11380, "unsure": 12422, "##nds": 18376, "smiley": 27420, "lanes": 10914, "conferences": 9281, "bothered": 11250, "##ogo": 22844, "botanist": 17098, "estimation": 24155, "jeep": 14007, "##\u8449": 30469, "errors": 10697, "limp": 14401, "##fed": 25031, "commodities": 21955, "740": 25833, "horned": 26808, "##\u0458": 29761, "unpleasant": 16010, "natasha": 17399, "##haya": 26115, "universidad": 16501, "##nnis": 27803, "sect": 17831, "futures": 17795, "associated": 3378, "##loid": 27710, "[unused921]": 926, "##tained": 28055, "\u20a9": 1573, "stirling": 15597, "revisions": 24699, "horse": 3586, "[unused499]": 504, "sculptor": 10160, "[unused805]": 810, "##oni": 10698, "blaze": 15347, "blanchard": 26870, "extreme": 6034, "##\u03c7": 29737, "employer": 11194, "fuse": 19976, "##yk": 15922, "legally": 10142, "goth": 25976, "##edging": 28002, "pius": 14363, "correspond": 17254, "surf": 14175, "hana": 26048, "sites": 4573, "[unused794]": 799, "polymers": 27216, "stored": 8250, "##eous": 14769, "revolt": 10073, "majors": 15279, "mysore": 20761, "oriented": 8048, "[unused379]": 384, "punishments": 29115, "\u6c11": 1892, "saturated": 23489, "1921": 4885, "brigadier": 9900, "##hire": 20908, "rain": 4542, "assaults": 22664, "commando": 15054, "bothering": 17067, "lahore": 15036, "cleveland": 6044, "bounded": 10351, "julio": 15090, "secondly": 16378, "candles": 14006, "wiltshire": 17045, "[unused751]": 756, "##wall": 9628, "dharma": 20669, "3rd": 3822, "pens": 25636, "##uary": 24384, "zu": 16950, "##hof": 14586, "binoculars": 29549, "refuge": 9277, "mic": 23025, "\u30f3": 1737, "%": 1003, "hydrogen": 9732, "##\u0bb5": 29930, "##\u05d2": 29790, "##ening": 7406, "\u6797": 1881, "grabs": 13273, "[unused823]": 828, "##pres": 28994, "pumped": 16486, "arsenic": 29596, "mohammed": 12619, "breathing": 5505, "extraordinary": 9313, "##gano": 29451, "retorted": 24056, "tents": 17732, "climatic": 27301, "streets": 4534, "contains": 3397, "recession": 19396, "hosted": 4354, "absorption": 16326, "contract": 3206, "releases": 7085, "instrument": 6602, "fucked": 21746, "softly": 5238, "[unused779]": 784, "lieu": 22470, "reelection": 17648, "famously": 18172, "dramas": 16547, "dc": 5887, "\u0563": 1221, "205": 16327, "christians": 8135, "ceremonial": 12961, "##rating": 15172, "##ill": 8591, "ghosts": 11277, "\u5fc3": 1849, "hind": 17666, "armored": 10612, "elliot": 11759, "hurley": 25124, "##rcus": 29006, "convergence": 19143, "projected": 11310, "vantage": 27274, "bartholomew": 19866, "ideas": 4784, "heat": 3684, "panicked": 16035, "##ettes": 26592, "1820": 11102, "93": 6109, "squire": 21263, "quickly": 2855, "preacher": 14512, "##\u10d0": 29974, "members": 2372, "forgetting": 17693, "aces": 20232, "comte": 19758, "hack": 20578, "##haling": 23896, "abstracts": 29474, "solving": 13729, "pre": 3653, "##irus": 26013, "##llation": 20382, "supporter": 10129, "navarro": 23524, "1762": 20827, "hamid": 24811, "sequencing": 24558, "died": 2351, "##shi": 6182, "ruins": 8435, "nearing": 23454, "##uate": 20598, "cause": 3426, "print": 6140, "seaman": 21626, "##chment": 22729, "nelson": 5912, "portrait": 6533, "hospital": 2902, "osborne": 16732, "expressive": 22570, "bundled": 24378, "biomass": 28148, "[unused95]": 96, "programs": 3454, "##page": 13704, "##\u09b7": 29911, "jungle": 8894, "commandos": 25144, "##orra": 24285, "meiji": 23214, "##note": 22074, "valkyrie": 26696, "\u2078": 1542, "\u00b7": 1087, "mail": 5653, "grasses": 21620, "alfredo": 19423, "##ise": 5562, "##oping": 17686, "dani": 19522, "maha": 24404, "rejects": 19164, "thrusts": 25842, "##\u7248": 30433, "will": 2097, "statistical": 7778, "sergey": 22703, "representations": 15066, "image": 3746, "orbit": 8753, "indonesian": 9003, "##tos": 13122, "faculty": 4513, "commercially": 11088, "creaked": 28068, "continued": 2506, "dayton": 14700, "meals": 12278, "experiments": 7885, "successively": 24288, "narayan": 24331, "socket": 22278, "transgender": 16824, "amulet": 25087, "oriental": 11481, "fed": 7349, "graduated": 3852, "\u026a": 1119, "[unused722]": 727, "unification": 16905, "orderly": 23589, "pilgrimage": 14741, "bathroom": 5723, "ck": 23616, "\u98a8": 1977, "##olin": 18861, "##omy": 16940, "overtook": 28920, "herbert": 7253, "harvest": 11203, "pasadena": 18880, "aquitaine": 24973, "quincy": 16141, "consume": 16678, "lydia": 14076, "varieties": 9903, "##\u02b2": 29707, "##ices": 23522, "above": 2682, "##isches": 27239, "\u30d5": 1720, "soaring": 23990, "zane": 6944, "holes": 8198, "oath": 11292, "originates": 16896, "skins": 21049, "dar": 18243, "attribute": 17961, "abandon": 10824, "wah": 22894, "exit": 6164, "##hd": 14945, "raphael": 12551, "##ins": 7076, "780": 28601, "swords": 10689, "haley": 16624, "##diment": 21341, "##rco": 29566, "routine": 9410, "stability": 9211, "take": 2202, "derby": 7350, "muhammad": 7187, "staunch": 26355, "[unused580]": 585, "##gie": 11239, "skyline": 21343, "salvatore": 17485, "##ties": 7368, "turbo": 15386, "1945": 3386, "misery": 14624, "combat": 4337, "manager": 3208, "resources": 4219, "electro": 16175, "nap": 18996, "overgrown": 26433, "delicious": 12090, "##ash": 11823, "prick": 24858, "scented": 25738, "graph": 10629, "vidal": 29259, "judah": 23022, "cong": 26478, "belong": 7141, "chemical": 5072, "fantastic": 10392, "##k": 2243, "dinner": 4596, "##oin": 28765, "[unused628]": 633, "##anto": 21634, "[unused36]": 37, "davis": 4482, "fen": 21713, "\u2297": 1613, "##sche": 22842, "##ttle": 26328, "till": 6229, "1789": 13739, "strides": 22215, "neil": 6606, "anxious": 11480, "occurs": 5158, "daniel": 3817, "jp": 16545, "writes": 7009, "lost": 2439, "##weig": 27204, "craving": 26369, "topical": 25665, "legends": 9489, "bids": 20723, "mansion": 7330, "accelerate": 23306, "usable": 24013, "widened": 8723, "bureaucracy": 25934, "pedro": 7707, "imaginative": 28575, "necessitated": 29611, "hyundai": 25983, "##lift": 18412, "maps": 7341, "##swell": 19228, "##hl": 7317, "scarlet": 11862, "gaunt": 27534, "debts": 13930, "glances": 13021, "##lty": 24228, "ina": 27118, "##cote": 19800, "lester": 14131, "backing": 5150, "patent": 7353, "[unused446]": 451, "fairfield": 18986, "analog": 11698, "ryu": 19367, "ronin": 29249, "pouch": 21445, "bat": 7151, "cinematographer": 19245, "trois": 25527, "designate": 24414, "mature": 9677, "ventures": 13252, "conserve": 27749, "inquiry": 9934, "##rne": 12119, "exceeds": 23651, "\u3051": 1654, "drafted": 7462, "##21": 17465, "chop": 24494, "wipe": 13387, "runways": 24578, "descends": 23328, "##bain": 29148, "discourse": 15152, "[unused513]": 518, "gothenburg": 22836, "aftermath": 10530, "deformation": 29130, "downfall": 22252, "strangled": 21384, "crates": 27619, "hardship": 26479, "logged": 26618, "reeves": 17891, "resource": 7692, "championships": 3219, "facilitating": 25505, "freelance": 15919, "playoffs": 7555, "puppy": 17022, "##\u00b2": 10701, "bonding": 19882, "restricted": 7775, "accessible": 7801, "hussain": 20093, "##ntine": 26730, "prescription": 20422, "helicopter": 7739, "##yat": 26139, "##\u5dff": 30363, "piloted": 27220, "printing": 8021, "##oza": 25036, "valle": 20171, "networks": 6125, "generals": 11593, "point": 2391, "\u0dbd": 1406, "chilled": 23362, "##rth": 15265, "##tou": 24826, "[unused71]": 72, "lesser": 8276, "putnam": 20230, "tunnels": 10633, "avid": 18568, "briefing": 27918, "skills": 4813, "attended": 3230, "omar": 13192, "##escu": 19434, "[unused961]": 966, "##hore": 16892, "prefers": 19233, "manufacture": 9922, "##riz": 21885, "##erin": 23282, "beijing": 7211, "upbeat": 27999, "1618": 29029, "##ignon": 24796, "##astic": 20875, "##tino": 25690, "sutra": 26567, "exhibiting": 22922, "##working": 21398, "visuals": 26749, "##tt": 4779, "winchester": 12841, "thereafter": 6920, "##\u063a": 29831, "1812": 9842, "agricultural": 4910, "empire": 3400, "1603": 25625, "api": 17928, "1839": 10011, "[unused395]": 400, "tank": 4951, "fran": 23151, "293": 26953, "##agger": 27609, "sweating": 18972, "##mart": 22345, "##americana": 27026, "norma": 20692, "dona": 24260, "exceeded": 14872, "smacked": 19203, "1662": 25909, "stress": 6911, "investing": 19920, "fluttering": 25001, "animator": 25132, "proceeding": 18207, "nationally": 9582, "skeleton": 13526, "progression": 14967, "##rt": 5339, "hairy": 15892, "##stle": 22516, "whereabouts": 18913, "vigorous": 21813, "distorted": 19112, "saudi": 8174, "handgun": 28497, "flashing": 12659, "virtual": 7484, "arose": 10375, "countered": 17970, "[unused620]": 625, "[unused248]": 253, "competitive": 6975, "grumbled": 17030, "grimace": 25898, "trajectory": 22793, "clashes": 17783, "[unused301]": 306, "[unused476]": 481, "slightly": 3621, "\u10e1": 1452, "dub": 12931, "##fighting": 22158, "1970s": 3955, "dangerously": 20754, "##ith": 8939, "arching": 27335, "algebra": 11208, "hive": 26736, "philanthropic": 25321, "golf": 5439, "haul": 14655, "\u092e": 1331, "##swick": 27720, "292": 25797, "kai": 11928, "##elis": 29282, "vegas": 7136, "submarines": 12622, "murphy": 7104, "great": 2307, "heron": 22914, "knew": 2354, "##val": 10175, "sevens": 19463, "##ways": 14035, "##ell": 5349, "mandarin": 15831, "##ayan": 25868, "ridiculous": 9951, "vegetables": 11546, "##rix": 17682, "barked": 17554, "relational": 28771, "ci": 25022, "napkin": 20619, "##illa": 9386, "##planes": 26634, "superiority": 19113, "[unused483]": 488, "alloys": 28655, "##zers": 16750, "babylonian": 26990, "##arns": 23549, "specify": 20648, "causes": 5320, "favourable": 18731, "louisiana": 5773, "\u0281": 1128, "aloud": 12575, "disappearance": 13406, "##\u00b0": 7737, "rye": 20926, "121": 12606, "spruce": 19893, "fuller": 12548, "willow": 11940, "##\u30e3": 30254, "thousands": 5190, "interlude": 25347, "urine": 17996, "adversary": 27248, "steelers": 15280, "volleyball": 7454, "##nitz": 22792, "traveling": 7118, "saxony": 13019, "[unused555]": 560, "portage": 25140, "##drick": 24092, "##zine": 21254, "pajamas": 27621, "recipients": 15991, "apes": 27754, "esa": 28776, "sino": 19432, "western": 2530, "lovers": 10205, "tokugawa": 22065, "[unused92]": 93, "190": 11827, "480": 17295, "virgil": 17270, "##\u672c": 30402, "jakarta": 14426, "redwood": 27552, "##park": 14432, "eastbound": 24773, "[unused497]": 502, "drunken": 15967, "42": 4413, "trinity": 7124, "bumps": 18548, "22": 2570, "mountains": 4020, "founding": 4889, "cries": 12842, "fulfilled": 16829, "hungarian": 5588, "schuster": 24253, "remixes": 15193, "iraqi": 8956, "patrons": 13497, "##tow": 18790, "demons": 7942, "built": 2328, "##ign": 23773, "fingerprints": 27556, "subject": 3395, "kitten": 18401, "##chuk": 26516, "##una": 9521, "shepherd": 11133, "abs": 14689, "##horpe": 22044, "[unused986]": 991, "riding": 5559, "pastures": 24813, "flea": 26735, "deterioration": 26118, "gibraltar": 12272, "##nte": 10111, "chi": 9610, "\u4e8b": 1751, "##eh": 11106, "dismissal": 15322, "smashwords": 25151, "terminus": 7342, "\u1019": 1437, "kingdoms": 12028, "friction": 15012, "stokes": 18716, "##base": 15058, "##tine": 10196, "##grove": 21525, "leningrad": 15930, "rams": 13456, "bakery": 18112, "claus": 19118, "[unused320]": 325, "aggression": 14974, "pursue": 7323, "elf": 17163, "founder": 3910, "zack": 13658, "##7": 2581, "216": 20294, "obligations": 14422, "flawed": 25077, "affordable": 15184, "thistle": 24328, "maintaining": 8498, "##hus": 9825, "smallest": 10479, "minors": 18464, "ethnicity": 18240, "1818": 12094, "identify": 6709, "susceptible": 18002, "by": 2011, "screen": 3898, "chores": 27091, "plumage": 28764, "corrupt": 13593, "gilbert": 7664, "##fying": 14116, "##joy": 24793, "headlined": 25214, "decorations": 14529, "prussian": 10734, "competed": 3879, "clad": 13681, "redevelopment": 15582, "[unused795]": 800, "tibetan": 11953, "seriously": 5667, "editors": 10195, "[unused632]": 637, "meaning": 3574, "[unused138]": 143, "barely": 4510, "regulating": 21575, "stab": 17079, "##ldon": 19932, "[unused386]": 391, "##itate": 17570, "texts": 6981, "##fra": 27843, "##tangle": 23395, "##tain": 18249, "melodies": 16106, "flap": 20916, "inverse": 19262, "notices": 14444, "[unused159]": 164, "stefano": 19618, "##nais": 28020, "trembling": 10226, "##\u0570": 29775, "verde": 16184, "instead": 2612, "comment": 7615, "##xy": 18037, "convent": 10664, "##tee": 17389, "##llen": 12179, "eminent": 14953, "gripping": 13940, "animals": 4176, "burrows": 22009, "indianapolis": 9506, "embracing": 23581, "passions": 25289, "commemorated": 19131, "bite": 6805, "olaf": 20514, "sorrow": 14038, "[unused838]": 843, "gifford": 29360, "consequently": 8821, "pure": 5760, "cellar": 15423, "##\u05e8": 29811, "suburbs": 9435, "barclay": 23724, "concessions": 20638, "assembly": 3320, "[unused660]": 665, "mushrooms": 23827, "ross": 5811, "oh": 2821, "##nne": 10087, "cyclist": 14199, "orchard": 15623, "##case": 18382, "howard": 4922, "arbitration": 18010, "[unused673]": 678, "insurgents": 20541, "beam": 7504, "yielded": 17544, "noted": 3264, "centuries": 4693, "token": 19204, "genetically": 19345, "grammar": 8035, "redesignated": 11836, "##\u2227": 30129, "basal": 15191, "[unused83]": 84, "boutique": 24611, "seeks": 11014, "##ct": 6593, "slang": 21435, "uc": 15384, "emptiness": 23397, "spaniards": 20999, "explores": 15102, "felicia": 27579, "##\u10db": 29984, "##des": 6155, "1769": 20663, "1b": 26314, "monte": 10125, "unmarked": 25779, "compartment": 15273, "##arth": 22425, "endowment": 15108, "##eda": 11960, "mafia": 13897, "mounds": 19503, "chaos": 8488, "##hosis": 25229, "enjoying": 9107, "volume": 3872, "subtropical": 11935, "##gel": 12439, "##lor": 10626, "[unused977]": 982, "fund": 4636, "pba": 21563, "devotion": 13347, "inflicted": 17303, "berlin": 4068, "forensic": 15359, "amman": 25703, "averaging": 14985, "developmental": 13908, "mendoza": 18021, "dedication": 12276, "emmanuel": 14459, "quintet": 18109, "smallpox": 25765, "peculiar": 14099, "##tad": 17713, "supplemental": 27024, "webb": 10923, "##lke": 28143, "tides": 22487, "##load": 11066, "monk": 8284, "railway": 2737, "babu": 20948, "tenth": 7891, "##wn": 7962, "featherweight": 27145, "##udes": 22087, "poppy": 19745, "hayward": 21506, "\u00b0": 1080, "jude": 12582, "##monium": 26387, "##terol": 27833, "vineyards": 20597, "##\u2c7c": 30157, "studios": 4835, "stiffened": 16090, "##tale": 22059, "coa": 28155, "clutched": 13514, "imp": 17727, "overwhelmed": 13394, "\u662d": 1868, "seo": 27457, "prep": 17463, "##\u5f8c": 30372, "##ander": 12243, "\u308c": 1688, "literally": 6719, "revenues": 12594, "hydra": 26018, "wake": 5256, "17": 2459, "279": 25745, "lange": 21395, "##dder": 20791, "surgery": 5970, "rampage": 29216, "##ament": 24996, "alpine": 10348, "97": 5989, "plain": 5810, "##lev": 20414, "imperial": 4461, "patting": 26085, "ferrer": 28390, "frs": 25188, "goodman": 14514, "[unused820]": 825, "##\u043a\u0430": 28598, "kicking": 10209, "decor": 25545, "constituents": 24355, "wandering": 13071, "hepburn": 22004, "powell": 8997, "household": 4398, "superfamily": 24169, "##iot": 25185, "timothy": 10805, "kylie": 9008, "toby": 11291, "medicines": 20233, "##isk": 20573, "adapted": 5967, "reached": 2584, "##\u30ef": 30262, "repertory": 21099, "dare": 8108, "##orio": 27416, "coal": 5317, "smelling": 19773, "gina": 17508, "##nsen": 29428, "##lis": 6856, "oval": 9242, "rudolph": 18466, "processor": 13151, "furlongs": 26602, "pg": 18720, "1859": 8165, "##bad": 9024, "doctoral": 11316, "carson": 9806, "brentford": 26550, "sar": 18906, "liquid": 6381, "settled": 3876, "alfred": 6152, "sockets": 27540, "[unused742]": 747, "confess": 18766, "##dez": 24601, "cooking": 8434, "confirm": 12210, "subdivisions": 22095, "##ikh": 28209, "##able": 3085, "standards": 4781, "bulky": 27446, "depicting": 10775, "92": 6227, "blushing": 25771, "ascot": 29036, "\u00a32": 21853, "birds": 5055, "##hesion": 21471, "\u2193": 1586, "##\u30bb": 30234, "##jhl": 29001, "detector": 19034, "##gam": 22864, "##20": 11387, "philosopher": 9667, "harald": 20966, "##hot": 12326, "skimmed": 28862, "challenging": 10368, "plymouth": 10221, "tai": 13843, "princes": 12000, "sectors": 11105, "[unused763]": 768, "mortimer": 17416, "volga": 26459, "lemon": 14380, "weather": 4633, "federico": 20493, "prove": 6011, "fists": 10006, "##bee": 11306, "mobilization": 25580, "\u3084": 1682, "kappa": 16000, "9th": 6280, "battery": 6046, "ears": 5551, "318": 27003, "tapes": 13324, "irregularities": 28868, "[unused298]": 303, "##\u043b": 29436, "creators": 17277, "##ings": 8613, "gulped": 25411, "qualifications": 15644, "lattice": 17779, "intends": 18754, "humor": 8562, "sweeps": 26981, "##fles": 28331, "kurt": 9679, "assessment": 7667, "##tly": 14626, "embroidery": 29507, "wanderers": 14237, "yielding": 21336, "ventura": 21151, "##rice": 17599, "##igan": 10762, "teenager": 10563, "##\u5f73": 30371, "coloured": 11401, "reared": 23295, "failures": 15428, "##hli": 27766, "[unused420]": 425, "ufc": 11966, "accusation": 19238, "belgrade": 10291, "[unused276]": 281, "\u0986": 1348, "auf": 21200, "sarawak": 21546, "coke": 14492, "bout": 10094, "gangster": 20067, "##ella": 8411, "bullet": 7960, "reservoir": 8071, "ordered": 3641, "comune": 21130, "##boats": 19468, "compensated": 29258, "##gles": 17125, "cruisers": 16722, "tasks": 8518, "elevator": 7764, "##\u9580": 30494, "##slow": 26338, "pitches": 19299, "ramsey": 15092, "demonstration": 10467, "ineffective": 20694, "tug": 12888, "hiram": 27410, "##\u222a": 30132, "##hom": 23393, "le": 3393, "##rae": 16652, "pile": 8632, "abraham": 8181, "transformations": 21865, "##ova": 7103, "dreams": 5544, "continuing": 5719, "expenditures": 22697, "exchanged": 10573, "hum": 14910, "waistband": 27553, "shipbuilding": 16802, "thigh": 10120, "oman": 16640, "cites": 17248, "spaceship": 25516, "andre": 7213, "[unused165]": 170, "wednesday": 9317, "weddings": 20429, "gambia": 26728, "##ient": 11638, "examines": 20798, "excessive": 11664, "penguins": 18134, "traced": 9551, "isolation": 12477, "217": 20335, "gleam": 24693, "[unused542]": 547, "##vn": 16022, "avalanche": 18846, "sabah": 22515, "librarian": 13850, "kanye": 29270, "together": 2362, "[unused196]": 201, "04": 5840, "prasad": 17476, "regarded": 5240, "corresponded": 27601, "##may": 27871, "##routed": 25849, "395": 24673, "rolled": 4565, "na": 6583, "##a1": 27717, "relatively": 4659, "wagon": 9540, "##jas": 17386, "hardy": 9532, "gust": 26903, "tiffany": 14381, "highest": 3284, "##\u03c9": 29739, "##eter": 15141, "akbar": 20730, "depleted": 22595, "nrhp": 22424, "visible": 5710, "silhouette": 21776, "creeping": 18266, "gazed": 11114, "[unused541]": 546, "##dal": 9305, "lord": 2935, "o": 1051, "##lver": 26229, "1808": 13040, "tell": 2425, "[unused595]": 600, "costumes": 12703, "##opus": 24676, "##tula": 28970, "harriet": 14207, "ca": 6187, "collins": 6868, "[unused545]": 550, "t": 1056, "server": 8241, "##nac": 18357, "isolate": 27152, "00pm": 27995, "bazaar": 22774, "plantations": 14979, "soccer": 4715, "wholly": 12590, "reside": 13960, "awareness": 7073, "crystalline": 24628, "seizure": 18634, "rematch": 18229, "##tagram": 23091, "\u3059": 1658, "refugee": 13141, "stern": 8665, "[unused21]": 22, "warp": 24136, "tone": 4309, "\u2605": 1620, "annabelle": 24722, "poverty": 5635, "elected": 2700, "signatures": 16442, "arboretum": 25197, "[unused462]": 467, "strengthened": 13949, "lin": 11409, "widening": 17973, "##\u3088": 30210, "[unused504]": 509, "search": 3945, "##buch": 25987, "\u00a1": 1067, "##itan": 25451, "\u82b1": 1940, "recaptured": 23838, "##mount": 20048, "##ddled": 28090, "##code": 16044, "woo": 15854, "italians": 16773, "##izer": 17629, "saw": 2387, "melbourne": 4940, "superstar": 18795, "maximal": 29160, "care": 2729, "nostalgia": 26968, "##ostal": 29381, "coleman": 11608, "\u20a4": 1572, "muted": 22124, "lang": 11374, "deteriorating": 28440, "##bby": 14075, "##plicity": 27293, "practitioner": 18742, "haydn": 25595, "squat": 26783, "represented": 3421, "diagonal": 19754, "honorary": 5756, "2000s": 8876, "##rona": 26788, "unrest": 16591, "pune": 16920, "nm": 13221, "merton": 28169, "##ying": 14147, "jamie": 6175, "status": 3570, "houghton": 21234, "##icated": 17872, "christi": 21359, "mohammad": 12050, "\u2022": 1528, "##\u98a8": 30503, "\u0282": 1129, "deliberately": 9969, "lured": 26673, "prof": 11268, "[unused777]": 782, "\u53f8": 1791, "happen": 4148, "acknowledge": 13399, "http": 8299, "assembled": 9240, "poster": 13082, "wet": 4954, "##titled": 21309, "bill": 3021, "robbie": 12289, "clawed": 22544, "brat": 28557, "74": 6356, "wharton": 24249, "steaming": 19986, "beasts": 15109, "##56": 26976, "##saurus": 22244, "arya": 26140, "1974": 3326, "kitchener": 27154, "bhutan": 18768, "eds": 11985, "##gm": 21693, "argyle": 26503, "\u00b5": 1085, "##tat": 29336, "dancers": 10487, "adviser": 11747, "[unused150]": 155, "bodies": 4230, "downward": 14047, "functioned": 20903, "##scope": 26127, "\u0bb3": 1393, "##ogical": 20734, "pilasters": 26752, "##tling": 15073, "##\u201a": 30057, "sunshine": 9609, "##je": 6460, "calculate": 18422, "ships": 3719, "calder": 19347, "unanimously": 15645, "##eche": 27635, "sitcom": 13130, "sydney": 3994, "prayers": 12583, "outburst": 27719, "##yev": 17240, "conversions": 25834, "chaplain": 14011, "haunted": 11171, "primate": 25662, "surrounding": 4193, "hooves": 28399, "##ulsion": 23316, "emotionally": 14868, "analysis": 4106, "##taro": 28160, "##mun": 23041, "\u4e09": 1741, "clash": 13249, "disputes": 11936, "therapeutic": 17261, "history": 2381, "negatively": 19762, "177": 18118, "##rize": 25709, "##ering": 7999, "appreciation": 12284, "##guard": 18405, "[unused176]": 181, "argus": 25294, "##pressive": 27484, "[unused423]": 428, "jonny": 26937, "fulbright": 26695, "kettle": 22421, "identical": 7235, "suicide": 5920, "##lash": 27067, "han": 7658, "engages": 24255, "violation": 11371, "whispers": 11054, "[unused682]": 687, "signaling": 14828, "institutions": 4896, "directorate": 13634, "slight": 7263, "proliferation": 20250, "commercials": 12698, "21": 2538, "##horn": 9769, "stunned": 9860, "crushed": 10560, "bytes": 27507, "hollywood": 5365, "skilled": 10571, "watch": 3422, "geoff": 14915, "##rem": 28578, "candy": 9485, "featured": 2956, "chess": 7433, "rebirth": 22785, "##crats": 23423, "almost": 2471, "wealth": 7177, "\u2286": 1611, "kannada": 13873, "inclusive": 18678, "\u5ca1": 1832, "mort": 22294, "ala": 21862, "finals": 4399, "benjamin": 6425, "applying": 11243, "ports": 8831, "loser": 10916, "alternately": 23554, "technique": 6028, "reborn": 24910, "devotees": 22707, "##57": 28311, "331": 27533, "towns": 4865, "##\u6728": 30401, "##outh": 17167, "architecture": 4294, "dim": 11737, "groove": 14100, "passports": 19494, "seeking": 6224, "faber": 21720, "tickets": 9735, "forearms": 27323, "essay": 9491, "mining": 5471, "partridge": 26079, "babylon": 17690, "##dded": 19520, "responsive": 26651, "goa": 15244, "hellenic": 23122, "stars": 3340, "reused": 26513, "flared": 14937, "uncover": 26944, "bum": 26352, "##ici": 28775, "\u00bb": 1090, "whitehead": 23257, "hancock": 13849, "##oration": 21223, "achilles": 23167, "california": 2662, "parasitic": 26045, "bengal": 8191, "communists": 13009, "herds": 28822, "absorbed": 9063, "##sul": 23722, "##ota": 17287, "quarterback": 9074, "##\u30e0": 30251, "[unused392]": 397, "eduardo": 14846, "##rner": 18703, "ana": 9617, "saul": 16897, "thank": 4067, "\u0153": 1107, "adventist": 25696, "tenderness": 24605, "pride": 6620, "staffed": 21121, "sikhs": 26697, "rome": 4199, "variant": 8349, "initially": 3322, "##\u093f": 29877, "reluctant": 11542, "##eles": 26741, "285": 21777, "clothes": 4253, "spears": 13957, "##rrell": 14069, "multimedia": 14959, "assuming": 10262, "kristen": 22435, "##dler": 21222, "hoarse": 21221, "recovery": 7233, "themed": 11773, "pornography": 19378, "ep": 4958, "##idon": 28201, "tanaka": 21829, "deeper": 6748, "senators": 10153, "##zuka": 22968, "damien": 12587, "doctrines": 23252, "##resh": 21898, "sentence": 6251, "[unused33]": 34, "bared": 23485, "transfers": 15210, "##wg": 27767, "knives": 13227, "peacock": 18931, "##ding": 4667, "allegheny": 21192, "miami": 5631, "seafood": 23621, "##feit": 21156, "[unused258]": 263, "##ppe": 21512, "gorgeous": 9882, "kids": 4268, "\u116f": 1479, "infectious": 16514, "whispering": 13550, "bosch": 25936, "captains": 15755, "coward": 16592, "[unused133]": 138, "dina": 26146, "br": 7987, "siemens": 22108, "soloists": 27516, "sas": 21871, "stakes": 7533, "4th": 4343, "##z": 2480, "france": 2605, "army": 2390, "##\u9053": 30483, "##\u0142": 18818, "##itude": 18679, "terribly": 16668, "steppe": 29096, "sarcastic": 22473, "colonists": 15526, "barrier": 8803, "chair": 3242, "major": 2350, "spells": 11750, "az": 17207, "sands": 13457, "successor": 6332, "[unused837]": 842, "jammu": 21433, "restrain": 28467, "mistakes": 12051, "infused": 29592, "samples": 8168, "principles": 6481, "\u301c": 1645, "witnesses": 9390, "##ailing": 29544, "##lett": 20897, "[unused50]": 51, "increasingly": 6233, "upside": 14961, "long": 2146, "##\u10e3": 29990, "unlimited": 14668, "##ciation": 23247, "stumble": 21811, "activity": 4023, "foul": 12487, "gunner": 14850, "##jal": 25787, "ledge": 18283, "hostess": 22566, "terminating": 23552, "ready": 3201, "facebook": 9130, "##\u7acb": 30457, "martin": 3235, "##craft": 10419, "\u20b9": 1576, "roy": 6060, "sheen": 20682, "rees": 22131, "comprising": 9605, "lynx": 22636, "##entation": 19304, "forerunner": 23993, "notice": 5060, "epstein": 26646, "cinder": 29399, "\u0906": 1312, "woman": 2450, "1967": 3476, "dams": 17278, "##\u05e5": 29808, "november": 2281, "coupled": 11211, "rfc": 14645, "weaving": 15360, "protocols": 16744, "##\u3066": 30191, "plucked": 20780, "nomination": 6488, "tones": 12623, "duncan": 7343, "##\u5742": 30329, "horrible": 9202, "reproductive": 15124, "nor": 4496, "unemployment": 12163, "equatorial": 21333, "germanic": 15139, "54th": 29570, "reporter": 6398, "issues": 3314, "##evsky": 27015, "mixed": 3816, "spade": 23288, "conquered": 11438, "worms": 16253, "[unused87]": 88, "encircled": 25759, "zheng": 20985, "loch": 14941, "bethel": 19375, "##\u0964": 29880, "gods": 5932, "filtered": 21839, "heights": 7535, "lyons": 16642, "housemates": 28152, "##tera": 14621, "ike": 25209, "documenting": 23138, "roasted": 28115, "1086": 28196, "bikini": 20345, "beat": 3786, "\u30ad": 1701, "lean": 8155, "##sta": 9153, "mob": 11240, "napier": 21320, "represents": 5836, "layne": 22452, "hope": 3246, "compassionate": 29353, "fry": 14744, "drilled": 24311, "[unused710]": 715, "##hs": 7898, "review": 3319, "grips": 24758, "##ara": 5400, "##\ufb01": 30510, "\u1111": 1468, "lisbon": 11929, "girlfriend": 6513, "\u6210": 1854, "splits": 19584, "sugarcane": 28910, "sutton": 11175, "anyone": 3087, "##mur": 20136, "outstretched": 21059, "##rin": 6657, "owning": 19273, "##ode": 10244, "fungal": 28079, "exhaustion": 15575, "croft": 28983, "ee": 25212, "1703": 28366, "##llo": 7174, "backlash": 25748, "christoph": 21428, "##unce": 17457, "##\u4e45": 30274, "adolph": 28564, "##ifies": 14144, "tower": 3578, "dent": 21418, "ponce": 21085, "##ier": 3771, "lois": 15815, "drill": 12913, "##ffle": 18142, "memo": 24443, "##itaire": 29422, "nowadays": 13367, "[unused683]": 688, "##\u2075": 30074, "sensitivity": 14639, "fates": 26417, "isabel": 11648, "chaplin": 23331, "##rrick": 24999, "stabilized": 27697, "26th": 14935, "[unused877]": 882, "##ison": 10929, "thy": 15177, "middlesex": 13654, "sporting": 7419, "finest": 10418, "nigeria": 7387, "camera": 4950, "salad": 16521, "away": 2185, "beirut": 15335, "shortlisted": 21353, "fk": 14352, "nobel": 10501, "aerospace": 13395, "orleans": 5979, "savage": 9576, "chin": 5413, "\u0e17": 1412, "concepts": 8474, "##rta": 13320, "trials": 7012, "kendra": 13812, "regulator": 21618, "##uls": 28426, "liberties": 18271, "meets": 6010, "##pani": 26569, "##eson": 21421, "[unused842]": 847, "looked": 2246, "##cles": 18954, "##ivist": 21997, "##vera": 26061, "##\u4e00": 30266, "heroic": 14779, "dioceses": 26586, "brighter": 16176, "preserved": 6560, "analyze": 17908, "moffat": 28528, "mechanisms": 10595, "\u30b1": 1703, "##hta": 22893, "bukit": 29007, "europeans": 13481, "\u203f": 1534, "lough": 29504, "zeke": 18270, "babe": 11561, "payload": 18093, "mindanao": 23669, "surprisingly": 10889, "octagonal": 22340, "shone": 14707, "##yang": 12198, "owing": 11427, "squirrels": 29384, "leeds": 7873, "##tus": 5809, "racehorse": 25068, "paradox": 20506, "##zio": 12426, "254": 22234, "window": 3332, "neighbours": 14754, "orders": 4449, "betrayal": 14583, "clyde": 12085, "hurling": 10839, "cupped": 13740, "hirsch": 28127, "ae": 29347, "candle": 13541, "morgan": 5253, "nerves": 10627, "##yra": 19563, "jake": 5180, "contractors": 16728, "##ey": 3240, "sustained": 8760, "radioactive": 17669, "##erine": 24226, "[unused556]": 561, "cass": 16220, "[unused608]": 613, "music": 2189, "\u0965": 1345, "optimistic": 21931, "messenger": 11981, "customary": 16120, "headache": 14978, "aux": 19554, "endemic": 7320, "grey": 4462, "elbows": 13690, "[unused876]": 881, "##oxide": 28479, "amused": 11770, "edge": 3341, "mighty": 10478, "relationship": 3276, "110": 7287, "hidalgo": 24715, "claw": 15020, "##ough": 10593, "hawthorne": 23440, "anticipation": 11162, "grave": 6542, "\u6ca2": 1898, "survive": 5788, "jason": 4463, "symmetric": 19490, "patients": 5022, "\u570b": 1800, "property": 3200, "immersed": 26275, "ok": 7929, "tasked": 13487, "jefferson": 7625, "lawn": 10168, "simulator": 25837, "##cene": 17968, "6000": 25961, "guru": 11972, "rey": 12569, "##won": 19291, "lodges": 26767, "favourites": 28271, "bombers": 10544, "editorial": 8368, "##grants": 27444, "gretchen": 21625, "##lce": 23314, "1850s": 16488, "erika": 24900, "discarded": 15105, "##iger": 17071, "waved": 7147, "listening": 5962, "taluka": 29512, "wear": 4929, "appointed": 2805, "internacional": 27607, "drive": 3298, "##founded": 21001, "anatomical": 28141, "##\u1d48": 30034, "dazed": 19720, "exactly": 3599, "##cel": 29109, "##ech": 15937, "monetary": 12194, "andhra": 14065, "cynical": 26881, "silvery": 21666, "lively": 17133, "confederation": 11078, "gymnasium": 11288, "ascribed": 28025, "shortest": 20047, "chapels": 24130, "1718": 26995, "forcibly": 20951, "finds": 4858, "mollusk": 13269, "\u0254": 1112, "involved": 2920, "narrative": 7984, "sewing": 22746, "darlington": 19667, "disguised": 17330, "yearning": 29479, "ages": 5535, "##raya": 29539, "pena": 19409, "##going": 26966, "league": 2223, "leasing": 26707, "proposed": 3818, "##oko": 16366, "nonlinear": 27400, "buttons": 11287, "liner": 11197, "##koff": 26126, "wayne": 6159, "pulled": 2766, "restart": 23818, "oakland": 9182, "contributing": 8020, "pro": 4013, "##\u30fb": 30264, "electronics": 8139, "whichever": 29221, "chelsea": 9295, "##@": 29633, "7": 1021, "accredited": 11459, "functions": 4972, "gates": 6733, "vocabulary": 16188, "maia": 23478, "plane": 4946, "grotesque": 27707, "##kit": 23615, "##kiewicz": 28563, "namesake": 17283, "part": 2112, "gasp": 12008, "reasonable": 9608, "dod": 26489, "##q": 4160, "pittsburgh": 6278, "lo": 8840, "chesapeake": 20867, "angelina": 23847, "government": 2231, "inventions": 21644, "##\u5c07": 30354, "mercenaries": 19331, "swat": 25414, "##nko": 16107, "roses": 10529, "interred": 13917, "algorithms": 13792, "nano": 28991, "##\u3057": 30183, "##\u03b9": 18199, "215": 17405, "pointer": 20884, "##etto": 20082, "##tlement": 24007, "joined": 2587, "appreciated": 12315, "medals": 6665, "instrumental": 6150, "##\u03bd": 16177, "enhancing": 20226, "craig": 7010, "roche": 20162, "##owski": 15249, "##dee": 26095, "\u056f": 1227, "senses": 9456, "doomed": 20076, "drug": 4319, "hacked": 28719, "commissioning": 21612, "[unused839]": 844, "\u30d2": 1719, "latvian": 14698, "modelled": 23364, "[UNK]": 100, "agnes": 11166, "##\u0644": 23673, "##tri": 18886, "##wl": 13668, "empty": 4064, "tactic": 19717, "manchester": 5087, "plurality": 29018, "battleships": 21327, "shields": 11824, "##ty": 3723, "##ctions": 22014, "suspected": 6878, "maverick": 27187, "martyr": 17216, "sided": 11536, "emphasizing": 22671, "refusal": 13948, "fixture": 15083, "semifinals": 8565, "breaker": 24733, "concussion": 23159, "develops": 11791, "zimbabwe": 11399, "unseen": 16100, "##weight": 11179, "pere": 23976, "businessman": 6883, "minus": 15718, "arthur": 4300, "[unused657]": 662, "\u00e6": 1097, "##scopic": 24895, "lindsay": 12110, "1734": 27367, "floors": 8158, "##nstein": 15493, "dea": 26709, "unmarried": 17204, "brewing": 16005, "holdings": 9583, "conversion": 7584, "164": 17943, "broader": 12368, "demolished": 7002, "tobago": 17247, "zoning": 27462, "fury": 8111, "bastion": 26829, "##rmed": 29540, "fabulous": 18783, "della": 8611, "legged": 15817, "creole": 21414, "contain": 5383, "craft": 7477, "dominated": 6817, "inauguration": 17331, "serious": 3809, "berkshire": 15570, "acc": 16222, "##estinal": 19126, "casting": 9179, "1748": 24445, "patrolling": 24248, "darted": 14051, "intellectuals": 17412, "eireann": 29157, "aziz": 21196, "formal": 5337, "##ucci": 16835, "agra": 29542, "##erry": 19826, "[unused113]": 118, "influx": 18050, "wry": 24639, "1st": 3083, "clues": 15774, "comparisons": 18539, "modelling": 19518, "acquire": 9878, "apparent": 6835, "##ics": 6558, "[unused773]": 778, "##tructing": 26310, "##ets": 8454, "mated": 28795, "viola": 10482, "integer": 16109, "38th": 22051, "patel": 20455, "consular": 27326, "rap": 9680, "sane": 22856, "##hang": 18003, "\u91ce": 1963, "persia": 16667, "pun": 26136, "storytelling": 20957, "graphic": 8425, "##lab": 20470, "412": 25873, "##ooped": 20671, "vicki": 25424, "mostly": 3262, "tiberius": 28411, "##cho": 9905, "inventor": 12235, "##erty": 15010, "crooked": 15274, "monique": 26194, "price": 3976, "ventured": 20510, "dresser": 16641, "opposite": 4500, "easton": 21636, "pandora": 19066, "multiplied": 28608, "circulated": 17640, "1749": 24704, "##andra": 29159, "citing": 8951, "##yu": 10513, "kaplan": 22990, "enthusiasm": 12024, "caps": 9700, "destroyers": 13242, "broadcast": 3743, "222": 19015, "augusto": 29085, "both": 2119, "d": 1040, "baron": 5797, "minneapolis": 11334, "prequel": 28280, "semitic": 20604, "photography": 5855, "ibrahim": 13477, "[unused571]": 576, "imposed": 9770, "np": 27937, "co\u2082": 20190, "lowell": 15521, "##imov": 25299, "bbc": 4035, "\u03c2": 1172, "killed": 2730, "go": 2175, "tehsil": 20751, "##\u8033": 30463, "conservation": 5680, "illustrate": 19141, "warwick": 13283, "wryly": 28325, "gamble": 18503, "flatly": 24295, "sanctuary": 8493, "objective": 7863, "informant": 28694, "butcher": 14998, "invest": 15697, "concerns": 5936, "sprint": 9043, "age": 2287, "searing": 25764, "lucas": 6326, "##tas": 10230, "turn": 2735, "freed": 10650, "greta": 26111, "syndication": 26973, "proclaimed": 10116, "pray": 11839, "impacted": 19209, "##ever": 22507, "gospel": 8036, "dynamic": 8790, "hiatus": 14221, "chatter": 24691, "purple": 6379, "princely": 22771, "robyn": 28047, "read": 3191, "cochin": 28982, "gossip": 13761, "##tarian": 28897, "mcdonald": 9383, "cdc": 26629, "##cao": 20808, "##wheel": 22920, "sizable": 25908, "ignacio": 22988, "\u5ba3": 1823, "##\u6d77": 30428, "tender": 8616, "brooke": 11535, "torch": 12723, "330": 14210, "futuristic": 28971, "gentlemen": 11218, "ng": 12835, "catherine": 6615, "guild": 9054, "margaret": 5545, "superintendent": 9133, "[unused230]": 235, "banner": 9484, "london": 2414, "partly": 6576, "arrow": 8612, "imitation": 20017, "howled": 27489, "therapist": 19294, "brussels": 9371, "signing": 6608, "##and": 5685, "prior": 3188, "##mble": 19661, "forwards": 19390, "##mouth": 14359, "##mare": 24376, "##\u10d9": 29982, "dawn": 6440, "##yo": 7677, "[unused114]": 119, "##eric": 22420, "frigate": 15437, "##rion": 14772, "decisions": 6567, "sister": 2905, "observation": 8089, "chanting": 22417, "##lies": 11983, "humane": 23369, "##fb": 26337, "francis": 4557, "gao": 17377, "bartender": 15812, "erosion": 14173, "hammersmith": 28420, "##\u0291": 29703, "##litz": 24725, "##fires": 26332, "providence": 11293, "flesh": 5771, "boulevard": 8459, "196": 20035, "asset": 11412, "##uating": 24133, "russ": 18072, "aesthetics": 20749, "contribution": 6691, "laura": 6874, "##ating": 5844, "mir": 14719, "[unused799]": 804, "[unused45]": 46, "tastes": 16958, "faux": 29276, "campground": 29144, "##ilia": 27861, "interstate": 7553, "##llis": 21711, "aston": 14327, "##skie": 23955, "##kker": 23793, "##\u0142aw": 19704, "winked": 14217, "fault": 6346, "##vc": 25465, "jc": 29175, "nearest": 7205, "##ctric": 22601, "\u2020": 1526, "benz": 17770, "##vu": 19722, "knock": 7324, "##kins": 14322, "exhibits": 10637, "cl": 18856, "cedar": 11354, "baku": 16807, "offences": 18421, "recycled": 22207, "bot": 28516, "caused": 3303, "honours": 8762, "environmentally": 25262, "prone": 13047, "medication": 14667, "##tto": 9284, "contraction": 21963, "elsie": 24603, "analyses": 16478, "##fi": 8873, "expressed": 5228, "##gil": 20142, "##vor": 14550, "##mation": 28649, "person": 2711, "risked": 22374, "##hey": 14844, "safeguard": 28805, "submit": 12040, "internally": 16058, "lunged": 17755, "though": 2295, "imagery": 13425, "peerage": 18760, "zero": 5717, "##\u2248": 30133, "##uil": 19231, "spanned": 18212, "aroused": 18391, "joints": 17651, "inscription": 9315, "clamped": 18597, "##\u05df": 29802, "duchess": 11017, "sd": 17371, "##ffey": 24513, "branches": 5628, "saints": 6586, "antrim": 24142, "satellites": 14549, "seize": 15126, "baskets": 25946, "trench": 14185, "conner": 17639, "ludwig": 10302, "##uit": 14663, "diagnosed": 11441, "##outs": 12166, "mickey": 11021, "##%": 29616, "wien": 22782, "espana": 20678, "##\u03b4": 29722, "flickering": 20046, "##nn": 10695, "variability": 28436, "bleeding": 9524, "conceptual": 17158, "1946": 3918, "##zione": 20574, "322": 23768, "manhattan": 7128, "[unused279]": 284, "hi": 7632, "maddy": 20789, "##ath": 8988, "axis": 8123, "##iated": 15070, "afterward": 9707, "##ah": 4430, "berman": 29482, "metropolitan": 4956, "regan": 16964, "consequence": 9509, "\u539f": 1787, "aviv": 12724, "##th": 2705, "dipping": 23427, "unlike": 4406, "clemson": 25906, "##nto": 13663, "rounding": 26939, "##ttal": 28200, "gallant": 26984, "\u6625": 1867, "reconstruction": 8735, "##sir": 29481, "barry": 6287, "marian": 14042, "drastic": 23956, "remixed": 17574, "cassidy": 13737, "crescent": 13152, "remains": 3464, "progressing": 27673, "##\u624c": 30385, "chronology": 17873, "leonardo": 14720, "trilogy": 11544, "rows": 10281, "futile": 24495, "slated": 18517, "512": 24406, "identifies": 14847, "243": 22884, "\u0433": 1183, "##\u5fb7": 30374, "barney": 15377, "dictator": 21237, "richer": 26108, "truman": 15237, "##\u0dcf": 29944, "gas": 3806, "hearst": 25419, "centimetres": 13935, "##naud": 26160, "1741": 25280, "detached": 12230, "detecting": 25952, "vanilla": 21161, "##nder": 11563, "nanny": 19174, "##tam": 15464, "enactment": 26465, "paired": 12739, "raw": 6315, "melt": 14899, "accent": 9669, "you": 2017, "##dridge": 21482, "paralympics": 15600, "der": 4315, "##da": 2850, "\u30ab": 1700, "announcements": 25674, "terrific": 27547, "bounce": 17523, "mentioning": 18625, "irish": 3493, "metre": 7924, "degraded": 26131, "\u0272": 1123, "[unused578]": 583, "##ount": 21723, "laurel": 11893, "##pper": 18620, "##als": 9777, "serum": 20194, "among": 2426, "corps": 3650, "##\u5c71": 30357, "##dity": 25469, "##xious": 25171, "ipswich": 15435, "##cars": 20745, "##38": 22025, "carmichael": 23537, "gin": 18353, "los": 3050, "reeve": 20726, "reasoned": 24557, "fame": 4476, "smuggling": 19535, "##nier": 14862, "equation": 8522, "520": 19611, "##\u09a6": 29900, "malicious": 24391, "correctly": 11178, "edouard": 21627, "indicates": 7127, "roommate": 18328, "##hop": 18471, "eki": 23174, "blooded": 26064, "405": 23988, "corbett": 24119, "exceptions": 11790, "perimeter": 13443, "artwork": 8266, "bolted": 18088, "slumped": 14319, "##\u05ea": 29813, "##9": 2683, "trucks": 9322, "colorful": 14231, "croydon": 21838, "thump": 21324, "##krishna": 23017, "walled": 17692, "fortifications": 14507, "lucien": 11732, "launch": 4888, "sharp": 4629, "trent": 7990, "freaking": 13847, "##mmer": 15810, "escorts": 24877, "##building": 25820, "sighting": 29426, "glee": 18874, "cornish": 17797, "despised": 26626, "\u90fd": 1961, "northbound": 20055, "clubs": 4184, "giuseppe": 12574, "distribute": 16062, "homes": 5014, "barack": 13857, "##cano": 23803, "iron": 3707, "professorship": 22661, "pilots": 8221, "barnett": 20073, "portal": 9445, "forceful": 28552, "regatta": 26848, "licensed": 7000, "dock": 8946, "1895": 6301, "##lled": 11001, "output": 6434, "situ": 26179, "lit": 5507, "puff": 23893, "forefront": 22870, "governmental": 10605, "girl": 2611, "##`": 29639, "levine": 17780, "280": 13427, "[unused527]": 532, "##ff": 4246, "accelerated": 14613, "##zbek": 28733, "russo": 17023, "intending": 16533, "furious": 9943, "\u91cc": 1962, "cranes": 27083, "backstroke": 28373, "##raph": 24342, "troop": 10123, "define": 9375, "papal": 12156, "tenure": 7470, "broadcaster": 11995, "ku": 13970, "##bro": 12618, "twenty20": 22240, "1907": 5528, "##h": 2232, "theta": 23963, "densely": 19441, "[unused266]": 271, "ankara": 20312, "hapoel": 24208, "##\u0ba9": 29923, "##edes": 18352, "stricken": 16654, "criminals": 12290, "\u0e07": 1410, "backyard": 16125, "ky": 18712, "\u30a2": 1693, "telangana": 23764, "amnesia": 29222, "##kali": 28613, "vowel": 12710, "monmouth": 20433, "##anies": 28064, "posting": 14739, "##lder": 16502, "fremont": 22550, "yarmouth": 28792, "arm": 2849, "lombard": 23441, "identified": 4453, "horrified": 14603, "[unused405]": 410, "eva": 9345, "biographer": 17121, "shades": 13178, "strawberry": 16876, "##cken": 19766, "[unused118]": 123, "nexus": 26041, "exiles": 27127, "voter": 14303, "rediscovered": 26733, "##\u05d9": 29796, "[unused982]": 987, "##usia": 24118, "910": 27743, "##eto": 18903, "belle": 9852, "iii": 3523, "hume": 20368, "kuala": 15490, "##pro": 21572, "buccaneers": 21629, "snoop": 29044, "maneuvers": 23802, "##\u00a9": 29652, "composition": 5512, "clause": 11075, "susanna": 26681, "florence": 7701, "boca": 22765, "spiral": 12313, "##\u4e95": 30280, "issued": 3843, "abducted": 20361, "willis": 12688, "steven": 7112, "##gative": 26792, "##yman": 17906, "##tie": 9515, "instability": 18549, "##tner": 18885, "attacked": 4457, "17th": 5550, "bergman": 24544, "##ero": 10624, "localized": 22574, "shield": 6099, "morale": 19292, "cautiously": 15151, "willingness": 19732, "wcw": 24215, "amalgamation": 21968, "ronald": 8923, "ou": 15068, "pretoria": 25366, "colonel": 4327, "##\u116f": 30015, "beginning": 2927, "encountered": 8567, "judging": 13325, "foyer": 16683, "weaker": 15863, "properly": 7919, "[unused6]": 7, "##\u2092": 30091, "unfortunate": 15140, "fielded": 20988, "zulu": 27359, "[unused512]": 517, "dash": 11454, "illustrious": 26150, "benfica": 26542, "stalk": 23899, "fletcher": 10589, "imam": 17189, "remaining": 3588, "jennings": 14103, "##position": 26994, "besides": 4661, "undergoing": 14996, "shuddered": 13937, "auschwitz": 24363, "spectator": 21027, "arise": 13368, "##ver": 6299, "vein": 12818, "dictatorship": 18944, "##\u0290": 29702, "comfortably": 18579, "brazil": 4380, "##reen": 28029, "pedestrian": 14662, "isabella": 10323, "censorship": 15657, "preparing": 8225, "sacramento": 11932, "songwriting": 14029, "steep": 9561, "phones": 11640, "aware": 5204, "inducing": 29290, "cary": 20533, "inland": 9514, "viewed": 7021, "breakaway": 26321, "invoked": 24959, "##ditional": 27064, "determined": 4340, "1623": 29056, "terminal": 5536, "agile": 29003, "rc": 22110, "##yna": 18279, "\u0633": 1282, "1710": 23841, "amiga": 24126, "billings": 26124, "cfl": 18830, "teens": 13496, "fancy": 11281, "accumulate": 27598, "abu": 8273, "separates": 18600, "##\u207b": 30079, "102": 9402, "tack": 26997, "kilometer": 20595, "##key": 14839, "darryl": 22821, "##cci": 14693, "restraint": 19355, "strength": 3997, "chassis": 11832, "[unused878]": 883, "##iving": 14966, "causal": 28102, "bag": 4524, "unesco": 12239, "##edly": 26207, "\u30a1": 1692, "needle": 12201, "anchors": 24674, "hem": 19610, "upgrade": 12200, "groom": 18087, "up": 2039, "framing": 20241, "1300": 19527, "bryson": 26845, "jesus": 4441, "##dis": 10521, "##\u5065": 30294, "violin": 6710, "##gging": 12588, "wo": 24185, "##taka": 28412, "allowance": 21447, "##ossa": 21842, "gp": 14246, "##ider": 18688, "##\u304d": 30178, "aromatic": 25496, "##rud": 28121, "proper": 5372, "australian": 2827, "self": 2969, "mcpherson": 24332, "researched": 18800, "regulates": 26773, "posterior": 15219, "##\u00b4": 29658, "innocence": 12660, "mixtape": 18713, "jennifer": 7673, "tate": 9902, "##baldi": 28807, "employed": 4846, "##tama": 28282, "##oshi": 24303, "obscure": 14485, "rage": 7385, "thou": 15223, "eastman": 24252, "slices": 25609, "triumph": 10911, "##making": 12614, "database": 7809, "##rika": 23778, "172": 18253, "atheist": 23503, "opinion": 5448, "consulting": 10552, "harmonic": 19452, "nichols": 15746, "dew": 24903, "##ears": 26492, "[unused792]": 797, "##riety": 27840, "##esa": 22447, "nile": 15179, "##bell": 17327, "alcohol": 6544, "##\u044e": 29757, "reviewer": 12027, "zeppelin": 22116, "par": 11968, "bristol": 7067, "gnu": 27004, "dark": 2601, "boyd": 12164, "studied": 3273, "dances": 11278, "crore": 21665, "priority": 9470, "en": 4372, "novels": 6002, "##section": 29015, "backward": 8848, "insignia": 16751, "knight": 5000, "reputation": 5891, "wimbledon": 13411, "##ffin": 15379, "270": 13756, "sweetie": 22872, "warning": 5432, "##oca": 24755, "##zoo": 23221, "prevented": 8729, "\u307e": 1677, "ft": 3027, "martinez": 10337, "inaccurate": 24949, "hyper": 23760, "##int": 18447, "restoration": 6418, "predator": 15267, "ported": 27650, "broken": 3714, "playoff": 7808, "\u1110": 1467, "[unused591]": 596, "pleaded": 12254, "\u2205": 1593, "paradise": 9097, "aircraft": 2948, "smelled": 9557, "furiously": 20322, "moods": 27824, "dire": 18704, "glory": 8294, "simulations": 24710, "communities": 4279, "location": 3295, "corridors": 17506, "operatic": 22534, "##book": 8654, "intercity": 20651, "blanc": 18698, "nipples": 28124, "[unused609]": 614, "scheme": 5679, "immigrated": 17352, "regiment": 3483, "shipments": 24636, "##zier": 21548, "[unused817]": 822, "surfing": 19967, "upset": 6314, "evening": 3944, "dracula": 18500, "granny": 19794, "records": 2636, "castles": 15618, "##born": 10280, "merger": 7660, "wines": 14746, "\u6709": 1873, "halo": 17201, "anthony": 4938, "##uc": 14194, "[unused161]": 166, "indicate": 5769, "zac": 29250, "swedish": 4467, "surname": 11988, "bunny": 16291, "##chs": 18069, "ct": 14931, "serra": 22737, "uniting": 26112, "outputs": 27852, "frederick": 5406, "##ags": 26454, "enthusiastically": 24935, "yucatan": 28631, "sit": 4133, "##nberg": 11144, "driving": 4439, "qb": 26171, "dvds": 22477, "burnett": 13829, "broadcasting": 5062, "cities": 3655, "dictated": 23826, "details": 4751, "plata": 19534, "bipolar": 29398, "stammered": 28532, "tn": 28286, "closest": 7541, "\u00b4": 1084, "groceries": 26298, "elk": 18995, "superior": 6020, "demos": 18267, "annually": 6604, "franz": 8965, "##sef": 20106, "adele": 17623, "##cating": 18252, "watering": 25813, "turkey": 4977, "macedonia": 11492, "resolving": 29304, "rasped": 28459, "buchanan": 14349, "1731": 28446, "nan": 16660, "ankle": 10792, "derived": 5173, "##bright": 26614, "foreword": 23059, "acheron": 21427, "scripts": 14546, "wrecked": 18480, "alistair": 23752, "improvised": 19641, "nelly": 29498, "##farlane": 23511, "shown": 3491, "hooker": 17074, "howell": 18473, "motions": 15323, "hydraulic": 14761, "aaa": 13360, "[unused939]": 944, "##\u2080": 17110, "\u09a3": 1361, "sections": 5433, "##oso": 19137, "hunched": 20498, "happily": 11361, "piazza": 22463, "portugal": 5978, "slept": 7771, "toward": 2646, "muttered": 6250, "missionaries": 11743, "subordinate": 15144, "dr": 2852, "yields": 16189, "[unused829]": 834, "hon": 10189, "rhineland": 21640, "plan": 2933, "tests": 5852, "\u02e2": 1152, "disease": 4295, "grandparents": 14472, "##xia": 14787, "disrupted": 20275, "athletic": 5188, "shady": 22824, "bari": 22466, "\u667a": 1869, "embarrassed": 10339, "kade": 26159, "install": 16500, "##lla": 4571, "willem": 18811, "straightened": 11168, "our": 2256, "##dara": 25329, "warwickshire": 18430, "stout": 18890, "##4th": 26724, "trim": 12241, "326": 28188, "##islav": 19834, "crystal": 6121, "criticised": 10648, "ramp": 13276, "snooker": 26448, "##fahan": 28975, "vocational": 13099, "regularly": 5570, "heller": 25038, "lance": 9993, "neighborhoods": 11681, "360": 9475, "##raction": 25533, "##ammed": 27479, "barrie": 24953, "[unused330]": 335, "consortium": 12360, "dean": 4670, "reprinted": 13603, "outlook": 17680, "humiliating": 28284, "standing": 3061, "school": 2082, "stares": 14020, "mistakenly": 20706, "forster": 21316, "##uttered": 23128, "determine": 5646, "protein": 5250, "##\u30c6": 30239, "\u2609": 1622, "excursion": 26144, "##\u0bbf": 29932, "adorned": 19189, "wrapped": 5058, "323": 25392, "##lings": 11227, "grape": 14722, "hearth": 22885, "olympus": 26742, "chevalier": 22019, "seems": 3849, "bombardment": 10400, "kang": 16073, "fly": 4875, "\u5f35": 1844, "##\u30cb": 30242, "danzig": 26669, "[unused925]": 930, "feather": 15550, "##recht": 28109, "[unused303]": 308, "hormones": 20752, "eighteenth": 12965, "sirens": 20675, "aiming": 13659, "##lag": 17802, "madison": 7063, "##la": 2721, "credit": 4923, "ordinance": 16692, "solemnly": 26294, "##uaries": 22579, "tipped": 11182, "[unused289]": 294, "##hone": 27406, "responsibilities": 10198, "plato": 18858, "goblin": 22639, "accomplishments": 17571, "nantes": 25387, "regimes": 25228, "progressive": 6555, "flutter": 23638, "euroleague": 26093, "cleopatra": 22003, "zoe": 11199, "##\u30e9": 30257, "salford": 23001, "motion": 4367, "replacements": 23936, "polytechnic": 14466, "assimilation": 27574, "422": 29269, "affluent": 22666, "##ega": 29107, "tertiary": 13553, "mom": 3566, "annexation": 18985, "\u6c5f": 1897, "##sier": 20236, "1755": 21417, "bruised": 18618, "corporations": 11578, "support": 2490, "restored": 5854, "chronicle": 9519, "movements": 5750, "reaching": 4285, "raising": 6274, "tao": 20216, "2nd": 3416, "\u961d": 1970, "\u028b": 1133, "##write": 26373, "##ond": 15422, "blur": 14819, "syrup": 23353, "torah": 16297, "lennox": 21060, "fooled": 25857, "\u4e94": 1753, "delegate": 11849, "##dier": 24612, "quran": 21288, "##abi": 28518, "/": 1013, "latter": 3732, "##wk": 26291, "49": 4749, "weekdays": 19759, "ruined": 9868, "molten": 23548, "topics": 7832, "faltered": 26015, "baritone": 14458, "binds": 20817, "##polis": 17699, "narrower": 22546, "puget": 27879, "devastated": 13879, "jai": 17410, "rent": 9278, "##aba": 19736, "moran": 17866, "owed": 12232, "\u221e": 1601, "final": 2345, "bulgaria": 8063, "roof": 4412, "not": 2025, "1888": 6690, "##rer": 14544, "recruits": 15024, "roman": 3142, "attaining": 26615, "haryana": 23261, "2018": 2760, "assassinated": 16370, "calcutta": 13419, "technician": 16661, "trevor": 8672, "filmmaking": 24466, "rubbed": 7503, "##eem": 21564, "vhs": 17550, "scott": 3660, "immature": 26838, "length": 3091, "rectory": 24606, "##\u0646": 15915, "buddies": 24115, "hellenistic": 27464, "##storm": 19718, "exotic": 12564, "follower": 22399, "sophie": 8234, "##lass": 27102, "asbestos": 29191, "##board": 6277, "dusseldorf": 18160, "any": 2151, "source": 3120, "mantra": 25951, "antibodies": 22931, "##dine": 10672, "less": 2625, "##gna": 16989, "dublin": 5772, "pomerania": 18631, "sullivan": 7624, "ideally": 28946, "entire": 2972, "absorb": 16888, "institutes": 12769, "bwv": 23860, "1841": 9840, "classical": 4556, "##\u5927": 30336, "landscapes": 12793, "copeland": 27303, "behaved": 26979, "estrada": 26482, "cute": 10140, "wouldn": 2876, "##mable": 24088, "patronage": 15694, "##ium": 5007, "twice": 3807, "caribbean": 7139, "done": 2589, "niece": 12286, "1886": 6929, "yang": 8675, "viva": 20022, "[unused283]": 288, "astonished": 22741, "taller": 12283, "luminous": 25567, "smoothing": 27045, "sylvia": 13378, "unaware": 11499, "##alle": 24164, "acidic": 24171, "guerrero": 16938, "transvaal": 28336, "translation": 5449, "oxfordshire": 20124, "angela": 10413, "lasting": 9879, "uptown": 28539, "##arina": 27943, "reject": 15454, "munich": 7469, "store": 3573, "classed": 27811, "recommendations": 11433, "exits": 16639, "pieces": 4109, "hatfield": 26853, "\u7684": 1916, "relations": 4262, "respectful": 26438, "##ckey": 29183, "georgina": 27358, "1948": 3882, "themselves": 3209, "##rigues": 22934, "hotels": 9275, "sixteenth": 14683, "verge": 16079, "lineage": 13321, "creep": 19815, "##ant": 4630, "##ulio": 24825, "psychology": 6825, "catalina": 22326, "mla": 18619, "complimented": 27175, "monaco": 14497, "##aire": 14737, "302": 22060, "tariffs": 26269, "experimented": 20918, "inaugural": 7725, "practices": 6078, "\u0e32": 1422, "denote": 19090, "87": 6584, "cafe": 7668, "sturdy": 23073, "##\u1109": 29997, "##eves": 23047, "careful": 6176, "cindy": 15837, "[unused841]": 846, "cones": 23825, "1928": 4662, "enjoy": 5959, "##\u2090": 30089, "juice": 10869, "1704": 27769, "domestic": 4968, "bulging": 27569, "##nall": 22270, "##vish": 24968, "experts": 8519, "##ages": 13923, "[unused917]": 922, "submerged": 13563, "\u0290": 1136, "[unused715]": 720, "supervisors": 22565, "elton": 19127, "complicated": 8552, "##vas": 12044, "brigades": 14589, "##ija": 14713, "##tucket": 29315, "1726": 28342, "11th": 6252, "truck": 4744, "short": 2460, "##akh": 27573, "inspection": 10569, "attempt": 3535, "java": 9262, "beatles": 11555, "sniff": 27907, "mondays": 28401, "pursued": 9505, "rig": 19838, "132": 14078, "explorer": 10566, "lakeside": 28701, "argues": 9251, "dissemination": 28170, "hall": 2534, "disturbances": 24535, "injection": 13341, "##\u0bb3": 29929, "revised": 8001, "2003": 2494, "coca": 16787, "1641": 25702, "embroidered": 23590, "frightened": 10363, "inference": 28937, "silva": 11183, "stations": 3703, "coefficients": 21374, "delle": 24121, "federally": 20892, "unarmed": 23206, "monkey": 10608, "##oper": 25918, "##\u0e15": 29947, "##\u00dfe": 17499, "1724": 26423, "invariant": 23915, "##ency": 11916, "##yne": 9654, "pill": 17357, "unison": 18732, "unveiled": 11521, "pianist": 9066, "torn": 7950, "wilhelm": 9070, "campaign": 3049, "global": 3795, "##27": 22907, "235": 17825, "##hedron": 26440, "lined": 7732, "substitution": 20885, "este": 28517, "remember": 3342, "##owing": 14138, "wild": 3748, "##\u5e74": 30366, "miniature": 12973, "stein": 14233, "melville": 20154, "[unused858]": 863, "221": 19594, "starred": 5652, "beg": 11693, "##pg": 26952, "mere": 8210, "elevators": 19406, "##vius": 26055, "##ites": 7616, "correspondent": 11370, "guinea": 7102, "frescoes": 23360, "metals": 11970, "paisley": 23321, "##zal": 16739, "teenage": 9454, "synth": 24203, "1655": 28438, "##boys": 24916, "substitute": 7681, "geometry": 10988, "##\u0f0b": 29960, "##xx": 20348, "overlapping": 20567, "##\u76f8": 30445, "##ase": 11022, "##w": 2860, "takes": 3138, "##\u0289": 29697, "##42": 20958, "humanoid": 28051, "whipping": 23016, "##phic": 17926, "\u05e0": 1257, "trailing": 12542, "[unused116]": 121, "figures": 4481, "fielder": 25000, "soup": 11350, "beacon": 14400, "predicting": 29458, "sensitive": 7591, "##uy": 26230, "wallis": 24029, "hourly": 21462, "gospels": 24131, "##oon": 7828, "rooms": 4734, "franchise": 6329, "##edo": 26010, "##ese": 6810, "##4": 2549, "cactus": 23265, "##49": 26224, "##tson": 25656, "##bourne": 11634, "digest": 17886, "tow": 15805, "shops": 7340, "dammit": 20878, "##\u0cb0": 29937, "addresses": 11596, "sewage": 19873, "##nham": 20465, "inscribed": 14551, "telling": 4129, "configured": 26928, "##ivate": 21466, "saturdays": 18860, "easier": 6082, "butch": 17520, "##vard": 25911, "##clusive": 23633, "##\u767d": 30441, "crowley": 20748, "\u02d0": 1150, "##zzy": 28753, "accommodate": 8752, "seneca": 21224, "symmetrical": 23476, "##bians": 26376, "##\u1106": 29995, "##merie": 28677, "linguistics": 15397, "subjective": 20714, "pit": 6770, "management": 2968, "##enter": 29110, "organizing": 10863, "240": 11212, "changes": 3431, "##ost": 14122, "\u304b": 1651, "kruger": 27823, "cyclones": 26069, "engineering": 3330, "took": 2165, "ape": 23957, "crows": 21623, "##osis": 12650, "uv": 23068, "##gs": 5620, "reagan": 11531, "610": 19827, "ranges": 8483, "sacrifices": 18502, "##cope": 16186, "shoes": 6007, "queens": 8603, "##ops": 11923, "channel": 3149, "manuscripts": 10485, "thrown": 6908, "whimper": 28544, "signaled": 22319, "##leton": 19263, "##tablished": 28146, "rte": 20375, "##cute": 26869, "weave": 25308, "mit": 10210, "bailey": 8925, "tamara": 21772, "release": 2713, "convenience": 15106, "##uce": 18796, "win": 2663, "peaking": 13015, "generations": 8213, "[unused273]": 278, "##tford": 26341, "##ika": 7556, "boer": 19945, "##\u4fe1": 30293, "auditor": 20964, "[unused740]": 745, "transmission": 6726, "ames": 19900, "[unused209]": 214, "mcbride": 18958, "shape": 4338, "racecourse": 15948, "##zak": 20685, "[unused443]": 448, "[unused723]": 728, "fellow": 3507, "clenched": 8555, "gaulle": 28724, "respecting": 27818, "##lake": 14530, "endless": 10866, "crosses": 7821, "##\u30d5": 30246, "vanuatu": 27625, "britten": 29429, "differentiation": 20582, "[unused962]": 967, "rumbling": 26670, "puzzle": 11989, "##oth": 14573, "johnny": 5206, "floyd": 12305, "aching": 14750, "\u0111": 1102, "\u05be": 1240, "##oulos": 28262, "contents": 8417, "fairchild": 24258, "registry": 15584, "1977": 3355, "cushions": 27205, "tenant": 16713, "murders": 9916, "##iaceae": 23357, "beverly": 12218, "zimmerman": 27946, "leaped": 16900, "##nde": 13629, "neglect": 19046, "\u0576": 1231, "archaeology": 12009, "koppen": 20139, "##urized": 28405, "beech": 21760, "oaks": 13396, "rowan": 14596, "infamous": 14429, "counter": 4675, "cosmic": 14448, "mara": 13955, "sustainable": 9084, "bending": 14457, "\u00a3100": 27708, "freight": 8441, "quicker": 19059, "invasion": 5274, "daddy": 8600, "conform": 23758, "\u2093": 1563, "hotter": 22302, "means": 2965, "stylized": 19551, "[unused353]": 358, "laird": 21964, "##rds": 17811, "messengers": 28938, "who": 2040, "shots": 7171, "laurie": 16450, "ways": 3971, "nebraska": 8506, "lodging": 26859, "##yana": 16811, "timeless": 27768, "celebrated": 6334, "builds": 16473, "promenade": 26815, "##yme": 25219, "regret": 9038, "reconcile": 21063, "ripe": 22503, "innovation": 8144, "halls": 9873, "pressured": 25227, "inmates": 13187, "sucked": 8631, "pendant": 23152, "disastrous": 16775, "northernmost": 22037, "clutch": 15357, "24": 2484, "##oc": 10085, "yellowstone": 29231, "yamaha": 24031, "picture": 3861, "blasts": 25829, "marked": 4417, "##wari": 20031, "##\u694a": 30409, "shrugs": 23822, "last": 2197, "beit": 28236, "315": 22904, "##pid": 23267, "highlanders": 22672, "##ucible": 21104, "performer": 9256, "##ances": 26755, "newspapers": 6399, "raleigh": 15842, "house": 2160, "damascus": 16094, "managed": 3266, "microscope": 24635, "##ees": 10285, "calls": 4455, "civilized": 25825, "1705": 29326, "[unused296]": 301, "heroism": 27117, "paulo": 9094, "frontman": 21597, "slammed": 7549, "temperance": 23372, "championed": 28683, "karel": 28021, "brunswick": 9192, "1958": 3845, "chico": 22136, "existent": 25953, "\u0e2d": 1421, "canopy": 14582, "upright": 10051, "trains": 4499, "relief": 4335, "conqueror": 25466, "hates": 16424, "plume": 26888, "tyre": 21904, "padma": 23731, "cousins": 12334, "vehicles": 4683, "##tric": 12412, "##ught": 18533, "##nni": 23500, "##bow": 18912, "verses": 11086, "blockbuster": 27858, "cookie": 17387, "recovered": 6757, "airport": 3199, "altering": 22552, "vault": 11632, "ahl": 18347, "unstable": 14480, "sussex": 9503, "scarf": 18982, "##aan": 14634, "scary": 12459, "cornerback": 26857, "impress": 17894, "guildford": 26353, "tallest": 13747, "flavor": 14894, "bautista": 27845, "begin": 4088, "abuse": 6905, "severity": 18976, "wedding": 5030, "blues": 5132, "originals": 23728, "leslie": 8886, "##ending": 18537, "##jevic": 26782, "fellowship": 7881, "shoulder": 3244, "nancy": 7912, "patron": 9161, "swore": 12860, "overhead": 8964, "1650": 21875, "persuasion": 27577, "tracks": 3162, "swayed": 20122, "sucks": 19237, "waist": 5808, "##tina": 13770, "eyelids": 16544, "##lem": 16930, "gunther": 19384, "mapped": 17715, "sworn": 10741, "wentworth": 20572, "mattress": 13342, "\u09b9": 1377, "suez": 21974, "##combe": 14149, "stump": 22475, "miller": 4679, "que": 10861, "roundabout": 22831, "griffiths": 21960, "preseason": 20038, "##\u5bfa": 30353, "##\u2116": 30106, "rosenthal": 29062, "succumbed": 25642, "ty": 5939, "bluegrass": 21286, "\u09b8": 1376, "roofed": 26080, "dutch": 3803, "overview": 19184, "louvre": 25110, "\u05de": 1255, "turns": 4332, "##\u1d30": 30028, "arises": 18653, "bryant": 12471, "##\u30f3": 30263, "offenders": 19591, "dietrich": 22567, "jana": 23341, "resulting": 4525, "##adt": 18727, "pause": 8724, "##qi": 14702, "##tropical": 25528, "vast": 6565, "walked": 2939, "monthly": 7058, "muslims": 7486, "clown": 15912, "rajasthan": 16815, "johnnie": 27716, "formulation": 20219, "projecting": 18398, "llc": 11775, "structured": 14336, "milestone": 19199, "berber": 27514, "walsall": 29054, "##iso": 19565, "documents": 5491, "running": 2770, "relevant": 7882, "[unused832]": 837, "##dp": 18927, "##nail": 25464, "soared": 29127, "skaters": 24789, "christopher": 5696, "sixteen": 7032, "##gami": 26517, "must": 2442, "1943": 3826, "pleading": 16418, "williamsburg": 26366, "responded": 5838, "xander": 29019, "sienna": 20210, "more": 2062, "tempted": 16312, "calming": 23674, "annette": 22521, "fray": 25975, "##rky": 15952, "##earing": 27242, "landscaping": 28404, "[unused623]": 628, "havre": 28890, "flick": 17312, "entity": 9178, "purported": 27023, "townland": 23635, "##zen": 10431, "knocks": 21145, "onto": 3031, "125": 8732, "sm": 15488, "kilkenny": 17131, "cereal": 20943, "nudged": 18666, "badminton": 14618, "dolly": 19958, "blink": 12373, "[unused507]": 512, "pending": 14223, "flourished": 17893, "deliberate": 15063, "perkins": 13601, "anthropological": 28395, "banks": 5085, "dozens": 9877, "24th": 13386, "budget": 5166, "rosalie": 29564, "scarce": 18782, "wichita": 18614, "folds": 15439, "##tance": 26897, "[unused946]": 951, "##rocity": 21735, "\u5c1a": 1830, "##rasia": 27839, "hectares": 9076, "injected": 19737, "conductor": 7589, "backpack": 13383, "shin": 12277, "scratching": 20291, "albans": 26311, "1880s": 12751, "twelve": 4376, "##oss": 15094, "duct": 23245, "##ability": 8010, "graeme": 21840, "circulating": 22458, "specifications": 15480, "chuckled": 10252, "jaws": 16113, "devastation": 25594, "kia": 27005, "stanton": 15845, "##cas": 15671, "instructions": 8128, "##\u30e5": 30255, "##games": 26393, "hitler": 8042, "motioned": 13054, "gora": 26967, "ii": 2462, "unions": 9209, "82": 6445, "progressively": 20519, "blame": 7499, "approximation": 20167, "purposely": 24680, "afford": 8984, "ordeal": 23304, "##tour": 21163, "reacts": 27325, "##print": 16550, "\u05d1": 1242, "##lip": 15000, "filed": 6406, "busch": 15840, "cyclists": 21912, "##oked": 23461, "splinter": 27546, "rhys": 13919, "zachary": 19474, "polished": 12853, "cadet": 12738, "preparation": 7547, "##phobia": 24920, "marshall": 5832, "technological": 10660, "felix": 8383, "nominees": 17853, "\u3081": 1680, "outlined": 14801, "sarcastically": 23800, "privilege": 14293, "kendrick": 25341, "15th": 6286, "\u672c": 1876, "nino": 20801, "##del": 9247, "prize": 3396, "excluding": 13343, "94": 6365, "chocolate": 7967, "reputed": 22353, "##sure": 28632, "##ted": 3064, "surprised": 4527, "##\u0e21": 29951, "sounded": 5015, "valor": 27314, "vh1": 26365, "ta": 11937, "gravely": 28070, "332": 29327, "louder": 10989, "stay": 2994, "##itt": 12474, "shelves": 15475, "lines": 3210, "##ptive": 24971, "##nica": 12782, "##vity": 24872, "chet": 25157, "protesting": 21248, "##ography": 9888, "##evich": 16277, "philipp": 20765, "elevation": 6678, "[unused25]": 26, "maids": 29229, "shouts": 15701, "embedded": 11157, "urge": 9075, "terence": 22677, "founded": 2631, "##rm": 10867, "needing": 11303, "\u03b3": 1157, "[unused128]": 133, "nautical": 11339, "giro": 19226, "##card": 11522, "connecting": 7176, "bei": 21388, "hamlet": 8429, "lashes": 16008, "tubes": 10868, "ozone": 26443, "ich": 22564, "automobile": 9935, "intellect": 24823, "##\u05d7": 29794, "##ones": 21821, "brook": 9566, "##avia": 15164, "creativity": 14842, "##brand": 23544, "mon": 12256, "##lices": 29146, "rufus": 18316, "gerry": 14926, "darrell": 23158, "opaque": 28670, "remake": 12661, "##tila": 26065, "##inga": 28234, "50": 2753, "airways": 13095, "unable": 4039, "larger": 3469, "wrists": 12150, "1798": 13036, "mobility": 12969, "harmony": 9396, "genealogy": 26684, "rally": 8320, "##erted": 28728, "mayer": 14687, "grover": 25242, "tapping": 15135, "##mina": 22311, "bugs": 12883, "cambodian": 24417, "region": 2555, "loretta": 28493, "israelis": 28363, "showdown": 24419, "yeah": 3398, "##led": 3709, "##tl": 19646, "1938": 4260, "regents": 22832, "maya": 9815, "undoubtedly": 17319, "hypothetical": 25613, "theirs": 17156, "peace": 3521, "filled": 3561, "##ific": 18513, "##lk": 13687, "riders": 8195, "##ffed": 15388, "events": 2824, "2010": 2230, "hallmark": 25812, "gnome": 25781, "transport": 3665, "scramble": 25740, "chopra": 28826, "##hic": 16066, "targeting": 14126, "bolsheviks": 28755, "deposition": 19806, "##works": 9316, "antiquity": 16433, "converts": 19884, "swelled": 21851, "photographic": 12416, "\u0575": 1230, "gaston": 18572, "won": 2180, "usb": 18833, "landfall": 21042, "freddie": 15528, "marlborough": 22830, "torpedo": 9862, "amara": 28599, "charters": 23010, "absolute": 7619, "critically": 11321, "##ss": 4757, "absently": 21284, "manga": 8952, "1735": 26063, "constitutes": 17367, "decent": 11519, "priests": 8656, "belonging": 7495, "\u77f3": 1922, "suitable": 7218, "grant": 3946, "discoveries": 15636, "prentice": 23429, "glacier": 10046, "##vert": 16874, "##ories": 18909, "disclosure": 19380, "suburban": 9282, "kingdom": 2983, "pearl": 7247, "germany": 2762, "##zie": 14272, "##ited": 17572, "impressions": 19221, "yale": 7996, "simplified": 11038, "afternoon": 5027, "quarries": 27069, "##ans": 6962, "phase": 4403, "brothel": 27308, "1870s": 14896, "palatinate": 18990, "deposed": 18298, "pan": 6090, "##yler": 20853, "##gration": 29397, "clancy": 24530, "zodiac": 28501, "halfway": 8576, "49ers": 18156, "1901": 5775, "one": 2028, "wireless": 9949, "##\u4eac": 30281, "[unused458]": 463, "gate": 4796, "greenville": 20967, "low": 2659, "keyboards": 6269, "##hir": 11961, "##vel": 15985, "date": 3058, "owe": 12533, "##tlan": 28922, "hockey": 3873, "##kovich": 28195, "##\u0263": 29683, "stages": 5711, "##\u2088": 30084, "[unused830]": 835, "sanjay": 29590, "discipline": 9009, "##ies": 3111, "consists": 3774, "ratio": 6463, "ceramic": 14692, "travel": 3604, "##\u8ecd": 30481, "reduce": 5547, "codes": 9537, "##gn": 16206, "motor": 5013, "inaccessible": 29104, "commencing": 25819, "discontent": 27648, "[unused401]": 406, "smirk": 15081, "##him": 14341, "moves": 5829, "1805": 13126, "stadiums": 28244, "generators": 16937, "participant": 13180, "game": 2208, "[unused828]": 833, "[unused915]": 920, "glistening": 25203, "continually": 14678, "conceal": 19819, "resolved": 10395, "participation": 6577, "leapt": 13920, "penal": 18476, "##uber": 21436, "seton": 28796, "bio": 16012, "bliss": 13670, "\u967d": 1973, "##ddling": 21814, "distances": 12103, "flags": 9245, "passageway": 27336, "#": 1001, "credentials": 22496, "keynote": 25569, "capacities": 21157, "##bbling": 15343, "detonated": 28110, "rounds": 6241, "galerie": 17941, "recently": 3728, "##\u043e\u0432\u0438\u0447": 16198, "enterprises": 9926, "lobbying": 19670, "christianity": 7988, "jamaica": 9156, "cv": 26226, "normally": 5373, "cesare": 26708, "crossing": 5153, "wand": 23967, "##kus": 22332, "brenda": 15507, "[unused825]": 830, "casually": 13217, "##tight": 26143, "magnitude": 10194, "available": 2800, "walton": 14290, "wonderful": 6919, "competitions": 6479, "sen": 12411, "dauphin": 29102, "simplest": 21304, "##bard": 21458, "lecture": 8835, "##bra": 10024, "tanzania": 11959, "##sei": 20240, "##\u2078": 30077, "##bold": 27495, "[unused568]": 573, "ligue": 18374, "papers": 4981, "portico": 23104, "fm": 4718, "controller": 11486, "narratives": 22143, "##ctors": 24817, "jill": 10454, "merchant": 6432, "rectangular": 10806, "kumar": 9600, "native": 3128, "##\u4e94": 30279, "[unused719]": 724, "grace": 4519, "principals": 27928, "##\u3009": 30164, "##\u1d52": 30039, "##emy": 26662, "domenico": 18638, "##missive": 27876, "hearts": 8072, "honesty": 16718, "restrictive": 25986, "nik": 23205, "badge": 10780, "degree": 3014, "loops": 15932, "armoured": 11104, "mortality": 13356, "correlated": 23900, "cinematic": 21014, "##ians": 7066, "##per": 4842, "mana": 24951, "urgently": 25478, "provisions": 8910, "love": 2293, "##christ": 26654, "contained": 4838, "flip": 11238, "disgust": 12721, "spinning": 9419, "specials": 19247, "footballer": 4362, "newly": 4397, "assistance": 5375, "captain": 2952, "luggage": 17434, "stocks": 15768, "motto": 12652, "##mmel": 29033, "scenery": 17363, "probably": 2763, "passionate": 13459, "oppose": 15391, "expect": 5987, "##tops": 25181, "au": 8740, "##rup": 21531, "whitish": 16800, "cantor": 26519, "ignored": 6439, "##np": 16275, "weimar": 20695, "maternal": 11062, "bangkok": 12627, "##itha": 26054, "\u91d1": 1964, "shrimp": 20130, "##mento": 23065, "gun": 3282, "140": 8574, "goddamn": 16477, "cannot": 3685, "lock": 5843, "##uth": 14317, "meeting": 3116, "##ges": 8449, "mummy": 22788, "cobalt": 25627, "loudly": 9928, "anglican": 9437, "detention": 12345, "\u062f": 1278, "noel": 10716, "\u0bc1": 1397, "##lining": 16992, "\u00ae": 1079, "serve": 3710, "stables": 16232, "##ils": 12146, "##\u0bb2": 29928, "##\u535a": 30312, "##hita": 23935, "fair": 4189, "maximus": 21692, "possession": 6664, "raju": 25098, "about": 2055, "##pis": 18136, "##\u300e": 30169, "##nca": 20909, "heavily": 4600, "continue": 3613, "##sd": 16150, "\u57ce": 1804, "ko": 12849, "##ei": 7416, "##ower": 25114, "abbreviation": 22498, "arrested": 4727, "spraying": 29035, "##uration": 18924, "orbital": 13943, "##tment": 21181, "hated": 6283, "byrne": 14928, "mile": 3542, "sparhawk": 13709, "prakash": 22233, "##tch": 10649, "helens": 24074, "sanchez": 10568, "##rgo": 18581, "shivered": 13927, "congressman": 12295, "perished": 23181, "orbiting": 26472, "trusted": 9480, "[unused642]": 647, "labels": 10873, "mixture": 8150, "al": 2632, "funds": 5029, "##\u4ec1": 30284, "frightening": 17115, "consisting": 5398, "terra": 14403, "##\u044c": 23742, "leafs": 21349, "\u0449": 1204, "alter": 11477, "patsy": 25382, "[unused318]": 323, "flames": 7311, "silk": 6953, "##\u30c4": 30238, "mcmahon": 17741, "stemmed": 27674, "3": 1017, "116": 12904, "selling": 4855, "sour": 14768, "discussed": 6936, "promoting": 7694, "polynomial": 17505, "spartan": 20670, "teaching": 4252, "710": 27671, "transporting": 18276, "[unused235]": 240, "surfaced": 15791, "ava": 10927, "espn": 10978, "joins": 9794, "dining": 7759, "\u0632": 1281, "periods": 6993, "[unused484]": 489, "vermont": 8839, "membership": 5779, "[unused439]": 444, "borneo": 15688, "jogged": 27812, "injuries": 6441, "slack": 19840, "neither": 4445, "dso": 22951, "chronic": 11888, "##hei": 26036, "rita": 11620, "circles": 7925, "bearing": 7682, "\u03bf": 1169, "restructuring": 18322, "##\u0cbe": 29938, "##nig": 25518, "production": 2537, "bonfire": 28698, "\u09b2": 1373, "gazette": 11391, "tran": 25283, "divinity": 16968, "heap": 16721, "mike": 3505, "glide": 21096, "##nka": 25804, "##mans": 15154, "##\u0637": 29828, "highways": 10292, "rms": 29311, "competence": 22219, "wc": 15868, "1744": 25846, "museo": 19713, "quite": 3243, "ordained": 9492, "nationalist": 8986, "requests": 11186, "competent": 17824, "##\u045a": 29763, "scroll": 17186, "##gli": 25394, "scared": 6015, "tudor": 15588, "##cap": 17695, "tortricidae": 27683, "centrally": 25497, "connect": 7532, "theodor": 21448, "##\u0621": 29815, "##nzo": 25650, "##hid": 27511, "expectations": 10908, "\u90ce": 1958, "##relli": 22948, "##\u90fd": 30487, "swan": 10677, "scholar": 6288, "interval": 13483, "##lli": 6894, "randolph": 13031, "coyotes": 26880, "\u624b": 1858, "genocide": 14052, "\u0baa": 1388, "##\uff01": 30512, "absence": 6438, "fable": 28458, "##yck": 28377, "coe": 24873, "##ry": 2854, "arena": 5196, "subset": 16745, "[unused654]": 659, "traversed": 27797, "##ect": 22471, "[unused38]": 39, "montrose": 24990, "downloads": 22956, "reminding": 15906, "boost": 12992, "facilitated": 19601, "##vb": 26493, "##firm": 27972, "##utus": 23998, "prevent": 4652, "##|": 29641, "[unused213]": 218, "francesca": 15409, "[unused480]": 485, "allegedly": 9382, "##balls": 18510, "yugoslavia": 8936, "##fo": 14876, "thayer": 25563, "unexpectedly": 14153, "heroine": 18869, "elise": 14251, "owl": 13547, "nu": 16371, "hua": 23064, "##\u0915": 29851, "\u093e": 1340, "##wise": 14244, "##mite": 23419, "##zz": 13213, "spat": 14690, "##eta": 12928, "325": 19652, "##ptic": 20746, "##isha": 24032, "naomi": 12806, "premio": 23031, "ordering": 13063, "capita": 8353, "listen": 4952, "##lind": 27164, "embarrassing": 16436, "shah": 7890, "youngest": 6587, "##ically": 15004, "touched": 5028, "cart": 11122, "mongol": 17450, "detained": 14620, "reprint": 25364, "beamed": 22587, "124": 13412, "frankish": 26165, "got": 2288, "##cision": 28472, "##ili": 18622, "record": 2501, "subsidy": 28768, "inmate": 24467, "[unused108]": 113, "freshman": 10452, "compiling": 21953, "rate": 3446, "persistence": 28297, "installed": 5361, "blood": 2668, "vessel": 6258, "harassment": 16011, "water": 2300, "\u1d43": 1496, "1100": 22096, "cent": 9358, "underground": 5230, "##gan": 5289, "homeland": 10759, "mayfair": 28387, "hold": 2907, "ismail": 19214, "gearbox": 22227, "##ule": 9307, "carleton": 22273, "ladies": 6456, "object": 4874, "flaw": 28450, "nedra": 28240, "mont": 18318, "zhang": 9327, "graffiti": 17990, "##stra": 20528, "portrayed": 6791, "##inae": 16414, "crater": 11351, "clit": 17962, "\u5cf6": 1833, "exiting": 22371, "drawn": 4567, "vampire": 4393, "preach": 25250, "##wart": 18367, "stats": 26319, "villagers": 11904, "mona": 13813, "rotating": 13618, "romani": 23982, "eager": 9461, "implicit": 24655, "aires": 9149, "##\u093e": 29876, "##ache": 15395, "##rift": 16338, "judicial": 8268, "hats": 16717, "executives": 12706, "curtain": 11002, "extremes": 28800, "poet": 4802, "khyber": 28416, "##borne": 19288, "##bot": 18384, "canonical": 18562, "commemorates": 25530, "eden": 10267, "designed": 2881, "goofy": 27243, "\u300c": 1641, "agatha": 23863, "deciduous": 22411, "appointment": 6098, "##chenko": 25872, "citizenship": 9068, "barcelona": 7623, "obtaining": 11381, "flooding": 9451, "[unused848]": 853, "planet": 4774, "washing": 12699, "cypress": 22183, "cocaine": 16034, "utopia": 26425, "deeply": 6171, "rutherford": 18472, "solvent": 23735, "##cius": 25393, "horseshoe": 23449, "construction": 2810, "kelvin": 24810, "breaths": 12938, "treatment": 3949, "104": 9645, "accountant": 17907, "\u1107": 1460, "essentially": 7687, "##ncia": 22750, "680": 23944, "jokes": 13198, "##ggy": 22772, "[unused61]": 62, "scrubbed": 27820, "subdivided": 15369, "annie": 8194, "rooftop": 23308, "##\u0629": 19433, "population": 2313, "grooves": 25880, "##berry": 9766, "alicia": 15935, "voyage": 8774, "completing": 7678, "mutual": 8203, "##uto": 16161, "ethiopian": 15101, "disposed": 21866, "goalscorer": 28602, "lai": 21110, "annex": 17827, "##onia": 12488, "##ique": 7413, "cruel": 10311, "refinery": 21034, "##eye": 17683, "cottage": 9151, "tasmania": 12343, "wendy": 12815, "trigger": 9495, "counsel": 9517, "good": 2204, "##ais": 15593, "scotia": 9676, "##sfield": 15951, "sidney": 11430, "ud": 20904, "##lating": 22248, "##vation": 21596, "restroom": 28249, "threshold": 11207, "locomotives": 7830, "recounted": 22906, "dowry": 29603, "demoted": 25692, "distributed": 5500, "confirms": 23283, "ev": 23408, "##oro": 14604, "hartman": 26766, "journals": 9263, "##wear": 16689, "scaling": 25169, "bs": 18667, "lottery": 15213, "[unused167]": 172, "realises": 25924, "screwed": 14180, "\u1d9c": 1511, "root": 7117, "gunn": 22079, "reigning": 16323, "##elled": 21148, "pacing": 15732, "jewel": 13713, "looting": 29367, "too": 2205, "shirt": 3797, "solitary": 14348, "knowledge": 3716, "signature": 8085, "goal": 3125, "##auer": 21126, "exposure": 7524, "bathurst": 21897, "resisted": 13335, "##jou": 23099, "##\u2082": 8229, "quilt": 27565, "loads": 15665, "noodles": 27130, "aqua": 28319, "swear": 8415, "02": 6185, "glittering": 20332, "##lander": 22691, "philosophical": 9569, "val": 11748, "lenin": 17497, "##\u116a": 30012, "predators": 12630, "##port": 6442, "limitations": 12546, "threatens": 17016, "[unused781]": 786, "awe": 15180, "meyrick": 15228, "incline": 27461, "taxpayer": 26980, "##\u0e01": 29945, "frustrated": 10206, "agents": 6074, "corners": 8413, "410": 19151, "consolidation": 17439, "sherwood": 19427, "matthew": 5487, "venice": 7914, "##adia": 25205, "##dermott": 29370, "##iani": 25443, "toys": 10899, "lei": 26947, "violence": 4808, "knockout": 11369, "1850": 7973, "[unused590]": 595, "state": 2110, "barbie": 22635, "##ro": 3217, "chuckles": 26088, "288": 24841, "296": 27200, "##\u2032": 30066, "infinitely": 25773, "segment": 6903, "incredible": 9788, "ferrari": 13632, "brew": 24702, "peshawar": 28777, "klaus": 16536, "pete": 6969, "ceremony": 5103, "ensembles": 21528, "##ll": 3363, "non": 2512, "act": 2552, "##cey": 25810, "songwriter": 6009, "believer": 24591, "##burgh": 15496, "08": 5511, "reader": 8068, "peach": 18237, "##yle": 12844, "##3": 2509, "##furt": 24428, "[unused540]": 545, "pretending": 12097, "elite": 7069, "tramway": 17050, "finalized": 23575, "[unused690]": 695, "##end": 10497, "##ants": 11390, "##\u3048": 30175, "brightly": 14224, "weights": 15871, "aggregate": 9572, "##\u7f8e": 30461, "bernstein": 18862, "##pile": 22090, "divided": 4055, "sets": 4520, "accordion": 19060, "flower": 6546, "disagreement": 18185, "richie": 14411, "whaling": 23687, "##iation": 18963, "mo": 9587, "jul": 21650, "##garh": 13484, "1733": 27230, "##ast": 14083, "##ocating": 27483, "##some": 14045, "truncated": 25449, "\u0251": 1110, "outrageous": 25506, "##redo": 23417, "baths": 19692, "treats": 18452, "##\u1169": 30011, "\ufb01": 1984, "##cp": 21906, "##ivar": 28739, "##worm": 22769, "fashioned": 13405, "critique": 16218, "faerie": 27498, "##tler": 25091, "##kulam": 28871, "declared": 4161, "##ilo": 22360, "exploded": 9913, "addition": 2804, "##sea": 17310, "east": 2264, "##\u4f8d": 30291, "aura": 15240, "verandah": 26153, "erratic": 24122, "voluntarily": 17912, "descriptive": 22726, "##abe": 16336, "ireland": 3163, "[unused861]": 866, "robotic": 20478, "comments": 7928, "speaks": 8847, "##ety": 27405, "numb": 15903, "pauline": 15595, "##\u043e\u0432": 19259, "[unused125]": 130, "gables": 27008, "basketball": 3455, "tour": 2778, "crossed": 4625, "39th": 22702, "tubular": 25147, "##\u0dbd": 29942, "##its": 12762, "refrigerator": 18097, "teacher": 3836, "bastard": 8444, "algorithm": 9896, "isaac": 7527, "dq": 25410, "messaging": 24732, "uses": 3594, "minerva": 27383, "##at": 4017, "##chal": 18598, "dealings": 24069, "buick": 28865, "muscled": 24909, "solomon": 9168, "\u0f60": 1433, "governorate": 15162, "exploration": 8993, "anwar": 28372, "##\u2206": 30122, "xi": 8418, "investor": 14316, "batter": 23801, "cavalry": 5945, "sailing": 8354, "laurence": 10883, "\u3044": 1647, "urbana": 27929, "wallet": 15882, "comedians": 25119, "##cy": 5666, "booming": 24716, "behavioral": 14260, "gesellschaft": 27482, "merged": 5314, "wills": 17234, "graham": 5846, "fae": 17282, "sly": 18230, "availability": 11343, "nissan": 16509, "protesters": 13337, "##imo": 16339, "##fus": 25608, "620": 23612, "##ecin": 28191, "ambitions": 19509, "authorities": 4614, "lowry": 27281, "symbols": 9255, "starbucks": 29500, "sheet": 7123, "cite": 21893, "interacting": 21935, "\u093f": 1341, "warrington": 23051, "\u0294": 1139, "shortage": 15843, "knotted": 27039, "lp": 6948, "tomb": 8136, "tariff": 23234, "##ling": 2989, "amino": 13096, "face": 2227, "climate": 4785, "pie": 11345, "\u00b9\u2044\u2082": 18728, "##jet": 15759, "marianne": 19887, "[unused737]": 742, "starter": 11753, "horrific": 23512, "worlds": 8484, "rahman": 14364, "pious": 25020, "celeste": 21113, "##\u092a": 29864, "largest": 2922, "camouflage": 21356, "##dilly": 28832, "symbol": 6454, "carp": 29267, "[unused851]": 856, "crumpled": 19814, "guineas": 22385, "poke": 26202, "cheltenham": 18763, "item": 8875, "sector": 4753, "quoted": 9339, "protests": 8090, "motifs": 17366, "contestants": 10584, "own": 2219, "watson": 7908, "praised": 5868, "##dong": 17679, "defeats": 14222, "cheeks": 6029, "lobby": 9568, "aristocracy": 22706, "nate": 8253, "##rel": 16570, "[unused359]": 364, "commonplace": 27550, "furthermore": 7297, "##\u0b9f": 29920, "retrieval": 26384, "##\u208d": 30087, "shuffled": 18764, "olympic": 4386, "maritime": 7803, "##bat": 14479, "grimsby": 24470, "##powering": 23948, "sportsman": 27168, "dormant": 22170, "synthesizer": 13564, "incorporated": 5100, "dan": 4907, "furnace": 17533, "york": 2259, "plainly": 24250, "theoretically": 22634, "[unused234]": 239, "vanderbilt": 17066, "##dell": 12662, "crisis": 5325, "bonus": 6781, "cares": 14977, "spokesperson": 15974, "toledo": 13163, "##rium": 18802, "evident": 10358, "fake": 8275, "oregon": 5392, "##\u02e3": 29718, "fuji": 20933, "grab": 6723, "larvae": 9673, "gm": 13938, "##pps": 28281, "christchurch": 15880, "[unused807]": 812, "derives": 12153, "##om": 5358, "dusk": 18406, "##\u798f": 30452, "wikipedia": 16948, "huts": 23326, "doctorate": 8972, "publications": 5523, "coiled": 24599, "sited": 28603, "adhere": 25276, "often": 2411, "abrupt": 18772, "sequential": 25582, "licenses": 15943, "##osing": 18606, "##mus": 7606, "xml": 20950, "keel": 19602, "##x": 2595, "homosexual": 15667, "phoenix": 6708, "[unused992]": 997, "libya": 12917, "sheldon": 19369, "monopoly": 15404, "isil": 19600, "##ations": 10708, "empires": 23560, "intel": 13420, "syed": 19740, "huskies": 29471, "##under": 20824, "swinging": 11820, "skiing": 12701, "whitaker": 27049, "smack": 21526, "[unused275]": 280, "sawmill": 24744, "mathematicians": 29374, "balfour": 27560, "hardwood": 23165, "fictional": 7214, "suzy": 28722, "paths": 10425, "advisers": 24205, "sixty": 8442, "##ude": 12672, "##makers": 12088, "heidelberg": 16793, "piers": 16067, "##genic": 16505, "purchases": 17402, "##tte": 4674, "pierce": 9267, "roller": 11220, "unfortunately": 6854, "##tock": 17406, "spikes": 19547, "##olved": 16116, "chili": 20238, "1869": 7845, "]": 1033, "omitted": 16647, "navigate": 22149, "##lch": 29358, "garland": 17017, "reluctance": 21662, "##ennial": 22929, "bellamy": 25544, "281": 22955, "youths": 19634, "[unused849]": 854, "politely": 16954, "winnie": 27125, "hears": 14994, "aerodrome": 23843, "excellent": 6581, "##nta": 12380, "housed": 7431, "designated": 4351, "rai": 15547, "zoom": 24095, "threats": 8767, "##eni": 18595, "##iness": 9961, "##\u6c0f": 30417, "conclusions": 15306, "269": 25717, "750": 9683, "runaway": 19050, "planets": 11358, "##ando": 28574, "##qvist": 28705, "1908": 5316, "##ajan": 28869, "##eb": 15878, "liturgical": 19246, "harmless": 19741, "169": 18582, "aspect": 7814, "itself": 2993, "necessarily": 9352, "symphonies": 29355, "compass": 16681, "282": 26267, "constraints": 14679, "pound": 9044, "essendon": 25149, "realities": 22213, "meritorious": 22053, "blindly": 25734, "##gus": 12349, "admiring": 24588, "inheritance": 12839, "sibling": 22941, "descend": 18855, "##ih": 19190, "##\u0292": 29704, "freshly": 20229, "bend": 8815, "developed": 2764, "gift": 5592, "\u30e3": 1728, "confronting": 26964, "daphne": 16847, "yearly": 12142, "tales": 7122, "##tted": 16190, "##hes": 15689, "##rney": 27114, "switches": 15924, "fridays": 26587, "1713": 27016, "officer": 2961, "franklin": 5951, "lil": 13451, "##gled": 11533, "lucius": 15639, "duet": 11979, "apprenticeship": 20448, "\u53f2": 1790, "mix": 4666, "gabe": 12900, "graduating": 6800, "spacecraft": 12076, "loses": 12386, "hanson": 17179, "[unused281]": 286, "wrath": 14532, "rom": 17083, "lays": 19764, "cheering": 24867, "biodiversity": 17194, "flawless": 27503, "elephant": 10777, "##bots": 27014, "##\u0926": 29861, "pandit": 29331, "\u5973": 1815, "improves": 24840, "protagonist": 10191, "##\u2192": 30113, "real": 2613, "attempted": 4692, "turrets": 21088, "harshly": 21052, "##neil": 27276, "##ence": 10127, "decks": 19963, "edged": 13011, "program": 2565, "##avi": 18891, "determination": 9128, "157": 17403, "##sive": 12742, "basis": 3978, "slits": 29199, "117": 12567, "ill": 5665, "slicing": 26514, "ming": 11861, "insult": 15301, "##kat": 24498, "wanting": 5782, "\u3093": 1691, "sciences": 4163, "coco": 25033, "mystic": 17477, "life": 2166, "elliptic": 29413, "##\u03b9\u03b1": 27432, "\u0259": 1114, "carlton": 12989, "ke": 17710, "universite": 22176, "tires": 13310, "societal": 23382, "##\u79be": 30453, "gruff": 27038, "gardener": 19785, "apprentice": 13357, "tu": 10722, "##verted": 26686, "##rgen": 25892, "romanian": 7056, "graveyard": 16685, "incredibly": 11757, "dinosaur": 15799, "##ntes": 17340, "1776": 13963, "tremor": 27734, "engage": 8526, "sight": 4356, "stepped": 3706, "schwartz": 16756, "870": 28864, "prefecture": 7498, "listener": 19373, "contractor": 13666, "propagation": 20594, "barbed": 25007, "medical": 2966, "limerick": 15679, "\u1165": 1472, "screwing": 29082, "##\u0192": 29675, "melinda": 23721, "nerve": 9113, "##aq": 20784, "sincerity": 23997, "substantially": 12381, "extraction": 14676, "shu": 18454, "rei": 24964, "racing": 3868, "##away": 9497, "baghdad": 13952, "hispanic": 6696, "inversion": 28527, "prototypes": 19599, "deportation": 23702, "[unused192]": 197, "innings": 7202, "plaque": 11952, "bois": 19651, "bearings": 21714, "##stra\u00dfe": 24967, "announcement": 8874, "[unused931]": 936, "until": 2127, "assess": 14358, "donna": 10972, "rangers": 7181, "##amen": 27245, "otherwise": 4728, "fried": 13017, "peters": 12420, "marxism": 27255, "reel": 15934, "lone": 10459, "##\u5289": 30303, "##ken": 7520, "##rat": 8609, "##\u00aa": 29653, "probing": 28664, "loved": 3866, "[unused12]": 13, "stall": 13498, "sheds": 25999, "responses": 10960, "shuffle": 23046, "elect": 11322, "\u2229": 1604, "##tman": 22942, "##mund": 25574, "mons": 29408, "mag": 23848, "astronauts": 25881, "mc": 11338, "dynamo": 17205, "wrought": 18481, "forth": 5743, "examining": 12843, "##hetic": 20086, "hubert": 15346, "transcription": 14193, "cosmopolitan": 24686, "needy": 23927, "quest": 8795, "richards": 9712, "owes": 24381, "fictitious": 23577, "twenty": 3174, "bathed": 24614, "councillors": 13189, "[unused178]": 183, "causeway": 23336, "mirrors": 13536, "##ndon": 19333, "hastings": 12296, "amazing": 6429, "moat": 25266, "telenovela": 25754, "hurting": 11878, "buys": 23311, "burgundy": 18383, "subconscious": 27952, "tata": 23236, "fernandez": 12023, "jonah": 15617, "ki": 11382, "disbanded": 8532, "practised": 20439, "##rzy": 28534, "##^": 29637, "hermit": 24308, "[unused357]": 362, "budapest": 10926, "shitty": 28543, "##rnik": 26437, "emotion": 7603, "strips": 12970, "declined": 6430, "rt": 19387, "incorporation": 16935, "enlightenment": 16724, "systematic": 11778, "iran": 4238, "bolts": 19947, "minions": 28071, "overheard": 20443, "##bel": 8671, "inspiring": 18988, "novel": 3117, "milford": 22622, "battling": 17773, "iraq": 5712, "tre": 29461, "parental": 18643, "sniffing": 27646, "perfume": 17013, "policing": 21107, "basilica": 13546, "monty": 18446, "[unused784]": 789, "uniforms": 11408, "fred": 5965, "lay": 3913, "##ible": 7028, "324": 27234, "hp": 6522, "mitochondrial": 23079, "fredrik": 25454, "##rite": 17625, "offspring": 13195, "launching": 12106, "530": 23523, "snatch": 23365, "rca": 12639, "admire": 19837, "##pool": 16869, "atlantis": 16637, "fourteen": 7426, "nokia": 22098, "so": 2061, "desk": 4624, "##hwa": 18663, "[unused650]": 655, "ads": 14997, "towel": 10257, "grandmother": 7133, "cancers": 25409, "pioneered": 16193, "lastly": 22267, "lids": 26122, "escalated": 26814, "charming": 11951, "tanks": 7286, "expeditionary": 15372, "drills": 28308, "verify": 20410, "painting": 4169, "metaphor": 19240, "defect": 21262, "mackenzie": 11407, "resembled": 15881, "competing": 6637, "76": 6146, "montane": 21704, "figurative": 29407, "tier": 7563, "##red": 5596, "ring": 3614, "##uj": 23049, "##ych": 17994, "127": 13029, "\u0ba9": 1387, "success": 3112, "elmer": 21464, "dickson": 22076, "endorsed": 11763, "edition": 3179, "stuffing": 28652, "footballers": 27784, "historian": 5272, "bold": 7782, "##dic": 14808, "##felt": 26675, "tina": 11958, "hungry": 7501, "\u304d": 1652, "##ifice": 23664, "##lles": 20434, "covered": 3139, "possessive": 22105, "techniques": 5461, "actresses": 19910, "##zily": 28431, "breach": 12510, "hoax": 28520, "molecule": 13922, "benefit": 5770, "##vino": 26531, "said": 2056, "persona": 16115, "convention": 4680, "stella": 11894, "##tung": 21847, "samurai": 16352, "obscene": 27744, "universally": 21186, "flowering": 10902, "listeners": 13810, "handle": 5047, "##logic": 27179, "dunlop": 27458, "retirement": 5075, "phosphate": 17344, "afternoons": 24738, "hedge": 17834, "raja": 10164, "westbound": 24717, "bull": 7087, "burns": 7641, "gore": 13638, "marvel": 8348, "mabel": 19486, "[unused418]": 423, "nah": 20976, "iec": 24940, "expects": 24273, "king": 2332, "devised": 14917, "databases": 17881, "##rger": 25858, "mascara": 27700, "##fting": 26169, "recognise": 17614, "##rith": 24292, "qin": 19781, "cbe": 15852, "nonprofit": 14495, "spirited": 24462, "finely": 22126, "togo": 23588, "##loading": 18570, "bishop": 3387, "finn": 9303, "ropes": 14607, "predatory": 21659, "obstruction": 27208, "pal": 14412, "haitian": 21404, "conductors": 23396, "deposited": 14140, "artist": 3063, "\u2227": 1602, "independent": 2981, "##nay": 16741, "anomaly": 28685, "stalin": 13125, "documentary": 4516, "subdued": 20442, "grill": 18651, "avoiding": 9992, "bless": 19994, "places": 3182, "class": 2465, "iteration": 27758, "brigade": 4250, "sham": 25850, "again": 2153, "achieved": 4719, "##\u6a4b": 30411, "##ioms": 29178, "perry": 6890, "[unused511]": 516, "relocation": 18344, "potentially": 9280, "triangles": 27189, "tong": 15740, "terminates": 28790, "radar": 7217, "kw": 6448, "plaintiffs": 23953, "zeus": 15208, "interface": 8278, "bea": 26892, "##ny": 4890, "##ani": 7088, "intervened": 21116, "sufficient": 7182, "##\u0283": 29696, "teased": 13074, "begun": 5625, "maxwell": 10691, "##ua": 6692, "1834": 10700, "typhoon": 15393, "##quisite": 24871, "##fu": 11263, "##rcle": 21769, "ongoing": 7552, "orthodox": 6244, "molecular": 8382, "##ment": 3672, "\u27e9": 1630, "bursts": 19239, "duluth": 28218, "weir": 16658, "tossing": 15021, "entropy": 23077, "\u2092": 1562, "cisco": 26408, "teeth": 4091, "iconic": 14430, "##bbies": 27982, "lyricist": 19489, "neglected": 15486, "dempsey": 28165, "organist": 16397, "bulldog": 28628, "glue": 25238, "curving": 21439, "pontiac": 24538, "crashes": 19119, "hopeless": 20625, "##am": 3286, "pharaoh": 22089, "##ote": 12184, "##uously": 28078, "##venting": 26703, "completes": 28123, "economist": 11708, "simmons": 13672, "vaughan": 14461, "nazis": 13157, "cardinal": 7185, "bellevue": 26756, "[unused79]": 80, "amnesty": 16154, "presently": 12825, "[unused728]": 733, "unsuccessful": 7736, "piston": 16733, "uber": 19169, "##ricted": 20623, "illustration": 14614, "##hoe": 14490, "only": 2069, "ostensibly": 23734, "polymer": 17782, "pamela": 17217, "alvin": 17348, "matthews": 12351, "1782": 16890, "spheres": 19885, "dungeon": 16633, "subcontinent": 26125, "aeronautics": 27459, "ems": 29031, "##\u02c8": 29715, "survivors": 8643, "\u0639": 1288, "postal": 10690, "[unused564]": 569, "fate": 6580, "##let": 7485, "superb": 21688, "\uff0f": 1992, "shiva": 12535, "ironically": 18527, "jr": 3781, "whom": 3183, "je": 15333, "component": 6922, "madly": 29179, "##gi": 5856, "ch": 10381, "dubai": 11558, "patents": 13979, "\u2097": 1566, "inappropriate": 15884, "dave": 4913, "##heim": 8049, "fundraising": 15524, "capital": 3007, "##\u014b": 29673, "mika": 27857, "prediction": 17547, "transported": 9687, "cannons": 17138, "ideals": 15084, "refugees": 8711, "proud": 7098, "##rata": 14660, "conducted": 4146, "geschichte": 28299, "sought": 4912, "##\u2154": 30110, "##uch": 10875, "shared": 4207, "talked": 5720, "prescott": 20719, "verbal": 12064, "exempt": 11819, "intercourse": 23198, "##\u30a1": 30218, "236": 23593, "abnormal": 19470, "overcame": 26463, "promise": 4872, "shannon": 10881, "[unused903]": 908, "\u0f56": 1431, "tabitha": 21581, "rum": 19379, "taliban": 16597, "medicinal": 20632, "##\u05d8": 29795, "donegal": 25415, "creditors": 23112, "january": 2254, "successfully": 5147, "imminent": 17566, "insane": 9577, "\u090f": 1314, "chieftain": 26625, "thermal": 9829, "inning": 12994, "wave": 4400, "chiefly": 15897, "sec": 10819, "##arded": 28037, "##dina": 18979, "convertible": 22840, "towed": 18948, "\u2032": 1531, "mcintosh": 29052, "##raphy": 26228, "bf": 28939, "connacht": 27062, "glamorgan": 23861, "lords": 8140, "##\u2095": 30093, "##nessy": 25441, "relegation": 9591, "meetings": 6295, "turret": 14493, "sw": 25430, "financed": 13790, "flicker": 17909, "commitments": 17786, "saunders": 15247, "cabbage": 28540, "hank": 9180, "bun": 21122, "264": 21611, "1933": 4537, "lived": 2973, "remedy": 19519, "bark": 11286, "crow": 11465, "earliest": 5700, "##nington": 23155, "hemisphere": 14130, "schooner": 21567, "delayed": 8394, "charitable": 11128, "[unused790]": 795, "glenn": 9465, "clocks": 20940, "propeller": 15692, "horatio": 27752, "townsville": 27492, "##ym": 24335, "affiliates": 18460, "excerpts": 24962, "retired": 3394, "sur": 7505, "hms": 7220, "[unused687]": 692, "why": 2339, "adherents": 25712, "woods": 5249, "cover": 3104, "regional": 3164, "##rka": 22379, "fork": 9292, "academie": 19669, "##gb": 18259, "psychologists": 25428, "##yed": 20821, "fatally": 26292, "ejected": 22607, "parenting": 28586, "furniture": 7390, "fresh": 4840, "blackwell": 18776, "##ae": 6679, "##oku": 21940, "gives": 3957, "gujarat": 14288, "hoc": 21929, "tailored": 21727, "roughly": 5560, "skinner": 17451, "wally": 18202, "disadvantage": 20502, "disposal": 13148, "##en": 2368, "monarch": 11590, "dimly": 25361, "##\u0f66": 29972, "realms": 18814, "manfred": 19149, "jenkins": 11098, "thatcher": 21127, "##\u793e": 30450, "goethe": 23173, "##rda": 13639, "oven": 17428, "armada": 25306, "december": 2285, "960": 26637, "appreciate": 9120, "rabbis": 25602, "eureka": 21142, "sabre": 22002, "##osphere": 25444, "##station": 20100, "companies": 3316, "chesterfield": 22699, "##\u110e": 30001, "possibly": 4298, "\u0bb5": 1394, "##[": 29634, "##\u0442": 22919, "##laya": 22923, "shortstop": 25359, "##tonic": 25009, "fit": 4906, "##bm": 25526, "killing": 4288, "blurred": 18449, "1880": 6756, "##nical": 20913, "hermes": 24127, "centered": 8857, "##\u6b63": 30414, "hiroshi": 26882, "##\u02e1": 29716, "unified": 10562, "telugu": 12180, "geological": 9843, "angled": 18756, "carriage": 9118, "acquaintances": 29409, "orchestral": 13533, "giggling": 21783, "traction": 16493, "bowie": 14598, "holloway": 20977, "##child": 19339, "liked": 4669, "decca": 21079, "empowered": 26480, "skylar": 27970, "diversified": 24908, "worm": 15485, "\u028c": 1134, "hokkaido": 20826, "copyright": 9385, "##fields": 15155, "##ped": 5669, "99": 5585, "[MASK]": 103, "withdraw": 10632, "operators": 9224, "vu": 24728, "##\u2217": 30125, "higgins": 13466, "lennon": 14294, "maker": 9338, "function": 3853, "identifiable": 27800, "##liest": 21292, "##tenberg": 21806, "slam": 9555, "alexandra": 10481, "hostile": 10420, "[unused867]": 872, "aspiring": 22344, "deck": 5877, "jacques": 7445, "[unused553]": 558, "christy": 21550, "840": 28122, "possess": 10295, "sneaking": 20727, "trainers": 21992, "raised": 2992, "##\u30ca": 30241, "lane": 4644, "broom": 23528, "[unused64]": 65, "gazing": 16448, "nero": 19212, "\u30e5": 1729, "ir": 20868, "combining": 11566, "gu": 19739, "saddam": 24111, "kiev": 12100, "intensive": 11806, "maharaja": 21609, "commodity": 19502, "prefix": 17576, "goalkeeper": 9653, "cylindrical": 18797, "iss": 26354, "[unused581]": 586, "quarters": 7728, "##cum": 24894, "searching": 6575, "ping": 17852, "2019": 10476, "##lster": 29576, "knocked": 6573, "[unused67]": 68, "tombstone": 26671, "ipad": 25249, "pharmaceutical": 13859, "bernie": 15941, "donated": 6955, "irene": 12855, "grease": 21956, "rhone": 22351, "##dates": 27122, "poked": 16826, "galen": 21062, "investigators": 14766, "u": 1057, "\u043c": 1191, "din": 11586, "fairly": 7199, "praying": 14488, "##\u8279": 30465, "tb": 26419, "share": 3745, "kitty": 14433, "seated": 8901, "neighbouring": 9632, "brave": 9191, "tammy": 19971, "ingram": 23231, "##formed": 29021, "bray": 19743, "fivb": 28423, "[unused544]": 549, "inflation": 14200, "[unused435]": 440, "britney": 29168, "reorganization": 17118, "[unused214]": 219, "perpetrators": 27675, "##year": 29100, "\u099a": 1356, "multinational": 20584, "mosaic": 16061, "clarke": 8359, "offset": 16396, "monograph": 24039, "hummed": 26747, "compliant": 24577, "##ept": 23606, "bronx": 14487, "deputies": 11964, "madagascar": 11934, "lining": 14834, "##ood": 17139, "##ane": 7231, "dubois": 26258, "narrows": 25142, "##bre": 13578, "acted": 6051, "loft": 19459, "##le": 2571, "thing": 2518, "originating": 14802, "\u2096": 1565, "designs": 5617, "siblings": 9504, "nova": 6846, "chickens": 21868, "claws": 10702, "mall": 6670, "george": 2577, "proceed": 10838, "westward": 15165, "behalf": 6852, "peaks": 11373, "blast": 8479, "[unused625]": 630, "newcomer": 16866, "jd": 26219, "sporadic": 24590, "if": 2065, "germain": 19192, "strikers": 26049, "rescues": 26001, "awakened": 20256, "andrews": 9261, "intense": 6387, "fe": 10768, "gary": 5639, "\u0cbe": 1402, "1991": 2889, "vet": 29525, "freiburg": 22871, "gaddafi": 28924, "[unused404]": 409, "barnsley": 25139, "249": 23628, "spain": 3577, "planes": 9738, "poking": 21603, "mare": 11941, "skill": 8066, "##oi": 10448, "##hin": 10606, "##urian": 29091, "[unused380]": 385, "portable": 12109, "[unused702]": 707, "##\u0bae": 29925, "##\u2665": 30152, "akira": 21616, "today": 2651, "343": 27810, "##ard": 4232, "cpi": 28780, "malayalam": 12998, "cone": 13171, "poured": 8542, "serbian": 6514, "remark": 17674, "very": 2200, "princess": 4615, "##udeau": 27627, "highlights": 11637, "originated": 7940, "inhabited": 9613, "252": 22898, "cologne": 10918, "1862": 6889, "parker": 6262, "peanut": 21443, "beau": 17935, "gracie": 19005, "deteriorated": 20111, "topping": 22286, "havana": 15278, "maintain": 5441, "perception": 10617, "bedrock": 28272, "##\u898b": 30474, "##\u1d62": 19109, "robot": 8957, "##ning": 5582, "ndp": 21915, "guam": 16162, "bloomfield": 25584, "many": 2116, "hilltop": 25566, "##less": 3238, "wrist": 7223, "[unused592]": 597, "civilian": 6831, "##mora": 22122, "che": 18178, "fins": 18564, "##ito": 9956, "existence": 4598, "cigarette": 9907, "[unused583]": 588, "##urs": 9236, "um": 8529, "herzegovina": 11453, "##rine": 11467, "funeral": 6715, "coven": 25248, "hanged": 17818, "evade": 26399, "hamas": 22129, "[unused957]": 962, "enigma": 26757, "repaired": 13671, "precise": 10480, "awake": 8300, "assemble": 21365, "migrated": 13447, "##deh": 25383, "orioles": 18893, "stopped": 3030, "[unused228]": 233, "tokyo": 5522, "enthusiastic": 14727, "##bruck": 28985, "\u110c": 1464, "seas": 11915, "subgenus": 25356, "[unused952]": 957, "onset": 14447, "indiana": 5242, "categories": 7236, "##sey": 7952, "peek": 19043, "athenian": 26956, "\u03c6": 1176, "replicate": 28024, "##rut": 22134, "illustrating": 28252, "##vana": 27313, "402": 28048, "##ipes": 28108, "##zhou": 9791, "silesian": 20453, "teen": 9458, "##tura": 27431, "seventh": 5066, "governed": 9950, "doo": 20160, "partnerships": 13797, "ito": 23333, "norm": 13373, "royal": 2548, "##ij": 28418, "hospitals": 8323, "heroes": 7348, "\u057a": 1233, "earl": 4656, "[unused242]": 247, "##\u0575": 29777, "tna": 20108, "##rane": 18053, "lutheran": 10034, "flemish": 15427, "closely": 4876, "corrections": 20983, "slightest": 15989, "malmo": 23643, "steered": 23424, "spending": 5938, "social": 2591, "writhing": 26185, "##\u0632": 29823, "onward": 15834, "sho": 26822, "hallway": 6797, "stacks": 20829, "noir": 15587, "consumer": 7325, "nj": 19193, "spores": 23763, "realise": 19148, "##\u2091": 30090, "tam": 17214, "frail": 25737, "flees": 24776, "[unused245]": 250, "poetic": 13805, "christ": 4828, "cameras": 8629, "carpet": 10135, "##olar": 19478, "parallel": 5903, "crystals": 14438, "fails": 11896, "clinched": 18311, "freestyle": 9817, "wolff": 23498, "punches": 17957, "yanked": 10963, "178": 19289, "asia": 4021, "alzheimer": 21901, "farms": 8623, "##sman": 11512, "pedestrians": 24946, "club": 2252, "\u5408": 1792, "breaststroke": 28164, "grasping": 20854, "organizer": 19012, "preceded": 11677, "darwin": 11534, "vickers": 18571, "french": 2413, "\u8eca": 1954, "coping": 27520, "##utable": 23056, "irresistible": 27149, "gauge": 7633, "banging": 22255, "emotional": 6832, "##\u2015": 30053, "1885": 6571, "afrikaans": 28673, "sober": 17358, "launched": 3390, "ambiguous": 20080, "229": 22777, "younger": 3920, "[unused186]": 191, "closed": 2701, "\u0f53": 1429, "\u0438": 1188, "groans": 27778, "garment": 19002, "##\u2020": 30061, "subsequent": 4745, "memory": 3638, "incompatible": 25876, "1861": 6863, "expert": 6739, "evidently": 15329, "##\u967d": 30499, "cosmos": 21182, "##les": 4244, "turtles": 16489, "veterinary": 15651, "##ieu": 17301, "inca": 27523, "meath": 26856, "##carriage": 21539, "eric": 4388, "cochrane": 22329, "meet": 3113, "tables": 7251, "villains": 16219, "marcelo": 24984, "don": 2123, "uppsala": 25720, "##ruff": 26919, "##band": 12733, "tragedy": 10576, "tun": 27112, "1661": 24046, "balls": 7395, "1999": 2639, "rank": 4635, "duplicate": 24473, "##ster": 6238, "repression": 22422, "manipulated": 20063, "sud": 19219, "##\u02bb": 29711, "southwestern": 8772, "agree": 5993, "bedside": 19475, "patches": 13864, "convex": 18309, "[unused676]": 681, "feet": 2519, "intentional": 21249, "copa": 10613, "##\u0449": 29754, "@": 1030, "agency": 4034, "suspiciously": 21501, "##pen": 11837, "letterman": 26593, "hussein": 16543, "rankings": 10385, "performs": 10438, "1692": 28622, "pas": 14674, "johor": 25268, "[unused81]": 82, "customs": 8205, "##books": 17470, "debris": 11385, "wildcats": 19495, "tangent": 27250, "deepest": 17578, "genus": 3562, "engines": 5209, "happier": 19366, "##taken": 25310, "luigi": 15153, "detachments": 29568, "##\u6c37": 30421, "int": 20014, "kendall": 14509, "adjustable": 26404, "thierry": 26413, "dialects": 11976, "legislatures": 27977, "##hon": 8747, "erebidae": 25875, "declare": 13520, "benedict": 12122, "smash": 15132, "couldn": 2481, "sized": 7451, "strung": 23509, "preferences": 18394, "##ts": 3215, "load": 7170, "ignorant": 21591, "fantasy": 5913, "stockport": 26284, "edict": 24754, "[unused264]": 269, "\u0565": 1223, "##yd": 25688, "kathmandu": 28045, "oswald": 17411, "query": 23032, "oliveira": 24263, "##version": 27774, "##date": 13701, "##meyer": 24344, "##tral": 21493, "antarctic": 10227, "shoulders": 4065, "bore": 8501, "griffin": 9258, "blah": 27984, "rusty": 13174, "peeling": 28241, "hampson": 21780, "bowler": 14999, "##zos": 28370, "commotion": 23960, "##itating": 16518, "engaged": 5117, "ceilings": 21098, "medieval": 5781, "[unused42]": 43, "1890": 6193, "sheppard": 24976, "##udence": 29424, "##ere": 7869, "warming": 12959, "crafts": 14030, "oils": 20631, "wore": 5078, "capt": 14408, "growing": 3652, "qualify": 7515, "[unused901]": 906, "adventures": 7357, "vile": 25047, "##asurable": 28329, "\uff01": 1986, "asked": 2356, "bear": 4562, "##emon": 26941, "eun": 26070, "##\u548c": 30322, "ramon": 12716, "viaduct": 20596, "juvenile": 11799, "##bir": 17706, "##\u062b": 29818, "andrew": 4080, "script": 5896, "taunton": 28181, "[unused346]": 351, "guggenheim": 20402, "\u0e22": 1416, "inspections": 29589, "afghan": 12632, "contempt": 17152, "[unused139]": 144, "##eth": 11031, "proceedings": 8931, "beef": 12486, "rely": 11160, "drop": 4530, "##rogen": 22991, "lens": 10014, "zen": 16729, "phrase": 7655, "appellate": 23240, "differs": 12980, "saint": 3002, "doha": 26528, "breasts": 12682, "sectional": 27197, "province": 2874, "##mis": 15630, "1944": 3646, "rugged": 17638, "janet": 9965, "pendleton": 24349, "##uso": 26658, "renovation": 10525, "lucky": 5341, "entertaining": 14036, "camel": 19130, "ending": 4566, "\u10e2": 1453, "##rita": 17728, "##tma": 29418, "imagine": 5674, "evaluating": 23208, "keynes": 22152, "internationale": 21339, "wight": 20945, "murdoch": 19954, "bragg": 23678, "buffalo": 6901, "botswana": 19414, "##tosis": 25950, "courage": 8424, "suited": 10897, "er": 9413, "ching": 19992, "mage": 17454, "evidenced": 21328, "edison": 17046, "rodrigo": 18943, "\u305b": 1659, "tandem": 18231, "beard": 10154, "262": 21950, "trick": 7577, "stole": 10312, "##rled": 27501, "checks": 14148, "householder": 7536, "texans": 23246, "\u02be": 1147, "warnings": 16234, "jessie": 10934, "occupied": 4548, "artillery": 4893, "dockyard": 24874, "strokes": 13692, "##gun": 12734, "addressed": 8280, "max": 4098, "editor": 3559, "fourth": 2959, "chef": 10026, "##iji": 27821, "banning": 21029, "marries": 19941, "containment": 29174, "##rling": 22036, "wealthiest": 27809, "##fat": 27753, "intently": 16170, "nw": 22064, "death": 2331, "jackson": 4027, "coroner": 22896, "speculation": 12143, "russians": 12513, "shrill": 28349, "##bridge": 6374, "receives": 8267, "[unused666]": 671, "##ryn": 18143, "consumed": 10202, "298": 27240, "views": 5328, "presidents": 11274, "\u0434": 1184, "[unused341]": 346, "tribes": 6946, "##wyn": 11761, "depend": 12530, "lectured": 19206, "lick": 15385, "##brate": 22008, "psalms": 26130, "objections": 17304, "##icus": 14239, "978": 4891, "academy": 2914, "voting": 6830, "pau": 29025, "galilee": 28928, "bibliography": 24751, "outdoors": 19350, "##rang": 24388, "throbbed": 27714, "cared": 8725, "sterling": 10933, "developments": 8973, "[unused338]": 343, "kinetic": 20504, "oscar": 7436, "sired": 26940, "rods": 19485, "expanding": 9186, "analytical": 17826, "##uppe": 29547, "revealing": 8669, "langley": 19094, "moose": 17716, "##hered": 27190, "chopped": 24881, "\u03b1": 1155, "erupted": 12591, "chests": 28717, "exemplary": 27792, "introduction": 4955, "illicit": 25049, "##dorf": 11592, "advise": 18012, "signs": 5751, "glare": 10982, "migratory": 22262, "unicode": 27260, "1640": 21533, "chichester": 23406, "specialty": 12233, "##bau": 27773, "\u3078": 1675, "81": 6282, "imprisoned": 8580, "58": 5388, "imaging": 12126, "sponge": 25742, "surpassed": 15602, "bean": 14068, "disperse": 28736, "nintendo": 10022, "asteroids": 26732, "gall": 26033, "reference": 4431, "fourier": 26899, "chloe": 9318, "parchment": 22433, "##\u5e73": 30365, "##wu": 16050, "##\u5b97": 30347, "watford": 21740, "##pi": 8197, "##rank": 26763, "\u0dcf": 1408, "##\u30d2": 30245, "mavericks": 28330, "##hman": 13890, "colchester": 20115, "aggressive": 9376, "coptic": 27672, "protective": 9474, "hinges": 25484, "altar": 9216, "atari": 18978, "labs": 13625, "##llon": 22179, "transportation": 5193, "armchair": 29372, "regulars": 24945, "christie": 13144, "compositions": 9265, "atkins": 21087, "realizing": 9301, "ticked": 26019, "northeastern": 8763, "##ctive": 15277, "honest": 7481, "secrets": 7800, "anal": 20302, "##nged": 21558, "##itz": 8838, "attitudes": 13818, "pedestal": 24496, "##odle": 26156, "gunshot": 22077, "opted": 12132, "contender": 20127, "imprisonment": 10219, "contracts": 8311, "leyte": 27214, "severed": 16574, "mace": 19382, "successes": 14152, "##gny": 19393, "toast": 15174, "sept": 17419, "comparison": 7831, "imagining": 16603, "contemplating": 25247, "##aj": 13006, "youthful": 22446, "wat": 28194, "context": 6123, "recited": 24843, "believed": 3373, "georges": 10870, "refining": 28596, "##zek": 24506, "respect": 4847, "rick": 6174, "eh": 15501, "[unused453]": 458, "wiring": 27930, "[unused606]": 611, "##night": 15864, "[unused711]": 716, "squadron": 3704, "single": 2309, "broadly": 13644, "suppliers": 20141, "sf": 16420, "huffed": 25014, "satisfy": 13225, "##cre": 16748, "[unused451]": 456, "fallout": 23902, "reza": 26323, "critics": 4401, "demonstrating": 14313, "timor": 19746, "yves": 19687, "cerambycidae": 13168, "[unused56]": 57, "##vis": 11365, "galley": 27124, "practitioners": 14617, "moving": 3048, "407": 28941, "grassroots": 23299, "[unused755]": 760, "various": 2536, "700": 6352, "\u0b9a": 1383, "\u03b2": 1156, "\u8a9e": 1950, "sweep": 11740, "schubert": 24645, "##\u20b1": 30103, "position": 2597, "180": 8380, "presidential": 4883, "lung": 11192, "##as": 3022, "monroe": 9747, "arranging": 19018, "fragment": 15778, "warrior": 6750, "##\u0e40": 29959, "\u702c": 1905, "cremated": 28376, "interactive": 9123, "thunder": 8505, "soul": 3969, "customized": 28749, "fabian": 21174, "stench": 21555, "floor": 2723, "##awa": 10830, "application": 4646, "rpg": 22531, "reaches": 6561, "favored": 12287, "shirts": 11344, "techno": 21416, "italianate": 25302, "##lga": 27887, "guess": 3984, "talking": 3331, "haste": 24748, "steamed": 21734, "seconds": 3823, "generator": 13103, "log": 8833, "[unused143]": 148, "##nent": 21576, "toulouse": 17209, "tenor": 9534, "##\u667a": 30395, "khmer": 19472, "sourced": 23184, "vulture": 27588, "##pins": 27915, "lady": 3203, "##lysis": 26394, "centenary": 17705, "triassic": 29529, "modernism": 27254, "marquez": 27320, "##ks": 5705, "##lifting": 26644, "recommended": 6749, "operation": 3169, "further": 2582, "\u2228": 1603, "biologist": 21477, "govt": 22410, "scream": 6978, "platt": 28005, "gallery": 3916, "gerais": 29220, "alternatively": 14084, "montenegrin": 24099, "complement": 13711, "evan": 9340, "becker": 15309, "causing": 4786, "[unused989]": 994, "em": 7861, "populated": 10357, "suits": 11072, "textbook": 16432, "psychiatrist": 18146, "creations": 20677, "mist": 11094, "\u30ea": 1732, "absurd": 18691, "crew": 3626, "touring": 6828, "medalist": 12968, "stomach": 4308, "##yr": 12541, "##olis": 20872, "messed": 18358, "##\u21d2": 30119, "##ege": 24746, "##\u062f": 15394, "bela": 20252, "count": 4175, "saratoga": 23136, "father": 2269, "superseded": 19886, "imposing": 16625, "wiley": 18825, "operations": 3136, "muttering": 22581, "##eno": 16515, "included": 2443, "dazzling": 28190, "researches": 27338, "defamation": 27652, "##hism": 23108, "institut": 17126, "werewolf": 12797, "tip": 5955, "defunct": 11984, "sneakers": 28130, "generation": 4245, "ethnic": 5636, "independents": 23756, "\u09b6": 1374, "\u3009": 1638, "##alia": 22786, "times": 2335, "whose": 3005, "tulsa": 16631, "1658": 28944, "regeneration": 20045, "##rge": 20800, "daryl": 22514, "dowager": 20508, "##\u2193": 30114, "alias": 14593, "anterior": 15099, "cotton": 6557, "wolves": 8588, "teachings": 12209, "christine": 10941, "tallinn": 21169, "##was": 17311, "##28": 22407, "marcos": 14810, "blinking": 15997, "these": 2122, "viral": 13434, "blackened": 25788, "myself": 2870, "##ett": 6582, "harassed": 28186, "ashok": 28916, "nephew": 7833, "organisation": 5502, "##dick": 24066, "berry": 10498, "adi": 27133, "battered": 17548, "ammunition": 9290, "##leader": 19000, "jays": 18930, "miles": 2661, "subsided": 26588, "viii": 9937, "evelyn": 12903, "vaccine": 17404, "craven": 21232, "##\u026b": 29686, "##vre": 12229, "devlin": 24389, "policeman": 14460, "bequeathed": 27180, "noticed": 4384, "##cted": 10985, "ghz": 29066, "boot": 9573, "tap": 11112, "unbelievable": 23653, "associations": 8924, "\u5c0f": 1829, "##culus": 28703, "hoisted": 27269, "transylvania": 20816, "martinique": 29365, "html": 16129, "cartridge": 15110, "moritz": 28461, "carnegie": 11298, "23rd": 13928, "fixing": 15887, "limousine": 28012, "pcs": 27019, "[unused171]": 176, "shrink": 22802, "##ness": 2791, "[unused955]": 960, "ego": 13059, "rhetoric": 17871, "immortal": 12147, "##\u091f": 29856, "opposed": 4941, "arabic": 5640, "##cured": 19405, "electrode": 28688, "stocked": 24802, "beginnings": 16508, "received": 2363, "##qual": 26426, "slapping": 22021, "hereford": 21136, "salts": 23480, "synonym": 10675, "##dak": 23597, "maroon": 22222, "sense": 3168, "sul": 21396, "##\u6e05": 30429, "suspend": 28324, "rs": 12667, "##\u00f0": 29668, "asteroid": 12175, "brandy": 17951, "emissions": 11768, "renaissance": 8028, "discrete": 16246, "guilty": 5905, "##moor": 17622, "stalks": 29594, "critic": 6232, "era": 3690, "stabilization": 28715, "wrinkled": 15968, "console": 10122, "stamford": 22469, "townships": 13991, "##8th": 28264, "charlie": 4918, "lyon": 10241, "businessmen": 17353, "pry": 29198, "interspersed": 25338, "experimentation": 21470, "##anal": 27953, "adopted": 4233, "##lved": 26832, "inequality": 16440, "audit": 15727, "sprang": 15627, "##bham": 25522, "runoff": 19550, "welfare": 7574, "##26": 23833, "venezuelan": 15332, "renewable": 13918, "isn": 3475, "honour": 6225, "##p": 2361, "inspirational": 28676, "airplay": 15341, "station": 2276, "sima": 26769, "janeiro": 11497, "probability": 9723, "bullshit": 14636, "tugs": 29306, "buffet": 28305, "bruises": 18438, "marion": 10115, "garbage": 13044, "pickup": 15373, "contribute": 9002, "[unused194]": 199, "angie": 14835, "hunger": 9012, "rotation": 9963, "trade": 3119, "centennial": 15483, "##grating": 28183, "##rked": 19849, "yi": 12316, "deeds": 15616, "##sher": 19603, "scottish": 4104, "escaping": 13002, "##icia": 24108, "ap": 9706, "apps": 18726, "trading": 6202, "punishment": 7750, "##enstein": 21819, "commits": 27791, "stimulate": 23216, "(": 1006, "unincorporated": 7754, "demonic": 23170, "clutches": 29497, "versatile": 22979, "hazel": 14015, "voyager": 23493, "consul": 11801, "thames": 11076, "treatments": 13441, "bath": 7198, "peers": 12746, "intersect": 29261, "warehouse": 9746, "robust": 15873, "1930s": 5687, "disgusted": 17733, "seeming": 16064, "##wana": 21761, "##\u043e": 14150, "strands": 14119, "hackney": 28425, "contingent": 15445, "winners": 4791, "tire": 12824, "display": 4653, "gear": 6718, "facial": 13268, "##ising": 9355, "##\u0f53": 29965, "##een": 12129, "tainted": 26392, "[unused309]": 314, "##ined": 21280, "[unused845]": 850, "##zel": 12638, "marina": 9985, "plateau": 9814, "checkpoint": 26520, "##usa": 10383, "anime": 8750, "1688": 24082, "valve": 10764, "##\u208e": 30088, "rayon": 26810, "voltage": 10004, "##0": 2692, "[unused304]": 309, "grasp": 10616, "screenplay": 9000, "##iction": 28097, "limitation": 22718, "serials": 28172, "conserved": 19995, "crush": 10188, "breeds": 15910, "##wc": 16526, "##tian": 10772, "delilah": 23006, "##orro": 29459, "##mian": 20924, "indeed": 5262, "quality": 3737, "f1": 20069, "##jad": 27875, "johansson": 26447, "upbringing": 24615, "##lson": 14881, "paddle": 20890, "traded": 7007, "das": 8695, "patted": 11930, "##inium": 27585, "partisan": 14254, "battalions": 10157, "warriors": 6424, "uncredited": 8104, "ecole": 12431, "airplane": 13297, ",": 1010, "shelter": 7713, "[unused478]": 483, "russell": 5735, "cromwell": 16759, "##\u02b0": 29706, "upland": 25770, "lakshmi": 21352, "josh": 6498, "##abas": 27537, "##cer": 17119, "jeffrey": 10799, "##kney": 26993, "congregations": 16850, "flaps": 26570, "fated": 27442, "[unused22]": 23, "##hampton": 21946, "##rp": 14536, "deadline": 15117, "[unused327]": 332, "ll": 2222, "polar": 11508, "college": 2267, "marcel": 13389, "sui": 24086, "subsp": 24807, "##tsa": 27110, "religious": 3412, "shopping": 6023, "1550": 26245, "menu": 12183, "1638": 27497, "warn": 11582, "lore": 19544, "disappointed": 9364, "[unused567]": 572, "buy": 4965, "##\u208a": 30086, "instrumentalist": 29253, "slovenian": 16583, "##phila": 26083, "cozy": 26931, "mates": 14711, "##coming": 18935, "libby": 19533, "relieved": 7653, "\u8fb6": 1956, "##ms": 5244, "ringing": 13060, "##sonic": 18585, "ruining": 27853, "secretly": 10082, "[unused37]": 38, "heck": 17752, "rhine": 10950, "hubbard": 16580, "[unused66]": 67, "salute": 17664, "cracks": 15288, "proclamation": 16413, "mcdowell": 25005, "78": 6275, "[SEP]": 102, "born": 2141, "holland": 7935, "would": 2052, "rake": 26008, "referring": 7727, "##\u028b": 29699, "notably": 5546, "biceps": 27947, "bonnie": 12220, "variance": 23284, "chestnut": 15655, "saxophonist": 19977, "palace": 4186, "barrio": 25676, "[unused788]": 793, "whistled": 26265, "cricketer": 9490, "##og": 8649, "##vary": 21639, "expressions": 11423, "interact": 11835, "bethany": 16559, "growth": 3930, "jakob": 19108, "system": 2291, "fail": 8246, "chorale": 26561, "##ors": 5668, "against": 2114, "medici": 22605, "greedy": 20505, "ant": 14405, "sedan": 15134, "membranes": 24972, "##uga": 16377, "##mounted": 27632, "zipper": 22082, "##urity": 25137, "fare": 13258, "survey": 5002, "2001": 2541, "americana": 25988, "[unused154]": 159, "310": 17196, "##\u0f54": 29966, "##rsk": 27472, "stakeholders": 22859, "speedway": 10688, "arrives": 8480, "concession": 16427, "##cuting": 29163, "chalk": 16833, "annual": 3296, "sued": 12923, "fellows": 13572, "\u057d": 1234, "##lous": 15534, "##dou": 26797, "bacterial": 17341, "croix": 18733, "##\u304f": 30179, "phenomena": 13352, "reporting": 7316, "helpful": 14044, "##mia": 10092, "cinemas": 19039, "triple": 6420, "##\u10d7": 29980, "ked": 16135, "\u1d35": 1493, "religion": 4676, "improvisation": 24584, "assisted": 7197, "images": 4871, "democracy": 7072, "competition": 2971, "society": 2554, "creatures": 7329, "apologetic": 29352, "domingo": 15586, "lux": 28359, "collectors": 14256, "heavens": 17223, "conflicting": 19326, "1932": 4673, "canceled": 13261, "yorker": 19095, "line": 2240, "receivers": 19278, "briefs": 28760, "sea": 2712, "nsa": 23971, "##\u1162": 30007, "easing": 24070, "sicilian": 22584, "[unused367]": 372, "mechanic": 15893, "##an": 2319, "access": 3229, "antibody": 27781, "deliver": 8116, "[unused467]": 472, "25": 2423, "directing": 9855, "prank": 26418, "academies": 20994, "##\u4e0a": 30268, "newest": 14751, "samson": 18375, "hotel": 3309, "##fusion": 20523, "##eiro": 17166, "iranian": 7726, "reduces": 13416, "forested": 15205, "53": 5187, "heavier": 11907, "ira": 11209, "500": 3156, "nicolas": 9473, "ju": 18414, "##logie": 27095, "guo": 22720, "##nism": 28113, "filmmaker": 12127, "ulster": 11059, "##wick": 7184, "majesty": 9995, "ur": 24471, "hawke": 24882, "compounds": 10099, "carving": 18441, "cake": 9850, "skopje": 29255, "##vron": 28588, "\u7af9": 1933, "freud": 19338, "lending": 18435, "replaces": 20736, "climbing": 8218, "descriptions": 13271, "shelf": 11142, "##ely": 26006, "trout": 13452, "##icative": 25184, "varies": 9783, "steady": 6706, "1767": 21502, "table": 2795, "energies": 19320, "meanings": 15383, "[unused429]": 434, "evergreen": 16899, "##rooms": 29020, "\u5dff": 1837, "electrons": 15057, "##sum": 17421, "unfair": 15571, "hahn": 24266, "procedure": 7709, "pang": 20657, "communicating": 20888, "denomination": 18683, "##lage": 20679, "portions": 8810, "warden": 13745, "flashback": 21907, "##pton": 15857, "quote": 14686, "exemption": 19621, "blessing": 13301, "mathew": 25436, "applicants": 17362, "##bei": 19205, "##lyn": 9644, "cautious": 17145, "tangible": 24600, "description": 6412, "serialized": 27289, "sacrificed": 20268, "mb": 16914, "insistence": 20616, "roadway": 18799, "georgia": 4108, "files": 6764, "bash": 24234, "\u03b7": 1161, "1632": 28216, "soluble": 24345, "\u3001": 1635, "homemade": 25628, "kidnapping": 15071, "voiced": 6126, "minute": 3371, "##zell": 24085, "##growth": 26982, "kane": 8472, "memorandum": 20336, "heels": 8265, "[unused897]": 902, "jolt": 22538, "faust": 24021, "buddhist": 7992, "##+": 29622, "[unused148]": 153, "comics": 5888, "mendez": 28950, "moi": 25175, "##kr": 21638, "[unused863]": 868, "wai": 23701, "contacted": 11925, "trafficking": 11626, "\u045b": 1217, "derivative": 13819, "##\u043d": 18947, "humiliated": 26608, "longed": 23349, "##eki": 26576, "presenter": 10044, "1980": 3150, "blindness": 26290, "outraged": 23558, "[unused74]": 75, "intrusion": 24554, "swelling": 18348, "enslaved": 22216, "##dly": 18718, "instruction": 7899, "##dom": 9527, "[unused485]": 490, "fallon": 16443, "spare": 8622, "geologist": 21334, "fireplace": 13788, "border": 3675, "affectionately": 28734, "mortar": 14335, "\u05e7": 1264, "\u044a": 1205, "adaptive": 19293, "detainees": 26485, "rue": 13413, "revenge": 7195, "##ow": 5004, "##uve": 22909, "exchanging": 25620, "references": 7604, "waller": 23550, "##hema": 28433, "sampled": 18925, "\uff0c": 1989, "\u7fa9": 1936, "feature": 3444, "famous": 3297, "1954": 4051, "statesman": 17689, "quick": 4248, "blanket": 8768, "investors": 9387, "awaiting": 15497, "335": 24426, "##ps": 4523, "enlisted": 9417, "roar": 11950, "forbidden": 10386, "liberation": 7931, "kissing": 7618, "japanese": 2887, "jurassic": 19996, "botany": 17018, "collided": 17745, "train": 3345, "wee": 16776, "1771": 20708, "muffled": 15783, "bike": 7997, "##nden": 25915, "tractor": 16358, "powers": 4204, "##tty": 15353, "affiliation": 12912, "entertained": 21474, "##dio": 20617, "instrumentation": 16015, "treason": 14712, "##ues": 15808, "\u4e95": 1754, "accreditation": 14893, "sera": 26358, "[unused368]": 373, "transactions": 11817, "bobbed": 29579, "hazard": 15559, "staircase": 10714, "cycling": 9670, "rendered": 10155, "prospects": 16746, "[unused360]": 365, "##mbling": 29256, "18": 2324, "##\u09c0": 29916, "scoffed": 26326, "slower": 12430, "arrest": 6545, "kits": 18628, "##ela": 10581, "calais": 23116, "[unused693]": 698, "##yala": 28617, "##plication": 21557, "##sat": 16846, "capsule": 18269, "transitions": 22166, "\u2ebc": 1633, "nt": 23961, "##ward": 7652, "payment": 7909, "##\u516b": 30297, "eliminate": 11027, "##tion": 3508, "comedian": 9971, "under": 2104, "##bered": 22408, "##werk": 29548, "blacksmith": 20987, "##quist": 18331, "unearthed": 27422, "sonya": 27926, "1920s": 6641, "flood": 7186, "manila": 9011, "muslim": 5152, "##oda": 13390, "duel": 14216, "guitarist": 5990, "##\u6226": 30382, "##wed": 15557, "dissolve": 21969, "slump": 28702, "copying": 24731, "\u099b": 1357, "alyssa": 26442, "tully": 25724, "quakers": 28301, "mention": 5254, "canyon": 8399, "##\u90e1": 30485, "hindus": 18221, "##13": 17134, "\u9053": 1957, "digits": 16648, "##wad": 26016, "celebrate": 8439, "picket": 28972, "defects": 18419, "decorated": 7429, "basha": 26074, "\u661f": 1866, "##due": 20041, "commonwealth": 5663, "stan": 9761, "dexter": 14375, "##osi": 20049, "bombardier": 29143, "addicted": 23042, "stumbled": 9845, "registration": 8819, "##rim": 20026, "[unused565]": 570, "rattled": 19252, "[unused764]": 769, "2014": 2297, "daniels": 13196, "\u2116": 1578, "network": 2897, "gideon": 12137, "franciscan": 19420, "\u79be": 1927, "##\u25aa": 30145, "verlag": 14552, "congenital": 27480, "leap": 11679, "reaper": 19559, "##duced": 28901, "circa": 12800, "##lter": 21928, "bmg": 24499, "##rting": 24097, "##vio": 25500, "tumbled": 18303, "swirling": 16499, "huh": 9616, "##ram": 6444, "[unused185]": 190, "##ndt": 26379, "##\uff0d": 30516, "technically": 10892, "implication": 25323, "notion": 9366, "departmental": 28912, "bret": 25626, "[unused886]": 891, "forms": 3596, "iucn": 20333, "sweeney": 21178, "doubtful": 21888, "hasn": 8440, "fascism": 23779, "traverse": 20811, "mbe": 20301, "##guchi": 16918, "cap": 6178, "kurdistan": 23627, "josiah": 24461, "theatre": 3004, "deserts": 28858, "undo": 25672, "resignation": 8172, "##\u06be": 29844, "decide": 5630, "##cule": 21225, "tchaikovsky": 25900, "ctv": 28720, "[unused780]": 785, "ferries": 20157, "century": 2301, "louisville": 11577, "reynolds": 9579, "pulse": 8187, "suggested": 4081, "linking": 11383, "secretariat": 15128, "##\u8a01": 30475, "vessels": 6470, "vishnu": 17647, "##analysis": 25902, "guardian": 6697, "unharmed": 28150, "revolution": 4329, "crate": 27297, "motorsports": 20711, "wow": 10166, "happy": 3407, "##lynn": 27610, "##stream": 21422, "sunset": 10434, "##\u3002": 30162, "##ioned": 19798, "mouthed": 20521, "daughters": 5727, "instinctively": 16607, "alam": 26234, "scraping": 23704, "\u2030": 1530, "##quet": 12647, "##uder": 29190, "##game": 16650, "cold": 3147, "immigration": 7521, "sam": 3520, "airports": 13586, "uncovered": 14486, "overturned": 17068, "destinations": 14345, "natalia": 21521, "kiel": 20963, "marketplace": 18086, "crippled": 24433, "##loh": 24729, "##\u0d9a": 29939, "bulgarian": 7643, "disk": 9785, "##sov": 23230, "tbilisi": 22406, "depending": 5834, "lim": 18525, "considerations": 16852, "bryan": 8527, "series": 2186, "##?": 29632, "arrests": 17615, "fleetwood": 23866, "shaman": 23610, "dates": 5246, "toes": 10393, "readiness": 19822, "attack": 2886, "cream": 6949, "rights": 2916, "donor": 15009, "bucharest": 14261, "utility": 9710, "##sit": 28032, "##finger": 20349, "donations": 11440, "sum": 7680, "##hly": 27732, "1849": 9037, "bravo": 17562, "dodd": 21258, "wastewater": 28269, "extant": 12905, "##hip": 5605, "##gers": 15776, "##rz": 15378, "massachusetts": 4404, "##one": 5643, "##ump": 24237, "middletown": 28747, "##\u2044": 30070, "validation": 27354, "##zes": 11254, "##borg": 11755, "##pol": 18155, "clans": 16411, "undertook": 12543, "jen": 15419, "tanker": 20135, "duets": 29410, "fjord": 26158, "navigator": 20532, "counterpart": 13637, "educator": 11490, "sandwich": 11642, "growling": 22413, "outlaw": 19104, "mocked": 24195, "supposed": 4011, "settings": 10906, "films": 3152, "521": 26963, "voodoo": 21768, "##kura": 28260, "jess": 12245, "appearances": 3922, "stroll": 27244, "bass": 3321, "impetus": 27961, "##ching": 8450, "##over": 7840, "zealand": 3414, "quan": 24110, "menace": 19854, "##static": 16677, "##kor": 21815, "reformer": 24767, "\u0937": 1337, "kayla": 26491, "\u897f": 1947, "##\u30db": 30248, "smoke": 5610, "570": 24902, "[unused953]": 958, "judgment": 8689, "##chemical": 15869, "##vara": 24516, "obituary": 20815, "ability": 3754, "##gor": 20255, "jagger": 25827, "armor": 8177, "stalls": 19753, "wards": 11682, "spherical": 18970, "ultrasound": 27312, "##mbo": 13344, "exhibitions": 8596, "sweaty": 19889, "[unused974]": 979, "rudd": 25298, "lexington": 14521, "newbury": 29457, "sound": 2614, "quiet": 4251, "fr": 10424, "feasibility": 24010, "lu": 11320, "\u201e": 1525, "##dating": 16616, "pierre": 5578, "snatched": 14177, "excavated": 15199, "centralized": 22493, "[unused746]": 751, "##\u76ee": 30444, "##pers": 7347, "101": 7886, "decimal": 26066, "\u5c71": 1831, "taunting": 29442, "fraser": 9443, "thrusting": 21468, "\u056c": 1226, "height": 4578, "guides": 12468, "##hun": 17157, "##fication": 10803, "hungarians": 24027, "starboard": 25211, "lose": 4558, "\u30c8": 1714, "treated": 5845, "delaying": 29391, "invited": 4778, "manor": 6952, "##listic": 27348, "##uno": 27819, "invincible": 25018, "##cious": 18436, "##claim": 25154, "##ctable": 23576, "known": 2124, "##cies": 9243, "chambers": 8477, "mlb": 10901, "##cky": 17413, "prosperity": 14165, "welcoming": 18066, "marius": 20032, "yokohama": 20507, "ren": 14916, "attributes": 12332, "lds": 17627, "[unused28]": 29, "##vd": 16872, "width": 9381, "ibm": 9980, "psalm": 22728, "##icides": 22698, "bogota": 21240, "inched": 25330, "investigations": 9751, "bas": 19021, "dove": 10855, "[unused500]": 505, "\u06c1": 1308, "pennsylvania": 3552, "harper": 8500, "proficiency": 26293, "[unused91]": 92, "##\u1105": 29994, "accumulated": 14830, "expanded": 4423, "warsaw": 8199, "slides": 14816, "introduces": 13999, "rr": 25269, "dickinson": 17590, "##rgan": 16998, "##rri": 18752, "##jer": 20009, "clinics": 17865, "concentrate": 10152, "20th": 3983, "terror": 7404, "##verance": 21998, "trait": 18275, "presenting": 10886, "1845": 9512, "antigua": 26023, "##s\u0142aw": 23305, "bordeaux": 16384, "lass": 27333, "educating": 25088, "kaitlyn": 28584, "compilation": 6268, "bingham": 24579, "penang": 21812, "nominations": 9930, "\u7ae0": 1932, "painful": 9145, "##tip": 25101, "##vington": 21827, "##logical": 9966, "quartet": 8530, "neck": 3300, "##lei": 23057, "\u0baf": 1390, "186": 19609, "headed": 3753, "soto": 22768, "monuments": 10490, "rovers": 9819, "dragon": 5202, "pietro": 15541, "ecosystem": 16927, "macau": 16878, "##sons": 23345, "fashion": 4827, "##\u05e1": 29804, "thrive": 25220, "unpredictable": 21446, "vaudeville": 19698, "\u793a": 1923, "##pina": 26787, "move": 2693, "[unused152]": 157, "##\u5e1d": 30364, "tho": 27793, "bursting": 21305, "medallist": 28595, "secured": 7119, "[unused981]": 986, "feminine": 12320, "bamboo": 15216, "jozef": 23258, "trip": 4440, "[unused789]": 794, "antigen": 28873, "[unused177]": 182, "reckless": 18555, "disappears": 17144, "[unused643]": 648, "strewn": 25259, "vampires": 6144, "bullying": 18917, "recalling": 21195, "\u5fa1": 1847, "##cast": 10526, "sparkled": 28092, "opponents": 7892, "organic": 7554, "##zzi": 13793, "##\u2194": 30115, "winding": 12788, "##llie": 23697, "language": 2653, "moisture": 14098, "reunion": 10301, "##plify": 28250, "dreamer": 24726, "prestigious": 8919, "ie": 29464, "##ker": 5484, "determining": 12515, "missions": 6416, "283": 25504, "##dice": 24598, "nikita": 29106, "austrian": 6161, "routing": 16972, "##romatic": 23645, "##ibe": 20755, "##jan": 8405, "##osaurus": 25767, "[unused601]": 606, "shall": 4618, "##\u0906": 29848, "rec": 28667, "##acing": 26217, "bulb": 20581, "tangled": 14170, "plumbing": 27902, "trustee": 13209, "amore": 26297, "\u0e2a": 1420, "##\u1112": 30005, "bathing": 17573, "phases": 12335, "volunteers": 7314, "gone": 2908, "forgive": 9641, "##ok": 6559, "textile": 12437, "pegasus": 26606, "edo": 18314, "##jia": 26541, "convict": 20462, "deceased": 10181, "gael": 28151, "textual": 25304, "shoe": 10818, "rogers": 7369, "relies": 16803, "mecca": 21340, "##\u30b7": 30232, "passages": 13768, "##oz": 18153, "##eil": 24359, "wages": 12678, "32nd": 20628, "tripoli": 21841, "aground": 29406, "1763": 18432, "eye": 3239, "ecuador": 10378, "##con": 8663, "cartoon": 9476, "condom": 20910, "##ugh": 8953, "dalai": 28511, "cornered": 25878, "programmed": 16984, "##mple": 23344, "rao": 10546, "adaptations": 17241, "##qa": 19062, "functional": 8360, "slate": 12796, "worthless": 22692, "pillow": 10005, "clap": 28618, "surroundings": 11301, "580": 23712, "cooks": 26929, "malone": 16321, "\u5e1d": 1838, "composite": 12490, "[unused912]": 917, "##ony": 16585, "reads": 9631, "summary": 12654, "##week": 28075, "discreet": 29321, "##\u0255": 29680, "##\u304b": 30177, "##ov": 4492, "flourishing": 29571, "style": 2806, "1648": 22533, "##pala": 19636, "throttle": 24420, "lb": 6053, "##ear": 14644, "relieve": 15804, "prosecutor": 12478, "jayne": 24408, "turbulence": 29083, "##hay": 24180, "dom": 14383, "judiciary": 14814, "fearing": 14892, "chronicles": 11906, "municipal": 4546, "leicester": 11258, "##athic": 20972, "brows": 11347, "##kell": 18690, "sgt": 17001, "crap": 10231, "composer": 4543, "[unused991]": 996, "heaved": 19970, "foot": 3329, "joint": 4101, "\u5065": 1768, "##nesian": 20281, "minas": 21750, "anguish": 21782, "norms": 17606, "hampstead": 29557, "antiques": 27763, "clashed": 22600, "[unused880]": 885, "electors": 19165, "rained": 28270, "##lvis": 28530, "disdain": 25134, "osaka": 13000, "sheep": 8351, "spouse": 18591, "[unused892]": 897, "lakers": 18264, "##dc": 16409, "##gies": 17252, "holders": 13304, "mirrored": 22243, "concourse": 28571, "dictionary": 9206, "atomic": 9593, "uci": 14504, "[unused748]": 753, "y": 1061, "keyboardist": 20173, "tc": 22975, "translates": 16315, "##nga": 13807, "1934": 4579, "##hear": 26560, "brass": 8782, "berg": 15214, "sovereign": 11074, "trailer": 9117, "parameter": 16381, "##cor": 27108, "bahamas": 17094, "dwellers": 28857, "orphan": 18211, "[unused255]": 260, "bit": 2978, "persian": 4723, "annexed": 13291, "civic": 8388, "faint": 8143, "l": 1048, "##lizer": 28863, "##ene": 8625, "poised": 22303, "ware": 16283, "glen": 8904, "skull": 7412, "##pore": 26691, "award": 2400, "eyre": 26975, "se": 7367, "elle": 15317, "brigham": 22727, "##wave": 16535, "wheelchair": 13204, "hurriedly": 23878, "cops": 10558, "geese": 28519, "decommissioned": 14394, "pushing": 6183, "stirring": 18385, "groups": 2967, "##phon": 20846, "##wi": 9148, "infinite": 10709, "immune": 11311, "danube": 16212, "fractured": 21726, "spd": 23772, "orphanage": 18504, "##cera": 19357, "##atory": 14049, "skies": 15717, "cincinnati": 7797, "salazar": 25315, "##rus": 7946, "##lva": 22144, "##atal": 27815, "greens": 15505, "fingers": 3093, "##\u026a": 29685, "##uis": 27020, "##urance": 25863, "red": 2417, "politician": 3761, "ambush": 15283, "wed": 21981, "mosque": 8806, "downed": 20164, "lame": 20342, "[unused369]": 374, "sumner": 23922, "strengths": 20828, "##bala": 25060, "transition": 6653, "gardens": 5822, "stepmother": 26959, "coordination": 12016, "[unused988]": 993, "lineman": 24062, "##lau": 17298, "dawson": 11026, "breathed": 8726, "affect": 7461, "yuri": 14331, "##psy": 18075, "dealer": 11033, "celebrities": 12330, "reactor": 13308, "##us": 2271, "hazy": 26710, "hugged": 10308, "addison": 18403, "significant": 3278, "electronic": 4816, "##water": 5880, "globe": 7595, "comply": 14037, "feng": 19004, "able": 2583, "colored": 6910, "bind": 14187, "frances": 10360, "307": 24559, "firth": 25138, "##\u2500": 30142, "##\u5b9a": 30348, "histories": 15215, "instances": 12107, "##view": 8584, "superficial": 23105, "collaborators": 21315, "condo": 25805, "##ette": 7585, "salvage": 18340, "schizophrenia": 23683, "bond": 5416, "buren": 29470, "sneered": 28098, "matter": 3043, "tnt": 24048, "walking": 3788, "endorsement": 20380, "usl": 22448, "calculating": 20177, "##\u306f": 30198, "census": 2883, "##nami": 28987, "tentacles": 24719, "key": 3145, "wrongly": 29116, "frankfurt": 9780, "karate": 16894, "reigned": 21236, "spearheaded": 27721, "learns": 10229, "focuses": 7679, "##po": 6873, "sergio": 13983, "flu": 19857, "nationalism": 14594, "spirits": 8633, "september": 2244, "##\u2663": 30151, "[unused414]": 419, "marie": 5032, "gained": 4227, "sharpened": 26694, "comedy": 4038, "portrays": 17509, "hog": 27589, "giles": 13287, "amos": 13744, "week": 2733, "90s": 17233, "song": 2299, "band": 2316, "[unused882]": 887, "americas": 10925, "scalp": 21065, "divisional": 14167, "securely": 28999, "ronnie": 11688, "allan": 8926, "sauce": 12901, "sonata": 14681, "negotiated": 13630, "##iste": 27870, "amazed": 15261, "189": 20500, "expression": 3670, "road": 2346, "vowels": 15260, "archery": 21383, "##taff": 22542, "##ham": 3511, "election": 2602, "[unused684]": 689, "##ary": 5649, "1757": 22621, "##idal": 16975, "roma": 12836, "rochelle": 25649, "michigan": 4174, "nonsense": 14652, "##llus": 20159, "veronica": 13133, "##nikov": 22576, "ref": 25416, "##\u671d": 30400, "my": 2026, "frowning": 14587, "assigns": 24022, "##ions": 8496, "bowen": 16208, "saturn": 14784, "##eaux": 25639, "caitlin": 27555, "martian": 20795, "entry": 4443, "cutting": 6276, "##nk": 8950, "##rou": 22494, "liu": 8607, "arrogance": 24416, "muscular": 13472, "privacy": 9394, "wwii": 25755, "##est": 4355, "choices": 9804, "##hel": 16001, "nervous": 6091, "archipelago": 13888, "remarried": 19316, "##yce": 29297, "tidal": 15065, "[unused661]": 666, "neon": 16231, "slave": 6658, "lobes": 24423, "475": 28245, "offs": 12446, "##chai": 24925, "majestic": 22337, "remained": 2815, "epidemic": 16311, "jan": 5553, "racist": 16939, "pier": 10356, "quinn": 8804, "saline": 28413, "thoroughbred": 18359, "helicopters": 12400, "clair": 17936, "rev": 7065, "cho": 16480, "himalayan": 28333, "nato": 10079, "##trix": 29184, "chained": 22075, "##co": 3597, "pa": 6643, "rubber": 8903, "flashes": 16121, "electric": 3751, "##\u6c34": 30419, "bug": 11829, "undeveloped": 29341, "framework": 7705, "##ex": 10288, "explode": 15044, "diver": 17856, "##mise": 28732, "denominations": 17384, "refit": 27070, "roster": 9238, "2007": 2289, "frustration": 9135, "bible": 6331, "us": 2149, "##hiti": 27798, "legitimacy": 22568, "\u1d62": 1507, "ghana": 9701, "holder": 9111, "##tica": 22723, "##body": 23684, "##\u4ebb": 30283, "85": 5594, "\u00a31": 14534, "managerial": 24465, "83": 6640, "ruby": 10090, "cumberland": 12310, "underwood": 22751, "##dding": 27027, "council": 2473, "spiritual": 6259, "progressed": 12506, "charleston": 10907, "involuntary": 26097, "##mobile": 17751, "succession": 8338, "estonia": 10692, "leaning": 6729, "##bin": 8428, "##rvis": 29074, "##zcz": 29419, "clube": 24852, "results": 3463, "hopes": 8069, "##cultural": 29415, "injured": 5229, "stephane": 26624, "rabbit": 10442, "dive": 11529, "thanking": 28638, "delaware": 8452, "boeing": 10321, "flights": 7599, "[unused270]": 275, "\u02b8": 1144, "deprived": 17676, "##nath": 16207, "mitsubishi": 19695, "\u0928": 1327, "[unused896]": 901, "costing": 22173, "morales": 17103, "reason": 3114, "vendors": 17088, "qui": 21864, "1649": 26538, "estimated": 4358, "safari": 23591, "indo": 11424, "ha": 5292, "superstructure": 28391, "\u1167": 1474, "theo": 14833, "oceanic": 18955, "pour": 10364, "\u30ec": 1734, "hat": 6045, "\u0939": 1339, "##peration": 29487, "\u3092": 1690, "plantation": 10065, "ida": 16096, "enthusiast": 29550, "literature": 3906, "kissed": 4782, "##do": 3527, "[unused365]": 370, "nicholson": 16955, "bin": 8026, "snakes": 12971, "noah": 7240, "stripping": 23987, "menacing": 24060, "occasion": 6686, "##\u0baf": 29926, "add": 5587, "perpetual": 18870, "artists": 3324, "nike": 18368, "pregnant": 6875, "snow": 4586, "##asi": 21369, "smirked": 18775, "spot": 3962, "kobayashi": 28930, "owls": 22388, "shootout": 18297, "peat": 23366, "##ume": 17897, "timeline": 17060, "roxy": 23682, "##zai": 25290, "prepare": 7374, "\u8857": 1946, "##bry": 25731, "certification": 10618, "riga": 17557, "##urus": 20089, "hartford": 13381, "[unused506]": 511, "dagger": 10794, "thumped": 28963, "##eon": 10242, "callum": 15229, "specialist": 8325, "passion": 6896, "sparta": 21251, "sex": 3348, "sailed": 7434, "##\u05da": 29797, "interests": 5426, "##logies": 21615, "graphical": 20477, "around": 2105, "meadows": 13524, "139": 16621, "##mind": 23356, "diplomatic": 8041, "terrified": 10215, "hauled": 13161, "##fight": 20450, "oldham": 18285, "conceded": 15848, "latitude": 15250, "atp": 12649, "wished": 6257, "colleagues": 8628, "##hma": 22444, "westphalia": 22952, "divide": 11443, "##rdan": 26992, "rare": 4678, "siegel": 27996, "entitled": 4709, "[unused761]": 766, "[unused801]": 806, "##bling": 9709, "interviews": 7636, "fool": 7966, "##ghi": 28891, "1775": 14276, "unused": 15171, "5th": 4833, "rocco": 28167, "flats": 14201, "heaviest": 26858, "sand": 5472, "cinematography": 16434, "[unused965]": 970, "##ots": 12868, "groundwater": 22761, "##hak": 20459, "##lov": 14301, "apartment": 4545, "interpretation": 7613, "relativity": 20805, "proved": 4928, "[unused973]": 978, "connie": 16560, "loyal": 8884, "emma": 5616, "[unused664]": 669, "section": 2930, "blows": 13783, "\u2099": 1568, "gill": 12267, "knoxville": 20021, "niagara": 15473, "##sily": 26863, "\u4ebb": 1757, "acute": 11325, "halifax": 10475, "820": 26667, "##fm": 16715, "hamburg": 8719, "azerbaijani": 18325, "##lity": 18605, "mice": 12328, "##ois": 10054, "basically": 10468, "mw": 12464, "occurring": 10066, "des": 4078, "albion": 13392, "loosened": 22456, "vertebrae": 25517, "competitors": 10159, "##48": 18139, "##list": 9863, "institute": 2820, "thoughtful": 16465, "silver": 3165, "\u10e0": 1451, "routledge": 21180, "saxe": 24937, "habitats": 10746, "siberian": 21822, "certain": 3056, "fielding": 15452, "thirteen": 7093, "merrill": 16239, "moscow": 4924, "[unused543]": 548, "##var": 10755, "650": 13757, "serie": 8668, "politicians": 8801, "applies": 12033, "bromley": 27979, "dewey": 20309, "##phus": 25255, "oxford": 4345, "whilst": 5819, "halle": 19769, "##insky": 20894, "strife": 27865, "qualities": 11647, "millie": 19561, "clears": 28837, "excitement": 8277, "morris": 6384, "##orno": 26295, "etched": 20286, "dominating": 21949, "sleeper": 24372, "celestial": 17617, "scully": 25686, "directive": 16449, "##name": 18442, "jules": 11044, "drivers": 6853, "outs": 21100, "prevention": 9740, "telegraph": 10013, "speechless": 25146, "manages": 9020, "##coat": 16531, "ether": 28855, "[unused530]": 535, "childbirth": 27162, "##\u30b5": 30231, "suffolk": 12291, "photograph": 9982, "hampton": 11615, "##tically": 25084, "wildlife": 6870, "resonance": 17011, "##kha": 15256, "encouraging": 11434, "miners": 11257, "ollie": 25208, "\u0917": 1317, "membrane": 10804, "crumbling": 24827, "14": 2403, "temperate": 16868, "\u00a6": 1072, "##gned": 19225, "murdered": 7129, "##kot": 23342, "assume": 7868, "doll": 10658, "snarl": 24845, "approval": 6226, "promotional": 10319, "kiran": 22403, "\u4e16": 1745, "##\u3084": 30208, "troll": 18792, "mongolian": 17855, "stream": 5460, "convert": 10463, "promotions": 15365, "constrained": 27570, "arkansas": 6751, "45": 3429, "voices": 5755, "\u76f8": 1919, "erin": 11781, "##pies": 13046, "##hre": 28362, "loneliness": 20334, "discharge": 11889, "website": 4037, "##\u0630": 29822, "\u0d9a": 1403, "poisoning": 16149, "##aa": 11057, "articulated": 20742, "refuses": 10220, "contenders": 27236, "telescope": 12772, "besieged": 17923, "##ay": 4710, "##ify": 8757, "##\u0250": 29676, "barred": 15605, "brendan": 15039, "gilles": 21717, "##aster": 24268, "##utz": 20267, "katrina": 16864, "loyalist": 23414, "expeditions": 15014, "##orum": 20527, "##qua": 16211, "surpassing": 27097, "##grant": 18980, "tributary": 8914, "gerald": 9659, "replaced": 2999, "change": 2689, "differed": 19541, "enormous": 8216, "opportunity": 4495, "##nched": 19282, "emeritus": 12372, "brewery": 12161, "garry": 21507, "sliced": 15920, "decreed": 28447, "##gaon": 27073, "cheyenne": 17778, "pistols": 18248, "supporting": 4637, "kyoto": 15008, "hyun": 21108, "##igen": 29206, "plasma": 12123, "keith": 6766, "##lette": 27901, "insertion": 23851, "ama": 25933, "retrospective": 15354, "blinked": 7948, "alien": 7344, "division": 2407, "matilda": 17981, "twists": 21438, "##ivity": 7730, "denise": 15339, "insulted": 23637, "\u3046": 1648, "lilith": 25576, "thickness": 14983, "##sser": 18116, "swallows": 26436, "##cking": 23177, "surrounded": 5129, "gilded": 23880, "epic": 8680, "gunnar": 26138, "[unused539]": 544, "chords": 18495, "prized": 25695, "attends": 23933, "cullen": 19925, "neighboring": 8581, "logging": 15899, "features": 2838, "massage": 21881, "residency": 14079, "tri": 13012, "1965": 3551, "narrow": 4867, "coldly": 24745, "sings": 10955, "##ang": 5654, "##lam": 10278, "##\u06c1": 29845, "authorship": 26324, "psycho": 18224, "hard": 2524, "organizers": 18829, "board": 2604, "attraction": 8432, "\u98df": 1978, "historically": 7145, "brittle": 24650, "elbow": 8999, "tear": 7697, "nee": 7663, "shame": 9467, "amplifier": 22686, "basics": 24078, "lee": 3389, "hemingway": 27299, "solar": 5943, "stat": 28093, "##\u82b1": 30466, "dynasties": 23014, "let": 2292, "showtime": 23811, "caucasus": 16512, "commenting": 15591, "\u3068": 1666, "kerala": 8935, "railing": 15747, "jupiter": 13035, "##vance": 21789, "##kko": 22426, "inhibitors": 25456, "policemen": 19809, "strained": 12250, "##pose": 20688, "anticipated": 11436, "##washed": 27283, "insert": 19274, "starr": 14330, "tobacco": 9098, "poole": 19107, "regrets": 23161, "kunst": 28145, "##lington": 18722, "[unused180]": 185, "townspeople": 27938, "falcon": 11684, "peterborough": 17587, "##sun": 19729, "operated": 3498, "conway": 14783, "##aria": 10980, "small": 2235, "busiest": 20530, "##lka": 26518, "philips": 19087, "\u1103": 1457, "receipts": 28258, "bubbling": 25054, "pursed": 21954, "ravens": 17272, "##\u03b3": 29721, "wooded": 17172, "anger": 4963, "invade": 18445, "ciudad": 20759, "[unused611]": 616, "comedic": 21699, "breaking": 4911, "sore": 14699, "royals": 15426, "met": 2777, "seized": 8243, "hawaii": 7359, "shooter": 13108, "##app": 29098, "sandwiches": 22094, "\u03b9": 1163, "frey": 20068, "plagued": 17808, "providers": 11670, "johnstone": 24160, "rainfall": 10101, "##gement": 20511, "amateurs": 24361, "blue": 2630, "rounded": 8352, "mantle": 16019, "collected": 5067, "treasurer": 10211, "##pp": 9397, "abigail": 15983, "##woman": 10169, "##lai": 19771, "notification": 26828, "keystone": 22271, "shattered": 10909, "buck": 10131, "gray": 3897, "##hner": 28989, "##hrer": 17875, "##:": 29627, "##ada": 8447, "sykes": 23531, "afc": 10511, "##hala": 19531, "1628": 28627, "florida": 3516, "\u592a": 1812, "serpent": 16517, "prestige": 14653, "methodist": 8938, "throwing": 6886, "porn": 22555, "\u0e23": 1417, "mg": 11460, "357": 26231, "lark": 23404, "compromised": 20419, "bobo": 27418, "tours": 7562, "hmm": 17012, "gibson": 9406, "fergus": 21023, "##breakers": 27623, "suffer": 9015, "ottawa": 8166, "signal": 4742, "##pur": 5311, "1919": 4529, "judged": 13224, "excelled": 23081, "impatience": 28011, "victim": 6778, "overshadowed": 28604, "1844": 9730, "##das": 8883, "##lova": 24221, "55th": 29075, "##\u09b0": 29908, "subjects": 5739, "shake": 6073, "2004": 2432, "##ston": 7106, "hinted": 21795, "polo": 11037, "##oven": 25592, "##ropriation": 26121, "eliminated": 5892, "persons": 5381, "##onic": 12356, "##ion": 3258, "cooler": 14976, "suddenly": 3402, "##lang": 25023, "send": 4604, "sha": 21146, "entourage": 25342, "w": 1059, "##geny": 17487, "71": 6390, "download": 8816, "ares": 23631, "##uous": 8918, "goaltender": 21437, "##filtration": 28674, "prosecuted": 21651, "[unused402]": 407, "##,": 29623, "vietnamese": 9101, "##\u09a8": 29902, "stabbed": 13263, "locking": 14889, "middleweight": 18741, "whereas": 6168, "stroking": 14943, "##atic": 12070, "erotic": 14253, "\u0444": 1199, "rebels": 8431, "##hill": 7100, "sacred": 6730, "coastline": 15458, "##zman": 24340, "receptionist": 23775, "\u2044": 1535, "##efined": 28344, "##optera": 25324, "helsinki": 12331, "##like": 10359, "bohemian": 18063, "appropriations": 22713, "interrupt": 17938, "filmed": 6361, "remotely": 19512, "his": 2010, "douglass": 27485, "junction": 5098, "##kei": 29501, "##\u00b6": 29660, "##\u85e4": 30470, "##ains": 28247, "sideways": 12579, "problematic": 18636, "rang": 8369, "##ky": 4801, "fatima": 27596, "##oo": 9541, "commandant": 15254, "radically": 25796, "tilted": 9939, "circus": 9661, "encore": 19493, "##chio": 23584, "diagnosis": 11616, "hesitate": 16390, "hanging": 5689, "domination": 17882, "##uh": 27225, "alessandro": 17956, "\u30a3": 1694, "niger": 16842, "auditioned": 23008, "introductions": 25795, "[unused16]": 17, "joao": 16304, "##writer": 15994, "intervals": 14025, "ensures": 21312, "\u4ec1": 1758, "##\u03c4": 29734, "websites": 11744, "senegal": 16028, "goods": 5350, "sweater": 14329, "consist": 8676, "org": 8917, "raped": 15504, "ominous": 23504, "joel": 8963, "##\u06a9": 29841, "balloon": 13212, "repulsed": 24571, "treasury": 9837, "##\u0635": 29826, "\u0f44": 1427, "##get": 18150, "nfc": 22309, "ign": 16270, "populous": 20151, "disclosed": 21362, "##\u0254": 29679, "goes": 3632, "##urse": 28393, "happened": 3047, "##oted": 27428, "independently": 9174, "jerked": 8245, "excuse": 8016, "investigating": 11538, "transferred": 4015, "crunch": 24514, "shifted": 5429, "bjorn": 24998, "1787": 16057, "rite": 14034, "##vial": 18660, "verve": 29230, "##tek": 23125, "cambodia": 12899, "territorial": 7894, "powerhouse": 24006, "1992": 2826, "##iec": 23783, "toad": 21344, "proves": 16481, "openings": 16556, "1813": 12169, "nba": 6452, "vi": 6819, "##mage": 26860, "[unused914]": 919, "collarbone": 29600, "##17": 16576, "##charged": 22620, "obtain": 6855, "##lot": 10994, "reminds": 15537, "ballistic": 19630, "compatibility": 21778, "message": 4471, "ineligible": 22023, "##paper": 23298, "agenda": 11376, "##ko": 3683, "field": 2492, "##gat": 20697, "bridge": 2958, "agreements": 10540, "\u0936": 1336, "\u0459": 1215, "actress": 3883, "[unused437]": 442, "ionic": 24774, "postdoctoral": 29272, "##fell": 23510, "##kson": 26579, "rejoined": 14311, "deux": 24756, "mod": 16913, "presumably": 10712, "louis": 3434, "##\u0127": 29672, "augsburg": 24362, "##atter": 20097, "linguistic": 12158, "##lal": 13837, "[unused7]": 8, "naacp": 26155, "prominently": 14500, "crawl": 13529, "##ocene": 25793, "body": 2303, "carbon": 6351, "perched": 17335, "collaborator": 18843, "big": 2502, "back": 2067, "saving": 7494, "invading": 17657, "hospice": 29277, "charts": 6093, "##udi": 21041, "##uance": 26620, "lie": 4682, "demographic": 15982, "iq": 26264, "bends": 23394, "##hart": 10686, "lacy": 19959, "hands": 2398, "coming": 2746, "84": 6391, "nicole": 9851, "sanders": 12055, "mounting": 15986, "##\u00b9": 27904, "##cana": 28621, "leaflets": 27306, "tiger": 6816, "##\u68ee": 30408, "nakamura": 23981, "correctional": 20873, "seam": 25180, "winery": 23910, "tearing": 13311, "friendly": 5379, "blair": 10503, "observatory": 9970, "semantic": 21641, "elements": 3787, "vinyl": 8877, "hackett": 28630, "\u0638": 1287, "\u057f": 1236, "gains": 12154, "barton": 12975, "actions": 4506, "respects": 17475, "##\u02e4": 29719, "begged": 12999, "lightweight": 12038, "volcanic": 10942, "##ulation": 9513, "consecrated": 12299, "sable": 23492, "examined": 8920, "without": 2302, "[unused510]": 515, "recapture": 27639, "mainz": 19876, "ge": 16216, "ants": 16111, "paste": 19351, "sketches": 12741, "\u2085": 1552, "bosnian": 16163, "temper": 12178, "\u30e7": 1730, "hal": 11085, "capitalism": 16498, "##bol": 14956, "##oys": 27153, "ranks": 6938, "attributed": 7108, "##\u00a3": 29646, "\u2019": 1521, "prescribed": 16250, "royale": 24483, "syllable": 16353, "inc": 4297, "porsche": 16099, "replacement": 6110, "##wood": 3702, "\u30c3": 1711, "20s": 27074, "booster": 23715, "origin": 4761, "##yla": 23943, "54": 5139, "considering": 6195, "##m": 2213, "czechoslovakia": 12833, "\u3088": 1684, "baronet": 8693, "figuring": 23218, "mutation": 16221, "~": 1066, "##orough": 26388, "can": 2064, "fitzgerald": 11864, "287": 23090, "terri": 26568, "##lu": 7630, "bali": 20222, "montpellier": 28153, "mediterranean": 7095, "\u7687": 1917, "flutes": 28453, "mukherjee": 27040, "glad": 5580, "earthly": 29520, "huey": 29503, "\u2083": 1550, "frown": 11330, "editing": 9260, "##\u03bf": 29730, "jaguar": 16490, "ul": 17359, "riaa": 22716, "kind": 2785, "ali": 4862, "acting": 3772, "##pta": 22799, "[unused244]": 249, "establishes": 21009, "##nbc": 28957, "1580": 28278, "going": 2183, "felony": 24648, "stained": 9702, "optimism": 27451, "madame": 10602, "brush": 8248, "surrender": 7806, "virgin": 6261, "casualties": 8664, "##zia": 12871, "incarcerated": 23995, "biennale": 21140, "borrowing": 23733, "##\u2502": 30143, "radiating": 23229, "concluding": 16228, "translators": 28396, "1814": 10977, "alleged": 6884, "me": 2033, "symptoms": 8030, "##tyle": 27983, "exciting": 10990, "jaya": 24120, "clouded": 26761, "amazon": 9733, "accompanying": 10860, "\u2154": 1582, "katz": 20729, "affected": 5360, "scientist": 7155, "benson": 11999, "##\u308b": 30213, "existed": 5839, "\u0f42": 1426, "horseback": 19926, "fabrics": 25123, "##\u025b": 29275, "insides": 19008, "kimball": 26659, "\u307b": 1676, "pop": 3769, "chrome": 18546, "rigid": 11841, "##ciency": 29125, "kristin": 25130, "deer": 8448, "##roved": 26251, "##\u06cc": 24830, "bundesliga": 14250, "[unused90]": 91, "##biotic": 26591, "\u3055": 1656, "puzzled": 14909, "should": 2323, "##tery": 20902, "swiped": 24452, "maurice": 7994, "reporters": 12060, "compensation": 9430, "torture": 8639, "ieee": 15368, "##tead": 14565, "##tique": 28437, "guests": 6368, "sumo": 28193, "ferrara": 28635, "misses": 22182, "##dication": 25027, "##sh": 4095, "tornadoes": 22668, "##\u3089": 30211, "torment": 21741, "##now": 19779, "##rial": 14482, "##\u30af": 30228, "fold": 10671, "judge": 3648, "##eira": 21302, "transaction": 12598, "slogan": 14558, "loving": 8295, "southland": 29121, "pubs": 23598, "standalone": 26609, "sabbath": 19546, "\u0142": 1105, "grit": 24842, "layout": 9621, "##oes": 22504, "milne": 24377, "reginald": 14435, "vogel": 27063, "##ums": 18163, "##plate": 15725, "##yes": 23147, "communes": 16569, "ups": 11139, "emperors": 19655, "hop": 6154, "dorsey": 27332, "cheaper": 16269, "barnard": 22266, "or": 2030, "fled": 6783, "overly": 15241, "die": 3280, "\u02e1": 1151, "frenzy": 21517, "sans": 20344, "gymnast": 25055, "##verse": 16070, "naturally": 8100, "555": 29541, "pennant": 22690, "simply": 3432, "announcer": 14073, "##ng": 3070, "##\u0986": 29884, "regained": 11842, "clayton": 11811, "\u0e27": 1419, "1951": 4131, "joachim": 17286, "reality": 4507, "antilles": 27695, "appears": 3544, "concurrently": 15442, "ljubljana": 21588, "impaired": 18234, "humid": 14178, "linen": 17517, "mocking": 19545, "##tology": 23479, "inverted": 20037, "insulation": 25710, "overlook": 27590, "201": 16345, "##\u0640": 29832, "casey": 9036, "girlfriends": 27408, "duffy": 17971, "abnormalities": 28828, "##izan": 27334, "bennett": 8076, "##19": 16147, "webster": 11635, "chicks": 20649, "##hm": 14227, "woodlands": 19268, "[unused193]": 198, "ranch": 8086, "resented": 27188, "##\u09b2": 29909, "bel": 19337, "\u00f8": 1100, "unease": 27880, "##xin": 20303, "enters": 8039, "[unused208]": 213, "flows": 6223, "memorial": 3986, "racial": 5762, "fumble": 19576, "##imate": 21499, "##bic": 13592, "summoned": 11908, "formally": 6246, "picking": 8130, "##mere": 13759, "##dion": 29573, "\u1100": 1455, "##kowski": 15449, "socialism": 14649, "##iah": 12215, "abd": 19935, "problem": 3291, "acton": 28794, "1790": 13393, "norte": 19931, "experienced": 5281, "dressed": 5102, "tourists": 9045, "geneva": 9810, "accomplish": 14570, "fiji": 11464, "saloon": 17078, "mood": 6888, "priced": 21125, "##von": 17789, "stimulating": 27295, "##itis": 13706, "jazz": 4166, "##ra\u00dfe": 27807, "egyptian": 6811, "wound": 6357, "deny": 9772, "##\u30a2": 30219, "911": 19989, "semester": 13609, "severely": 8949, "afi": 28697, "premium": 12882, "sire": 15785, "##ogenic": 24278, "masonry": 18103, "sao": 7509, "##vid": 17258, "firms": 9786, "decline": 6689, "snapped": 5941, "cushion": 22936, "runner": 5479, "brains": 14332, "wembley": 16538, "contamination": 18701, "352": 28906, "##hui": 20552, "massacre": 9288, "##\u0628": 29816, "relay": 8846, "denies": 23439, "gasping": 17054, "##ardo": 24649, "vincenzo": 24712, "##thed": 23816, "abbas": 17532, "mild": 10256, "##the": 10760, "online": 3784, "##nare": 26148, "synthetic": 12553, "nadu": 10703, "expenses": 11727, "##\u0448": 29753, "##kota": 27380, "jubilee": 13078, "##nst": 23808, "soc": 27084, "margins": 17034, "rumor": 19075, "reconciled": 28348, "benton": 18685, "bitch": 7743, "stranded": 15577, "organizational": 13296, "coughing": 21454, "off": 2125, "shareholders": 15337, "##\u5343": 30310, "advancement": 12607, "##standing": 24911, "##\u02bc": 29712, "easiest": 25551, "roots": 6147, "pearls": 21944, "thrilling": 26162, "kuwait": 13085, "lynch": 11404, "joshi": 26645, "olds": 19457, "bunk": 25277, "##ental": 21050, "peninsula": 6000, "##bled": 23242, "guidance": 8606, "elects": 27161, "pledged": 16970, "\u85e4": 1944, "##ald": 19058, "cameroon": 13841, "slung": 20078, "magical": 8687, "luck": 6735, "expo": 16258, "flyer": 23821, "poland": 3735, "curved": 9203, "##rya": 20444, "craftsman": 26286, "escorting": 23831, "prem": 26563, "packet": 14771, "safer": 13726, "251": 22582, "cardboard": 19747, "stalking": 20070, "dos": 9998, "illustrations": 11249, "##ice": 6610, "setup": 16437, "##rued": 28551, "##ructured": 26134, "lateral": 11457, "mainstream": 7731, "grants": 8624, "trauma": 12603, "##nor": 12131, "escapes": 12976, "lankan": 16159, "welles": 23447, "##iv": 12848, "liz": 9056, "##graph": 14413, "salisbury": 13817, "tits": 25671, "arbor": 19679, "lal": 21348, "##kov": 7724, "##\u3080": 30205, "convoy": 9549, "someone": 2619, "waterford": 17769, "spun": 7455, "worst": 5409, "##ados": 28118, "centers": 6401, "converted": 4991, "visionary": 28036, "bewildered": 24683, "marshal": 8610, "stairway": 21952, "inclination": 21970, "glossy": 19504, "guards": 4932, "dialect": 9329, "approach": 3921, "financial": 3361, "##oom": 17650, "\u9752": 1975, "helene": 20149, "##toy": 29578, "numerical": 15973, "headlining": 26533, "annoying": 15703, "##rich": 13149, "mp": 6131, "sooner": 10076, "multi": 4800, "police": 2610, "routinely": 19974, "almond": 26011, "winkler": 20472, "remy": 22712, "catalytic": 26244, "rhea": 24775, "matches": 3503, "overwhelmingly": 24783, "garments": 21902, "wellesley": 25658, "levy": 12767, "rq": 28134, "castes": 26254, "[unused372]": 377, "loop": 7077, "stimulation": 20858, "##\u307e": 30203, "sellers": 19041, "enhancement": 22415, "annals": 16945, "nonetheless": 9690, "encounters": 11340, "alexander": 3656, "pet": 9004, "sun": 3103, "lethal": 12765, "papua": 13049, "journalists": 8845, "donnelly": 28317, "##loaded": 17468, "structural": 8332, "arms": 2608, "##eet": 15558, "##aith": 22465, "dukes": 16606, "pasta": 24857, "burgess": 17754, "carriages": 17744, "##oton": 25862, "plc": 15492, "reworked": 27575, "baronetcy": 25071, "##rak": 16555, "conrad": 10931, "lawsuits": 20543, "eco": 17338, "airline": 8582, "##ctuated": 25638, "##tein": 9589, "community": 2451, "doin": 24341, "begging": 12858, "##\u10e2": 29989, "##thi": 15222, "[unused140]": 145, "plight": 24525, "##old": 11614, "##held": 24850, "gutierrez": 20836, "152": 15017, "##kaya": 20718, "void": 11675, "pressure": 3778, "butterflies": 15023, "inherited": 7900, "factory": 4713, "recoil": 27429, "\u1d49": 1499, "him": 2032, "wire": 7318, "\u0938": 1338, "leg": 4190, "enveloped": 25407, "jeanne": 14537, "titled": 4159, "gets": 4152, "##thus": 19877, "heavenly": 16581, "ratification": 27369, "boyle": 16694, "observers": 14009, "ammonia": 25874, "piled": 17835, "[unused674]": 679, "thematic": 23539, "calvert": 24800, "urdu": 12454, "##nut": 24072, "hissing": 26386, "##lary": 28221, "emotions": 6699, "cater": 23488, "cleavage": 28691, "##rti": 28228, "maria": 3814, "##yi": 10139, "victims": 5694, "longevity": 26906, "radcliffe": 22603, "sale": 5096, "##tick": 26348, "advocacy": 12288, "infringement": 20701, "##ego": 20265, "##stor": 23809, "sociology": 11507, "##rail": 15118, "malacca": 28481, "choir": 6596, "##sworth": 12255, "donald": 6221, "##rade": 13662, "##bbed": 15499, "##ian": 2937, "refrain": 20703, "jacqueline": 17551, "yun": 22854, "engineers": 6145, "##\u653f": 30386, "clutching": 14197, "##ately": 28239, "56": 5179, "##olate": 19425, "\u0dc0": 1407, "lead": 2599, "appeared": 2596, "[unused704]": 709, "respective": 7972, "eyebrow": 9522, "declines": 26451, "psychiatric": 13691, "helps": 7126, "android": 11924, "defected": 26330, "oversight": 15709, "hit": 2718, "##ln": 19666, "[unused393]": 398, "ministries": 16410, "agreement": 3820, "chancel": 16482, "##lm": 13728, "flipping": 18497, "koln": 28306, "kilometers": 7338, "jimenez": 22790, "curb": 13730, "collaboration": 5792, "##\u0131": 11722, "cloud": 6112, "an": 2019, "here": 2182, "extensions": 14305, "\u516b": 1771, "shaw": 8233, "archaeologists": 19254, "##nia": 6200, "##rik": 15564, "ip": 12997, "efficiency": 8122, "##uded": 13936, "##beat": 19442, "dog": 3899, "punt": 18975, "##par": 19362, "##eed": 13089, "discuss": 6848, "##typic": 23186, "simpson": 9304, "balanced": 12042, "##\u1d47": 30033, "##cens": 19023, "dilapidated": 29283, "##lid": 21273, "socialists": 21633, "balancing": 20120, "adamant": 29502, "finger": 4344, "\u0909": 1313, "generalized": 18960, "ritual": 8887, "emergency": 5057, "storylines": 22628, "ottoman": 6188, "##tten": 25970, "stillness": 29435, "patterson": 12424, "lorenzo": 12484, "meade": 26501, "\u0e15": 1411, "displaying": 14962, "eddy": 16645, "skipper": 23249, "chip": 9090, "##ook": 14659, "vicious": 13925, "57th": 28623, "aquatics": 26649, "aperture": 18892, "tobin": 28096, "specifies": 27171, "telephone": 7026, "financially": 13732, "clary": 13145, "registered": 5068, "jerry": 6128, "cebu": 23312, "##ap": 9331, "producing": 5155, "unitary": 22127, "cocoa": 22940, "##cala": 25015, "##\u00a2": 29645, "##ns": 3619, "contend": 27481, "##\u05db": 29798, "precisely": 10785, "commanders": 11437, "##rian": 6862, "\u0131": 1104, "##\u30b1": 30229, "windows": 3645, "##dy": 5149, "orlando": 10108, "relocating": 26811, "resides": 11665, "subway": 10798, "[unused190]": 195, "ground": 2598, "float": 14257, "usc": 15529, "sherman": 11011, "container": 11661, "cycles": 12709, "[unused80]": 81, "[unused59]": 60, "abundant": 12990, "gomez": 12791, "##\u5b50": 30342, "##vie": 13469, "rival": 6538, "##lf": 10270, "collective": 7268, "epilogue": 24297, "wilton": 26407, "credibility": 21553, "lynn": 9399, "savannah": 10891, "betty": 9306, "##52": 25746, "burnt": 11060, "ethanol": 22886, "waters": 5380, "##\u0446": 29751, "snort": 26759, "presses": 14616, "##orescence": 20030, "anhalt": 27088, "paws": 24392, "##\u0433": 29741, "entrepreneurship": 20213, "bryn": 19904, "bahia": 22474, "##\u2093": 30092, "darling": 9548, "##\u30cf": 30244, "insisted": 7278, "luzon": 21622, "hk": 22563, "prevents": 16263, "cw": 19296, "champ": 24782, "[unused158]": 163, "##ress": 8303, "1634": 28502, "##dry": 21190, "##ef": 12879, "maturity": 16736, "detectives": 18145, "heroin": 19690, "67": 6163, "##rable": 16670, "arguably": 15835, "nas": 17235, "promotes": 14067, "galloway": 22372, "goat": 13555, "155": 14168, "##gos": 12333, "butte": 25024, "perform": 4685, "##sm": 6491, "bitter": 8618, "nitrogen": 14114, "publisher": 6674, "eating": 5983, "platinum": 8899, "##lization": 22731, "##aceae": 18339, "quebec": 5447, "disciplined": 28675, "bottom": 3953, "presents": 7534, "[unused908]": 913, "##nell": 9091, "##ttering": 19567, "concealed": 14091, "##smo": 25855, "156": 16734, "rolf": 23381, "##\u0985": 29883, "##\u21a6": 30116, "[unused775]": 780, "lambda": 23375, "thorn": 16337, "frontiers": 28750, "sandstone": 11694, "seekers": 24071, "kathy": 14986, "##ifier": 18095, "symphony": 6189, "tory": 17117, "##chy": 11714, "##uming": 24270, "dec": 11703, "brilliance": 28850, "[unused106]": 111, "##\u0268": 29684, "transmissions": 21670, "mar": 9388, "##iary": 17302, "hysteria": 29004, "winning": 3045, "registrar": 24580, "depiction": 15921, "sesame": 23605, "##ga": 3654, "howe": 13358, "worries": 15508, "rations": 29559, "##66": 28756, "##gold": 21270, "colin": 6972, "dice": 18740, "hurricanes": 17035, "drew": 3881, "properties": 5144, "grenade": 17038, "[unused662]": 667, "\u306f": 1672, "##ent": 4765, "##vies": 25929, "deviation": 24353, "ed": 3968, "kenyan": 20428, "191": 19871, "traitor": 17328, "confessed": 14312, "structurally": 29060, "[unused419]": 424, "decreasing": 16922, "milky": 21582, "duval": 23929, "drifted": 10070, "worrying": 15366, "repetitive": 23563, "1881": 7005, "reassuring": 21093, "##erated": 16848, "[unused582]": 587, "alcoholic": 14813, "[unused847]": 852, "##very": 27900, "dolphins": 13600, "concurrent": 16483, "##fur": 27942, "pulls": 8005, "\u65e5": 1864, "layers": 9014, "maiden": 10494, "prey": 8336, "jeopardy": 26604, "encryption": 21999, "amendments": 16051, "##erved": 25944, "rustling": 29188, "magazine": 2932, "[unused890]": 895, "willard": 19138, "before": 2077, "##schen": 23796, "parentheses": 27393, "##boarding": 21172, "42nd": 21373, "found": 2179, "book": 2338, "customer": 8013, "coop": 21859, "##pants": 27578, "hills": 4564, "calf": 19134, "dissolved": 8314, "##jured": 26949, "##\u5ddd": 30361, "stiffly": 27499, "spill": 14437, "protested": 11456, "missing": 4394, "forestry": 13116, "[unused44]": 45, "heartbeat": 12251, "integral": 9897, "ridge": 5526, "##rain": 21166, "improved": 5301, "\u05e8": 1265, "earthquake": 8372, "compute": 24134, "gorge": 14980, "invented": 8826, "consolidated": 10495, "sensed": 10596, "chad": 9796, "fools": 18656, "yahoo": 20643, "gustav": 13430, "\u0584": 1239, "champaign": 28843, "durable": 25634, "genuine": 10218, "\u1d2c": 1490, "\u30ed": 1735, "##re": 2890, "orient": 16865, "conor": 20545, "speakers": 7492, "triangular": 14023, "natural": 3019, "##nish": 24014, "1870": 6940, "ata": 29533, "1663": 29016, "rd": 16428, "highlight": 12944, "##yama": 11613, "officers": 3738, "chasing": 11777, "rebuilding": 14584, "microwave": 18302, "realizes": 10919, "##ide": 5178, "bai": 21790, "##\u092d": 29866, "pity": 12063, "vomiting": 24780, "desert": 5532, "armand": 20371, "hugo": 9395, "celebrations": 12035, "cherry": 9115, "bankers": 25375, "clearance": 14860, "\u03c8": 1178, "##oli": 10893, "\u0f51": 1428, "advance": 5083, "trio": 7146, "wr": 23277, "##aint": 22325, "striped": 17983, "pi": 14255, "marriott": 26490, "attend": 5463, "told": 2409, "tobias": 16858, "encounter": 8087, "ruthless": 18101, "silky": 18848, "unspoken": 25982, "president": 2343, "redskins": 17461, "feb": 13114, "uzbekistan": 17065, "[unused691]": 696, "sweetly": 22557, "concept": 4145, "eagles": 8125, "alto": 10766, "##une": 9816, "streetcar": 21420, "##scan": 29378, "clive": 14675, "carrie": 13223, "dinners": 29236, "\u10d0": 1438, "full": 2440, "make": 2191, "ry": 29431, "bonds": 9547, "specializing": 14055, "arnold": 7779, "favor": 5684, "beige": 28799, "swallowing": 18468, "dat": 23755, "##ddle": 20338, "crawled": 12425, "publishes": 12466, "turing": 28639, "inhibitor": 24054, "##\u5cf6": 30359, "rippled": 26862, "rockwell": 25235, "dripping": 14309, "superliga": 25922, "355": 26271, "arranged": 5412, "gloucestershire": 15905, "vip": 21722, "##\u05d1": 29789, "selections": 16310, "longtime": 11155, "domestically": 27143, "ff": 21461, "##sic": 19570, "electrically": 29103, "libertadores": 27968, "tung": 27079, "sally": 8836, "yerevan": 23383, "\u2026": 1529, "remix": 6136, "hostility": 18258, "##made": 21565, "plug": 13354, "##mani": 20799, "serbia": 7238, "abbess": 28010, "[unused157]": 162, "[unused430]": 435, "reproduce": 21376, "interviewing": 27805, "ipod": 26322, "waterloo": 13784, "thence": 23166, "people": 2111, "thighs": 9222, "##aton": 22436, "##lz": 23858, "##vah": 21927, "pixel": 22138, "##bba": 22414, "##au": 4887, "periphery": 23275, "greenhouse": 16635, "##raz": 20409, "##lative": 26255, "##sten": 16173, "##inking": 29377, "stud": 16054, "sold": 2853, "johan": 13093, "##ble": 3468, "praising": 15838, "dismounted": 29580, "##reus": 23446, "penelope": 18641, "exeter": 12869, "lights": 4597, "female": 2931, "##icum": 22167, "##tify": 27351, "cousin": 5542, "##rland": 18324, "guidelines": 11594, "##sai": 15816, "strasbourg": 18104, "##piration": 16781, "lam": 16983, "##rden": 18246, "spence": 22186, "communist": 4750, "obedience": 22645, "holding": 3173, "[unused361]": 366, "necks": 26082, "morocco": 9835, "##ip": 11514, "carolina": 3792, "\u5317": 1781, "##ulum": 25100, "padre": 28612, "brightness": 18295, "haunt": 24542, "inspire": 18708, "leases": 29597, "closure": 8503, "onion": 20949, "##izing": 6026, "anything": 2505, "##\u751f": 30436, "sis": 24761, "pe": 21877, "casual": 10017, "reactivated": 28577, "agrees": 10217, "closing": 5494, "##while": 19927, "coastal": 5780, "##eca": 19281, "siena": 23754, "howie": 28211, "pasha": 14292, "convicts": 24948, "\u0443": 1198, "cultivated": 13237, "bo": 8945, "armour": 12371, "stepping": 9085, "hole": 4920, "profile": 6337, "##pped": 11469, "##gible": 18507, "1745": 21809, "\u30a4": 1695, "linden": 22066, "rigorous": 20001, "card": 4003, "prowess": 26120, "##ration": 8156, "prompting": 15870, "bishopric": 20664, "mutations": 14494, "breakdown": 12554, "##dern": 25888, "negotiating": 18875, "reflective": 21346, "newton": 8446, "duran": 22959, "retail": 7027, "clemens": 27277, "##suke": 16867, "guest": 4113, "amplified": 26986, "ripley": 25231, "hush": 20261, "barony": 19365, "compressor": 29329, "##ery": 7301, "veto": 22102, "limit": 5787, "\uff0e": 1991, "contributor": 12130, "periodic": 15861, "savior": 24859, "fowler": 14990, "##mo": 5302, "coconut": 16027, "trader": 17667, "##kyu": 23076, "##yria": 20379, "##tov": 26525, "shriek": 24795, "##uro": 10976, "nolan": 13401, "youth": 3360, "dynasty": 5321, "365": 19342, "##\u00e6": 29667, "\u05d3": 1244, "##rb": 15185, "##tz": 5753, "170": 10894, "massimo": 28080, "chooses": 15867, "globally": 16452, "decides": 7288, "drunk": 7144, "dancing": 5613, "epsilon": 28038, "cod": 19429, "rested": 8614, "[unused698]": 703, "mori": 22993, "percival": 27832, "constituency": 5540, "margarita": 24570, "divisions": 5908, "shut": 3844, "beth": 7014, "valuable": 7070, "hundred": 3634, "uneven": 17837, "##nio": 27678, "labeled": 12599, "racks": 27259, "##placed": 22829, "monastic": 17361, "tax": 4171, "pose": 13382, "##\u09ae": 29906, "19th": 3708, "planner": 24555, "pornographic": 26932, "\u306a": 1667, "brushing": 12766, "bottled": 26071, "nicaragua": 15448, "minutes": 2781, "exploring": 11131, "salle": 18005, "##ango": 23422, "##vere": 28943, "quoting": 27394, "teatro": 16038, "trips": 9109, "secretive": 28607, "hoffman": 15107, "1832": 10212, "weighed": 12781, "wary": 15705, "bam": 25307, "render": 17552, "##antes": 24985, "factors": 5876, "nbc": 6788, "##su": 6342, "vertical": 7471, "\u307f": 1678, "supplemented": 20585, "##rca": 18992, "cbs": 6568, "##lo": 4135, "[unused60]": 61, "##ographer": 26145, "\u0279": 1125, "indifference": 25920, "eight": 2809, "musique": 25784, "##trust": 24669, "pool": 4770, "roosevelt": 8573, "plays": 3248, "suffrage": 15178, "##de": 3207, "hating": 22650, "##land": 3122, "compromise": 12014, "##ease": 19500, "lungs": 8948, "satire": 18312, "studies": 2913, "##58": 27814, "nylon": 27201, "grew": 3473, "midfielder": 8850, "brooks": 8379, "forge": 15681, "white": 2317, "cao": 12966, "##ovich": 12303, "motionless": 19917, "reinstated": 18671, "atoll": 22292, "[unused181]": 186, "##$": 29615, "agrarian": 23226, "\u03b4": 1158, "##und": 8630, "roast": 25043, "scouts": 10158, "shelley": 15828, "jammed": 21601, "mind": 2568, "romance": 7472, "profession": 9518, "[unused449]": 454, "\\": 1032, "##ivism": 22486, "##atable": 27892, "convictions": 20488, "1860": 7313, "canine": 28735, "occurrences": 27247, "1990s": 4134, "##\u209b": 30098, "interceptions": 18387, "festivities": 21206, "##lock": 7878, "aba": 19557, "midsummer": 28171, "eventual": 9523, "calm": 5475, "##or": 2953, "silicon": 13773, "predicted": 10173, "hagen": 24047, "medallion": 22541, "priory": 14284, "reliefs": 27670, "horne": 24084, "sim": 21934, "stockholm": 8947, "layer": 6741, "##\u6c11": 30418, "recovering": 13400, "bred": 13680, "truths": 23019, "nouvelle": 25207, "apache": 15895, "outspoken": 22430, "screening": 11326, "##erly": 12561, "bilateral": 17758, "modeled": 14440, "effective": 4621, "rises": 9466, "\u10d4": 1442, "served": 2366, "kenneth": 8856, "##flow": 12314, "adults": 6001, "juliette": 24696, "##ement": 13665, "##ick": 6799, "reciprocal": 28309, "\u798f": 1926, "290": 17222, "enabling": 12067, "wonders": 16278, "##lea": 19738, "chewing": 17492, "##wes": 18192, "roth": 12211, "persecuted": 27666, "laugh": 4756, "loomed": 24358, "##54": 27009, "coated": 15026, "courtship": 28592, "##den": 4181, "##wr": 13088, "eleventh": 11911, "panda": 25462, "knights": 7307, "fisheries": 13424, "gateway": 11909, "##\u2018": 30055, "millennium": 10144, "##\u06af": 29842, "telecommunications": 12108, "minerals": 13246, "muscle": 6740, "1837": 9713, "names": 3415, "##cco": 21408, "grain": 8982, "yellowish": 17804, "solutions": 7300, "nara": 27544, "shelton": 22230, "campaigned": 16196, "sail": 9498, "deposits": 10042, "##lese": 24527, "morrow": 19084, "pensacola": 26073, "bradshaw": 23762, "claim": 4366, "reliable": 10539, "press": 2811, "##han": 4819, "exclusive": 7262, "##\u0936": 29872, "centred": 16441, "jointly": 10776, "##bb": 10322, "johann": 8968, "jumping": 8660, "turbine": 14027, "travis": 10001, "armenian": 7508, "correlation": 16902, "gallagher": 17297, "##cape": 19464, "grimes": 24865, "\ufb02": 1985, "1909": 5556, "pigeons": 27567, "jump": 5376, "familiar": 5220, "daze": 28918, "inhibit": 26402, "significantly": 6022, "hostilities": 17601, "contributed": 5201, "games": 2399, "decisive": 13079, "taekwondo": 28529, "twisting": 12814, "jimmy": 5261, "##\u11a8": 30020, "mayhem": 26865, "woody": 13703, "retain": 9279, "[unused645]": 650, "car": 2482, "soo": 17111, "professors": 12655, "##kt": 25509, "sitting": 3564, "pea": 26034, "sacks": 14918, "riley": 7546, "argent": 23157, "match": 2674, "chong": 24008, "coloring": 22276, "[unused753]": 758, "especially": 2926, "accept": 5138, "haute": 18535, "##59": 28154, "peel": 14113, "##ons": 5644, "burke": 9894, "reprised": 22598, "540": 20263, "107": 10550, "174": 19492, "span": 8487, "wasting": 18313, "jody": 27562, "necessity": 13185, "mats": 22281, "##mming": 25057, "theologian": 17200, "logic": 7961, "reset": 25141, "intercepted": 16618, "smoked": 20482, "worshipped": 22876, "thru": 27046, "five": 2274, "efficient": 8114, "morse": 17107, "potsdam": 26554, "##berg": 4059, "[unused641]": 646, "periodical": 21802, "rouen": 27030, "mcmillan": 27436, "plank": 24000, "sponsors": 13162, "##\u1d9c": 30046, "begs": 27591, "sucker": 26476, "##ai": 4886, "##\u091c": 29855, "##ist": 2923, "repeatedly": 8385, "stubble": 26816, "giving": 3228, "##ility": 15148, "nemesis": 21363, "cy": 22330, "surgeons": 16804, "burroughs": 25991, "1936": 4266, "guaranteed": 12361, "scoop": 23348, "roland": 8262, "1725": 25651, "processing": 6364, "loyalists": 26590, "indoors": 24274, "##xide": 19491, "supreme": 4259, "lyndon": 23037, "indirectly": 17351, "stairs": 5108, "##ods": 20620, "strain": 10178, "silas": 18553, "##\u057f": 29783, "enchanted": 22454, "keeper": 10684, "##kshi": 27488, "##\u2012": 30050, "corridor": 7120, "engraver": 27771, "##gged": 15567, "shot": 2915, "author": 3166, "##ult": 11314, "arun": 28217, "##ril": 15928, "##rva": 19146, "moral": 7191, "##agawa": 20812, "##tf": 24475, "hodge": 23148, "satan": 16795, "television": 2547, "frantic": 15762, "smiled": 3281, "transparent": 13338, "##zy": 9096, "spontaneously": 27491, "##ener": 24454, "ferris": 23202, "velvet": 10966, "preston": 8475, "[unused422]": 427, "cringed": 23952, "##lez": 28060, "bet": 6655, "authored": 8786, "safely": 9689, "##\u2026": 30064, "##\u00b4s": 21932, "momentarily": 16032, "[unused804]": 809, "fabio": 25616, "##aves": 21055, "robes": 17925, "nuclear": 4517, "unreasonable": 29205, "slater": 17916, "dunes": 17746, "bloc": 15984, "murmurs": 22888, "thai": 7273, "winced": 15574, "computing": 9798, "iv": 4921, "[unused390]": 395, "below": 2917, "updates": 14409, "lovely": 8403, "rookie": 8305, "trails": 9612, "##tur": 20689, "##take": 15166, "##comb": 18274, "##se": 3366, "seals": 13945, "##\uff08": 30513, "tighter": 12347, "user": 5310, "shaun": 16845, "ron": 6902, "[unused162]": 167, "brewers": 20007, "motorsport": 21044, "ambitious": 12479, "macquarie": 23903, "displayed": 6913, "##lho": 28061, "##issa": 21205, "austin": 5899, "echo": 9052, "##\u09a1": 29896, "##bbon": 27684, "[unused822]": 827, "shen": 21882, "structure": 3252, "admit": 6449, "anand": 18887, "grip": 6218, "banda": 24112, "modules": 14184, "##ora": 6525, "##vic": 7903, "214": 19936, "##buck": 24204, "particles": 9309, "hybrids": 23376, "[unused400]": 405, "shipped": 12057, "newscasts": 24482, "produced": 2550, "gillian": 22358, "winters": 12214, "axes": 19589, "wainwright": 25305, "##vati": 20203, "encourage": 8627, "451": 28161, "##\u05e7": 29810, "jean": 3744, "visually": 17453, "##9th": 25660, "planners": 27155, "highness": 17114, "turmoil": 17930, "reforms": 8818, "fixtures": 17407, "catfish": 23723, "relegated": 7049, "##ques": 10997, "positive": 3893, "monarchs": 19799, "explaining": 9990, "ribbon": 10557, "cubic": 11919, "polled": 26847, "strains": 18859, "miraculous": 26106, "##\u90ce": 30484, "eventually": 2776, "##ato": 10610, "##bert": 8296, "gonzalez": 10121, "indonesia": 6239, "##zh": 27922, "romanized": 7651, "women": 2308, "##eries": 28077, "mortally": 26495, "meng": 27955, "##atin": 20363, "faded": 8105, "decomposition": 22511, "conventions": 12472, "karen": 8129, "vale": 10380, "juris": 27551, "brewster": 23009, "mans": 16042, "##\u5e7f": 30368, "\u5e78": 1841, "##\u5b89": 30346, "portland": 6734, "regaining": 28657, "wavy": 23098, "##bate": 20179, "restore": 9239, "champion": 3410, "\u00bd": 1092, "postage": 22981, "\u044d": 1208, "[unused902]": 907, "renew": 20687, "dion": 19542, "letter": 3661, "##sari": 22740, "\u1d56": 1504, "avatar": 22128, "##ku": 5283, "conglomerate": 22453, "[unused631]": 636, "##\u30e7": 30256, "##ashi": 12914, "bon": 14753, "irs": 25760, "[unused300]": 305, "gems": 20296, "##opped": 27288, "chang": 11132, "1900s": 16430, "##eve": 18697, "choreography": 16967, "shepard": 22189, "##mania": 27010, "[unused431]": 436, "plenty": 7564, "reform": 5290, "lexi": 16105, "nat": 14085, "bce": 10705, "diagnostic": 16474, "\u092f": 1332, "be": 2022, "scrambling": 25240, "herr": 23506, "hazardous": 17760, "erased": 23516, "stand": 3233, "zebra": 29145, "\u5b97": 1821, "forgotten": 6404, "jacobite": 28725, "nk": 25930, "banded": 25264, "##av": 11431, "mode": 5549, "##iy": 28008, "bi": 12170, "29th": 16318, "##dit": 23194, "##ruck": 29314, "markings": 13967, "gubernatorial": 19100, "cube": 14291, "forgiveness": 17213, "cleaned": 12176, "gene": 4962, "offering": 5378, "rooted": 15685, "115": 10630, "[unused648]": 653, "justice": 3425, "##rica": 14735, "sato": 20251, "georgetown": 12982, "[unused207]": 212, "##ead": 13775, "rhythm": 6348, "##stown": 13731, "hendrix": 20645, "##\u09be": 29914, "underlying": 10318, "##\u1174": 30018, "frozen": 7708, "##fighter": 20027, "discouraged": 22585, "mao": 15158, "##anda": 13832, "##puram": 17809, "##va": 3567, "canned": 27141, "berger": 16758, "gracefully": 28266, "follows": 4076, "apologize": 12134, "yiddish": 20112, "cleaner": 20133, "tsunami": 19267, "spectacle": 21177, "shawn": 13218, "sherry": 22268, "05": 5709, "authentic": 14469, "aa": 9779, "##offs": 27475, "spokesman": 14056, "##\u1103": 29993, "scheduling": 19940, "administered": 8564, "##t": 2102, "identity": 4767, "##cl": 20464, "corrosion": 24625, "\u0440": 1195, "typed": 21189, "rwanda": 17591, "[unused552]": 557, "\u221a": 1600, "header": 20346, "river": 2314, "felt": 2371, "\u10da": 1447, "abilities": 7590, "swings": 18755, "armando": 26716, "##put": 18780, "##tern": 16451, "lobbied": 26421, "sizes": 10826, "##acle": 18630, "administrator": 8911, "jewish": 3644, "restaurants": 7884, "danes": 27476, "modernized": 27140, "quarrel": 26260, "##tres": 19168, "cuckoo": 29010, "01": 5890, "grande": 9026, "##\u56fd": 30325, "helium": 22764, "furnishings": 23127, "##ups": 22264, "holly": 9079, "prague": 8634, "viable": 14874, "mcleod": 25363, "kapoor": 17129, "##aurus": 17342, "other": 2060, "niall": 21889, "blizzard": 21689, "hips": 6700, "scripture": 18919, "##zzle": 17644, "boon": 23264, "##\u6b62": 30413, "debuted": 6006, "sabine": 18578, "timing": 10984, "fleet": 4170, "travelled": 7837, "##rum": 6824, "hillary": 18520, "##ication": 21261, "##isse": 23491, "jackets": 17764, "includes": 2950, "tripped": 21129, "##jon": 14339, "hinduism": 19632, "sharma": 14654, "debuting": 24469, "ocean": 4153, "defined": 4225, "adventurous": 29118, "##\u0261": 29682, "colour": 6120, "paragraph": 20423, "##rill": 24714, "amy": 6864, "\u0436": 1186, "revered": 23886, "anatolia": 23747, "fires": 8769, "stresses": 23253, "bolton": 12118, "someday": 13834, "free": 2489, "owns": 8617, "prose": 12388, "burton": 9658, "maison": 26420, "decidedly": 27873, "pagan": 14318, "char": 25869, "vase": 18781, "##gens": 21230, "##nya": 17238, "tori": 23413, "##\u2070": 30071, "softball": 12585, "dario": 26800, "jingle": 29262, "##\u0438\u0438": 15414, "countess": 11716, "##rino": 17815, "bounced": 13605, "##ea": 5243, "arguing": 9177, "pali": 28619, "pitcher": 8070, "tempo": 13657, "paolo": 14174, "windsor": 10064, "kicked": 6476, "humans": 4286, "myers": 13854, "simeon": 24371, "directorial": 21635, "ellis": 8547, "vinnie": 24214, "controversy": 6704, "##\u05de": 29801, "forcing": 6932, "homosexuality": 15949, "licence": 11172, "maybe": 2672, "[unused332]": 337, "droplets": 27126, "watching": 3666, "nepal": 8222, "mustafa": 19683, "campeonato": 17675, "hayden": 13872, "f": 1042, "bassist": 9858, "kan": 22827, "committing": 16873, "recognized": 3858, "strictly": 9975, "spokane": 21878, "confused": 5457, "facilities": 4128, "shandong": 25768, "radiation": 8249, "##\u5bb6": 30351, "maj": 16686, "##git": 23806, "##bular": 28808, "1916": 4947, "adherence": 29235, "swearing": 25082, "answers": 6998, "##md": 26876, "claire": 6249, "vortex": 23463, "liquidation": 28763, "##isen": 28992, "itv": 11858, "resistance": 5012, "slowly": 3254, "yong": 18999, "##cin": 15459, "hometown": 9627, "jamal": 24132, "pods": 26723, "jury": 6467, "\u300e": 1643, "##graphic": 14773, "##hua": 14691, "personalities": 12857, "extensively": 8077, "catering": 18640, "outdated": 25963, "pills": 15345, "pits": 14496, "1918": 4271, "niche": 18111, "[unused465]": 470, "buzzing": 20386, "eastwood": 24201, "[unused227]": 232, "##bes": 12681, "1847": 9176, "incident": 5043, "presided": 15506, "[unused586]": 591, "eu": 7327, "qu": 24209, "aimed": 6461, "pepper": 11565, "1866": 7647, "\u056b": 1225, "healthy": 7965, "jets": 9924, "2011": 2249, "rocket": 7596, "##lani": 21141, "breeding": 8119, "host": 3677, "##ink": 19839, "##aly": 20766, "created": 2580, "tuning": 17372, "hires": 28208, "12": 2260, "returned": 2513, "get": 2131, "shifters": 21537, "\u060c": 1268, "honolulu": 16598, "trend": 9874, "precursor": 14988, "schedules": 20283, "vineyard": 18621, "musician": 5455, "firearms": 13780, "reveal": 7487, "##\u0454": 29759, "##\u03bf\u03c5": 26789, "##me": 4168, "cup": 2452, "1780": 15051,
[...]
