{"vocab": {"\u0120degrading": 40354, "Prov": 15946, "idden": 4651, "\u0120Guys": 29899, "\u0120removed": 4615, "\u0120tens": 11192, "\u0120inquire": 38212, "\u0120Alibaba": 41992, "\u0120legisl": 3560, "\u0120Faster": 38996, "\u0120Tie": 36286, "\u0120delivering": 13630, "\u0120launches": 18617, "\u0120irony": 21296, "\u0120plead": 30701, "\u0120DOS": 43036, "\u0120visits": 11864, "\u0120imported": 17392, "\u0120cou": 2284, "\u0120essays": 27126, "Mat": 19044, "uggish": 36295, "\u0120deeper": 9211, "\u0120bin": 9874, "Filter": 22417, "\u0120Life": 5155, "\u0120regions": 7652, "\u0120cess": 30173, "\u0120adjustable": 28138, "/\u00e2\u0122\u012d": 27643, "\u0120VMware": 37754, "Flickr": 47250, "\u0120delayed": 11038, "Wal": 21902, "Beh": 25267, "\u0120pollut": 36156, "\u00e2\u0122\u00a2\u00e2\u0122\u00a2": 22838, "\u0120stimulates": 49881, "ornings": 28863, "amples": 12629, "\u0120Sue": 26089, "Fight": 27365, "ace": 558, "\u0120understood": 7247, "larg": 15521, "ah": 993, "\u0120collaboration": 12438, "\u0120disturbed": 24069, "Ins": 20376, "\u0120McLaren": 33017, "\u0120Colonel": 21636, "\".[": 42924, "\u0120Lakers": 19616, "enna": 13713, "\u0120<+": 42496, "orous": 9610, "trump": 40954, "lings": 17783, "arest": 12423, "ih": 4449, "ohan": 22436, "\u0120distance": 5253, "atl": 25864, "\u0120Spokane": 44302, "\u0120Gram": 20159, "\u0120separation": 14139, "\u0120IOC": 48245, "Columb": 36063, "\u0120OUT": 16289, "\u0120perm": 9943, "\u0120buyer": 17872, "\u0120Spa": 40208, "uminum": 13074, "\u0120Maple": 21249, "\u0120matter": 2300, "\u0120editions": 23713, "\u0120veterinary": 38435, "bg": 35904, "\u0120Swed": 7289, "assic": 31635, "compan": 34390, "\u00d1\u0123": 21727, "07": 2998, "\u0120Philos": 18880, "\u0120notes": 4710, "Format": 26227, "\u0120Compan": 16154, "\u0120kan": 43998, "\u0120proceeds": 15740, "\u0120overlap": 21721, "realDonaldTrump": 28024, "oline": 14453, "\u0120valiant": 46258, "\u0120electing": 46913, "\u0120brigade": 35889, "\u0120mediocre": 29956, "acha": 34518, "este": 29872, "113": 16616, "ale": 1000, "atz": 27906, "\u0120Jos": 22568, "ranked": 28282, "\u0120EST": 17160, "see": 3826, "\u0120adjective": 43441, "bestos": 40651, "\u0120sparse": 29877, "IPS": 47643, "uphem": 45640, "\u0120viewpoints": 42806, "\u0120Indie": 31527, "\u0120Ib": 21089, "\u0120plasma": 16074, "\u0120ACC": 15859, "\u0120art": 1242, "\u0120militia": 21085, "\u0120franchise": 8663, "actions": 4658, "\u0120Specifications": 46271, "\u0120Tac": 26075, "ource": 1668, "urban": 32679, "\u0120Aber": 27700, "\u0120Duration": 22920, "Deploy": 49322, "sam": 37687, "\u0120Black": 2619, "CBC": 29208, "\u0120Thick": 45816, "\u0120426": 48065, "wolf": 18829, "\u0120manner": 5642, "\u0120dwarf": 24603, "\u0120disreg": 18795, "waves": 32569, "\u0120MR": 17242, "\u0120sponge": 40206, "\u0120Ellison": 33601, "\u0120karma": 31789, "imp": 11011, "\u0120beads": 36116, "\u0120Pend": 36865, "\u0120subscript": 32891, "\u0120Europa": 29890, "\u0120cunning": 34218, "\u0120foo": 22944, "\u0120|--": 44233, "\u0120derogatory": 44094, "\u0120proceedings": 13106, "\u0120optimum": 39475, "\u0120precedent": 19719, "\u0120undes": 27858, "\u0120Crusader": 33765, "\u0120Whilst": 40661, "\u0120Alternatively": 25929, "\u0120excessive": 13181, "\u0120Aust": 2517, "\u0120At": 1629, "arling": 30045, "\u0120Perform": 35006, "\u0120valuable": 8119, "\u0120cens": 12428, "\u0120Prol": 44157, "\u0120GTA": 30807, "\u0120Ban": 10274, "\u0120phrase": 9546, "Wide": 42559, "\u0120lif": 3868, "\u0120predator": 30135, "\u0120Principle": 40921, "ryu": 49056, "\u0120prejud": 14696, "\u0120Beam": 25855, "\u00e2\u0122\u0136-": 44839, "v": 85, "\u0120mystery": 10715, "knife": 48810, "\u0120spectators": 31704, "\u0120oversaw": 40394, "ucing": 25648, "Cath": 39581, "\u0120Ke": 3873, "\u0120Exchange": 12516, "\u0120Bonds": 39161, "Sony": 32895, "tic": 13370, "\u0120Manhattan": 13458, "\u0120hamm": 25755, "Plug": 23257, "\u0120repealed": 32933, "\u0120Pent": 9696, "\u0120Plymouth": 42125, "\u0120cursing": 49766, "\u0120tom": 16667, "\u0120GP": 14714, "\u0120injustice": 21942, "\u0120systematically": 25735, "\u0120listed": 5610, "1995": 21908, "\u0120ATK": 24526, "\u0120pred": 2747, "\u0120squats": 48871, "\u0120hurdle": 36633, "\u0120buttocks": 50193, "Hard": 17309, "\u0120characterize": 34404, "\u0120aiding": 37221, "\u0120binds": 37354, "iovascular": 19381, "ependence": 15091, "--------------------": 19351, "\u0120informal": 22176, "\u0120oh": 11752, "song": 34050, "\u0120Firearms": 32389, "\u0120contempor": 36081, "\u0120Ily": 49804, "\u0120athletes": 10856, "\u0120haunting": 36660, "\u0120infancy": 38120, "\u0120Compass": 46175, "786": 46302, ";}": 46956, "\u0120Organ": 7221, "li": 4528, "\u0120Roku": 46194, "\u0120heels": 18728, "tv": 14981, "dated": 8715, "\u0120dialect": 23637, "ortal": 16906, "\u0120contin": 1261, "\u0120enhancing": 27496, "\u0120Jin": 17297, "\u0120core": 4755, "\u0120Aero": 44720, "\u0120Adds": 34333, "\u0120crew": 5462, "Army": 45272, "\u0112": 206, "\u0120offender": 19595, "\u0120mountain": 8598, "\u0120harmon": 25625, "\u0120emanating": 49085, "\u0120spider": 19230, "\u0118": 212, "olon": 43645, "\u0120prose": 27149, "Moon": 31640, "\u0120exorc": 48479, "201": 1264, "orting": 24707, "\u0120considers": 14358, "\u0120saturated": 24725, "\u0120rounded": 19273, "\u0120abolition": 30480, "\u0120Proud": 39725, "Dragon": 17808, "\u0120members": 1866, "\u0120archived": 33962, "ede": 18654, "\u0120MSG": 49064, "\u0120Thr": 16283, "\u0120painter": 34537, "ilded": 46158, "\u0120Tud": 48256, "\u0120Naj": 37135, "\u0120unc": 4591, "\u0120lone": 13497, "\u0120MEP": 40771, "\u0120Budd": 8578, "!": 0, "ying": 1112, "\u0120McK": 11888, "Kim": 26374, "\u0120lively": 29696, "\u0120p": 279, "rock": 10823, "ollar": 13228, "\u0120Competition": 27348, "boss": 42820, "$$$$": 36737, "!!!!!": 50184, "\u0120realizes": 23660, "\u0120Et": 17906, "\u0120Zoom": 40305, "\u0120Wild": 6183, "ulus": 23515, "smanship": 49820, "\u0120blacks": 15102, "\u00ee": 170, "atus": 7240, "\u0120mustard": 33694, "\u0120create": 2251, "gio": 27769, "\u0120medically": 35031, "\u0120misconception": 43122, "\u0120temp": 20218, "\u0120Sophia": 39953, "\u0120ago": 2084, "\u0120expenditures": 22895, "edia": 5507, "\u0120spores": 47306, "\u0120Database": 24047, "\u0120nevertheless": 19032, "\u0120educ": 2711, "\u0120landing": 9581, "\u0120Someone": 17877, "\u0120flakes": 42330, "\u0120infall": 48124, "\u0120rocket": 10701, "\u0120prophet": 22298, "iOS": 35742, "\u0120CCP": 37963, "\u0120Email": 9570, "\u0120Jeremiah": 40192, "breeding": 49705, "ctr": 24087, "\u0120Systems": 11998, "\u0120327": 36203, "Spoiler": 31895, "Patch": 33952, "\u0120ascend": 34800, "\u0120dissent": 17873, "\u0120Kindle": 27114, "456": 29228, "\u0120PST": 28220, "\u0120petrol": 34139, "\u0120validity": 19648, "----------------": 1783, "\u0120Colomb": 16872, "\u0120Municip": 27338, "\u0120Andrea": 23174, "\u0120landlords": 30658, "\u0120Si": 15638, "hey": 20342, "\u0120chamber": 11847, "\u0120Patterson": 27042, "\u0120screams": 26557, "\u0120TMZ": 46800, "\u0120lecture": 19143, "\u0120infect": 7580, "oder": 12342, "\u0120Sheffield": 33496, "azz": 8101, "\u0120Persona": 41581, "\u0120Kejriwal": 42792, "oles": 4316, "\u0120TTC": 42662, "\u0120collision": 17661, "\u0120imp": 848, "\u0120Executive": 10390, "350": 14877, "\u0120dimensions": 15225, "WAY": 27285, "\u0120curric": 18363, "Kid": 48374, "\u0120bul": 4807, "Ent": 14539, "\u0120leads": 5983, "\u0120advancements": 47220, "\u0120repairs": 20097, "ignant": 25114, "email": 12888, "tub": 37995, "IVES": 42472, "embed": 20521, "iments": 6800, "\u0120well": 880, "\u0120acknowled": 7333, "\u0120Bot": 18579, "ior": 1504, "Anna": 31160, "--+": 44785, "\u0120timed": 28805, "Struct": 44909, "Country": 33921, "\u0120RandomRedditor": 36173, "\u0120acad": 5790, "ayers": 6962, "\u0120flame": 16506, "\u0120reader": 9173, "\u0120Kardash": 42239, "\u0120suspects": 11826, "\u0120formally": 15832, "ONY": 40508, "\u0120hel": 932, "506": 35638, "\u0120tragically": 49866, "\u0120economical": 40590, "\u0120search": 2989, "aku": 8719, "\u0120head": 1182, "\u0119": 213, "\u0120awards": 13304, "\u0120Human": 5524, "\u0120Ack": 36031, "\u0120greedy": 31828, "resh": 3447, "oo": 2238, "\u0120stealth": 19159, "\u0120sturdy": 28055, "\u0120Fey": 39775, "shaped": 16760, "agn": 4660, "\u0120Gang": 19228, "ef": 891, "\u0120launcher": 24008, "Mind": 28478, "\u0120All": 1439, "\u0120faked": 49184, "letters": 15653, "\u0120pinch": 25394, "yards": 33750, "\u0120thankfully": 36308, "\u00e3\u0124\u00b1": 41658, "\u0120energies": 27598, "\u0120MIDI": 33439, "\u0120decentral": 20649, "\u0120legal": 2742, "\u0120ceiling": 13387, "\u0120stair": 18761, "\u0120alk": 32915, "an": 272, "ALT": 31429, "RE": 2200, "\u0120divul": 43373, "isu": 46313, "urrection": 21384, "\u0120anatomical": 48631, "2500": 44688, "\u0120See": 4091, "Key": 9218, "\u0120Gent": 27391, "\u0120uploading": 33794, "\u0120fulfill": 14658, "\u0120surpr": 2827, "\u0120overc": 25676, "\u0120next": 1306, "gov": 9567, "\u0120pirates": 27516, "\u0120jobs": 3946, "\u0120ARM": 20359, "\u0120whist": 32262, "Header": 39681, "\u0120Richmond": 16940, "\u0120refere": 6773, "\u0120patent": 12701, "\u0120undefeated": 41445, "\u0120wheels": 13666, "\u0120Photo": 5555, "\u0120Ov": 46941, "\u0120lux": 10632, "\u0120Om": 16543, "\u0120staggered": 48480, "\u0120Lar": 25577, "feet": 39690, "olicy": 21424, "\u0120Lauder": 39212, "\u0120deflation": 46507, "\u0120Bradford": 28199, "\u0120dogs": 6844, "ernel": 7948, "?!": 12248, "\u0120vitality": 41687, "\u0120Helmet": 35900, "\u0120Nug": 45777, "\u0120fabulous": 28294, "ropolis": 25986, "\u0120pediatric": 29775, "\u0120unrestricted": 36263, "\u0120THESE": 48947, "\u0120assumes": 18533, "\u0120veil": 30615, "\u0120sweet": 6029, "ascal": 27747, "\u0120insulting": 27899, "oll": 692, "\u0120restart": 15765, "\u010c": 200, "Behind": 34163, "\u0120Divine": 13009, "\u0120judgments": 24195, "\u0120subsidy": 28646, "\u0120Label": 36052, "\u0120eerie": 41128, "spin": 39706, "\u0120Consent": 46869, "tube": 29302, "\u0120vendors": 17192, "\u0120offerings": 18369, "\u0120Trek": 12338, "\u0120thirds": 41188, "\u0120stagnant": 41391, "\u0120adm": 6178, "Ay": 42012, "\u0120Three": 7683, "orpor": 31150, "\u0120apprehend": 30200, "lease": 1274, "]:": 5974, "\u0120SJ": 31766, "595": 35124, "\u0120linked": 6692, "5000": 27641, "ikuman": 42889, "1998": 21113, "With": 3152, "AM": 2390, "\u0120potent": 16739, "\u0120Zur": 35821, "Action": 12502, "635": 48250, "\u0120Emblem": 40254, "\u0120masses": 14568, "\u0120finding": 4917, "\u0120Allies": 32430, "\u0120educate": 20771, "\u0120somewhere": 7382, "\u0120anger": 8993, "\u0120Chemical": 24872, "\u0120catch": 4929, "Pres": 25460, "\u0120Shelley": 46854, "\u0120recess": 28836, "\u0120Aren": 9843, "lah": 9271, "\u0120Wiki": 13078, "\u0120PLUS": 48635, "ablished": 22555, "lete": 5807, "smoking": 48783, "\u0120Golf": 19709, "\u0120Georgia": 7859, "\u0120Cat": 5181, "\u0120Goldberg": 31225, "\u0120Linda": 21776, "\u0120import": 1330, "arget": 7641, "GGGG": 25611, "\u0120grey": 13791, "\u0120enough": 1576, "ilus": 35815, "\u0120154": 24235, "\u0120terrible": 7818, "\u0120portals": 42604, "\u0120om": 39030, "ordan": 7350, "\u0120Anti": 12297, "Let": 5756, "\u0120Cabinet": 20384, "\u0120blackout": 45939, "\u0120boils": 40169, "\u0120wartime": 35382, "\u0120Sorceress": 40672, "\u0120forwards": 22052, "\u0120basic": 4096, "loo": 29680, "998": 34808, "river": 38291, "\u0120Dagger": 36320, "\u0120strut": 30577, "\u0120Layout": 47639, "\u0120Hipp": 33812, "\u0120mammalian": 46177, "015": 25150, "\u0120City": 2254, "orial": 5132, "NAT": 34259, "7": 22, "\u0120Pixar": 46706, "APE": 45721, "\u0120Zealand": 8936, "\u0120Rohingya": 34016, "\u0120virtue": 14675, "ifi": 22238, "argument": 49140, "Fun": 24629, "\u0120tits": 33789, "\u0120Forgotten": 28586, "igo": 14031, "\u0120transitional": 35577, "person": 6259, "istration": 33397, "\u0120scandals": 28449, "ssl": 45163, "\u0120center": 3641, "\u0120rebate": 49099, "Assuming": 48142, "\u0120specific": 2176, "\u0120Deck": 20961, "\u0120\u00eb": 31619, "\u0120Jae": 34521, "\u0120Cake": 30799, "thirst": 48832, "\u0120conservative": 5940, "\u0120Season": 7369, "cking": 44377, "\u0120LOVE": 27889, "\u0120distort": 30867, "\u0120highlighted": 14537, "\u0120Pets": 43578, "\u0120Frenzy": 48522, "675": 42444, "\u0120amalg": 45541, "\u0120pts": 43344, "275": 23195, "\u0120Folder": 48107, "\u0120Reyn": 18567, "\u0120inf": 1167, "\u0120prefix": 21231, "\u0120losses": 9089, "iably": 18745, "\u0120Beatles": 27330, "\u0120endemic": 42560, "\u0120however": 2158, "\u0120Ahead": 40344, "acterial": 44965, "\u0120clim": 5424, "\u0120casc": 49164, "\u0120Po": 7695, "\u0120shone": 44193, "\u0120revered": 37184, "opoly": 35894, "\u0120Cardiff": 34910, "\u00e3\u0123\u00ae\u00e5": 15474, "006": 28041, "\u0120lodge": 35362, "\u0120fashioned": 35458, "\u0120acids": 17045, "\u0120organism": 26433, "\u0120appetite": 20788, "\u0120Theo": 43999, "ique": 2350, "Ice": 23709, "ustainable": 24196, "\u0120Stanley": 14167, "\u0120overtime": 17820, "\u0120invoice": 45458, "\u0120informative": 30304, "\u0120reprinted": 44362, "\u0120dictionary": 22155, "\u0120Tro": 8498, "licks": 49191, "\u0120Takes": 33687, "\u0120restriction": 17504, "stood": 6501, "Royal": 41861, "imeter": 16912, "\u0120overturned": 27153, "\u0120pornography": 18384, "oks": 28194, "\u0120gaze": 17841, "uminati": 37200, "ugar": 35652, "date": 4475, "\u0120rematch": 39810, "Drag": 46022, "\u0120Worse": 36855, "xi": 29992, "\u0120Ser": 2930, "\u0120Scots": 33860, "\u0120Nash": 13950, "\u0120interfering": 32874, "\u0120discrepancy": 34466, "\u0120numer": 5470, "Relations": 47117, "report": 13116, "esc": 3798, "\u0120Exper": 8170, "\u0120Rae": 41155, "\u0120Spear": 27836, "\u0120Sexy": 49131, "\u0120hourly": 30160, "\u0120255": 14280, "mr": 43395, "\u0120medal": 18279, "ustration": 44027, "\u0120worse": 4785, "\u0120Ellis": 21299, "\u0120conson": 44278, "\u0120Cooldown": 39742, "Public": 15202, "\u0120david": 21970, "\u0120trade": 3292, "div": 7146, "1945": 41931, "\u0120hyster": 24258, "\u0120towels": 38494, "\u0120Maver": 28870, "icer": 16647, "ther": 490, "\u0120shedding": 39543, "heart": 11499, "tarians": 28266, "\u0120lact": 26222, "Anth": 30327, "\u0120cyclist": 34632, "\u0120quests": 21359, "aught": 3413, "\u0120unchecked": 40032, "\u0120mov": 1409, "\u0120wholesale": 24005, "\u0120notorious": 18192, "\u0120Niagara": 44340, "\u0120resisting": 28943, "\u0120Quiet": 37355, "\u0120photograp": 10079, "\u0120Gors": 34926, "\u0120swayed": 47632, "\u0120portrays": 44771, "\u0120Tol": 20054, "\u0120\u00f0\u0141\u0133": 50169, "\u0120Paleo": 46840, "692": 46589, "\u0120Delicious": 39528, "\u0120moder": 7019, "acho": 43703, "\u0120840": 48777, "\u0120lift": 10303, "\u0120Iranians": 34608, "wallet": 44623, "\u0120Fleet": 20001, "\u0120clasp": 47425, "\u0120Tape": 40849, "Storage": 31425, "616": 44214, "\u0120scathing": 44523, "\u0120approx": 5561, "iscovery": 40821, "\u0120Soph": 20367, "\u0120retracted": 47360, "\u0120basal": 41202, "\u0120statute": 14195, "\u0120aggro": 44082, "relations": 39468, "\u0120Color": 5315, "\u0120assisting": 26508, "\u0120Jung": 27134, "\u0120reliant": 39150, "described": 34869, "\u0120Theory": 17003, "\u0120Zionist": 29390, "\u00e7\u012b": 31965, "\u0120excludes": 36833, "\u0120goalkeeper": 26318, "USER": 29904, "\u0120settlements": 18573, "\":[{\"": 32509, "\u0120depress": 41447, "Circ": 31560, "\u0120ample": 23933, "\u0120Kosovo": 37445, "\u0120vintage": 20276, "\u0120Lover": 40414, "ison": 1653, "ava": 4170, "\u0120Accessed": 48547, "has": 10134, "fee": 39071, "\u0120commenters": 43807, "\u0120height": 6001, "\u0120pregn": 6112, "\u0120courts": 8028, "\u0120roots": 11135, "\u0120pos": 1426, "\u0120resembles": 22960, "\u0120whenever": 8797, "wit": 39289, "\u0120priests": 17345, "uta": 29822, "\u0120eliminates": 32311, "\u0120incidents": 10207, "\u0120eco": 34286, "rob": 22609, "Den": 21306, "\u0120Street": 3530, "\u0120roof": 9753, "Sullivan": 47572, "\u0120phenomen": 7581, "\u0120actress": 14549, "125": 11623, "amine": 9862, "\u0120nurturing": 47416, "every": 16833, "\u0120machinery": 20230, "eka": 38001, "\u00f3": 175, "alysis": 8767, "\u0120underestimate": 34994, "\u0120rept": 28761, "allah": 31840, "riage": 4087, "\u0120Robots": 39096, "pel": 30242, "\u0120carrots": 34397, "\u0120PowerShell": 33870, "\u0120bolst": 37183, "Roy": 32027, "aign": 1784, "\u0120Possible": 33671, "\u0120VG": 34627, "Applications": 41995, "dain": 27162, "\u0120offend": 35117, "\u0120CoC": 41055, "irms": 8789, "\u0120atten": 31919, "\u0120ard": 33848, "\u0120angry": 7954, "\u0120aluminum": 15955, "\u0120Laugh": 47501, "\u0120remarks": 10252, "kell": 17164, "mans": 16221, "Questions": 35741, "session": 29891, "pperc": 39921, "\u0120Chemistry": 27867, "\u0120cost": 1575, "\u0120GOT": 41725, "\u0120brav": 49025, "raged": 18312, "040": 36676, "\u0120none": 4844, "blast": 39806, "\u0120Sov": 6917, "imensional": 16198, "\u01203": 513, "debug": 24442, "\u0120Tot": 20323, "\u0120regenerate": 43519, "UNE": 41884, "\u0120Shot": 13590, "part": 3911, "lat": 15460, "\u0120absurd": 12986, "\u0120bunk": 36355, "\u0120FIA": 49432, "\u0120solvent": 43209, "\u0120Commentary": 45465, "\u0120Das": 29533, "ESPN": 31730, "\u0120paycheck": 37751, "Line": 13949, "\u0120legendary": 13273, "facebook": 19024, "ye": 5948, "\u0120Charter": 23006, "Elect": 19453, "\u0120Express": 10604, "\u0120spared": 31348, "Completed": 43768, "\u0120inspir": 32285, "\u0120bom": 8626, "Chan": 48407, "\u0120converted": 11513, "\u0120Werewolf": 40261, "\u0120protected": 6861, "\u0120Maxim": 38962, "uba": 22013, "\u0120include": 2291, "itates": 38654, "\u0120conceded": 24684, "21": 2481, "\u0120reactors": 28502, "\u0120Variant": 38215, "\u0120Gard": 12790, "\u0120haha": 42254, "func": 20786, "25": 1495, "\u0120Spirits": 30141, "\u0120url": 19016, "\u00e3\u0124\u00bd": 47559, "\u0120athletics": 35691, "\u0120TLS": 33855, "\u0120Bone": 21717, "\u0120Cavern": 40230, "gado": 50054, "\u0120unab": 40986, "\u0120arrow": 15452, "\u0120media": 2056, "\u0120cull": 37429, "\u0120dispel": 45629, "\u0120Malf": 32197, "\u0120contradict": 18372, "\u0120remains": 3793, "------------------------------------------------": 47232, "mass": 22208, "\u0120finely": 32566, "\u0120Wool": 24759, "Opp": 27524, "\u0120Slovenia": 37562, "\u0120circumvent": 33256, "ainment": 37091, "Model": 17633, "\u0120Flat": 21939, "half": 13959, "\u0120diction": 48589, "iw": 14246, "birth": 24280, "\u0120EVER": 20498, "\u0120poster": 11968, "\u0120crushing": 24949, "\u0120Taiwan": 14119, "expensive": 22031, "alysed": 47557, "\u0120craft": 5977, "\u0120esc": 3671, "\u0120Educational": 30038, "peer": 33350, "\u0120chall": 2532, "\u0120hometown": 20994, "432": 45331, "\u0120Meter": 46423, "Johnny": 44960, "\u0120alternatively": 46596, "\u0120Nom": 21198, "\u0120worthwhile": 24769, "\u0120Interstellar": 49041, "\u0120pumpkin": 30089, "\u0120descript": 12145, "Series": 27996, "\u0120dra": 28841, "\u0120wellbeing": 40013, "\u0120Louise": 31774, "\u0120convince": 11508, "utherford": 46923, "warning": 43917, "\u0120vandalism": 37260, "\u0120bindings": 34111, "CTV": 30428, "\u0120indexes": 39199, "\u0120Sept": 2362, "\u0120diagn": 6689, "15": 1314, "Settings": 26232, "\u0120interacting": 24986, "\u0120disag": 7969, "\u0120graves": 30055, "\u0120dire": 19958, "76561": 48527, "\u0120parachute": 41015, "\u0120defects": 22448, "\u0120($)": 45491, "\u0120SA": 14719, "\u0120Frey": 35086, "\u0120Kazakh": 29766, "\u0120hon": 3032, "\u0120empty": 6565, "ros": 4951, "\u0120frig": 36780, "\u0120=": 796, "151": 24309, "\u0120tapes": 23695, "Clinton": 16549, "\u0120dipping": 43144, "\u0120Justice": 4796, "\u0120catastrophic": 22694, "\u0120licensing": 15665, "\u0120Tory": 19037, "\u0120Edison": 37448, "\u0120Hemisphere": 42811, "\u0120Attention": 47406, "\u0120indisp": 33321, "\u0120bilingual": 48116, "\u0120verify": 11767, "\u0120summed": 32794, "\u0120Martial": 28526, "\u0120equally": 8603, "\u0120luc": 17115, "\u0120Kyle": 14316, "cled": 20095, "make": 15883, "Summary": 22093, "fits": 21013, "\u0120McF": 38222, "\u0120August": 2932, "\u0120device": 3335, "usra": 28352, "\u0120Jose": 5264, "\u0120afterlife": 45076, "\u0120Suns": 29139, "\u0120cares": 16609, "brance": 28031, "Mario": 42315, "1967": 42830, "M": 44, "\u0120Sin": 10884, "copy": 30073, "Brexit": 40730, "\u0120413": 46618, "\u0120Specifically": 22426, "Grab": 48400, "\u0120trouble": 5876, "forcement": 13442, "\u0120alongside": 7848, "\u0120Hak": 24734, "\u0120guide": 5698, "\u0120Garr": 46619, "idium": 43523, "\u0120plum": 22802, "\u0120Yo": 25455, "iya": 21008, "\u0120pauses": 37622, "anking": 15230, "thumbnails": 18670, "\u0120investig": 2009, "\u0120offset": 11677, "TING": 48996, "\u01201954": 24718, "file": 7753, "\u0120drowned": 30859, "\u0120Nau": 50071, "ancer": 8250, "JC": 34382, "\u0120Class": 5016, "\u0120ah": 29042, "\u0120balloon": 21190, "\u0120Uk": 5065, "\u0120620": 45469, "soever": 15485, "\u0120outbreak": 17645, "\u0120Phillips": 17630, "\u0120Burning": 21460, "\u0120devastation": 34595, "\u0120religious": 4158, "Jun": 22396, "odon": 46457, "\u0120museum": 13257, "\u0120DR": 10560, "ENTS": 15365, "\u0120churches": 14422, "\u0120cooks": 38383, "\u0120deer": 20096, "\u0120massacre": 19050, "\u0120steadily": 18434, "\u0120COM": 9440, "Sl": 11122, "\u0120repay": 20152, "\u0120lab": 2248, "\u0120ke": 885, "\u0120uncond": 31776, "\u0120changed": 3421, "\u0120reaching": 8978, "\u0120Orion": 26153, "401": 21844, "jad": 38442, "uth": 1071, "ocolate": 9140, "Gary": 33820, "\u0120appropri": 4148, "\u01201969": 16450, "\u0120publicity": 19403, "\u0120modem": 38053, "\u0120Cameron": 10821, "\u0120HOW": 29630, "etta": 15253, "\u0120testify": 19671, "US": 2937, "433": 42117, "\u0120Ket": 43092, "\u0120mild": 11607, "Lib": 25835, "Source": 7416, "right": 3506, "\u0120gray": 12768, "\u0120Ung": 44904, "\u0120organizations": 5745, "\u0120shouting": 19642, "\u0120sympt": 6585, "\u0120BYU": 37216, "vec": 35138, "\u0120Healthy": 30840, "of": 1659, "inth": 9304, "\u0120cancel": 14241, "\u0120charact": 1543, "asa": 15462, "\u0120rugged": 30957, "\u0120Felix": 29721, "\u0120correctly": 9380, "\u0120succinct": 46263, "Fox": 19399, "wyn": 27612, "\u0120reduce": 4646, "projects": 42068, "Capital": 39315, "CHAR": 38019, "_______": 37405, "designed": 30473, "\u00e3\u0122\u0133": 31817, "\u0120fungus": 39526, "\u0120controller": 10444, "jection": 29192, "\u0120nowhere": 12062, "\u0120excessively": 40437, "\"],\"": 34171, "\u0120exterior": 20897, "\u0120ludicrous": 35214, "\u0120Ney": 34506, "\u0120servicing": 43346, "\u0120Canad": 2294, "\u0120Insp": 25300, "ppings": 37840, "\u0120Fas": 38971, "Kick": 45390, ",,,,": 23846, "\u0120Guard": 4932, "stim": 42003, "\u0120Milk": 24796, "we": 732, "\u0120babies": 11903, "\u0120satellites": 20372, "\u0120Prevent": 31572, "okemon": 12717, "\u0120canine": 43003, "\u0120Manufacturer": 40218, "\u0120Azerb": 29740, "\u0120correct": 3376, "\u0120sanctioned": 30572, "global": 20541, "ver": 332, "\u0120cheating": 21608, "ayer": 2794, "\u0120appointed": 9899, "\u0120checkpoint": 26954, "\u0120planners": 33596, "\u0120Defeat": 41397, "\u0120timers": 48085, "\u0120Paris": 6342, "\u0120Sanctuary": 27036, "\u0120downhill": 35390, "\u0120uneasy": 34644, "\u0120290": 26481, "\u0120Ded": 35023, "ologically": 13437, "\u0120UD": 43700, "\u0120Argent": 12335, "\u0120Hol": 6479, "dd": 1860, "ribe": 4892, "Brave": 39787, "\u0120Garg": 39013, "\u0120Chris": 5180, "\u0120paraly": 26901, "\u0120staffers": 23033, "oshenko": 43934, "\u0120Buc": 23627, "\u0120downtime": 45832, "XXXX": 24376, "\u0120MLG": 48144, "verett": 33395, "\u0120production": 3227, "surprisingly": 41199, "oper": 3575, "\u0120property": 3119, "________________________________________________________________": 27193, "\u0120originated": 20973, "rehens": 7345, "\u0120novels": 16122, ".-": 7874, "\u0120advice": 5608, "Notes": 16130, "\u0120\u00e2\u0122\u0130": 24398, "\u0120type": 2099, "\u0120slot": 10852, "\u0120shared": 4888, "\u0120discord": 36446, "urches": 12730, "\u0120[*]": 36338, "Same": 30556, "\u0120you": 345, "\u0120Mar": 1526, "\u0120Lis": 28546, "\u0120institution": 9901, "\u0120northwest": 24821, "\u0120hook": 8011, ");": 1776, "\u0120therapist": 24636, "\u0120Pett": 35043, "\u0120Takeru": 48497, "\u0120marker": 18364, "atche": 24809, "\u01201050": 47235, "\u0120outbreaks": 35198, "odied": 32255, "despite": 41081, "reasonable": 42275, "\u0120insurers": 24668, "\u0120EM": 17228, "\u0120inning": 21648, "~~~~": 8728, "\u0120Brus": 15507, "q": 80, "\u0120Dance": 17349, "\u0120wizard": 18731, "\u0120parks": 14860, "\u0120Agreement": 12729, "\u0120offence": 14148, "\u0120medications": 17638, "222": 23148, "\u0120booking": 25452, "\u0120bc": 47125, "\u0120repeats": 29819, "54": 4051, "\u0120mater": 26910, "wx": 49345, "\u0120Classic": 13449, "berus": 39192, "\u0120premier": 18256, "\u0120sitting": 5586, "\u0120Hand": 7157, "\u0120ridiculed": 47263, "\u0120ripple": 42462, "\u0120meteor": 19999, "\u0120complete": 1844, "aways": 23949, "desc": 20147, "\u0131": 237, "\u0120ns": 36545, "\u0120slaughter": 17968, "arations": 24355, "\u0120frontier": 27580, "scale": 9888, "\u0120Strikes": 37836, "\u0120Tables": 33220, "\u0120Calgary": 17842, "\u0120Sonic": 18426, "ilipp": 8908, "\u0120sooner": 14556, "\u0120Function": 15553, "\u0120publicized": 42732, "\u0120conduct": 3189, "ixtape": 43938, "\u0120quarterback": 7880, "oman": 5185, "EXT": 13918, "\u0120overhe": 34789, "hei": 27392, "\u0120indifferent": 31655, "\u0120mobility": 15873, "\u0120Bow": 9740, "\u0120Cycl": 28007, "\u0120MT": 19308, "\u0120Syl": 49481, "\u0120KD": 43943, "fixes": 42624, "\u0120rod": 15299, "CRE": 43387, "\u0120purified": 46075, "\u0120since": 1201, "\u0120cloning": 45973, "velength": 26623, "atell": 7528, "\u0120Cove": 39534, "\u0120fools": 37323, "trust": 38087, "\u0120walked": 6807, "romeda": 32291, "\u0120Mask": 18007, "\u0120exciting": 7895, "\u0120factor": 5766, "\u0120Me": 2185, "Sex": 23398, "\u0120Bob": 5811, "imus": 20704, "\u0120biking": 38088, "\u0120clerk": 21120, "\u0120Sasuke": 37527, "depending": 44023, "\u0120bind": 11007, "\u0120apprehens": 31887, "\u0120Darling": 49825, "\u0120prevail": 28615, "\u0120Rod": 6882, "\u0120aircraft": 6215, "Cro": 35403, "Creating": 32071, "cc": 535, "\u0120neurot": 42181, "\u0120Nicole": 25176, "\u0120applicants": 17057, "aea": 44705, "olla": 33011, "\u0120Crime": 10003, "\u0120shifts": 15381, "\u0120rain": 6290, "eligible": 31595, "\u0120Globe": 18260, "\u0120tariff": 36427, "Property": 21746, "itan": 18642, "\u0120glutamate": 48402, "\u0120crawled": 45668, "\u0120spl": 4328, "\u0120supply": 5127, "\u0120SQL": 16363, "\u0120dolphins": 36798, "\u0120obnoxious": 43283, "\u0120ruler": 22740, "\u0120X": 1395, "\u0120introducing": 16118, "orry": 5152, "\u0120thinly": 44722, "ossible": 4733, "gra": 46784, "\u01201968": 15963, "iate": 9386, "\u0120Motor": 12533, "\u0120comic": 9048, "\u0120disturb": 17037, "\u0120communists": 40938, "\u00ce\u00bf": 26517, "\u0120tu": 12777, "lists": 20713, "istrates": 37909, "\u0120Vo": 20687, "\u0120guessed": 25183, "\u0120designs": 9824, "\u0120Supporters": 39995, "\u0120unethical": 38486, "\u0120homeowner": 40130, "uine": 8327, "\u0120functional": 10345, "339": 29626, "Hidden": 41691, "Iterator": 37787, "\u0120radar": 13428, "\u0120Ukip": 35736, "\u0120XCOM": 49358, "these": 27218, "window": 17497, "\u0120SH": 6006, "Sounds": 40825, "\u0120store": 3650, "\u0120Endurance": 43290, "Stock": 26207, "\u0120padding": 24511, "\u0120cis": 33325, "\u0120Nevada": 12087, "\u0120women": 1466, "\u0120490": 45601, "\u0120strange": 6283, "igne": 48946, "iah": 9520, "\u0120Insert": 35835, "edIn": 20801, "\u0120shopping": 9735, "\u0120Farm": 11272, "\u0120downside": 25320, "\u0120Tate": 31376, "acists": 33194, "terday": 6432, "num": 22510, "\u0120potion": 26572, "domain": 27830, "Rect": 45474, "\u0120Lud": 24177, "\u0120Crus": 15170, "\u0120participates": 49567, "\u0120Adventure": 9553, "\u0120Railroad": 36289, "ensing": 26426, "\u0120animated": 15108, "\u0120Storm": 8865, "\u0120\u00e0\u00a8": 42314, "\u0120Dwar": 21469, "\u0120jeopard": 22451, "\u0120wakes": 34267, "\u0120disple": 34421, "\u0120sums": 21784, "\u0120Relief": 30323, "\u0120Quincy": 46884, "\u0120nominees": 26456, "\u0120debug": 14257, "\u0120my": 616, "ukong": 46654, "\u0120Artifact": 45908, "\u0120Humane": 45936, "\u0120captures": 23007, "\u0120Hispan": 13600, "Crunch": 49384, "legal": 18011, "\u0120gorilla": 45314, "\u0120191": 31009, "\u0120Winc": 35898, "\u0120oriented": 25921, "\u0120symbol": 6194, "low": 9319, "Furthermore": 24951, "\u0143\u00b7": 48953, "\u0120classmate": 45222, "\u0120platoon": 39368, "\u0120pleas": 21289, "\u0120whatever": 4232, "536": 44468, "gery": 7076, "\u0120Hancock": 39261, "Help": 22087, "\u0120crush": 19813, "\u0120Youth": 17582, "\u0120scientists": 5519, "groups": 24432, "escent": 45470, "\u0120addict": 19678, "CENT": 43960, "757": 39251, "Pos": 21604, "volume": 29048, "\u0120Shooter": 35334, "brids": 40637, "\u0120und": 3318, "\u0120Yale": 19681, "\u0120straw": 14787, "\u0120Calling": 32677, "\u0120spec": 1020, "\u0120Flu": 34070, "antom": 11456, "\u0120dismissal": 25693, "itors": 6742, "motion": 38714, "\u0120Scout": 22529, "metry": 41935, "agement": 5082, "\u0120evil": 6181, "\u0120Yuan": 34071, "\u00e9\u00be": 11737, "378": 30695, "articles": 26845, "\u0120BET": 38651, "eping": 7213, "ster": 1706, "thora": 34261, "\u0120exempl": 21433, "arkin": 39027, "Stand": 15480, "ophobia": 19851, "isans": 26100, "\u0120Terra": 24118, "\u0120mus": 1928, "\u0120dispatcher": 49952, "\u0120Hik": 39790, "\u0120politician": 14971, "\u0120topics": 10233, "ure": 495, "\u0120thus": 4145, "ST": 2257, "\u0120boom": 14166, "\u0120sto": 3995, "historic": 31304, "istani": 16688, "\u0120that": 326, "\u0120submit": 9199, "\u0120theat": 23776, "\u0120Trust": 9870, "oufl": 28012, "nutrition": 40482, "\u0120mold": 15936, "\u0120Berlin": 11307, "\u0120room": 2119, "\u0120Panasonic": 46049, "exist": 38476, "\u0120tweaks": 26957, "alker": 20949, "\u0120Architects": 44610, "secret": 21078, "\u0120breasts": 17515, "\u0120disproportionate": 30982, "ooter": 25141, "sign": 12683, "\u0120jun": 10891, "+.": 27613, "oreAnd": 40219, "\u0120rust": 17000, "\u0120Books": 13661, "URRENT": 39237, "\u00e8\u0122\u0127": 38519, "piring": 12987, "\u0120depreciation": 45980, "\u00e3\u0124\u00bb": 47271, "\u0120volunte": 7105, "Sav": 47362, "\u0120wheat": 17135, "\u0120metaphor": 23094, "\u0120curves": 23759, "\u0120158": 24063, "\u0120civil": 3026, "\u0120PSP": 48651, "\u0120via": 2884, "\u0120mini": 9927, "\u0120Sap": 35980, "\u0120AMER": 32617, "\u0120poll": 3278, "\u0120Metatron": 38894, "\u0120Suzanne": 45587, "ctor": 2715, "\u0120Memor": 41157, "\u0120Discipline": 48532, "\u0120Thorn": 31422, "\u0120Shannon": 28108, "\u0120flowers": 12734, "\u0120oven": 14361, "\u0120Wes": 18622, "\u0120paradigm": 23457, "\u0120clip": 10651, "aeda": 11641, "\u0120parameter": 11507, "ind": 521, "\u0120biologist": 35261, "\u0120bull": 6473, "\u0120satisf": 5244, "weights": 43775, "\u0120angel": 18304, "\u0120Pulitzer": 44127, "\u0120conven": 7292, "\u0120Kop": 40500, "\u0120merging": 35981, "\u0120remainder": 17675, "\u0120dipped": 35300, "\u0120mistakenly": 33168, "\u0120reun": 15398, "\u0120Capitol": 13241, "\u0120Hend": 14666, "meyer": 48794, "\u0120elevated": 15321, "Neigh": 46445, "\u0120referenced": 20717, "\u0120IB": 34782, "\u0120toilet": 16146, "\u0120218": 29217, "\u0120disgusted": 36943, "ido": 17305, "\u0120nec": 27576, "\u0120Mitchell": 14526, "\u0120messing": 37241, "AN": 1565, "\u0120Moto": 23049, "Getty": 6633, "\u0120shielded": 45153, "\u0120Gloves": 36407, "\u0120province": 8473, "\u0120ceremonial": 39490, "\u0120Term": 35118, "\u0120Wendy": 28314, "\u0120bar": 2318, "\u0120Hod": 22816, "\u0120exposed": 7362, "\u0120Levi": 20196, "Filename": 35063, "1007": 44318, "drive": 19472, "pid": 35317, "arant": 4741, "\u0120composer": 26777, "arson": 12613, "dozen": 44932, "\u0120thick": 6546, "gins": 29878, "\u0120HDD": 43601, "%%%%": 36917, "\u0120GAME": 30517, "\u0120literature": 9285, "\u0120blink": 21019, "\u0120Reilly": 47879, "\u0120prestigious": 23566, "\u012021": 2310, "\u0120Helsinki": 47688, "Fair": 30099, "\u0120Despite": 7945, "AV": 10116, "\u0120287": 38721, "\u0120Santa": 8909, "\u0120Bloody": 30893, "\u0120screenplay": 39769, "\u0120finalized": 32013, "\u0120operations": 4560, "commercial": 36313, "\u0120Threat": 25238, "omsky": 37093, "shows": 49596, "\u0120rhythm": 18662, "\u0120sweats": 39387, "\u0120LDS": 28377, "\u01201977": 15589, "\u0120Elephant": 42651, "\u0120sunlight": 19606, "Access": 15457, "\u0120Tad": 50077, "\u0120ingenious": 44207, "\u0120Blog": 14001, "\u01201958": 24648, "\u0120deserving": 34685, "buster": 24899, "\u0120intact": 16572, "talking": 48186, "\u0120Skinner": 42899, "\u0120discusses": 19451, "\u0120Experiment": 29544, "\u0120Slay": 46809, "\u0120landmarks": 41532, "708": 32583, "\u0120suspended": 9951, "\u0120PLoS": 49832, "\u0120sequel": 16304, "\u0120quantity": 12040, "KER": 42839, "\u0120\u00e8\u00a3\u0131\u00e8": 34504, "Redd": 32259, "\u0120hosted": 12007, "aughtered": 32734, "\u0120Hobby": 44327, "1989": 25475, "\u0120mim": 17007, "\u0120implement": 3494, "\u0120realism": 30787, "\u0120journey": 7002, "\u0120Compl": 20011, "archives": 48814, "\u0120bearing": 14121, "\u0120Eastern": 8345, "\u0120predicting": 25539, "\u0120VERY": 29550, "\u0120sensor": 12694, "\u0120Dil": 29328, "pelling": 35025, "Deal": 45776, "\u0120filmmaker": 26479, "\u0120rescuing": 48329, "\u0120mic": 12314, "ENC": 24181, "PORT": 15490, "\u0120polyg": 25052, "yn": 2047, "\u0120Starter": 37460, "fi": 12463, "\u0120arrangements": 14752, "\u0120),": 10612, "\u0120yielding": 39127, "antes": 39781, "\u0120municipalities": 29364, "\u0120practically": 14547, "041": 50049, "\u0120glaciers": 40509, "\u0120kissing": 25847, "Layer": 49925, "atts": 30353, "\u0120acknowledgment": 48182, "\u0120cliff": 19516, "\u0120deepen": 46409, "\u0120rapid": 5801, "micro": 24055, "\u0120Relationship": 39771, "\u0120transport": 4839, "\u0120Resident": 22373, "sheet": 21760, "ritten": 9108, "Turkey": 31632, "\u0120witchcraft": 48646, "queue": 36560, "\u0120Yu": 10605, "\u0120RT": 11923, "eval": 18206, "\u0120kidneys": 41395, "oan": 24611, "\u0120selling": 6301, "AMI": 43870, "\u0120\u00e2\u0122\u0135": 784, "\u0120alumni": 31333, "\u0120projection": 20128, "\u0120IR": 14826, "\u0120land": 1956, "led": 992, "\u0120divor": 21781, "\u0120basket": 7988, "\u0120studied": 9713, "\u0120bottles": 14096, "olyn": 34742, "\u0120showc": 21876, "\u0120States": 1829, "\u0120ramifications": 36093, "\u0120bats": 19553, "\u0120pursuant": 12997, "\u0120glim": 16323, "\u0120op": 1034, "Princ": 42904, "\u0120favorite": 4004, "=\"/": 35922, "\u0120Kingdom": 7526, "\u0120Anime": 27812, "\u0120miserable": 22444, "Square": 48011, "\u0120Hop": 9996, "glomer": 37757, "\u0120neglect": 17985, "\u0120topical": 39867, "\u0120Bengals": 24037, "\u0120Him": 10978, "\u0120denies": 18866, "\u0120Than": 17924, "\u0120Brewers": 35295, "\u0120breast": 9296, "Organ": 26121, "\u0120ITV": 49188, "\u0120Chevrolet": 35398, "\u0120Whenever": 21326, "lime": 27299, "\u0120127": 18112, "\u0120benevolent": 45599, "\u0120fermentation": 35115, "\u0120GPU": 11362, "assembled": 46826, "\u0120measures": 5260, "\u0120astonished": 40962, "\u0120Trey": 36085, "etime": 8079, "ppa": 44989, "\u0120incorporating": 29927, "\u0120JPM": 40145, "akings": 45665, "\u0120Sample": 27565, "\u0120fraught": 39730, "thereum": 17733, "\u0120belongings": 30985, "\u0120Political": 14611, "\u0120sugg": 1947, "Hen": 26055, "\u0120fugitive": 43799, "985": 42250, "\u0120K": 509, "girls": 36960, "\u0120Portable": 44685, "\u0120Giul": 35267, "FORMATION": 35036, "\u0120coh": 16883, "\u0120reasoned": 37857, "\u0120Euras": 35769, "\u0120applicant": 16919, "\u0120bour": 38043, "\u0120Lerner": 49750, "\u0120strikingly": 47305, "\u0120vanity": 39609, "\u0120meantime": 14324, "\u0120perpetrators": 25185, "\u0120keyboard": 10586, "bf": 19881, "estyle": 10992, "\u0120smir": 42821, "\u0120astronauts": 26835, "anic": 26277, "\u0120became": 2627, "\u0120Camera": 20432, "\u0120predict": 4331, "\u0120Sandwich": 45000, "inda": 22261, "\u0120rendition": 40570, "\u0120Junior": 20000, "\u0120Equ": 7889, "\u0120micro": 4580, "\u0120STL": 37269, "doms": 23686, "angel": 8368, "\u0120drives": 10182, "\u0120embraces": 37872, "\u00c3\u0143": 8836, "\u0120functionality": 11244, "INGTON": 17480, "\u0120manpower": 44803, "\u0120guided": 17455, "\u0120philanthrop": 28150, "Moscow": 49757, "\u0120unveiled": 18475, "UFC": 44534, "\u0120Jar": 15374, "ickr": 18994, "\u0120unemploy": 8707, "\u0120Acid": 27066, "cu": 27399, "\u0120total": 2472, "Ge": 10082, "\u0120boutique": 45753, "Les": 35882, "\u0120Its": 6363, "\u0120sexism": 24953, "azard": 26267, "\u0120retirement": 10737, "fficient": 5632, "\u0120Impossible": 38791, "\u0120DOE": 46984, "\u0120Crimes": 32655, "\u0120later": 1568, "\u0120admiration": 28506, "\u0120Deadline": 35954, "\u0120CBD": 27147, "\u0120bluntly": 44514, "\u0120Grayson": 42657, "llah": 22734, "\u0120effects": 3048, "ois": 10924, "afa": 28485, "\u0120!!": 37867, "\u0120Scrolls": 28859, "\u0120massively": 28161, "\u00c3\u00a7a": 50041, "sql": 25410, "\u0120beside": 13970, "\u0120bitten": 38854, "\u0120flee": 11562, "\u0120Ft": 45231, "\u0120gulf": 41593, "\u0120tournaments": 18130, "\u0120fearless": 43157, "\u0120rigid": 20831, "\u0120recurrent": 42465, "\u0120fragile": 21049, "\u0120arch": 3934, "\u0120skeptical": 17988, "VB": 44526, "\u0120gritty": 39679, "\u0120postwar": 44060, "Cass": 43529, "emporary": 33080, "\u0120Tip": 23095, "fat": 17359, "\u0120murder": 5123, "\u0120twentieth": 29112, "oran": 31884, "portion": 16864, "obin": 38954, "\u0120blueprint": 30881, "\u00c3\u0125": 5746, "\u0120supplemental": 34885, "\u0120blowing": 19280, "\u0120Ank": 24792, "\u0120\u00d9\u0127": 47048, "azor": 17725, "\u0120Modified": 40499, "\u0120Fitness": 34545, "\u0120updating": 19698, "\u0120pedestrian": 22382, "aminer": 32086, "SQL": 17861, "endi": 43109, "\u0120NG": 39058, "\u0120Filipino": 35289, "\u0120Heck": 31679, "Animal": 40002, "\u0120boat": 8848, "\u0120TAMADRA": 41297, "\u0120units": 4991, "\u0120params": 42287, "\u0120Electoral": 27557, "\u00e3\u0125\u0128": 24336, "\u0120Bulgaria": 27902, "oki": 18228, "erman": 2224, "\u0120deleting": 34817, "\u0120Az": 7578, "alla": 30315, "kos": 46150, "ADRA": 40517, "\u0120girlfriend": 11077, "\u0120Extreme": 18111, "\u0120fet": 11351, "hammer": 17980, "\u0120Shea": 42368, "Good": 10248, "\u0120fails": 10143, "\u0120automate": 43511, "\u0120mayors": 44660, "\u0120unworthy": 49284, "\u0120Ruff": 42409, "told": 44040, "house": 4803, "\u01202": 362, "\u0120primary": 4165, "battle": 38471, "\u0120sav": 6799, "\u0120consum": 2784, "\u0120Adren": 46918, "do": 4598, "417": 38547, "\u0120carriers": 16651, "\u0120Commun": 4440, "beans": 44749, "icator": 26407, "\u0120Vir": 16310, "jong": 32428, "didn": 45168, "\u0120hyd": 7409, "\u0120Moran": 42705, "athering": 25545, "\u0120shroud": 32296, "\u0120sd": 45647, "\u0120delet": 28128, "Test": 14402, "iological": 15071, "\u0120invented": 15646, "ita": 5350, "\u0120frog": 21264, "uded": 19289, "\u0120Zoo": 21980, "\u0120===": 24844, "\u0120ceremonies": 27340, "between": 23395, "\u0120Sweeney": 47005, "\u0120Garrett": 27540, "\u012010": 838, "\u0120unemployed": 21021, "\u0120eggs": 9653, "\u0120wires": 19474, "function": 8818, "\u0120Enh": 15860, "\u0120prow": 25055, "\u0120Pain": 15627, "ABLE": 17534, "\u0120cogn": 8866, "\u0120Straw": 27279, "]-": 45297, "\u0120cooperation": 11113, "\u0120allies": 7681, "\u0120Tes": 10696, "Along": 24035, "\u0120accents": 39271, "stanbul": 24179, "++": 4880, "\u0120East": 3687, "\u0120Serial": 23283, "\u0120commanding": 25771, "\u0120publication": 9207, "backer": 49978, "\u0120obscene": 33390, "\u0120Coll": 7778, "338": 28460, "\u0120rainbow": 27223, "\u0120negative": 4633, "\u0120Adelaide": 27139, "\u0120luxurious": 35985, "\u0120linebacker": 18961, "affle": 30697, "remote": 47960, "\u0120intrusion": 34396, "\u0108": 196, "\u0120lifts": 27103, "asionally": 31775, "chemy": 26599, "\u0120villain": 16687, "\u0120accomplishment": 29340, "\u0120intake": 10337, "IDA": 41957, "ards": 1371, "\u0120ECO": 39031, "\u0120Edgar": 29166, "store": 8095, "\u0120Nov": 5267, "\u0120Khalid": 44544, "\u0120believed": 4762, "Considering": 40475, "\u0104": 192, "\u0120Centauri": 48278, "\u0120wasting": 24430, "\u0120EN": 12964, "\u0120gadgets": 35281, "\u0120Cooperative": 43457, "heny": 47413, "Party": 33553, "\u0120Compliance": 40536, "\u0120squee": 13170, "ich": 488, "\u0120Unreal": 42536, "\u0120simultane": 10108, "ersen": 46516, "\u0120amput": 40338, "\u0120using": 1262, "ulsion": 15204, "\u0120Valley": 6916, "\u0120integrity": 11540, "\u0120value": 1988, "\u0120accommodation": 19711, "Never": 12295, "intendo": 8773, "angler": 49910, "irt": 2265, "\u0120Turns": 30875, "\u00e1\u00b8": 41585, "\u0120criteria": 9987, "\u0120repo": 29924, "\u0120exclusion": 19328, "\u0120uncanny": 45244, "\u0120Antioch": 46590, "\u0120ca": 1275, "\u0120Homes": 34698, "ousse": 28396, "\u0120localized": 36618, "functional": 45124, "\u0120those": 883, "\u0120Instruct": 20689, "\u0120orphans": 50213, "lander": 16235, "\u0120functions": 5499, "\u0120Yog": 31604, "\u0120Ivanka": 31002, "\u0120of": 286, "\u0120downs": 21838, "LAB": 48780, "\u0120comprise": 28889, "ichi": 16590, "ilers": 34393, "\u0120Dawn": 12258, "daughter": 29642, "\u0120evaluate": 13446, "grass": 29815, "\u0120Income": 19003, "ident": 738, "\u0120reimbursement": 37030, "Bottom": 34104, "\u0120incarcer": 18615, ")|": 14726, ":/": 14079, "367": 27824, "\u0120Neander": 38752, "Must": 34320, "\u0120bushes": 37413, "\u0120flap": 37699, "Load": 8912, "\u0120Hind": 17099, "\u0120acceleration": 20309, "\u0120dictator": 26671, "Hung": 39505, "ulin": 11599, "\u0120Trojan": 44695, "itage": 10208, "rogram": 39529, "ossus": 36533, "\u0120likelihood": 14955, "\u0120rhetorical": 38505, "stantial": 41321, "ratch": 36722, "hetic": 6587, "\u0120CE": 18671, "oine": 42722, "\u0120passive": 14513, "\u0120masks": 20680, "illi": 50173, "uku": 33263, "\u0120Saunders": 35896, "\u0120Carr": 20765, "\u0120Thank": 6952, "\u0120Dominican": 32022, "\u0120crank": 30425, "\u0120produces": 11073, "\u0120treat": 2190, "\u0120atomic": 17226, "\u0120Vil": 34037, "\u0120Telecom": 44021, "\u0120arising": 21539, "\u0120unsustainable": 39554, "\u0120Bug": 15217, "Pen": 25553, "INTON": 46812, "\u0120disappear": 10921, "asury": 11579, "faces": 32186, "priced": 30883, "CL": 5097, "\u0120overlooking": 34603, "onnaissance": 31539, "\u0120BEL": 29991, "ilon": 33576, "Pract": 49515, "\u0120patriarchal": 42301, "\u0120Accordingly": 28386, "\u0120lat": 3042, "\u0120Babylon": 28028, "ASS": 10705, "\u0120sustained": 12605, "entially": 3746, "\u0120initiation": 30122, "\u00e3\u0125\u00a4": 37858, "\u0120Suicide": 27695, "\u0120impart": 23553, "over": 2502, "\u0120lol": 19462, "Fel": 42493, "\u0120motherboard": 32768, "lord": 10572, "anced": 2903, "\u0120unsett": 29286, "\u0120PS": 6599, "\u0120technologies": 8514, "FIR": 39776, "\u0120Pau": 37329, "other": 847, "\u0120replied": 8712, "\u0120annot": 24708, "zik": 47303, "\u0120Long": 5882, "sci": 36216, "\u0120Stev": 42786, "Inf": 18943, "\u0120assumptions": 14895, "\u0120rabid": 49666, "\u0120Points": 11045, "rim": 3036, "-.": 34507, "\u0120starship": 48744, "Direct": 13470, "undo": 41204, "\u0120figur": 31474, "\u0120flank": 30172, "\u0120Vor": 44143, "\u0120petitions": 32890, "\u0120Wizards": 21092, "\u0120Subjects": 43815, "phant": 33959, "eger": 11893, "\u0120Nord": 18687, "\u0120smiles": 21845, "\u0120Mug": 25841, "\u0120Nikola": 47817, "\u0120severe": 6049, "aldehyde": 44895, "\u0120bloodstream": 46005, "\u0120replaced": 6928, "YC": 44816, "17": 1558, "\u0120tubes": 21103, "\u0120obligated": 31586, "\u0120ahead": 4058, "\u0120mistress": 37769, "\u0120casino": 21507, "lass": 31172, "\u0120Univ": 40429, "\u0120Leg": 3564, "\u0120we": 356, "Phot": 27248, "\u0120Auth": 26828, "\u0120germ": 41171, "\u0120Aki": 48663, "\u0120Reporter": 25869, "\u0120Apparently": 18626, "\u0120pray": 12472, "\u012003": 7643, "\u0120securities": 16145, "ysics": 23154, "merga": 44739, "\u0120clutching": 48281, "\u0120workshops": 25982, "kernel": 33885, "\u0120filter": 8106, "\u0120Kart": 32872, "ELY": 30943, "\u0120nearing": 37242, "\u0120salute": 34967, "Master": 18254, "\u0120onslaught": 36847, "\u0120Tags": 44789, "alls": 5691, "\u0120Reign": 29297, "\u00e3\u0123\u0139": 22180, "lling": 2680, "\u0120deputy": 10636, "\u0120neocons": 43530, "\u0120Arri": 27350, "\u0120Presidency": 35696, "iddler": 26458, "\u0120stronger": 7387, "pathic": 38829, "erker": 35779, "\u0120amber": 36505, "School": 26130, "\u0120screenshots": 23322, "\u0120foreskin": 49877, "\u0120didn": 1422, "\u0120comedians": 43520, "\u0120?": 5633, "\u0120rehabilitation": 23668, "\u0120diced": 48898, "\u0120Stre": 9737, "\u0120rebels": 12669, "\u0120assembling": 40525, "\u0120Ng": 34786, "Touch": 35211, "War": 13195, "\u0120Beyon": 37361, "\u0120Month": 16061, "\u0120ourselves": 6731, "news": 10827, "1965": 45271, "\u0120335": 37144, "\u0120Luis": 20894, "ihad": 11166, "\u0120dusty": 36972, "iro": 7058, "\u0120crawl": 27318, "\u0120weigh": 10164, "\u0120197": 29903, "hz": 32179, "opsy": 44522, "Life": 14662, "\u0120sexual": 3206, "icy": 4611, "\u0120Chest": 25544, "ania": 5411, "\u0120ego": 19225, "ailable": 1508, "\u0120unarmed": 24270, "\u0120Titanium": 49635, "\u0120rundown": 45602, "addr": 29851, "\u0120conver": 6718, "\u0120express": 4911, "_{": 23330, "\u0120Laurie": 40811, "\u0120Shane": 24379, "\u0120Shares": 23997, "\u0120certified": 15704, "\u0120Com": 955, "rex": 21510, "irens": 42917, "\u0120intoler": 20619, "\u0120camouflage": 37353, "Two": 7571, "\u0120Library": 10074, "pherd": 23111, "\u0120Clifford": 43159, "\u0120Sunderland": 35706, "\u0120bodily": 20734, "\u0120separate": 4553, "\u0120Wald": 24261, "\u0120conclud": 5392, "\u0120tweaked": 38304, "\u0120Zika": 30861, "\u0120Hoy": 49873, "\u0120numeric": 35575, "\u0120Delivery": 28682, "\u0120approaching": 13885, "\u0120landscape": 10747, "\u0120pokemon": 43962, "new": 3605, "\u0120starved": 47224, "\u0120Slim": 34199, "aligned": 41634, "\u0120incomes": 18696, "\u0120Swan": 21491, "\u0120Petro": 36863, "REAM": 32235, "\u0120carefully": 7773, "181": 27057, "uke": 4649, "avier": 19492, "oops": 44860, "\u0120agile": 36710, "\u0120Mario": 10682, "\u0120helpless": 21144, "\u0120Goth": 18827, "\u0120ident": 1852, "\u0120Grow": 26936, "BG": 40469, "\u0120LA": 9131, "\u0120emergencies": 36047, "\u0120Pu": 11634, "\u0120pins": 20567, "\u0120jacket": 15224, "\u00cb\u013e": 41185, "umat": 27798, "\u0120vot": 1993, "\u0120org": 8745, "\u0120newcom": 22315, "apore": 11656, "\u0120probing": 41034, "\u0120staffer": 29685, "Attempt": 37177, "\u0120Mat": 6550, "\u0120Ker": 17337, "\u0120orbiting": 40462, "\u0120Innocent": 44778, "erenn": 31915, "employment": 28812, "\u0120trove": 42377, "\u0120Austria": 17322, "under": 4625, "ardless": 14694, "\u0120Cav": 19931, "\u0120nutshell": 43875, "\u0120Winner": 25358, "horse": 30527, "760": 40761, "EST": 6465, "houn": 47714, "442": 39506, "\u00e3\u0124\u00b4\u00e3\u0125\u00b3": 22997, "mare": 11449, "MED": 30733, "classes": 37724, "\u0120hand": 1021, "\u0120glut": 25276, "\u0120incompetence": 39674, "\u0120ministries": 45933, "\u0120Printing": 44118, "oji": 31370, "\u0120longer": 2392, "\u0120Drunk": 42739, "\u00ab": 104, "\u0120lob": 6804, "Thumbnail": 35523, "zx": 42592, "\u0120FY": 23639, "\u0120HDR": 33675, "Gen": 13746, "\u0120BU": 20571, "ergic": 19793, "\u0120Boh": 44366, "spot": 20485, "\u0120ferment": 38797, "\u0120subordinate": 34618, "\u00e9\u00bb\u0134": 44112, "\u0120famine": 31261, "\u0120List": 7343, "\u0120prompt": 6152, "\u0120Wal": 6445, "98": 4089, "weeney": 41681, "work": 1818, "onymous": 6704, "itone": 49644, "\u00c3\u00b8": 24172, "\u0120lap": 14779, "Nusra": 39294, "Fear": 37798, "\u0120thwart": 36162, "Bow": 39961, "\u0120Bacon": 28548, "rison": 7426, "\u0120encompasses": 38932, "\u0120arguments": 7159, "\u0120Direction": 41837, "lique": 41522, "\u01201888": 49584, "\u0120Fool": 36458, "atars": 40193, "cat": 9246, "\u0120smart": 4451, "\u0120Ezra": 36999, "\u0120vibrations": 38071, "\u0120Alc": 43757, "915": 40248, "\u0120levied": 43383, "ulture": 6456, "\u0120Carly": 35982, "isy": 13560, "atism": 26185, "manufact": 48119, "\u0120grand": 4490, "\u0120Jorge": 34687, "\u0120reper": 23269, "\u0120disconnected": 28597, "\u0120Sweden": 10710, "Ub": 36609, "\u0120Buzz": 15753, "\u0120Trinity": 22844, "\u0120lad": 9717, "\u0120Cass": 14154, "adoes": 46368, "\u0120Engineer": 23164, "sound": 23661, "withstanding": 20701, "announced": 43499, "\u0120Applicant": 49217, "\u0120Holl": 11806, "\u0120biting": 30791, "Grant": 45431, "\u0120CU": 29369, "\u0120taller": 25242, "Lin": 14993, "\u0120probable": 17939, "\u0120pals": 39898, "aura": 33830, "\u0120reliably": 26995, "\u0120SPI": 49091, "\u0120bill": 2855, "innacle": 37087, "\u0120ended": 4444, "\u0120\u00e2\u0136": 13305, "\u0120consumers": 7008, "\u0120INST": 40589, "\u0120unwillingness": 47836, "\u0120visited": 8672, "\u0120careful": 8161, "\u0120ul": 14856, "\u0120withdrawal": 15220, "awks": 11890, "\u01201905": 37166, "\u0120Cutting": 40152, "\u0120Dartmouth": 47888, "\u0120Anaheim": 31100, "\u0120series": 2168, "IDE": 14114, "\u0120track": 2610, "\u0120Conserv": 7162, "\u0120instructions": 7729, "\u0120educated": 15657, "\u0120radial": 44503, "wait": 17077, "ocol": 4668, "mu": 30300, "\u0120gren": 17236, "\u0120Aug": 2447, "\u0120Saskatchewan": 31346, "usb": 43319, "\u00c2\u0142\u00c2\u0142\u00c2\u0142\u00c2\u0142\u00c2\u0142\u00c2\u0142\u00c2\u0142\u00c2\u0142": 17811, "outh": 1536, "commit": 41509, "\u0120Sharing": 36644, "\u0120Judge": 8974, "\u0120review": 2423, "\u0120panic": 13619, "\u0120retri": 37715, "cluded": 10341, "\u0120Safety": 11233, "urred": 12808, "ests": 3558, "\u0120Scholar": 11713, "\u0120reference": 4941, "\u0120report": 989, "\u012014": 1478, "\u0120centimeters": 48829, "isphere": 22833, "\u0120pret": 2181, "anmar": 21708, "\u0120forged": 24918, "ederation": 9748, "\u0120Overall": 14674, "\u0120Load": 8778, "\u0120immense": 13964, "\u0120Gre": 11955, "\u0120immobil": 47800, "\u0120sequencing": 32841, "gly": 10853, "\u0120Combine": 29176, "\u0120footballer": 44185, "\u0120secondly": 48550, "Person": 15439, "obiles": 36329, "\u0120marketed": 29450, "880": 41655, "Howard": 32434, "\u0120unmanned": 35272, "\u0120teammate": 20052, "\u0120ardent": 43033, "214": 22291, "egg": 33856, "\u0120organizing": 16924, "\u0120lumber": 34840, "Use": 11041, "\u012079": 9225, "ternity": 19682, "\u0120Peaks": 38051, "mediately": 23802, "\u0120triglycer": 47937, "\u0120RO": 15107, "Apply": 44836, "\u01204090": 48908, "\u0120coral": 29537, "req": 42180, "isky": 34041, "\u0120coercive": 47236, "versions": 47178, "\u0120framing": 30811, "\u0120bizarre": 13699, "ificant": 17294, "\u0120spiders": 26120, "\u0120Byrd": 44972, "acio": 48711, "\u0120hen": 30963, "\u0120Stat": 5133, "\u0120Deborah": 36976, "\u0120ect": 46080, "aven": 4005, "\u0120Pledge": 45737, "aho": 17108, "\u0120cents": 16059, "Pierre": 36910, "\u0120escape": 6654, "\u0120variability": 25364, "&&": 25226, "\u0120unwilling": 19084, "\u0120Cy": 5934, "delay": 40850, "\u0120pear": 25286, "\u0120ast": 6468, "\u0120standout": 35482, "etic": 5139, "oof": 37711, "\u0120Dat": 16092, "regulated": 27739, "essert": 20335, "ibaba": 37541, "verified": 47684, "Camp": 21111, "\u0120pulses": 37783, "\u0120Crystal": 12969, "\u0120Arbit": 33619, "\u0120Lowe": 34241, "EngineDebug": 49781, "\u0120AGA": 36218, "\u0120lifestyle": 12263, "\u0120NBN": 40841, "hement": 35347, "cling": 8493, "hetical": 21485, "\u0120Hep": 32308, "\u0120TV": 3195, "\u0120412": 42215, "\u00c3\u0141": 39683, "uve": 45177, "\u0120timely": 19376, "\u0120restrain": 39300, "\u0120Newsp": 36765, "\u0120southwestern": 46065, "\u0120urgent": 18039, "\u0120219": 30453, "reddit": 10748, "\u0120cosmic": 23464, "cloud": 17721, "\u0120pave": 23000, "\u0120difficulty": 8722, "\u0120required": 2672, "\u0120Excel": 24134, "\u0120joking": 29711, "\u0120Pract": 13672, "hemer": 39557, "Virginia": 41017, "oids": 10994, "\u0120Intercept": 37127, "Personally": 42322, "\u0120Whedon": 49891, "\u0120defense": 3761, "\u0120recomb": 44759, "\u0120SVG": 45809, "\u0120relative": 3585, "\u0120counterpart": 11283, "\u0120incon": 15861, "\u0120rationale": 25738, "\u0120operating": 5361, "\u0120WS": 25290, "\u0120weaving": 44889, "\u0120expend": 12220, "ITCH": 31949, "\u0120freedom": 4925, "Adventure": 48289, "\u0120brewery": 22120, "Gs": 33884, "\u0120Rainbow": 19909, "\u0120Hir": 29379, "\u0120boards": 11490, "\u0120endings": 38168, "\u0120chopped": 20720, "\u0120hybrid": 14554, "\u0120incorpor": 8552, "\u0120Oath": 37838, "\u0120recipe": 8364, "ress": 601, "\u0120slightly": 4622, "\u0120Jim": 5395, "\u0120inval": 29712, "inders": 29700, "\u0120distilled": 41009, "\u0120Directive": 34736, "\u0120implication": 26863, "\u0120Rachel": 15984, "\u0120gull": 43289, "\u0120Bullets": 39984, "\u00e6": 162, "ithing": 44556, "\u0120republic": 17146, "\u0120collective": 10098, "\u0120Titanic": 41184, "Israeli": 29818, "\u0120CentOS": 32418, "\u0120aph": 49812, "\u0120Petty": 41505, "\u0120associations": 15814, "\u0120Armed": 16657, "\u0120existential": 28954, "\u0120selecting": 17246, "\u0120Samsung": 10397, "otle": 23556, "\u0120Olympic": 11514, "\u0120viewer": 19091, "ipples": 27844, "\u0120Awards": 15434, "cert": 22583, "\u00e2\u0137": 22880, "\u0120caf": 19945, "\u0120unsuspecting": 41975, "\u0120Especially": 18948, "\u0120drink": 4144, "isite": 16107, "\u0120sperm": 19311, "\u0120AD": 5984, "Grey": 49141, "\u0120sc": 629, "\u0120inserting": 19319, "\u0120golden": 10861, "\u0120Statistics": 14370, "\u0120Nicaragua": 38252, "\u0120Cl": 1012, "Lower": 31426, "builder": 38272, "amia": 49442, "\u0120informants": 50254, "\u0120partial": 13027, "\u0120regulatory": 11344, "\u0120targ": 2103, "TA": 5603, "natal": 33150, "\u0120strengths": 18929, "params": 37266, "aukee": 15263, "\u0120unavailable": 23485, "\u0120Bian": 41227, "\u0120reload": 18126, "\u0120hypertension": 37454, "\u0120Bung": 40646, "\u0120thereof": 15370, "/)": 34729, "SON": 11782, "ardo": 13109, "\u0120bounces": 49623, "\u0120attempt": 2230, "644": 29173, "\u0120manifestation": 30566, "ascade": 28966, "Beat": 34979, "\u0120enjoyed": 8359, "\u0120checklist": 41859, "skin": 20407, "\u0120Try": 9993, "\u0120fragment": 24225, "Link": 11280, "\u0120finger": 7660, "signed": 32696, "\u0120ru": 7422, "\u0120finan": 17240, "\u0120notably": 14660, "\u0120Mol": 17958, ")(": 5769, "UB": 10526, "Age": 23396, ".,\"": 44388, "\u0120startup": 13693, "\u0120loaded": 9639, "\u0120Workers": 16847, "ORN": 30649, "land": 1044, "\u0120flipped": 26157, "\u0120prosec": 19306, "\u0120astonishing": 21994, "abouts": 27880, "\u0120passenger": 11849, "\u0120Reset": 30027, "\u0120default": 4277, "bul": 15065, "\u0120!": 5145, "\u0120Tunis": 25266, "Pro": 2964, "ilibrium": 24741, "\u0120confronted": 16675, "\u00d8\u00b9": 44690, "\u0120styled": 45552, "\u0120embattled": 49118, "\u0120Epic": 16781, "\u0120Originally": 19486, "wiki": 15466, "\u0120popularity": 11533, "\u0120correlates": 42567, "\u0120beans": 16567, "This": 1212, "\u0120biases": 29275, "\u0120posture": 24521, "Color": 10258, "\u0120crappy": 40805, "316": 33400, "\u0120Jets": 14728, "\u0120Salv": 20332, "\u0120evapor": 28959, "alk": 971, "Originally": 22731, "Initially": 40443, "Kings": 42912, "\u0120filing": 12180, "\u0120113": 17318, "idence": 1704, "\u0120assist": 3342, "\u0120similarly": 12470, "OTO": 26631, "Profile": 37046, "121": 19244, "\u0120welcomes": 35481, "kt": 21841, "enders": 7338, "cule": 23172, "\u0120Gardner": 27911, "otide": 45608, "ongh": 19757, "\u0120criticisms": 25094, "\u0120Herm": 18113, "mony": 9926, "\u0120HY": 43624, "\u0120unfolds": 45995, "\u0120Brewing": 19321, "\u0120Underground": 22153, "Years": 40630, "arre": 9624, "culation": 14902, "\u0120mistaken": 16011, "ebra": 37052, "\u0120Indigo": 40673, "\u0120modifiers": 37395, "\u0120brakes": 23746, "\u0120QR": 42137, "\u0120Bert": 22108, "\u0120droid": 46748, "Jackson": 31270, "initions": 50101, "Artist": 43020, "\u0120hypothesis": 14078, "Welcome": 14618, "\u0120Psychiatric": 46404, "\u0120teasp": 18945, "\u0120politics": 4819, "\u012000": 3571, "ths": 9998, "\u0120lost": 2626, "\u0120liberation": 22256, "\u0120Tinker": 46316, "\u0120Risk": 19602, "Magazine": 36028, "\u0120maturity": 24841, "\u0120Wax": 42656, "et": 316, "anta": 4910, "\u0120Savior": 32587, "\u0120eras": 49089, "duction": 11124, "\u0120strives": 37873, "\u0120PSU": 48189, "crazy": 50112, "\u0120basketball": 9669, "\u0120Assistant": 15286, "\u0120Mike": 4995, "bey": 23454, "rying": 14992, "\u0120squads": 31477, "\u0120Finance": 15007, "\u0120chair": 5118, "See": 6214, "cake": 30560, "\u0120interfere": 18135, "\u0120Radius": 48838, "\u0120Latter": 34437, "\u0120\u00c2\u00af": 49660, "\u0120Chapters": 42448, "\u0120qualification": 28587, "\u0120HO": 40115, "\u0120him": 683, "\u0120appro": 1331, "\u0120intentional": 21391, "\u0120..........": 39864, "\u00e5\u013d": 32368, "\u0120Pavilion": 42094, "\u0120called": 1444, "\u0120Forrest": 38355, "\u0120licenses": 16625, "\u0120worldwide": 8688, "\u0120items": 3709, "\u0120believe": 1975, "\u0120peripheral": 25514, "\u0120Aircraft": 30767, "'-": 29001, "pport": 4926, "\u0120Amazing": 23181, "usting": 32620, "division": 21426, "\u0120clarify": 18282, "iant": 3014, "\u0120dice": 17963, "Interest": 19302, "\u0120hire": 11078, "\u0120Plug": 22689, "ansas": 6618, "mage": 25561, "\u0120forearm": 41031, "\u0120Marxism": 30634, "\u0120unl": 9642, "\u0120myth": 7918, "Legal": 38263, "\u0120Fury": 18427, "\u0120Glow": 45929, "\u0120Protestants": 41713, "\u0120productive": 12973, "nl": 21283, "\u0120individuals": 3925, "\u0120unintended": 30261, "byn": 14929, "\u0120Marvel": 9923, "},{\"": 8762, "\u0120jeopardy": 38606, "\u0120Breast": 37476, "\u00f0\u0141\u0133": 41840, "\u0120sket": 28427, "overe": 33518, "\u0120parasites": 36643, "\u0120747": 45600, "ouri": 10300, "\u0120289": 38902, "meet": 47745, "\u0120Core": 7231, "\u0120Erd": 16455, "Gi": 33704, "\u0120Craig": 13854, "amm": 6475, "\u0120coordinator": 16052, "\u0120Hitman": 50245, "\u0120Aaron": 12139, "\u0120graph": 4823, "\u0120Dota": 30710, "urd": 2799, "ant": 415, "\u0120adequately": 22668, "\u0120acknowledge": 12127, "Num": 33111, "Offline": 28657, "separ": 25512, "\u0120sometimes": 3360, "Data": 6601, "\u0120questionable": 18269, "yna": 46434, "\u0120failings": 46622, "\u0120Zub": 47828, "terms": 38707, "pha": 7566, "Raven": 49098, "\u0120roared": 45615, "\u0120Creative": 17404, "olph": 10196, "long": 6511, "Loading": 19031, "\u0120Stadium": 10499, "mentioned": 17181, "\u0120Transform": 26981, "\u012044": 5846, "\u0120editor": 5464, "\u0120bo": 1489, "\u0120threatens": 20201, "\u0120Boolean": 41146, "ugg": 6837, "\u0120Should": 10358, "boys": 13202, "\u0120ideologically": 49764, "\u00e5\u013e": 28839, "back": 1891, "ib": 571, "\u0120citiz": 3523, "imony": 33969, "xit": 10198, "\u0120Horn": 13549, "\u0120discriminated": 41117, "\u0120cage": 17186, "nw": 47516, "surv": 48846, "\u01201912": 34463, "\u0120shallow": 19337, "\u0120ethics": 14458, "\u0120accuse": 24456, "\u0120Ford": 8092, "\u0120Mov": 44795, "\u0120chunk": 16058, "\u0120calf": 31134, "\u0120Tuc": 33370, "\u0120mortgage": 13682, "ideos": 4921, "\u0120themed": 31892, "\u0120ninety": 37989, "obby": 11369, "\u0120Pablo": 33185, "fights": 50121, "\u0120obj": 26181, "\u0120earthquakes": 29781, "\u0120Kane": 20055, "\u0120joystick": 49485, "\u0120Turtle": 33137, "\u0120Stein": 15215, "\u0120culmin": 24642, "alky": 18354, "\u0120Mes": 14937, "deep": 22089, "\u0120ont": 39585, "\u0120rankings": 16905, "\u0120Ring": 12569, "\u0120distortion": 25100, "\u0120exact": 2748, "eals": 10621, "\u0120Planetary": 43800, "\u0120retains": 27452, "\u0120trimmed": 40325, "\u0120busted": 36193, "IFIED": 28343, "\u0120Okin": 41020, "\u0120glyc": 40232, "\u0120expensive": 5789, "\u0120widen": 45676, "\u0120textile": 45293, "Portland": 45330, "\u0120Hazard": 32224, "\u0120ports": 14090, "\u0120protester": 34678, "\u0120Travel": 13524, "\u0120pornographic": 47642, "\u0120O": 440, "\u0120morally": 22388, "\u0120Wave": 17084, "\u0120suspense": 43527, "utan": 37878, "icked": 9484, "\u0120GDP": 12396, "virtual": 32844, "\u0120labour": 10515, "\u0120Providence": 28319, "\u0120Knight": 6700, "\u0120routing": 28166, "Path": 15235, "\u0120construed": 30816, "\u0120args": 26498, "\u0120scalable": 43865, "ised": 1417, "\u0120puck": 20695, "\u0120rude": 22066, "wm": 26377, "\u0120Remember": 11436, "\u0120bicy": 12561, "\u0120keen": 13795, "\u01202004": 5472, "Bad": 22069, "\u0120arc": 10389, "\u0120unp": 8593, "\u0120elemental": 25601, "\u0120Phone": 14484, "ued": 1739, "\u0120round": 2835, "\u0120concerns": 4786, "\u0120SolidGoldMagikarp": 43453, "\u0120warfare": 15611, "yellow": 36022, "udding": 33926, "Frag": 42974, "\u0120precipitation": 32025, "\u0120Shar": 15465, "210": 21536, "\u0120440": 33879, "To": 2514, "##": 2235, "\u0120cracked": 21368, "\u0120Rampage": 40244, "\u0120rupture": 46836, "\u00d9\u0127": 25405, "\u0120Glory": 25778, "\u0120runner": 17490, "owntown": 22748, "\u0120Mods": 43099, "Eye": 24876, "\u0120oxid": 18762, "\u0120dragon": 10441, "\u0120families": 4172, "photos": 24729, "\u0120artificially": 32455, "be": 1350, "\u0120Lost": 9164, "\u0120131": 23134, "\u0120Cant": 16821, "\u0120Cipher": 44334, "\u0120devastated": 25074, "iness": 1272, "text": 5239, "\u0120Brands": 46129, "\u0120consider": 2074, "\u0120pessim": 32277, "\u0120diluted": 37936, "\u0120safer": 14178, "\u0120planetary": 27047, "\u0120kitchens": 48184, "\u0120Perspect": 29845, "ifies": 6945, "\u0120ple": 3339, "\u0120Guild": 16446, "*****": 35625, "Disk": 40961, "lamm": 11199, "\u0120administering": 38849, "\u0120pursuit": 14748, "\u0120Budget": 15401, "olved": 5634, "\u0120simmer": 32857, "\u0120definitively": 41385, "\u0120premiered": 44119, "Death": 20148, "\u0120knees": 14475, "Commun": 30813, "\u01202003": 5816, "\u0120cuts": 6630, "wolves": 29664, "prof": 5577, "\u0120alcohol": 5548, "cyclopedia": 25497, "\u0120represent": 2380, "\u0120coconut": 20132, "elvet": 32667, "\u0120anonymously": 35373, "\u0120rebound": 23623, "\u0120hairs": 32908, "\u0120capitals": 44590, "\u0120titanium": 41284, "ordial": 31223, "\u0120heroism": 48661, "for": 1640, "language": 16129, "\u0120weary": 34730, "Wan": 45681, "rastructure": 6410, "\u0120threat": 2372, "ITE": 12709, "\u0120sweets": 42402, "\u0120750": 19683, "\u0120subscriber": 32944, "lon": 14995, "\u0120naughty": 45128, "\u0120vir": 5709, "\u0120Proc": 31345, "\u0120dinosaur": 28257, "\u0120corporate": 6355, "204": 18638, "opening": 29443, "\u00e3\u0125\u0135": 36922, "ology": 1435, "\u0120Side": 12075, "rollment": 48108, "\u0120extremely": 4457, "\u0120With": 2080, "\u0120Bil": 24207, "Enhanced": 49026, "\u0120Fiji": 43676, "Sel": 48767, "tested": 39612, "\u0120Pharma": 41845, "\u0120abroad": 10522, "gs": 14542, "bottom": 22487, "\u0120student": 3710, "\u0120willingness": 16826, "\u0120livestock": 24424, "\u0120Michigan": 7055, "\u0120kind": 1611, "\u0120criminally": 46657, "\u0120Jury": 48705, "ueller": 16466, "\u0120circulation": 19133, "erent": 9100, "\u0120Rhythm": 45757, "(&": 39434, "\u0120Exercise": 32900, "Und": 31319, "\u0120slap": 23905, "icho": 38720, "hyper": 49229, "\u0120nicer": 36597, "\u0120bicycle": 17026, "\u0120gymn": 38581, "\u0120incoming": 15619, "\u0120around": 1088, "\u0120Outdoor": 43047, "\u0120Prototype": 48954, "otta": 12375, "\u0120Elect": 5903, "ords": 3669, "\u0120Barcl": 29607, "Tel": 33317, "\u0120Attacks": 24647, "\u0120smiling": 16755, "rical": 8143, "\u0120Loving": 39202, "\u0120Carn": 19659, "\u0120seminars": 44160, "\u0120Genius": 32562, "\u0120nutrients": 20901, "\u0120170": 16677, "kees": 16683, "'ve": 1053, "icut": 13554, "\u0120Kaufman": 46991, "\u0120Crusade": 33744, "\u0120MUS": 39484, "blade": 22500, "\u0120Pradesh": 25945, "\u0120Hitler": 11908, "\u00e3\u0125\u0137": 17681, "\u0120Tiffany": 40928, "\u0120dated": 14567, "\u0120jargon": 46468, "aganda": 43589, "656": 37466, "\u0120Curtis": 25157, "\u0120sprang": 43908, "\u0120Ice": 6663, "90": 3829, "azaar": 34485, "\u0120diabetes": 12593, "\u0120Unique": 30015, "::::": 24022, "\u0120monument": 17757, "\u0120Pric": 35077, "abilia": 48249, "\u0120HD": 5572, "\u0120Serve": 35557, "\u0120OC": 24775, "Church": 46686, "\u0120Dynamo": 41542, "\u0120/>": 11037, "\u0120catalogue": 34614, "\u0120abnormalities": 34615, "\u0120fonts": 26806, "\u0120IC": 12460, "icipated": 40988, "\u0120USSR": 28905, "\u0120Home": 5995, "\u0120Locked": 48613, "\u0120anywhere": 6609, "edo": 24757, "496": 37747, "\u0120Juliet": 38201, "amins": 24937, "\u0120deprivation": 28922, "tool": 25981, "\u0120Drama": 30647, "\u0120hardware": 6890, "\u0120namespace": 25745, "makers": 6620, "ioned": 14994, "\u0120always": 1464, "\u0120bookstore": 44346, "hard": 10424, "\u0120Obamacare": 12439, "\u0120borough": 33534, "\u0120Rooms": 42043, "\u0120Presbyterian": 44150, "Ga": 35389, "\u0120Yon": 46340, "\u0120Ages": 21449, "\u0120radios": 40023, "\u0120Insect": 36652, "\u0120pioneer": 29570, "\u0120bumper": 32228, "\u0120selfie": 38704, "423": 43356, "cs": 6359, "\u0120unequ": 21149, "\u0120mentally": 14946, "!\"": 2474, "\u0120contends": 33799, "\u0120mixed": 7668, "urized": 44796, "undred": 3229, "keys": 13083, "\u0120waiver": 23804, "\u0120bead": 49773, "\u0120predecessors": 27677, "\u0120recommendations": 10763, "\u0120ze": 41271, "\u0120hemor": 42000, "\u0120enslaved": 39216, "\u0120unauthorized": 22959, "\u0120Sydney": 11852, "\u0120accepted": 6292, "\u0120Xue": 47298, "ctions": 2733, "\u0120kiss": 9245, "Normally": 43625, "\u0120Rated": 49949, "grey": 49502, "\u0120tractor": 38278, "\u0120st": 336, "\u0120charisma": 45581, "oths": 27118, "\\.": 17405, "okia": 22903, "aha": 12236, "179": 21738, "\u0120whiskey": 29219, "sc": 1416, "\u0120adultery": 38713, "\u01201861": 45278, "eq": 27363, "\u0120Il": 13778, "ibel": 43837, "Director": 28702, "bott": 10985, "\u0120Jerry": 13075, "\u0120Palestinians": 12890, "limits": 49196, "\u0120rules": 3173, "\u0120Rhode": 24545, "\u0120........": 20004, "549": 44966, "ampions": 4350, ")</": 36475, "\u0120mutual": 13584, "\u0120universities": 11155, "\u0120displeasure": 47313, "\u0120Lin": 5164, "():": 33529, "Enter": 17469, "=-=-=-=-": 27584, "ibl": 10506, "Ti": 40533, "\u0120willing": 4684, "\u0120Duck": 21867, "\u0120glide": 48089, "bel": 6667, "\u0120prosperity": 19519, "\u0120Request": 19390, "GPU": 33346, "vere": 4119, "\u0120Evidence": 21259, "\u0120advantageous": 39512, "\u0120Vance": 40154, "\"))": 48774, "\u0120Aure": 43737, "inski": 21141, "\u0120npm": 30599, "\u0120Laboratory": 18643, "\u0120docs": 34165, "\u0120Wide": 23399, "fetched": 50012, "ulate": 5039, "hs": 11994, "beh": 20709, "inally": 3289, "\u00d7\u0136": 38269, "vious": 1442, "OIL": 49713, "\u0120Mavericks": 36002, "\u0120th": 294, "\u0120pepper": 13385, "\u0120fulfil": 32363, "\u0120manifesto": 29960, "\u0120Flying": 19903, "\u0120prepare": 8335, "\u0120Randall": 29799, "297": 26561, "\u0120identification": 11795, "powder": 45855, "\u0120Yet": 6430, "istors": 46334, "\u0120Olive": 30012, "\u0120Mane": 42736, "\u0120Deity": 15081, "\u0120untouched": 36519, "\u0120classroom": 15806, "\u0120Benef": 19899, "\u0120shocked": 11472, "448": 31115, "son": 1559, "because": 13893, "dyl": 30360, "\u0120Under": 4698, "fried": 25520, "\u0120signatures": 17239, "\u0120enabled": 9343, "\u0120Gotham": 30129, "\u0120Wedding": 36679, "idding": 13494, "\u0120warming": 9917, "pas": 44429, "\u0120Filip": 24600, "\u0120occasions": 12432, "gd": 21287, "chemical": 31379, "\u0120Mao": 22828, "untled": 46343, "\u0120testified": 15463, "\u0120Syria": 4392, "\u0120assigning": 38875, "phen": 31024, "\u0120Sebastian": 26190, "Call": 14134, "\u0120destroying": 13897, "\u0120spinal": 26234, "\u0120apolog": 8453, "\u0120Mod": 3401, "is": 271, "\u0120overhead": 16965, "================": 4770, "\u0120suspicious": 13678, "cpp": 20322, "biz": 42189, "\u0120Flower": 20025, "istent": 7609, "\u0120Congressional": 15757, "cca": 13227, "\u0120sectarian": 28005, "\u0120watched": 7342, "Fortunately": 31276, "\u0120acid": 7408, "\u0120sized": 19943, "\u0120Kling": 28638, "urn": 700, "Armor": 31512, "lo": 5439, "\u0120Regions": 47089, "emade": 21398, "reenshots": 39551, "rus": 14932, "\u0120subur": 13150, "headed": 15353, "\u0120dough": 15756, "\u0120APPLIC": 39421, "\u0120Rescue": 17285, "\u0120galleries": 38462, "\u0120Er": 5256, "\u0120Chile": 17456, "burn": 10899, "\u0120agility": 33546, "\u0120supporting": 6493, "spr": 34975, "\u0120Internal": 18628, "\u0120hind": 16222, "\u0120alike": 12936, "arter": 2571, "\u0120Vid": 38965, "\u0120calculator": 28260, "\u0120perceived": 11067, "Pr": 6836, "\u0120repetition": 29693, "\u0120Cultural": 23897, "\u0120observational": 40118, "adjust": 23032, "\u0120Lumia": 38194, "fb": 21855, "\u0120township": 42823, "try": 28311, "\u0120Ars": 24230, "anks": 2283, "Information": 21918, "136": 20809, "154": 21526, "\u0120Cre": 5844, "\u0120stereotypical": 46112, "\u0120playthrough": 48938, "\u0120synchronization": 42133, "orer": 11934, "\u0120Dr": 1583, "Driver": 32103, "\u0120Ste": 2441, "chal": 38009, "\u0120ps": 26692, "\u0120thirsty": 47124, "lock": 5354, "\u0120Unloaded": 25926, "umann": 40062, "RW": 46747, "\u0120CI": 14514, "352": 33394, "des": 8906, "Crystal": 43752, "\u0120innumerable": 45383, "\u0120herpes": 45287, "\u0120CONS": 39537, "\u0120complaining": 18705, "\"}": 20662, "local": 12001, "\u0120criticizing": 26816, "\u0120musical": 10530, "\u0120Nerd": 44031, "\u0120calib": 27417, "A": 32, "\u0120irrigation": 35425, "4000": 27559, "\u0120SCHOOL": 35883, "Read": 5569, "\u0120Rivera": 31325, "Spread": 44458, "\u0120Canter": 38183, "\u0120covered": 5017, "LIN": 34509, "\u0120324": 38595, "\u0120honour": 15393, "\u0120subsections": 46310, "273": 27367, "\u0120terrain": 15510, "Am": 5840, "ove": 659, "\u0120EVE": 32356, "ON": 1340, "\u0120special": 2041, "nsics": 49242, "\u0120forecasts": 26119, "\u0120Fell": 21710, "325": 26582, "\u0120VOL": 38570, "\u0120upd": 2325, "\u0120villagers": 25263, "\u0120pel": 16176, "\u0120Uni": 43376, "\u0120illegitimate": 41368, "\u0120Agents": 28295, "\u0120Meeting": 22244, "\u0120Reincarnated": 15685, "iotic": 16357, "\u0120contributes": 22625, "\u00f5": 177, "\u0120hence": 12891, "\u0120Hearts": 20592, "critical": 34666, "\u0120dudes": 34578, "\u0120gestation": 47110, "\u0120invariably": 31338, "\u0120shudder": 50130, "\u0120troubles": 14979, "\u0120Sprite": 33132, "\u0120ownership": 9238, "\u0120tiss": 8815, "\u0120Foot": 7870, "DIT": 49828, "\u0120desc": 1715, "ocard": 44412, "\u0120Bat": 6577, "\u0120constrained": 31070, "jc": 48055, "\u0120jets": 20792, "endish": 48442, "\u0120laying": 16299, "\u0120jet": 12644, "Motion": 45740, "\u0120blogs": 19118, "\u0120RH": 35662, "Ass": 8021, "\u0120nep": 25919, "\u0120shadowy": 40175, "\u0120consciously": 30410, "chy": 29658, "\u0120Dad": 17415, "ji": 7285, "Pac": 18844, "\u0120Summary": 21293, "INT": 12394, "CI": 25690, "\u0120Assad": 13032, "\u0120Modern": 12495, "12": 1065, "sat": 49720, "atten": 41769, "\u0120Democracy": 20265, "\u0120shielding": 43539, "ividually": 16335, "insk": 35803, "\u0120Hot": 6964, "ihara": 45902, "\u0120Klopp": 43461, "\u0120fashion": 6977, "\u0120Virtual": 15595, "\u0120Feb": 3158, "\u0120burglary": 33724, "\u0120Liberal": 12266, "\u0120Clo": 38700, "\u0120Drum": 25331, "\u0120accounts": 5504, "\u0120Races": 45134, "cor": 10215, "\u0120TL": 24811, "umbai": 21645, "\u0120respectfully": 41177, "\u0120MUCH": 45859, "\u0120owned": 6898, "\u0120continue": 2555, ".</": 25970, "BUT": 47526, "155": 18742, "approved": 29137, "\u0120amen": 29448, "Found": 21077, "rys": 19753, "\u0120closes": 20612, "\u0120specializes": 29786, "\u0120crystals": 24770, "ickey": 40389, "tions": 45240, "\u0120Florence": 28537, "381": 36626, "urities": 10886, "\u0120trillions": 45922, "\u0120sidelines": 29394, "\u0120personality": 8806, "Got": 30074, "\u0120Shapiro": 34034, "restricted": 49343, "Adjust": 39668, "\u0120repr": 41575, "Monitor": 35479, "\u0120disrupting": 37915, "2006": 13330, "\u0120descended": 23667, "tains": 12143, "\u0120troubling": 20294, "\u0120Washington": 2669, "\u0120celebrity": 16527, "\u0120Patriarch": 48665, "\u0120synthes": 24983, "\u0120bestowed": 40293, "\u0120Rumble": 42888, "\u0120Volunteers": 45646, "\u0120revenues": 13089, "\u0120publishes": 34134, "\u0120frail": 41890, "OE": 27799, "\u0120Mutual": 48807, "\u0120Norris": 33444, "star": 7364, "\u0120Tut": 22792, "ril": 22379, "\u0120grievance": 47645, "\u0120Iw": 44316, "col": 4033, "\u0120resisted": 26643, "rible": 5547, "\u0120Capital": 9747, "\u0120irre": 11331, "\u0120words": 2456, "\u0120570": 44626, "\u0120shy": 15800, "Recommend": 41248, "\u0120Slip": 49988, "\u0120Landing": 29689, "FE": 15112, "799": 45455, "\u0120symptoms": 7460, "\u0120fortnight": 46327, "osit": 7434, "Marginal": 36003, "\u0120prism": 46475, "\u0120Barbarian": 38946, "\u0120Matrix": 24936, "\u0120clich": 35478, "\u0120immature": 40620, "\u0120heir": 28625, "\u0120dwellings": 50078, "\u0120battlefield": 13480, "\u0120Enterprises": 41253, "fully": 2759, "\u0120Tir": 39847, "\u0120Alb": 17399, "\u0120settles": 43684, "\u0120glare": 36785, "element": 30854, "\u0120Activities": 36270, "\u0120improv": 37080, "\u0120rece": 1407, "mess": 37348, "ELL": 23304, "app": 1324, "Semitic": 28753, "Ultimately": 27212, "\u0120Stark": 20956, "\u0120twenties": 44471, "iet": 1155, "ika": 9232, "\u0120watch": 2342, "sex": 8044, "\u0120Cit": 15792, "ometime": 47056, "\u0120480": 23487, "\u0120Loading": 12320, "\u0120Pv": 18367, "\u0120125": 13151, "\u0120Fam": 16513, "say": 16706, "\u0120ssh": 26678, "video": 15588, "\u0120Wor": 16597, "\u0120Iceland": 17333, "ance": 590, "\u0120mi": 21504, "\u0120McMahon": 33984, "\u0120credential": 49920, "\u0120Rein": 22299, "\u0120leftover": 39191, "\u0120Confederate": 21900, "\u0120Domin": 11817, "\u0120grocer": 34185, "\u0120Brunswick": 32211, "official": 16841, "\u0120eminent": 37820, "izers": 11341, "\u0120manufactured": 15943, "\u0120Contrary": 43607, "\u0120man": 582, "\u0120introduces": 20718, "\u0120passport": 17981, "Me": 5308, "Speed": 22785, "\u0120tougher": 20516, "\u0120advise": 18595, "\u0120perverse": 43060, "Past": 34533, "Increase": 46890, "Charlie": 37136, "\u0120developing": 5922, "\u00e5\u012a": 26344, "\u0120robes": 32970, "linear": 29127, "\u0120trying": 2111, "\u00c3\u00b6n": 48863, "\u0120ital": 46127, "\u0120222": 27795, "\u0120Prosper": 41342, "ramer": 29172, "\u0120regener": 16935, "Regular": 40164, "eden": 31829, "\u0120Opp": 9385, "\u0120Fiesta": 49839, "visor": 13131, "\u0120European": 3427, "Dog": 32942, "\u0120served": 4983, "analysis": 20930, "\u0120Put": 5930, "launch": 35681, "\u0120allot": 47405, "utra": 35076, "\u0120cynicism": 49509, "573": 48638, "ATE": 6158, "Nice": 35284, "Typically": 49321, "\u0120samples": 8405, "akuya": 29863, "\u0120Johann": 28056, "\u0120ADD": 27841, "Pie": 48223, "\u0120ell": 30004, "\u0120tru": 45768, "\u0120request": 2581, "iology": 12371, "\u0120depart": 6313, "\u0120Wow": 24755, "\u0120BF": 41646, "\u0120Method": 11789, "\u0120badass": 37289, "cos": 6966, "\u0120Dragonbound": 17900, "\u0120night": 1755, "\u0120(-": 13841, "\u0120allocated": 19171, "enforcement": 44976, "\u0120encomp": 20504, "package": 26495, "\u0120Marxist": 26305, "\u0120Pwr": 49267, "\u0120hurting": 21530, "\u0120Castle": 11312, "\u0120tagging": 49620, "Ton": 35416, "\u0120PT": 19310, "cerning": 41981, "\u00d1\u0131": 40623, "\u0120potassium": 33156, "\u0120Grave": 36424, "\u0120contradicted": 44853, "\u0120throws": 12542, "\u0120granite": 41013, "\u0120library": 5888, "\u0120gorgeous": 18857, "\u0120Mad": 4627, "\u0120reliable": 9314, "\u0120FANT": 29250, "\u0120Pret": 37123, "\u0120optimistic": 16915, "\u0120Beaut": 13711, "\u0120recovers": 46773, "cific": 7790, "\u0120DEBUG": 16959, "iqueness": 46764, "\u0120directed": 7924, "\u0120daughters": 14850, "\u0120Hurt": 42566, "\u0120French": 4141, "\u0120500": 5323, "FFER": 45746, "\u0120Babe": 49624, "avis": 23401, "\u0120Kaw": 23043, "\u0120payable": 28538, "\u0120warr": 32207, "\u0120said": 531, "rites": 23156, "\u0120Administrative": 30048, "1972": 41023, "\u0120da": 12379, "CP": 8697, "\u0120Monthly": 27573, "\u0120Oculus": 22334, "owe": 47097, "\u0120facebook": 23960, "Night": 24732, "\u0120Tier": 15917, "\u0120UV": 22033, "\u0120Koreans": 25999, "ahan": 19210, "Ol": 30098, "agan": 7329, "\u0120stalk": 31297, "\u0120Fulton": 44373, "\u0120minimize": 17775, "\u0120ring": 5858, "Yeah": 10995, "\u0120Flight": 13365, ".):": 47308, "\u0120disposable": 32445, "\u0120148": 22613, "\u0120protr": 39701, "\u0120indifference": 34324, "\u0120overwrite": 49312, "\u0120systems": 3341, "\u0120Remem": 42898, "esters": 8586, "\u0120KP": 45814, "\u0120vaccines": 18336, "etus": 29158, "\u0120administer": 21766, "{{": 27007, "Tag": 24835, "\u0120tumble": 47978, "\u0120frogs": 37475, "\u0120poultry": 34101, "binary": 39491, "\u0120benefic": 25021, "area": 20337, "088": 46556, "\u0120Causes": 46865, "\u0120noses": 41760, "\u0120com": 401, "gement": 16025, "\u0120caveat": 36531, "\u0120while": 981, "\u0120reluctant": 18416, "627": 49856, "\u0120adulthood": 28003, "lahoma": 9802, "\u0120Teacher": 32019, "ulnerability": 40920, "\u0120Thousands": 30405, "axis": 22704, "\u0120ignore": 8856, "\u0120investor": 15811, "146": 20964, "\u0120definite": 21892, "\u0120piping": 48426, "\u0120met": 1138, "ez": 8471, "stretched": 49729, "\u0120pragmatic": 33119, "\u0120ot": 30972, "\u0120Manz": 37734, "\u0120lions": 31420, "\u0120handshake": 42231, "oping": 15816, "Lisa": 44203, "\u0120cer": 26074, "\u0120Shotgun": 34198, "ISTER": 41517, "\u0120Craw": 20177, "zyme": 24266, "illy": 6548, "\u0120helped": 4193, "\u0120bitch": 21551, "outer": 39605, "\u0120Raw": 16089, "\u0120Wond": 31960, "\u0120maximizing": 48350, "\u0120transient": 32361, "rians": 19151, "\u0120Screw": 42147, "Quite": 44959, "\u0120Bride": 29840, "\u0120emissions": 8971, "\u0120skewed": 37543, "\u0120Aless": 47319, "\u0120accessory": 28207, "\u0120Stamp": 40694, "\u0120\u00e2\u0122\u00ba": 37855, "\u0120Degree": 34486, "\u0120reflex": 24133, "ilton": 9044, "\u0120Recon": 23419, "\u0120resentment": 28888, "lette": 21348, "\u0120formulations": 49971, "\u0120Davies": 26618, "Choice": 46770, "\u0120loneliness": 37378, "\u0120relics": 40970, "isp": 8802, "\u0120evade": 31236, "\u0120Birthday": 33511, "\u0120kindergarten": 38717, "\u0120denotes": 43397, "oooooooooooooooo": 49135, "\u0120deregulation": 50202, "\u0120Democratic": 4390, "AP": 2969, "\u0120Nab": 36099, "\u0120Dictionary": 28261, "\u0120MSI": 30781, "LU": 41596, "Bi": 23286, "\u00e3\u0127\u012d": 35098, "atical": 39056, "\u0120awaken": 26559, "gex": 25636, "achers": 17892, "\u0120Dolphin": 44576, "\u0120Individuals": 34884, "\u0120laps": 24590, "855": 45432, "hyp": 36362, "\u0120propag": 8928, "\u0120realized": 6939, "\u0120Ty": 7039, "fred": 39193, "\u0120appl": 3680, "\u0120unequal": 37334, "\u0120Dealer": 44480, "\u0120statist": 10118, "\u00e3\u0123\u0124": 40948, "\u0120inspired": 7867, "\u0120Kenny": 22102, "\u0120matrix": 17593, "\u0120Khe": 48888, "\u0120Sgt": 22925, "\u0120temporal": 21964, "\u0120hous": 3821, "\u0120Aristotle": 34067, "\u0120Twelve": 30775, "\u0120package": 5301, "\u0120Pirates": 20169, "\u0120STATES": 47023, "\u0120leadership": 5531, "\u0120spikes": 27198, "xs": 34223, "\u0120Saying": 49642, ";": 26, "\u0120gmaxwell": 31886, "\u0120auxiliary": 37419, "\u0120begins": 6140, ").\"": 21387, "\u0120Heavenly": 29035, "\u01201903": 41625, "lies": 13508, "\u0120Paul": 3362, "view": 1177, "\u0120consortium": 36451, "atory": 2870, "atform": 3390, "\u0120NA": 11746, "\u0120lineman": 33157, "%\"": 39658, "\u0120viewed": 9569, "and": 392, "\u0120Bernard": 16197, "\u0120quotes": 13386, "\u0120Satanic": 41518, "\u0120Written": 22503, "''''": 39115, "\u0120rejo": 30668, "\u0120determines": 15947, "mas": 5356, "dates": 19581, "atography": 45501, "\u012057": 7632, "\u0120every": 790, "VA": 11731, "\u0120Mellon": 49808, "\u0120Tooth": 46380, "ources": 2203, "\u0120Bland": 49524, "anoia": 30661, "\u0120sod": 32581, "\u0120veto": 18860, "\u0120Burg": 21435, "Imm": 24675, "\u0120rudimentary": 47381, "QUEST": 35780, "\u0120Inner": 24877, "./": 19571, "\u0120Warning": 15932, "\u0120fool": 9192, "rely": 38015, "\u0120Emperor": 10851, "\u0120Qualcomm": 32903, "\u0120buys": 24779, "\u0120Alas": 45315, "\u0120clan": 19065, "\u0120mysteries": 26045, "owned": 11990, "\u0120stunned": 19987, "\u00e3\u0125\u00b3\u00e3\u0124\u00b8": 45823, "Ph": 2725, "\u0120Eston": 24633, "\":[": 20598, "doc": 15390, "\u0120kills": 12847, "\u0120io": 33245, "\u0120hurricanes": 40370, "Ma": 21467, "\u0120spa": 41900, "\u0120Pinball": 37010, "\u0120softly": 26625, "\u0120rig": 7805, "ethical": 32949, "girlfriend": 45189, "\u0120magnetic": 14091, "Date": 10430, "\u0120rewards": 11530, "\u0120Supplement": 23150, "Pat": 12130, "Spell": 31221, "\u0120refuel": 47874, "lem": 10671, "\u0120belts": 28617, "orno": 46447, "\u0120substant": 5925, "SOURCE": 47690, "\u0120na": 12385, "mitt": 20124, "\u0120reproductive": 18391, "\u0120doorway": 32439, "\u0120Bolivia": 38496, "oodoo": 36038, "\u0120Cous": 27456, "\u0120packages": 10392, "Dream": 30571, "\u0120mL": 36226, "\u0120Recap": 46585, "Steam": 19109, "ORPG": 49665, "broken": 25826, "Discussion": 34255, "\u01204": 604, "abyte": 37828, "\u0120Drawing": 40027, "\u0120Cheong": 45348, "Newsletter": 33031, "\u0120peek": 27185, "\u0120persecut": 32072, "\u0120Duo": 36086, "\u0120LeBron": 24712, "\u0120protection": 4800, "\u0120Carl": 8124, "\u0120XT": 44235, "115": 15363, "\u0120reservoirs": 46637, "671": 46250, "ground": 2833, "\u0120tweeted": 10830, "bling": 11108, "\u0120metallic": 27306, "Track": 24802, "\u0120concluded": 8391, "\u0120grate": 48612, "Either": 32478, "iphate": 34981, "\u0120iTunes": 4830, "Environment": 31441, "\u0120Sab": 9910, "\u0120consisting": 17747, "\u0120tropes": 43275, "\u0120Es": 8678, "untary": 26468, "grade": 9526, "\u0120IS": 3180, "=\"\"": 33151, "\u0120barbecue": 36646, "\u0120Asc": 29469, "\u0120damning": 36706, "nc": 10782, "\u0120who": 508, "\u0120blasp": 30459, "1968": 42246, "\u0120bricks": 28902, "\u0120retrospective": 41432, "ink": 676, "\u0120Priest": 20876, "\u0120Review": 6602, "\u01201938": 28017, "fight": 15481, "\u0120anarch": 14061, "\u0120Ridge": 20614, "556": 37864, "But": 1537, "\u0120mods": 13743, "\u0120tub": 12202, "\u0120victorious": 31956, "allows": 47205, "\u0120participant": 18399, "\u0120INCLUD": 47783, "conduct": 36495, "\u0120Hel": 5053, "gg": 1130, "\u0120Cher": 19305, "absolutely": 42994, "manager": 37153, "remember": 38947, "\u0120Thirty": 29948, "\u0120Turbo": 22278, "create": 17953, "orne": 8553, "\u0120chiefly": 36305, "\u0120WORK": 30936, "\u0120power": 1176, "ashtra": 38535, "\u0120Mohammad": 29674, "\u0120SPEC": 28196, "\u0120Outs": 46580, "\u0120puberty": 35149, "\u0120Diet": 16292, "\u0120le": 443, "\u0120subsequent": 8840, "\u0120mute": 38723, "rots": 24744, "\u0120domestic": 5928, "\u00ec\u013f": 35975, "\u0120Gig": 19525, "\u00f0\u0141": 8582, "Whatever": 21875, "development": 31267, "\u0120mammal": 46103, "\u0120Active": 14199, "\u0120visiting": 10013, "ene": 1734, "\u0120film": 2646, "\u0120Russia": 3284, "\u0120features": 3033, "Secretary": 38541, "\u0120enthusiasts": 23099, "GROUP": 46846, "eway": 16172, "\u0120Sche": 10011, "ubb": 33670, "\u0120cardiac": 26077, "los": 33280, "\u0120Abd": 17870, "\u0120Customer": 22092, "offensive": 45055, "\u0120Nich": 12760, "Bern": 23927, "atics": 23372, "\u0120rubble": 29632, "PIN": 44032, "\u0120loft": 42186, "\u0120Downing": 31355, "\u0120limbs": 21755, "\u0120Anchorage": 50066, "\u0120tapped": 22499, "cing": 2259, "\u0120Boone": 44317, "\u0120Weak": 28788, "\u0120Hartford": 37118, "\u0120Pars": 23042, "\u0120cognitive": 10870, "\u0120oxidative": 37736, "\u0120Syrians": 26648, "ferred": 18186, "\u0120Log": 5972, "\u0120choking": 39302, "\u01201870": 37667, "Privacy": 48948, "highly": 47444, "\u0120artist": 6802, "\u0120theoretical": 16200, "\u0120stupid": 8531, "\u0120Shib": 44254, "\u0120Jefferson": 15375, "\u0120flames": 16209, "\u0120ROB": 36449, "\u0120lifelong": 25837, "\u0120cautiously": 39640, "\u0120traces": 20675, "collect": 33327, "Gene": 39358, "olding": 33266, "\u0120coordin": 11385, "apes": 7916, "nec": 32984, "allo": 49457, "\u0120sediment": 33408, "\u0120dual": 10668, "iltr": 19438, "\u0120Carey": 31612, "\u0120refresh": 14976, "\u0120Goku": 27031, "\u0120Gil": 10689, "\u0120Finder": 42500, "\u0120airport": 9003, "119": 16315, "\u0120EAR": 31834, "esi": 46551, "\u0120Philip": 14576, "\u0120Zombie": 14609, "\u0120Individual": 18629, "\u0120inhal": 40982, "\u0120Lav": 21438, "\u0120Spiritual": 33944, "\u0120nerds": 47088, "\u0120meaningless": 24513, "build": 11249, "puting": 48074, "apolis": 11174, "\u0120melted": 24178, "\u0120Minutes": 23757, "\u0120especially": 2592, "\u0120cryptocurrency": 20210, "iannopoulos": 36408, ".....": 12359, "\u0120parsed": 44267, "\u0120Slack": 36256, "\u0120Discount": 43474, "\u0120ordered": 6149, "\u0120brains": 14290, "\u0120shampoo": 47259, "\u0120Mau": 28931, "\u0120Radar": 38426, "\u0120breat": 4882, "\u0120Maximum": 22246, "ires": 2387, "\u0120systemd": 31490, "nesty": 18718, "rust": 11469, "\u0120unim": 28418, "\u0120Euros": 40745, "\u0120Lights": 22661, "454": 34229, "\u0120Alone": 28043, "\u0120hereditary": 49718, "isive": 13911, "\u0120inches": 8331, "itative": 12464, "script": 12048, "\u0120Kle": 15983, "\u0120motion": 6268, "fl": 2704, "poly": 35428, "\u0120lakes": 24768, "%)": 4407, "\u0120Dave": 9935, "\u0120owners": 4393, "\u0120enables": 13536, "plan": 11578, "Platform": 37148, "\u0120flat": 6228, "\u0120segments": 17894, "\u0120requirement": 9079, "antasy": 34921, "\u0120aggress": 15786, "\u0120BI": 20068, "ilet": 41550, "\u0120snug": 47032, "\u0120Sark": 36518, "\u0120Chocolate": 24777, "\u0120realization": 23258, "\u0120glean": 41881, "\u0120HIM": 45909, "ea": 18213, "\u0120married": 6405, "\u0120Beer": 16971, "\u0120quirky": 37276, "osph": 14222, "igure": 7047, "\u0120Digital": 10231, "ures": 942, "HB": 32886, "odan": 45561, "\u0120explained": 4893, "reality": 46290, "\u0120shouts": 34757, "CHAT": 31542, "HO": 32298, "\u0120Broadway": 20617, "\u0120nutrition": 16633, "\u0120worrisome": 48367, "\u0120Metroid": 45430, "aining": 1397, "\u0120Surve": 28095, "\u0120Make": 6889, "\u0120posted": 4481, "bj": 50007, "\u00c2\u00af\u00c2\u00af\u00c2\u00af\u00c2\u00af\u00c2\u00af\u00c2\u00af\u00c2\u00af\u00c2\u00af": 15243, "hew": 6391, "ished": 1348, "%%": 16626, "\u0120climbers": 39311, "bors": 32289, "\u0120withheld": 31453, "\u0120failed": 4054, "\u0120Je": 3852, "148": 18294, "\u0120Plan": 5224, "uthor": 1457, "arded": 10676, "\u0120Cafe": 26965, "\u0120343": 37290, "ivism": 25085, "\u0120dungeons": 33062, "\u0120Peoples": 41770, "\u0120APIs": 23113, "ATIVE": 37045, "},\"": 9063, "\u0120bare": 6247, "\u0120());": 38377, "value": 8367, "\u0120Humanity": 35629, "\u0120Smartstocks": 32437, "\u0120academics": 22321, "ged": 2004, "IT": 2043, "\u0120Bans": 39535, "Monday": 23810, "\u0120outraged": 27697, "\u0120Was": 8920, "\u0120job": 1693, "\u0120Sneak": 49475, "428": 40173, "\u0120Constable": 42077, "Town": 38097, "\u0120ours": 16903, "\u0120drills": 26721, "\u0120Volcano": 48380, "\u0120simultaneous": 29526, "xa": 27865, "\u0120speak": 2740, "\u0120PAC": 16741, "ether": 6750, "\u0120bourbon": 41855, "\u0120applauded": 38911, "\u0120Shant": 49892, "\u0120duck": 22045, "\u0120\u00c2\u0142\u00c2\u0142": 47654, "\u0120Robotics": 47061, "\u0120operate": 8076, "\u0120peculiar": 19501, "\u0120Members": 12688, "\u0120Pharaoh": 42697, "\u0120pilot": 8022, "iop": 14922, "fashioned": 28776, "\u0120kindness": 23887, "\u0120bother": 11393, "\u0120treatments": 13820, "\u0120centralized": 29024, "\u0120guiName": 30202, "straight": 42729, "\u0120impeachment": 30258, "\u0120Trinidad": 48269, "nosis": 31707, "Nobody": 24795, "\u0120syndrome": 14027, "\u0120junior": 13430, "\u0120Gym": 31187, "AMD": 28075, "\u0120sporting": 17702, "\u0120shrimp": 30060, "\u0120Check": 6822, "\u0120CRA": 33416, "\u0120Morgan": 10805, "\u0120Marketable": 11966, "\u0120clo": 28050, "\u0120market": 1910, "verted": 13658, "\u0120points": 2173, "\u0120Sammy": 44067, "Merc": 42981, "Only": 10049, "\u0120energy": 2568, "allow": 12154, "\u0120terrorists": 10509, "\u0120compete": 9320, "gow": 21175, "\u0120SAS": 35516, "orable": 10475, "\u0120manipulative": 47859, "asers": 19865, "\u0120dich": 36638, "\u0120amp": 20766, "\u0120profiling": 31582, "urate": 15537, "1988": 26709, "\u0120laboratories": 35650, "\u0120Arms": 18368, "\u0120Sam": 3409, "\u0120length": 4129, "\u0120Ug": 24384, "\u0120decisive": 21112, "\u0120Retirement": 41863, "\u0120Tak": 15804, "iasis": 48455, "\u0120underestimated": 36190, "\u0120II": 2873, "\u0120Associates": 29306, "\u0120marched": 23558, "\u0120hop": 1725, "\u0120desirable": 18763, "\u0120modified": 9518, "\u0120Asset": 31433, "\u0120qualify": 12780, "\u0120Reach": 25146, "\u0120Mesa": 26670, "046": 45438, "\u0120Aub": 19723, "Ru": 40464, "\u0120Water": 5638, "\u00c3\u00a7": 16175, "\u0120oath": 17865, "\u0120sockets": 37037, "\u0120Film": 13741, "\u0120une": 17809, "\u0120Rivals": 42307, "\u0120Telesc": 34495, "\u0120PU": 24676, "\u0120defiance": 35287, "\u0120notebooks": 43935, "interstitial": 29446, "\u0120altercation": 38880, "\u0120historically": 15074, "\u0120Naw": 41179, "\u0120reluct": 12869, "\u0120predatory": 35341, "\u0120grow": 1663, "olt": 5978, "eanor": 17663, "Publisher": 46471, "\u0120chronological": 45946, "\u0120Chess": 25774, "522": 49542, "industrial": 31130, "\u0120money": 1637, "\u01201904": 43785, "\u0120brand": 4508, "\u0120rubbish": 35022, "Comp": 7293, "Earlier": 13689, "heses": 39815, "\u0120tempo": 28691, "\u0120cath": 32171, "MIC": 49884, "\u0120patriarchy": 41932, "major": 22478, "\u0120volunteer": 13904, "\u0120Academy": 8581, "\u0120LM": 37125, "\u0120Cele": 18909, "\u00c1": 125, "\u0120MTV": 31214, "mount": 14948, "\u0120enqu": 34593, "ellectual": 29706, "accompan": 41974, "Ukraine": 44814, "\u0120ta": 20486, "\u0120Gau": 35094, "Down": 8048, "\u0120seven": 3598, "\u0120switched": 15293, "\u0120threats": 7432, "\u0120interestingly": 50226, "\u0120Introduction": 22395, "\u0120ruled": 8879, "ttes": 13036, "\u0120preference": 12741, "iked": 17951, "\u0120Cornel": 48214, "\u0120say": 910, "\u0120sensitivity": 14233, "\u0120bouncing": 30713, "\u0120started": 2067, "364": 26780, "\u0120calm": 9480, "Blade": 47520, "\u0120prompted": 12053, "\u0120patriot": 29408, "\u0120downwards": 44890, "\u0120hats": 23910, "\u0120Novel": 24467, "sight": 18627, "gres": 34239, "\u0120Premiere": 44151, "oux": 22193, "\u0120explode": 22818, "ijah": 32778, "303": 22572, "\u0120semif": 32948, "\u0120impede": 43195, "tarian": 14012, "\u0120HOU": 29068, "\u0120diary": 26339, "\u0120Provides": 47081, "\u0120AP": 3486, "\u0120nominating": 48833, "\u0120disappointment": 18641, "\u0120Managing": 37108, "\u0120funny": 8258, "Besides": 23937, "\u0120stocked": 42070, "\u0120passer": 30286, "\u0120formulate": 46418, "\u0120humankind": 47634, "economic": 17079, "AIR": 42149, "Cop": 13379, "\u0120violet": 45725, "\u0120coupon": 34990, "\u0120Jess": 12707, "\u0120bailed": 47739, "\u0120project": 1628, "\u0120prophecy": 28322, "\u0120Sioux": 37903, "\u0120Arrow": 19408, "Which": 13828, "\u0120printf": 30812, "ogie": 37987, "\u0120collapsing": 30792, "CVE": 31436, "\u0120bounded": 49948, "\u0120Din": 23448, "\u0120defining": 16215, "\u0120Republicans": 4734, "\u0120Whatever": 15935, "steel": 44822, "\u0120clad": 38186, "\u0120eighteenth": 45592, "\u0120depends": 8338, "585": 38905, "\u0120queer": 24506, "\u0120anat": 20076, "ometry": 15748, "otted": 8426, "\u0120VT": 32751, "\u0120entertainment": 9739, "\u0120happily": 18177, "\u0120promot": 4256, "\u0120((": 14808, "anan": 27870, "\u0120presumption": 35467, "profits": 31504, "ucha": 48022, "\u0120arms": 5101, "\u0120Safari": 23298, "\u0120Frame": 25184, "dump": 39455, "\u0120Sty": 42378, "setting": 33990, "\u0120volunteers": 11661, "\u0120pine": 20161, "\u0120WiFi": 24904, "\u0120Kasich": 24931, "389": 29769, "\u0120Fig": 12138, "\u0120security": 2324, "\u0120unaff": 25312, "\u0120stri": 2338, "\u0120Brazilian": 17036, "\u0120parap": 41406, "\u0120begs": 38609, "current": 14421, "truth": 35310, "\u0120plethora": 35146, "\u0120digestive": 34616, "\u0120wreckage": 31781, "\u0120Dianne": 49197, "\u0120slay": 42596, "\u0120Chilean": 48014, "437": 43284, "\u0120slow": 3105, "\u0120ratings": 10109, "\u0120customize": 24184, "\u0120fact": 1109, "\u0120interstate": 33078, "\u0120incur": 35870, "affer": 31183, "\u0120eroded": 44699, "\u0120diverse": 10084, "\u0120proving": 17742, "aghan": 45109, "\u0120inch": 11111, "\u0120mail": 6920, "adata": 14706, "\u0120activ": 1753, "\u0120Py": 9485, "\u0120Sheikh": 30843, "Republicans": 28455, "\u0120utilization": 32121, "\u0120questioned": 11434, "\u0120\u00e2\u013a": 34719, "Card": 16962, "Mur": 23830, "\u0120('": 19203, "\u0120contracts": 8592, "\u0120waking": 23137, "\u0120reminis": 21484, "\u0120either": 2035, "\u0120urban": 7876, "ports": 3742, "\u0120377": 42163, "\u0120actions": 4028, "\u0120detriment": 42959, "\u0120Bj": 34254, "\u0120Emil": 44272, "\u0120ty": 1259, "Black": 9915, "stated": 21989, "Mrs": 27034, "orr": 38890, "\u0120Administrator": 22998, "\u0120Pastebin": 29582, "\u0120hotline": 46989, "\u0120AB": 9564, "istical": 19929, "nas": 24716, "anos": 40015, "\u0120leverage": 16094, "\u0120tears": 10953, "market": 10728, "\u0120lowly": 49587, "\u00e6\u012a": 22755, "\u0120duties": 10741, "Topic": 33221, "\u0120reconcile": 33570, "\u0120Purchase": 27637, "\u0120deadline": 12508, "\u0120squad": 8244, "\u0120Poo": 41778, "import": 11748, "ussia": 31269, "\u0120compute": 24061, "\u0120shameless": 41564, "respected": 48268, "\u0120Rus": 9223, "zig": 38262, "\u0120collaps": 10777, "aler": 36213, "anchester": 8911, "\u0120furious": 21799, "\u0120Variable": 35748, "\u0120learners": 46184, "\u0120ordeal": 30600, "\u0120representative": 8852, "\u0120doctrine": 13115, "0000": 2388, "\u0120Ves": 36448, "Advertisements": 14592, "\u0120Cheap": 41087, "\u0120Dover": 46578, "\u0120anyways": 32845, "\u0120Cent": 1979, "833": 48634, "\u0120Sorce": 21477, "\u0120Buenos": 46210, "\u00c3\u00a1": 6557, "eus": 27650, "\u0120dumb": 13526, "tro": 23528, "\u0120vas": 34439, "\u0120FUCK": 30998, "292": 32759, "AMES": 29559, "Solution": 46344, "\u0120WAS": 21725, "\u0120Spells": 30656, "\u0120Bast": 17520, "\u0120weapon": 4282, "\u0120prosecutors": 11947, "ro": 305, "\u0120rubbing": 27714, "APP": 24805, "ram": 859, "\u00c3\u00b1o": 31329, "eral": 1691, "296": 27137, "\u0120purportedly": 40891, "\u0120Streaming": 43124, "\u0120passage": 10066, "\u0120Quarter": 17264, "\u0120comprises": 28800, "\u0120Provide": 44290, "Except": 30313, "\u0120dece": 12738, "\u0120coloured": 34746, "stadt": 38863, "en": 268, "\u0120replica": 30069, "\u00e4": 160, "Fe": 14304, "Weapons": 41818, "\u0120acceptable": 10909, "\u0120clue": 18437, "Lim": 19352, "\u0120Perkins": 29618, "issan": 24112, "tailed": 34966, "\u0120expand": 4292, "omin": 6351, "\u0120escalate": 38302, "wikipedia": 31266, "fig": 5647, "itles": 30540, "\u0120incomplete": 17503, "\u0120breakdown": 14608, "\u0120planet": 5440, "\u0120strawberries": 36973, "\u0120Connect": 8113, "\u0120astronaut": 33779, "\u0120paradise": 31354, "\u0120department": 5011, "\u0120deepening": 46539, "\u0120reciproc": 36564, "\u0120LAT": 42355, "\u0120LIVE": 28323, "\u0120texted": 47358, "unny": 16948, "\u0120reversing": 37556, "\u0120waterfront": 40250, "\u0120vend": 10817, "\u0120Haste": 47708, "\u0120salv": 24143, "\u0120Sport": 12771, "inea": 18343, "\u0120BJP": 18317, "\u0120Ness": 41606, "utation": 7094, "\u0120solder": 42809, "\u0120Doors": 33775, "\u0120striker": 19099, "\u0120declines": 24459, "\u0120reads": 9743, "qt": 39568, "owicz": 47982, "\u0120Corner": 26212, "\u0120418": 45959, "\u0120gained": 8618, "\u0120\u00e7": 13328, "olve": 6442, "\u0120attending": 11969, "\u0120frivolous": 48461, "\u0120Bind": 41211, "\u0120Damn": 40146, "irst": 667, "\u0120groundwater": 34573, "\u0120brick": 17214, "\u0120.)": 46328, "\u0120streaming": 11305, "\u0120abduction": 39630, "2007": 12726, "\u0120travelling": 16574, "\u0120Paulo": 34410, "\u0120climb": 12080, "fuel": 25802, "Adv": 22856, "\u0120teaches": 17324, "ociated": 19293, "\u0120Psychiatry": 28897, "Command": 21575, "\u0120echoes": 30346, "\u0120qualitative": 40693, "\u0120unt": 1418, "\u0120bung": 43974, "\u0120Participation": 34408, "Stop": 19485, "agons": 34765, "\u0120Mubarak": 46544, "\u0120540": 38190, "\u0120tendon": 42205, "\u0120(&": 35494, "\u0120Finals": 19705, "\u0120retaining": 26645, "Rated": 15322, "\u0120excerpt": 20911, "lig": 4604, "\u0120Doe": 31780, "\u0120antiqu": 27233, "\u00e3\u0122\u0132": 31854, "\u0120beyond": 3675, "\u0120fearing": 33188, ":'": 32105, "metic": 15103, "Press": 13800, "\u01201913": 35145, "\u0120Pluto": 32217, "ola": 5708, "\u0120Yas": 25957, "\u0120endlessly": 33903, "changes": 36653, "\u0120swapping": 38869, "\u0120belie": 1250, "innamon": 21920, "FLAG": 38948, "\u0120pixels": 17848, "\u0120beach": 10481, "VII": 45529, "\u0120infections": 16079, "rone": 33171, "\u0120sorely": 50103, "\u0120gateway": 24308, "cut": 8968, "\u0120VIDEOS": 48876, "loc": 17946, "nesday": 3462, "ucker": 12603, "iazep": 48826, "orious": 9982, "\u0120retailers": 16167, "\u0120cc": 36624, "\u0120clen": 38566, "SAY": 27358, "\u0120biotech": 47693, "caps": 27979, "\u0120unfocusedRange": 30209, "Dis": 7279, "oun": 977, "\u0120laz": 37296, "\u0120Platform": 19193, "\u0120unilateral": 37095, "\u0120stocks": 14420, "\u0120concludes": 18978, "times": 22355, "\u0120suburbs": 21040, "\u0120and": 290, "\u0120Society": 7023, "\u0120edges": 13015, "lesiastical": 46360, "\u0120Labyrinth": 28561, "deal": 31769, "\u0120throwing": 9644, "\u0120skeletons": 25612, "econom": 13926, ".\u00e2\u0122\u0135": 37585, "\u0120bath": 7837, "\u0120scratches": 37627, "\u0120fest": 15292, "\u0120ver": 3326, "bably": 11921, "Spe": 5248, "\u0120gesture": 18342, "\u0120triangle": 22950, "\u0120bottleneck": 49936, "\u0120lows": 34119, "\u0120Dep": 2129, "usters": 13654, "road": 6344, "Heat": 39596, "team": 15097, "\u0120Arabic": 17526, "\u0120mutually": 26519, "\u0120clot": 5148, "come": 2958, "384": 22842, "\u0120goodies": 39863, "\u0120Fellow": 29764, "beer": 42428, "\u0120miracle": 20820, "\u0120Christ": 1951, "Kids": 40229, "\u0120Vale": 31832, "\u0120commem": 19512, "\u0120Albania": 44615, "\u0120Chronicles": 17740, "\u0120Fashion": 30958, "ct": 310, "\u00e2\u0138\u0133\u00e2\u0138\u0133": 27534, "\u0120Alice": 14862, "\u0120garn": 36167, "\u0120DEAD": 42533, "sufficient": 46790, "\u0120760": 48284, "\u0120Ich": 26364, "\u0120thank": 5875, "\u0120aback": 50147, "\u0120Lange": 47579, "\u0120Ultimately": 24199, "\u0120gui": 11774, "\u0120occupant": 47742, "Collins": 49645, "adh": 24411, "\u0120GeForce": 12975, "oriented": 17107, "moral": 41996, "\u0120synchron": 18305, "\u00d6\u00bc": 47903, "aryn": 38621, "\u0120slack": 30740, "\u0120Patent": 34830, "\u0120erad": 23011, "Joined": 24363, "\u0120repository": 16099, "\u0120McInt": 39086, "\u0120watts": 36416, "\u0120reduced": 5322, "istically": 16772, "Wall": 22401, "493": 43134, "\u0120Whip": 40930, "\u0120pepp": 49038, "share": 20077, "\u0120giveaways": 50020, "Rog": 30417, "\u0120Reb": 15652, "\u0120telephone": 11426, "uana": 5020, "ready": 1493, "\u0120hide": 7808, "\u0120dance": 9280, "ARK": 14175, "cens": 42595, "herent": 8334, "\u0120embarrassment": 24655, "\u0120349": 44367, "bos": 39565, "\u0120scrut": 12054, "\u0120goat": 26917, "Ther": 35048, "poral": 35738, "\u0120whims": 38411, "\u0120props": 25744, "\u0120Marx": 10487, "\u0120Lou": 4768, "\u0120catcher": 32408, "ens": 641, "\u0120Ash": 7844, "\u0120Dol": 25143, "\u0120310": 28947, "\u0120forwarding": 43448, "Import": 20939, "\u0120salt": 8268, "\u00c3\u00ae": 34803, "LOAD": 35613, "66666666": 41977, "\u0120Watkins": 36832, "\u0120warn": 9828, "AZ": 22778, "\u0120RIGHT": 33621, "\u0120hip": 10359, "\u0120Listen": 20600, "\u0120murders": 17162, "\u0120POWER": 40295, "DATA": 26947, "\u0120rectangular": 36954, "\u0120Meier": 40860, "akis": 27321, "\u0120peasants": 29177, "rylic": 34554, "\u0120frequently": 6777, "\u0120comply": 11997, "erver": 18497, "east": 23316, "Books": 30650, "irl": 1901, "\u0120Votes": 39584, "\u0120shrugged": 28271, "\u0120Chair": 9369, "usher": 34055, "Texas": 21607, "del": 12381, "Ford": 37308, "\u0120develops": 21126, "\u0120Authorization": 35263, "\u0120Punk": 32592, "\u0120antibody": 35757, "\u0120Slate": 30621, "itimate": 30233, "\u0120favoring": 43567, "\u0120OW": 47210, "\u0120MIN": 20625, "\u0120Radeon": 13082, "\u0120undecided": 39511, "\u0120Sant": 10844, "Editor": 17171, "\u0120scoff": 39247, "\u0120interpretation": 10794, "izo": 41282, "\u0120ate": 15063, "\u0120grab": 5552, "\u0120mes": 18842, "\u0120Abraham": 16660, "\u0120matchups": 32033, "dad": 47984, "\u0120Dunk": 39303, "\u0120pellets": 43677, "\u0120consolidated": 27890, "\u012053": 7192, "\u0120noodles": 31103, "ernaut": 37879, "uctions": 20847, "humans": 40205, "\u0120sections": 9004, "Position": 26545, "downs": 30371, "\u0120Rating": 12028, "/-": 16327, "\u0120merch": 12487, "\u0120Barg": 50062, "\u0120alteration": 35635, "\u0120Ryan": 6047, "\u0120recons": 23898, "\u0120projectiles": 33281, "\u0120embr": 7726, "miah": 35029, "\u0120noteworthy": 30902, "\u0120Superintendent": 34058, "\u0120punch": 10862, "\u0120Authentication": 48191, "\u0120KDE": 36632, "\u0120thorough": 9321, "\u0120Lug": 31541, "());": 35430, "\u0120Angola": 48968, "imeters": 31551, "\u0120assassin": 31120, "\u0120Parties": 32024, "\u00e2\u012a\u0134": 14095, "\u0120Pact": 41460, "\u0120quota": 32539, "\u0120unn": 41231, "\u0120complicit": 42927, "\u0120equal": 4961, "aching": 8103, "earable": 40816, "holy": 44287, "\u0120Controlled": 43253, "\u0120Sul": 29357, "\u0120Weapon": 13072, "robat": 40655, "\u0120massage": 26900, "\u0120inverse": 34062, "thia": 31079, "\u0120lithium": 28444, "hero": 11718, "\u0120Amendments": 39169, "\u0120quiz": 38964, "\u0120Victory": 21203, "\u0120Vitamin": 27533, "\u0120Drake": 18515, "\u0120Edmonton": 21165, "\u0120Ji": 29380, "unda": 46535, "\u0120Creep": 41682, "\u0120Kentucky": 11867, "\u0120threshold": 11387, "\u0120Veg": 8427, "\u0120Tibet": 18910, "partial": 47172, "\u0120divert": 36583, "icist": 48187, "\u0120cavity": 31643, "\u0120rapp": 29106, "\"],": 33116, "\u0120Klux": 45092, "\u0120Claudia": 50214, "efficients": 41945, "\u0120skipping": 31017, "Morgan": 47184, "\u0120adul": 19046, "\u0120Brass": 32309, "\u0120moment": 2589, "\u0120vitro": 30590, "Pok\u00c3\u00a9": 41386, "\u0120criticism": 7734, "\u0120Regulations": 26108, "\u0120weather": 6193, "\u0120Men": 6065, "\u0120Ren": 7152, "bed": 3077, "\u0120fascinating": 13899, "asar": 42391, "\u0120determin": 3416, "\u0120kios": 46739, "Health": 18081, "\u0120understatement": 46196, "omedical": 35914, "\u0120Community": 8108, "Bur": 22991, "haar": 42948, "idation": 24765, "\u0120Pose": 37557, "aux": 14644, "\u0120involve": 6211, "Favorite": 49434, "\u0120immersion": 36375, "VK": 47191, "\u0120chromosomes": 42742, "\u0120buckle": 44983, "\u0120paced": 44756, "achable": 34446, "\u0120improvised": 36146, "\u0120boarding": 25523, "\u0120influential": 14212, "\u00e7\u0136": 18796, "\u0120Son": 6295, "\u0120chain": 6333, "\u0120handguns": 38060, "utch": 7140, "\u0120announcing": 16428, "OVA": 41576, "Ast": 33751, "\u0120provisional": 37042, "ula": 4712, "LES": 28378, "\u0120newsletters": 16983, "\u0120gearing": 40592, "\u0120Denver": 10656, "\u0120currencies": 19247, "Disc": 15642, "iqu": 1557, "\u0120card": 2657, "Mobil": 47100, "\u0120uncom": 8820, "cknowled": 33165, "restrial": 23522, "\u0120Friday": 3217, "event": 15596, "axies": 25472, "\u0120Breaking": 24942, "ement": 972, "\u0120contradictions": 32962, "ellig": 2976, "apeake": 49528, "\u00e2\u0138": 5008, "brain": 27825, "\u0120geographical": 27465, "\u0120belief": 4901, "ship": 6720, "\u0120medical": 3315, "ibly": 3193, "\u0120Clause": 28081, "ared": 1144, "pb": 40842, "\u0120Communism": 39627, "\u0120DI": 14766, "\u0120Charles": 7516, "informed": 35698, "\u0120Disk": 31664, "\u0120Marty": 29876, "\u0120PM": 3122, "\u0120Mexican": 10816, "athom": 32910, "income": 12519, "\u0120networking": 19140, "\u0120Owner": 23853, "\u0120225": 18500, "\u0120Teach": 42015, "during": 42122, "rosis": 37172, "\u0120ideal": 7306, "\u0120PACs": 43838, "\u0120correction": 17137, "\u0120nar": 30083, "\u0120stale": 39985, "\u0120Breat": 40285, "\u0120Foreign": 8708, "\u0120verdict": 15593, "\u01201932": 32471, "OFF": 27977, "inished": 30603, "\u0120policies": 4788, "GAN": 45028, "\u0120kilomet": 11866, "\u0120licence": 17098, "\u0120truck": 7779, "ennes": 42573, "ada": 4763, "\u0120Jr": 7504, "\u0120Total": 7472, "\u0120compositions": 33543, "ificantly": 42491, "\u0120diplomacy": 25482, "\u0120Emer": 10320, "\u0120stagger": 20778, "\u0120Ton": 16859, "\u0120Mixed": 35250, "\u0120hotel": 7541, "\u0120setting": 4634, "\u0120Node": 19081, "UST": 7759, "\u0120unexpected": 10059, "\u0120ought": 10783, "inet": 42504, "mediated": 38363, "\u0120notor": 23305, "\u0120blood": 2910, "afort": 24515, "\u0120placeholder": 46076, "onom": 6326, "\u0120Belgian": 21402, "\u0120fi": 25912, "Van": 25298, "init": 15003, "002": 21601, "905": 44928, "\u0120sharp": 7786, "\u0120enclosed": 28543, "\u0120Enhance": 32999, "rated": 4111, "\u0120Pont": 26345, "\u0120blade": 11865, "\u0120characters": 3435, "509": 29022, "\u0120beauty": 8737, "\u0120Calif": 3192, "\u0120dynamically": 32366, "\u0120Alchemist": 36084, "\u0120Humans": 27411, "\u0120case": 1339, "\u0120378": 45473, "\u0120Carlo": 40089, "\u0120stole": 18240, "\u0120Curious": 44269, "eur": 23365, "settings": 33692, "artist": 49016, "\u0120Valerie": 45603, "\u0120Puzzle": 23966, "\u0120observers": 17984, "Users": 14490, "\u0120strategic": 10039, "\u0120vessels": 14891, "\u0120gathered": 9272, "\u0120Father": 9190, "kHz": 44191, "\u00e3\u0122\u0124": 16764, "ollywood": 31777, "roy": 3287, "\u0120testing": 4856, "\u0120widow": 27075, "\u0120instincts": 26744, "\u0120Mountains": 21124, "\u0120boon": 38181, "\u0120gathers": 43609, "\u0120Chou": 41699, "\u0120ban": 3958, "professional": 33163, "Cook": 28937, "\u0120Hands": 22237, "obia": 30665, "\u0120grips": 31323, "\u0120explos": 6054, "\u0120CARE": 47342, "\u0120mark": 1317, "antically": 31589, "requisites": 34075, "vant": 4520, "\u0120NY": 6645, "\u0120erroneous": 35366, "\u0120Hence": 16227, "icago": 4549, "\u0120AZ": 26253, "\u0120Lumin": 43496, "\u0120prepared": 5597, "zeb": 38130, "\u0120Thiel": 42511, "\u0120prov": 899, "andy": 10757, "\u0120Bhar": 33653, "\u0120soy": 17797, "\u00e8\u00bf": 32573, "eon": 23277, "\u0120saint": 32292, "ragon": 25753, "\u0120bite": 13197, "rine": 7640, "th": 400, "\u0120running": 2491, "\u0120momentum": 12858, "\u0120puppy": 26188, "\u0120bears": 13062, "191": 26492, "\u0120practitioner": 32110, "\u0120cat": 3797, "--------------------------------------------------------": 43801, "\u0120Pistons": 36429, "\u0120Cathedral": 32536, "\u0120Pri": 4389, "original": 14986, "\u0120hazards": 27491, ".'": 2637, "\u0120Siberia": 41515, "\u0120vaccination": 22827, "\u0120----------------------------------------------------------------": 16529, "\u0120Raider": 31423, "\u0120Marathon": 24828, "\u0120memories": 9846, "\u0120Guardians": 19752, "\u0120stigma": 26695, "pected": 7254, "Default": 19463, "\u0120hammer": 15554, "\u0120RX": 24202, "\u0120Craft": 15745, "imester": 47484, "\u0120hesitant": 32848, "\u0120shattering": 48883, "\u0120sin": 7813, "gom": 19120, "\u0120arranged": 14921, "\u0120Writ": 12257, "stals": 41076, "tin": 43701, "\u0120camoufl": 31962, "\u0120genome": 19270, "\u0120deployment": 14833, "\u0120hormones": 21311, "416": 35218, "\u0120sacrific": 13751, "\u0120nom": 4515, "\u0120guitarist": 32705, "\u0120surgical": 21998, "\u0120cooperating": 34962, "\u0120fl": 781, "\u0120rate": 2494, "\u0120neuro": 7669, "added": 29373, "\u0120Ma": 6669, "vana": 33175, "\u0120northeast": 24287, "\u0120syn": 6171, "\u0120globalization": 39155, "\u0120Wasteland": 47292, "\u0120spike": 20240, "\u0120Cloak": 36558, "\u0120quo": 18658, "\u0120retreating": 46163, "Cy": 20418, "\u0120apologise": 39012, "\u0120subject": 2426, "\u0120administrators": 18618, "\u0120BELOW": 45339, "mobi": 43549, "Index": 15732, "\u0120\u00e6\u013e": 42164, "\u00eb\u012d": 46695, "\u0120inviting": 23310, "\u0120Payne": 32788, "\u0120Fr": 1305, "\u0120Abrams": 32414, "\u0120stirred": 33091, "\u0120clients": 7534, "\u0120expose": 15651, "\u0120rounds": 9196, "istry": 4592, "\u0120constellation": 38712, "\u0120academic": 8233, "\u0120sounding": 22655, "qual": 13255, "\u0120inher": 10639, "\u0120Full": 6462, "\u0120Trudeau": 17524, "\u0120exclaimed": 33552, "\u0120plummet": 28940, "\u0120ar": 610, "\u0120enlarge": 27475, "eki": 39548, "\u0120Ivan": 21798, "\u012004": 8702, "\u0120piles": 30935, "archive": 17474, "\u0120identities": 18413, "Tony": 29387, "\u0120Cry": 8152, "iture": 8089, "unta": 44424, "mol": 43132, "\u0120tracked": 18283, "boxing": 45471, "erving": 14344, "adult": 49922, "\u0120curfew": 49565, "\u0120soften": 39536, "379": 29088, "dullah": 23969, "\u0120poly": 7514, "\u0120vanishing": 49047, "useum": 6744, "\u0120Ez": 21034, "\u0120hierarchical": 38958, "\u0120Competitive": 47665, "happy": 34191, "\u0120cryst": 17787, "\u00e2\u0139": 15926, "umbnails": 13668, "\u0120Understand": 45010, "\u0120when": 618, "Dynamic": 44090, "olics": 19615, "ual": 723, "illac": 40607, "\u0120compost": 36541, "\u0120omitted": 22532, "\u0120Arist": 23203, "eln": 45542, "\u0120proclaim": 23930, "\u0120tablet": 14147, "\u0120gestures": 24621, "\u0120considerable": 11091, "counter": 24588, "TS": 4694, "Half": 31305, "ihil": 20898, "brand": 17938, "\u0120spears": 46842, "\u00e5\u00a4\u00a9": 25465, "\u00e5\u00b0": 22887, "\u0120absorbs": 42909, "illa": 5049, "Pick": 31686, "ellery": 41800, "ARS": 27415, "\u0120formula": 10451, "\u0120attempts": 6370, "\u0120God": 1793, "\u0120Moz": 28036, "stros": 48288, ",''": 14004, "iolet": 19194, "014": 28645, "\u0120compartment": 26247, "\u0120Nec": 19652, "\u0120autom": 3557, "utz": 27839, "bles": 7689, "987": 44183, "377": 26514, "rief": 3796, "\u0120rise": 4485, "Adapt": 48003, "\u0120honors": 25279, "\u0120reflections": 35066, "\u0120contro": 1246, "\u0120Chronic": 40700, "rists": 37326, "\u0120Chan": 18704, "\u0120intermedi": 30127, "\u0120insist": 16361, "\u0120Dale": 20412, "Jennifer": 43187, "\u0120Shy": 36838, "GT": 19555, "\u0120rocks": 12586, "Econom": 28489, "oku": 11601, "someone": 46248, "\u0120attends": 32743, "eredith": 36897, "eros": 27498, "\u0120\u00e2": 2343, "85": 5332, "Pattern": 47546, "olution": 2122, "\u00e3\u0125\u0125\u00e3\u0125\u012b": 45435, "\u0120carn": 18466, "hitting": 48320, "pps": 41799, "\u0120affordable": 10935, "item": 9186, "\u0120fluent": 43472, "\u0120consecutive": 12785, "\u0120native": 6868, "Franc": 42885, "\u0120Eminem": 49428, "\u0120focused": 5670, "\u0120appar": 17956, "\u0120Eric": 7651, "utenberg": 19028, "\u0120hotly": 50180, "/,": 47454, "\u0120Bard": 25654, "indal": 44644, "inately": 48618, "\u0120cruc": 27020, "akedown": 25817, "\u0120pertaining": 27113, "Services": 31007, "\u0120eb": 36649, "\u0120detectives": 24304, "Baby": 36534, "Obj": 49201, "\u0120recollection": 41285, "sense": 33819, "rotein": 35574, "\u0120manipulate": 18510, "phy": 6883, "\u0120profit": 7630, "\u0120Desire": 41042, "\u0120unfortunate": 14855, "agate": 37861, "lining": 21310, "\u0120dj": 42625, "\u012085": 7600, "\u0120Bran": 33628, "\u0120engage": 8209, "\u0120inver": 40631, "\u0120hoax": 25943, "\u0120cures": 50019, "\u0120Olympics": 14935, "\u0120spe": 693, "\u0120Reve": 31091, "\u0120leave": 2666, "\u0120Lovecraft": 37655, "\u0120tends": 12444, "\u00e4\u00b9\u012d": 45298, "\u0120sprinkle": 45799, "olas": 12456, "period": 41007, "\u0120tort": 7619, "crit": 22213, "\u012006": 9130, "\u0120contemplated": 39496, "\u0120downstream": 33218, "Jan": 12128, "\u0120badge": 23009, "WR": 18564, "\u0120brewers": 36669, "\u0120McN": 22586, "\u0120%": 4064, "\u0120shooters": 26191, "\u0120Tone": 45362, "\u0120Legislature": 20815, "\u0120Invest": 7488, "________": 2602, "\u0120chimpan": 36064, "erno": 24100, "\u0120Already": 27511, "\u0120sweeps": 46778, "gradient": 49607, "enberg": 23140, "ILA": 47164, "\u0120\u00ce": 7377, "GE": 8264, "\u0120Dubai": 24520, "versive": 40099, "\u0120Ways": 26658, "riages": 16451, "\u0120excerpts": 39146, "+(": 33747, "\u0120philosoph": 6722, "\u0120State": 1812, "\u0120village": 7404, "agent": 25781, "\u0120Psych": 7562, "missions": 8481, "\u0120sail": 14936, "\u0120Edge": 13113, "Companies": 49111, "\u0120burns": 20246, "\u0120desperately": 16459, "\u0120Fathers": 30969, "........": 2109, "ave": 1015, "\u0120alas": 47156, "\u0120patches": 16082, "\u0120pol": 755, "\u0120vacc": 7041, "Coin": 24387, "\u0120Scientists": 23782, "aditional": 27013, "\u0120Favorite": 33992, "\u0120pact": 28242, "padding": 39231, "\u0120LGBTQ": 25172, "omer": 12057, "Craft": 14467, "\u0120Castro": 21193, "Grid": 41339, "\u0120Rag": 38000, "\u0120OCT": 42256, "Variable": 43015, "oggles": 48549, "\u0120Jewel": 29151, "\u0120meticulously": 46553, "deals": 14302, "\u0120Healthcare": 30289, "albeit": 45781, "puter": 10549, "\u0120letters": 7475, "\u0120conducting": 14523, "\u0120Lions": 14536, "\u0120agon": 26990, "\u0120avocado": 40377, "\u0120Statue": 43330, "\u0120Punch": 24265, "struct": 7249, "awar": 48841, "\u0120counsel": 7739, "itatively": 48668, "\u0120Hayward": 41960, "strous": 22501, "\u0120obser": 7961, "\u0120wages": 9400, "ultan": 30454, "td": 8671, "\u0120colleg": 13303, "\u0120arm": 3211, "\u0120appe": 35787, "\u0120ITS": 42437, "Amid": 43541, "\u0120recognizes": 21570, "\u0120Quan": 42312, "\u0120cholesterol": 18759, "\u0120whis": 12563, "\u0120262": 35404, "\u0120Petroleum": 39970, "\u0120archive": 15424, "\u0120Rosenthal": 49859, "\u0120Celsius": 34186, "\u0120inhib": 11062, "odynamics": 44124, "\u0120confined": 19733, "\u0120fetal": 27652, "sym": 37047, "reprene": 10406, "\u0120Extra": 17221, "\u0120pending": 13310, "\u0120Brighton": 33193, "\u0120Gu": 1962, "\u0120apparently": 5729, "\u0120Bethlehem": 46930, "ang": 648, "lder": 6499, "\u0120firmly": 14245, "\u0120swamp": 26837, "\u0120Grenade": 47951, "805": 28256, "\u0120survey": 5526, "\u0120Baylor": 28245, "odiac": 40096, "\u0120Tweet": 18752, "tar": 18870, "\u0120applicable": 9723, "\u0120overly": 17698, "\u0120IBM": 19764, "\u0120Grateful": 44249, "Italian": 45696, "ONDON": 47383, "below": 35993, "orst": 29422, "\u0120prescriptions": 34092, "ious": 699, "aping": 9269, "\u0120hitters": 34113, "Member": 27608, "Mas": 38224, "\u0120Howell": 47554, "Wr": 39213, "male": 22606, "\u0120proposals": 11628, "\u0120Abuse": 24221, "\u0120Mia": 32189, "\u0120fatig": 46291, "\u0120tensions": 15733, "git": 18300, "Authent": 47649, "\u0120Simple": 17427, "\u0120muster": 36394, "ottest": 24879, "\u0120Johnson": 5030, "\u0120Reggie": 36586, "capacity": 42404, "IRT": 48771, "\u0120SPECIAL": 38846, "\u0120tooltip": 49472, "\u0120Introduced": 16745, "\u0120Anyway": 21836, "\u0120index": 6376, "\u0120uncertainties": 36553, "inging": 14146, "\u0120Jerome": 33617, "\u0120ancient": 6156, "123": 10163, "algia": 47111, "\u0120Waterloo": 36782, "\u0120pond": 16723, "fourth": 49393, "Where": 8496, "\u0120repent": 28787, "\u0120em": 795, "\u0120premiere": 19245, "lav": 18809, "\u0120pristine": 37293, "\u0120sells": 16015, "\u0120reckon": 43851, "\u0120haw": 23185, "\u0120Hay": 9075, "St": 1273, "\u0120catches": 17591, "782": 46519, "\u0120Integrated": 35432, "\u0120sad": 6507, "\u0120admissions": 25349, "\u0120slides": 19392, "\u0120NON": 44521, "\u0120through": 832, "\\/\\/": 45422, "\u0120theorists": 33142, "\u0120Moral": 39020, "\u0120exaggerated": 25291, "\u0120Studios": 13799, "\u0120brave": 14802, "\u0120stationed": 25967, "\u0120RESP": 47203, "\u0120muff": 27563, "\u0120scripts": 14750, "\u0120disarm": 35526, "vel": 626, "ogging": 30853, "\u0120legion": 41453, "\u0120remed": 20100, "Admin": 46787, "\u0120Highly": 38254, "Lie": 47918, "\u0120resent": 20315, "Ash": 26754, "\u0120congratulations": 45108, "470": 27790, "\u0120Greens": 18753, "Climate": 37649, "\u0120Cato": 44509, "\u0120<[": 29342, "ciplinary": 29386, "\u0120escalating": 32206, "\u0120Meaning": 30563, "\u0120196": 28817, "\u0120Cal": 2199, "chieve": 24957, "odore": 25102, "060": 41322, "balls": 21591, "\u0120conversation": 5273, "\u0120afflicted": 39785, "\u0120UNITED": 49668, "\u0120Bah\u00c3\u00a1": 38218, "\u0120L": 406, "\u0120sewage": 34939, "\u0120substr": 47294, "multiple": 48101, "fashion": 25265, "largest": 28209, "\u0120Poster": 44996, "\u0120piss": 18314, "margin": 36153, "\u0120incons": 12764, "gnu": 41791, "\u0120South": 2520, "\u010a": 198, "\u0120wood": 4898, "\u0120pillow": 28774, "jected": 35408, "\u0120contractor": 17195, "\u0120glowing": 21377, "\u0120optimize": 27183, "\u0120contain": 3994, "\u0120Shim": 31698, "\u0120ridiculous": 11441, "mortem": 46515, "\u0120HDL": 48867, "\u0120es": 1658, "\u0120stretches": 23687, "\u0120implied": 17142, "limit": 32374, "steen": 42580, "\u0120Echoes": 45547, "\u0120grease": 35537, "\u0120startling": 28027, "\u0120obsession": 22286, "\u0120Spawn": 36356, "\u0120Coh": 47222, "\u0120briefings": 44091, "\u0120Ether": 20017, "\u0120perpetuate": 43874, "herry": 13372, "\u0120Sai": 25251, "luence": 23079, "\u0120inexper": 31830, "\u0120Caribbean": 18020, "\u0120favored": 19344, "\u0120kW": 50223, "\u0120paralle": 9315, "512": 25836, "\u01201982": 14489, "\u0120ignition": 37594, "\u0120sound": 2128, "President": 10364, "\u0120Prel": 28887, "unning": 16596, "\u0120rattled": 48588, "\u0120muscular": 27014, "\u0120fan": 4336, "\u0120Ratings": 36826, "\u0120collecting": 13157, "\u0120whose": 3025, "information": 17018, "\u0120inability": 16612, "bodied": 45190, "\u0120Phillip": 29470, "\u0120Shakespeare": 22197, "gae": 25002, "05": 2713, "\u0120opacity": 45912, "inational": 26201, "\u0120obliter": 35722, "\u0120Damon": 33572, "\u0120hurts": 20406, "Shift": 33377, "\u0120complication": 45185, "\u0120Opportunity": 32675, "\u0120expected": 2938, "La": 14772, "\u0120compile": 17632, "\u0120VER": 33310, "\u0120Melee": 21058, "\u0120documentaries": 43014, "\u0120Virt": 11285, "\u0120Leader": 10540, "\u0120bear": 6842, "\u0120thinkers": 30504, "\u0120Related": 19809, "idi": 19830, "borne": 13555, "\u0120perish": 42531, "assion": 11857, "Valid": 47139, "\u0120Photographer": 43809, "\u0120restore": 11169, "encers": 42288, "\u0120Rankings": 40284, "Ul": 47920, "\u0120Attorney": 8123, "\u0120Vermont": 16033, "\u0120midway": 37720, "\u0120hamstring": 36744, "\u0120museums": 30794, "518": 44085, "amy": 14814, "\u0120loos": 37222, "\u0120nig": 44873, "\u0120nano": 38706, "zed": 8863, "\u0120func": 25439, "\u0120Hem": 15617, "arent": 1580, "\u0120fry": 32959, "\u0120Bake": 38493, "\u0120reopened": 37415, "\u0120Memorial": 14861, "oru": 27786, "\u00cf\u0124": 35558, "\u00b6\u0127": 41678, "Cart": 43476, "addle": 37382, "Altern": 23081, "\u0120bright": 6016, "kit": 15813, "\u0120Schools": 20357, "\u0120rocky": 26898, "ikers": 24913, "\u0120ranged": 17929, "\u0120Faces": 48463, "break": 9032, "Cl": 2601, "\u0120zoo": 26626, "\u0120instant": 9113, "\u0120frontal": 30424, "\u0120Then": 3244, "\u0120skull": 14511, "Tyler": 46807, "\u0120oppressed": 25765, "ighty": 14400, "Haw": 33055, "330": 26073, "\u0120SEAL": 36160, "\u0120miscon": 27849, "\u0120ap": 2471, "\u0120dollar": 8872, "\u0120Cannabis": 28838, "165": 20986, "orse": 7615, "Sc": 3351, "\u0120Avenger": 45270, "\u0120responsive": 21802, "\u0120demonstrators": 25016, "\u0120Suc": 47352, "\u0120inaccessible": 40604, "\u0120lapse": 42689, "\u0120Symbol": 38357, "arenthood": 17117, "\u0120Capcom": 35936, "\u0120resurrect": 27603, "\u0120AM": 3001, "utter": 10381, "\u0120318": 39320, "\u00ef\u00bf\u00bd\u00ef\u00bf\u00bd\u00ef\u00bf\u00bd\u00ef\u00bf\u00bd": 12100, "ste": 4169, "optional": 25968, "\u0120fant": 5113, "\u0120becomes": 4329, "Fighting": 46375, "\u0120crop": 13833, "\u0120Intro": 37219, "\u0120Dove": 48595, "\u0120dimension": 15793, "\u0120conflic": 4183, "\u0120weakest": 34968, "way": 1014, "\u0120proof": 6617, "\u0120anymore": 7471, "uid": 27112, "\u0120Train": 16835, "\u0120Concern": 32265, "\u0120BACK": 28767, "\u0120cyber": 10075, "\u0120indic": 2699, "\u0120Valve": 22479, "\u0120advertisement": 15422, "\u0120Perez": 23058, "\u0120penetrating": 41456, "orio": 40974, "\u0120disgu": 17360, "\u0120Saf": 6895, "ati": 7246, "\u0120Ballard": 45415, "\u0120chicks": 43803, "\u0120rug": 14477, "\u0120Clarkson": 40524, "Net": 7934, "eering": 48066, "\u0120compact": 16001, "\u0120lineup": 12750, "\u0120specimen": 31674, "\u0120weight": 3463, "\u0120delegates": 15265, "\u0120bends": 44370, "\u0120undis": 24149, "\u0120hp": 27673, "verning": 13974, "\u00e8\u00bb": 43102, "\u0120processed": 13686, "\u0120propri": 15159, "prim": 19795, "\u0120Noel": 33905, "\u0120hyper": 8718, "witz": 28155, "\u0120entr": 24481, "\u0120detachment": 42925, "\u0120Kinder": 46832, "\u0120governed": 21825, "\u0120Hy": 6707, "884": 40353, "Die": 32423, "\u0120thoughts": 6066, "\u0120Courtesy": 22984, "abre": 46241, "Joe": 19585, "\u0120submerged": 37930, "\u0120theirs": 22021, "ignment": 16747, "\u0120Smithsonian": 40131, "\u0120trim": 15797, "oxy": 23536, "\u0120mell": 33748, "ostic": 15132, "\u0120boxer": 38660, "\u0120societies": 14515, "OUP": 27755, "\u0120band": 4097, "\u0120praying": 26002, "liest": 11318, "\u0120Hil": 24410, "arthed": 36370, "olithic": 30764, "\u0120Edwin": 37016, "\u0120Peggy": 40910, "\u0120ridic": 8817, "among": 35131, "\u0120Reuters": 8428, "\u0120Clint": 21549, "\u0120Horse": 18455, "\u0120perfect": 2818, "Blocks": 45356, "\u0120Avenue": 8878, "\u0120Turner": 15406, "\u0120perished": 43181, "\u0120roomm": 26255, "usually": 23073, "\u0120Dirt": 49124, "\u0120Prin": 7489, "\u0120county": 7968, "\u0120hat": 6877, "\u0120cargo": 15892, "\u0120Highlands": 46411, "\u0120superb": 21840, "could": 24089, "cipl": 6671, "worthy": 18275, "\u0120SD": 9834, "ality": 1483, "\u0120instrumental": 21543, "\u0120charitable": 21803, "\u0120stockp": 29534, "\u0120arrays": 26515, "\u0120Thatcher": 31706, "asion": 4247, "\u0120sneak": 20528, "zone": 11340, "UA": 34970, "Austin": 40245, "annon": 8825, "\u0120Bubble": 33691, "\u0120Monster": 12635, "W": 54, "otal": 4997, "\u0120lenses": 18405, "////////": 16150, "\u0120monsters": 10963, "kiss": 41304, "\u0120grief": 18522, "554": 44218, "\u0120dissenting": 39527, "\u0120Empires": 35102, "\u0120spacecraft": 16807, "sur": 11793, "\u0120Westminster": 20353, "Microsoft": 15905, "Dom": 24510, "\u0120adorned": 41860, "\u0120Ter": 3813, "rise": 17163, "\u0120backs": 12983, "abil": 14991, "\u0120Chim": 28466, "\u0120UFOs": 49863, "\u0120melts": 48813, "\u0120Freem": 39587, "\u0120Dwell": 42979, "\u0120Ivy": 27386, "did": 20839, "kson": 46505, "\u0120vig": 10539, "\u0120Overt": 46067, "\u0120economy": 3773, "\u0120uncomp": 34318, "\u0120Guan": 42305, "Staff": 31449, "\u0120crushed": 18577, "\u0120voyage": 31505, "\u0120uses": 3544, "\u0120owed": 21057, "\u0120households": 12503, "\u0120regularly": 7987, "\u0120ICO": 30674, "\u0120Huge": 35225, "\u0120Team": 4816, "ategories": 26129, "\u0120entrepreneurship": 44436, "\u0120Environmental": 13272, "\u0120rob": 3857, "\u00e3\u0124\u00a8\u00e3\u0125\u00ab": 46948, "\u0120Hyde": 30785, "\u0120Lem": 20607, "geries": 30230, "\u0120conducive": 45645, "\u0120Superman": 14951, "continue": 43043, "\u0120Triumph": 41337, "\u0120figures": 5538, "hop": 8548, "Tele": 31709, "Hyp": 49926, "\u0120Mexico": 5828, "hra": 45056, "uing": 4250, "\u0120secretaries": 49431, "\u0120diligent": 47334, "\u0120cocaine": 15144, "\u0120Sturgeon": 43623, "\u0120Comput": 22476, "crypt": 29609, "\u0120disrespectful": 41987, "Ns": 47503, "Employ": 29733, "\u0120stands": 6296, "\u0120academia": 34326, "uilding": 6963, "\u0120cryptocurrencies": 29760, "\u0120mileage": 33935, "\u0120reservoir": 22115, "\u0120POST": 24582, "\u0120wonderfully": 33138, "\u0120Audio": 13491, "\u0120Establishment": 37132, "\u0120rows": 15274, "\u0120ES": 13380, "\u0120precip": 18812, "\u0120violently": 25856, "Jake": 43930, "\u0120Registered": 27049, "bies": 29846, "ForgeModLoader": 24934, "\u0120Pac": 6319, "rill": 20190, "\u0120REPORT": 39099, "php": 10121, "\u0120turnaround": 34217, "\u0120ions": 39270, "\u0120unveiling": 41438, "\u0120permitted": 10431, "\u0120packaged": 25555, "\u0120Powell": 19675, "\u0120Simply": 17973, "\u0120proletariat": 30444, "\u0120factors": 5087, "\u0120Yourself": 42132, "\u0120Varg": 44684, "\u0120drilling": 19747, "6666": 19060, "\u0120addition": 3090, "\u0120far": 1290, "\u0120ticking": 40212, "kB": 38841, "\u01201943": 21577, "\u0120depended": 33785, "\u0120upgraded": 17955, "\u0120mech": 36571, "ordes": 35770, "ization": 1634, "\u0120Nero": 46810, "COLOR": 46786, "ensity": 6377, "\u0120bulbs": 34122, "\u0120hearts": 11954, "\u0120estate": 7964, "\u0120Godzilla": 38104, "\u0120Fishing": 28944, "\u0120volatile": 22750, "About": 8585, "\u0120procedural": 27931, "\u0120hello": 23748, "\u0120fielded": 49407, "annot": 34574, "Albert": 42590, "\u0120Titus": 49207, "\u0120Marble": 36891, "\u0120stripping": 37727, "\u0120missiles": 12798, "\u0120Herod": 48084, "\u0120Vengeance": 37120, "\u0120Starship": 40172, "IJ": 23852, "eded": 15395, "cessive": 45428, "\u0120recipes": 14296, "\u0120Ever": 10776, "430": 31794, "\u0120battling": 20581, "\u0120Democrats": 4956, "\u0120SHOULD": 40312, "\u0120troopers": 38817, "\u0120Supported": 36848, "oop": 11224, "ject": 752, "\u0120mechanics": 12933, "\u0120elevator": 20932, "\u0120Summers": 36776, "\u0120Benson": 33940, "\u0120plugged": 30601, "\u0120Paste": 23517, "\u0120Maritime": 45411, "\u0120municipal": 13474, "\u0120assassination": 18898, "Slow": 36423, "\u0120breaches": 31523, "\u0120Lansing": 49860, "\u0120unpaid": 24268, "\u0120quit": 11238, "rance": 8132, "\u0120updated": 6153, "\u0120break": 2270, "\u0120Open": 4946, "Guard": 24502, "irlwind": 32785, "\u0120initial": 4238, "\u0120hardcore": 22823, "\u0120grandson": 31845, "\u0120NRL": 41695, "iku": 28643, "abilities": 5738, "\u0120Gaz": 21347, "\u0120Stress": 36957, "enthal": 34728, "max": 9806, "\u0120Theater": 22207, "\u0120colonists": 43430, "\u0120indigenous": 17673, "upper": 45828, "\u0120opt": 2172, "\u0120Companion": 30653, "\u0120Unch": 34867, "\u0120Allows": 40402, "\u0120antit": 26092, "\u0120bullied": 33632, "cycl": 15539, "\u0120Earl": 21647, "\u0120clicked": 28384, "\u0120charities": 23980, "Camera": 35632, "es": 274, "\u0120Conver": 35602, "\u0120cannabinoid": 48175, "\u0120Pis": 42021, "uren": 23532, "\u0120Sw": 2451, "\u0120mitigation": 33585, "\u0120online": 2691, "\u0120Fl": 1610, "\u0120domination": 24288, "oglobin": 49835, "ieg": 15702, "cknow": 5319, "\u0120dmg": 41323, "cycle": 13696, "\u0120Giov": 36089, "\u0120Bills": 20209, "\u0120pilgr": 23177, "\u0120exclusively": 11541, "\u0120supplement": 10327, "\u0120Hon": 8835, "\u0120delicate": 19217, "341": 33660, "\u0120Farage": 33904, "\u0120F": 376, "\u0120totality": 44861, "\u0120milestone": 23554, "\u0120Crisis": 18660, "\u0120toured": 44035, "157": 18458, "\u0120liabilities": 25333, "\u0120debts": 20250, "\u0120inclusive": 19889, "\u0120bet": 731, "\u0120Holdings": 31681, "\u0120cord": 15050, "\u0120disgr": 19329, "\u0120mystic": 37311, "\u0120Randy": 21248, "\u0120flowing": 17609, "udeb": 46092, "\u0120disbelief": 29894, "\u0120threatened": 8556, "\u0120enact": 10865, "\u0120preseason": 18913, "\u0120invade": 30419, "opped": 38333, "\u0120Piece": 27053, "utive": 8827, "\u0120surgery": 8185, "\u0120NAME": 36751, "Simple": 26437, "\u0120After": 2293, "\u0120degrees": 7370, "\u0120nor": 4249, "\u0120drop": 4268, "\u0120certification": 18094, "\u0120solving": 18120, "\u0120levy": 35783, "sent": 34086, "\u0120item": 2378, "\u0120terrorism": 8649, "onew": 44181, "\u0120341": 43155, "\u0120gardening": 46072, "era": 8607, "egal": 39839, "\u0120unf": 3684, "\u0120neoc": 29938, "\u0120publish": 7715, "\u0120unlucky": 39411, "\u0120Amsterdam": 24377, "ado": 4533, "ildo": 39583, "wich": 11451, "\u0120foolish": 19538, "\u0120unlimited": 15822, "\u0120outlets": 12527, "\u0120injection": 16954, "Yet": 11486, "\u0120surrog": 27552, "Gun": 22993, "\u0120burying": 48360, "brates": 44835, "\u0120prin": 6059, "\u0120normalized": 39279, "aleb": 32100, "asis": 17765, "\u0120clauses": 31485, "uki": 11308, "aer": 25534, "\u0120Road": 5567, "\u0120388": 43550, "\u0120exceedingly": 32436, "\u0120broad": 3154, "\u0120Rarity": 21948, "\u0120endeavour": 47054, "\u0120Lore": 15639, "inn": 3732, "\u00e1\u00b9": 26292, "\u0120Highest": 41864, "\u0120maple": 31377, "AT": 1404, "\u0120intentionally": 16464, "adden": 38014, "\u0120tricked": 42608, "\u0120stewards": 38030, "\u0120bisc": 36228, "port": 634, "\u0120Sv": 44343, "hower": 33539, "ROR": 16411, "\u0120Gow": 41396, ">)": 43734, "\u0120imaginable": 40758, "\u0120disagreed": 27884, "\u0120OH": 18723, "\u0120orcs": 46448, "construct": 41571, "\u0120puzzled": 36907, "\u0120Horizons": 39519, "\u0120Previous": 21801, "atson": 13506, "\u0120pigeon": 46387, "\u0120agreeing": 24093, "\u0120renal": 44375, "\u0120Suarez": 39992, "\u0120squash": 34613, "Indiana": 49153, "uable": 7153, "Material": 17518, "\u01201100": 36566, "\u0120Bucks": 29751, "Feb": 15146, "\u0120hectares": 43025, "\u0120defending": 11749, "\u0120INS": 29194, "protein": 48693, "reys": 46703, "Thompson": 48942, "\u0120unsure": 22147, "\u0120weeks": 2745, "Alexander": 38708, "\u0120Ox": 10736, "uyomi": 40012, "\u0120Diary": 35911, "\u0120reps": 20982, "\u00e3\u0123\u00a3": 33180, "\u0120lipstick": 41429, "\u0120techn": 1579, "\u0120Rhino": 47759, "\u0120titled": 11946, "burg": 7423, "\u0120clouds": 15114, "\u0120centres": 19788, "\u0120Dex": 16750, "\u0120inflic": 30333, "\u0120polymer": 30528, "\u0120nond": 30745, "\u0120Awakening": 28832, "\u0120particle": 18758, "\u0120Crow": 15502, "642": 41290, "\u0120Ave": 12761, "\u0120Goodell": 41648, "hammad": 14875, "\u0120aliens": 16269, "\u0120Judiciary": 22351, "\u0120banished": 43926, "\u0120proteins": 15568, "\u0120apr": 46593, "\u0120movements": 8650, "\u0120divorce": 13609, "\u0120Waiting": 39669, "\u0120laugh": 6487, "\u0120Cabin": 16804, "\u0120strikeouts": 36431, "College": 38951, "\u0120Park": 3250, "\u0120Yorkers": 38244, "\u0120viability": 32141, "\u0120generally": 4143, "\u0120stepping": 17413, "%:": 48529, "valid": 12102, "\u0120contributions": 9284, "\u0120Lux": 17145, "215": 23349, "\u0120heading": 9087, "\u0120Rept": 44319, "liter": 17201, "\u0120compromised": 19066, "\u0120MD": 10670, "aults": 13185, "\u0120McM": 15359, "\u0120Consequently": 24982, "\u0120doses": 16376, "\u0120subsid": 7905, "\u0120Geological": 34246, "akeru": 43246, "\u0120tempor": 10042, "\u0120Poke": 41163, "\u0120Recipe": 26694, "\u00e2\u013e": 26486, "\u0120setbacks": 43235, "\u0120autonomy": 21851, "\u0120Further": 7735, "\u0120languages": 8950, "\u00d5": 145, "\u0120critical": 4688, "\u0120698": 39861, "\u0120helium": 43142, "\u0120pet": 4273, "\u0120impulses": 37505, "\u0120\"+": 43825, "\u0120Liberties": 34226, "\u0120coils": 41331, "\u0120Hubble": 40455, "''.": 35384, "TEXTURE": 47648, "vard": 10187, "mother": 13552, "\u0120proportion": 9823, "\u0120fraud": 7394, "minist": 2201, "\u0120manages": 15314, "\u0120Pittsburgh": 12767, "\u0120Cere": 26532, "Mount": 35452, "\u0120bigot": 25015, "gain": 48544, "\u0120median": 14288, "irin": 47388, "\u0120Ammo": 31073, "ixir": 32345, "\u0120261": 39166, "\u0120amplifier": 33382, "\u0120Sovereign": 44964, "Actually": 26417, "\u0120Donald": 3759, "\u0120hippocampus": 38587, "\u00e3\u0125\u0128\u00e3\u0124\u00a3": 44431, "\u0120fulfilled": 23085, "URN": 27064, "Ball": 23410, "\u0120urgency": 25615, "\u0120Demons": 38539, "\u0120reeling": 45341, "\u0120NVIDIA": 15127, "eters": 7307, "\u0120guarantee": 9149, ":": 25, "Balance": 45866, "VERTIS": 18000, "were": 22474, "ord": 585, "ori": 10145, "\u0120adherence": 34721, "\u0120restruct": 27596, "donald": 40915, "\u0120Hyundai": 47962, "Bio": 42787, "\u0120Helpful": 21656, "etary": 8527, "uly": 2062, "\u0120Fried": 15442, "\u0120Browse": 44775, "INGS": 20754, "\u0120only": 691, "uates": 12632, "\u0120quarterly": 27868, "\u0120liberated": 35112, "Deep": 29744, "\u0120graz": 32703, "coe": 49270, "\u0120praised": 15342, "Boot": 36476, "full": 12853, "\u0120Fin": 4463, "concert": 48415, "plus": 9541, "\u0120Karl": 15415, "\u0120perilous": 48325, "Dutch": 49717, "attle": 1999, "UME": 38340, "Maximum": 40541, "\u0120sweep": 16085, "\u0120beliefs": 9056, "\u0120https": 3740, "eff": 14822, "\u0120tir": 48965, "developed": 33082, "\u0120modeling": 21128, "boats": 46058, "\u0120technological": 14614, "\u0120fascination": 35556, "\u0120sympath": 23860, "\u0120Agric": 15407, "\u0120marginalized": 31670, "\u0120god": 5770, "\u0120undo": 23981, "\u0120Blow": 26588, "ushing": 8023, "\u0120cooking": 10801, "\u0120Osborne": 29667, "posted": 40578, "linger": 33550, "\u0120Assault": 15590, "\u0120reminded": 14516, "\u0120fringe": 26821, "rued": 21556, "\u0120age": 2479, "\u0120panc": 22154, "\u0120Riley": 22637, "\u0120underpin": 42185, "Cre": 12443, "\u0120sec": 792, "\u0120Oil": 11474, "\u0120unexpl": 31286, "\u0120incidentally": 42258, "Priv": 20184, "\u0120Soldier": 20104, "\u0120Mon": 2892, "\u0120Simpson": 20531, "\u0120Everybody": 23080, "\u0120Appearance": 43436, "krit": 44531, "\u0120assuming": 13148, "Broad": 30507, "\u0120cavern": 33932, "\u0120rupt": 31580, "\u0120$$": 32382, "\u0120engulfed": 40997, "View": 7680, "Nine": 37603, "\u0120LOOK": 48045, "\u0120throw": 3714, "\u0120pitched": 21730, "\u0120emphasizes": 31648, "regor": 32288, "\u0120retarded": 34445, "\u0120overtly": 45118, "something": 18927, "\u0120assures": 45837, "\u0120Practice": 19939, "\u0120scandal": 10731, "\u0120hearings": 18921, "esp": 9774, "\u0120Stead": 45445, "Bet": 13056, "\u0120And": 843, "same": 31642, "\u0120owning": 23107, "Used": 38052, "\u0120jew": 12711, "\u0120Got": 11853, "\u0120Nora": 32561, "\u0120Wiggins": 44633, "Tokens": 22906, "ju": 14396, "\u0120metric": 18663, "context": 22866, "recogn": 26243, "535": 44465, "\u0120SOL": 36817, "\u0120Kw": 31767, "\u0120Math": 16320, "Feel": 35114, "\u0120challenger": 32127, "\u0120Neuro": 13782, "\u0120apocalyptic": 41792, "\u0120eg": 29206, "porter": 26634, "Pope": 46172, "\u0120Trad": 8397, "Frames": 35439, "oston": 5744, "\u0120nominated": 19332, "\u0120nuisance": 36212, "\u0120verbally": 38119, "\u0120trainers": 28514, "\u0120accountability": 18241, "cent": 1087, "Most": 6943, "\u0120Jared": 19116, "\u0120Reck": 42331, "\u0120liber": 3655, "\u0120trough": 45047, "\u0120Oman": 41782, "\u0120succ": 17458, "\u00e2\u012b": 35705, "kr": 38584, ")\"": 16725, "\u0120programmes": 23698, "\u0120lean": 10904, "\u0120archives": 22415, "\u0120industries": 11798, "\u0120concede": 33760, "pure": 37424, "massive": 49777, "hol": 3937, "\u0120diarr": 30409, "\u0120Collective": 29128, "\u0120frivol": 43418, "iuses": 44666, "\u0120introductory": 33982, "\u0120LINK": 34426, "\u0120Arkansas": 14538, "\u0120Sa": 10318, "\u00e6\u013e": 17312, "Fa": 50110, "\u0120circuit": 10349, "\u0120Rice": 13823, "\u00d1\u0122": 21169, "\u0120blonde": 21541, "Ont": 45984, "undle": 31249, "\u0120resistance": 6625, "licensed": 36612, "\u0120defender": 13191, "\u0120risking": 37234, "\u0120candles": 32268, "cular": 10440, "\u0120patients": 3871, "\u0120Nig": 13732, "iseum": 38277, "mble": 11306, "\u0120Knot": 42572, "\u0120Magnetic": 44629, "mic": 9383, "\u0120thrilling": 31610, ".>>": 32756, "\u0120daughter": 4957, "shirt": 15600, "\u0120explosions": 23171, "\u0120judged": 19589, "\u0120Oz": 18024, "\u0120group": 1448, "\u0120routinely": 16231, "<|endoftext|>": 50256, "flu": 35522, "\u0120Vista": 25160, "\u0120Merchants": 44682, "\u0120diversity": 9573, "\u0120definition": 6770, "\u0120indicates": 9217, "\u0120SG": 26147, "\u0120reconcil": 40534, "pletion": 24547, "956": 50148, "\u0120impunity": 37610, "\u0120democracy": 7996, "\u0120Vendor": 39896, "pee": 39463, "uberty": 34237, "\u0120spectacle": 27519, "\u0120Pub": 8525, "\u0120guts": 31875, "modules": 18170, "\u0120Seeds": 41833, "\u0120Politico": 27096, "\u0120Nah": 35201, "\u0120communications": 8062, "neath": 13725, "act": 529, "\u0120smoke": 7523, "\u0120Mah": 8882, "\u0120istg": 36940, "\u0120practiced": 19893, "\u0120Reincarn": 15083, "\u0120pg": 23241, "\u0120incredibly": 8131, "\u0120communal": 26757, "\u0120enhances": 32479, "deen": 39060, "\u0120uncons": 13962, "\u0120kg": 14211, "\u0120wall": 3355, "\u0120Jenna": 45377, "\u0120Station": 9327, "\u0120Examiner": 35855, "168": 14656, "oken": 4233, "53": 4310, "\u0120157": 23313, "\u0120Ol": 6544, "\u0120neb": 45508, "duty": 26278, "\u0120forcing": 10833, "TM": 15972, "Club": 42350, "\u00d8\u00b3": 45692, "\u00d7\u00a9": 50227, "\u0120YOU": 7013, "Beer": 49802, "uden": 44452, "together": 45525, "\u0120abbre": 28873, "\u0120Shaun": 35188, "reens": 5681, "\u0120Seah": 16214, "\u0120Morton": 35766, "\u0120ministerial": 45555, "mers": 11056, "\u0120Asia": 7229, "Mil": 24857, "\u0120Eat": 27574, "\u0120debacle": 40943, "\u0120twisted": 19074, "Ep": 13807, "bour": 6084, "Research": 25104, "fn": 22184, "\u0120optimizing": 45780, "isel": 36811, "\u0120email": 3053, "\u0120drone": 12170, "\u0120noted": 4367, "\u0107": 195, "\u0120replay": 24788, "\u0120mitochond": 25387, "melon": 45690, "\u0120McCull": 45026, "pei": 33265, "ocrin": 39913, "SEE": 36078, "\u0120meats": 32219, "\u0120aspirations": 27337, "mounted": 29728, "\u00e3\u0125\u012a": 13298, "\u0120granddaughter": 46458, "Business": 24749, "AAAAAAAA": 43488, "\u0120Surely": 28417, "\u0120Recipes": 44229, "PH": 11909, "However": 4864, "\u0120projector": 43396, "\u0120Thief": 23471, "Whoever": 47896, "amus": 25509, "esy": 9259, "\u0120tempted": 26194, "\u0120plots": 21528, "\u0120Citation": 42317, "hani": 29839, "change": 3803, "adding": 26872, "\u0120expended": 37328, "\u0120confront": 7239, "\u01201": 352, "\u0120cellar": 45164, "\u0120shell": 7582, "Exit": 30337, "rights": 28046, "roying": 38295, "RGB": 36982, "\u0120specially": 20905, "\u0120newsletter": 13129, "jiang": 39598, "ecd": 21142, "\u0120bould": 47069, "\u0120Citiz": 12662, "respons": 16733, "\u0120horns": 26771, "\u0120Ent": 7232, "Also": 7583, "\u0120disgrace": 27690, "\u0120punched": 25436, "\u0120Code": 6127, "DD": 16458, "deg": 13500, "aran": 19173, "\u0120Gallup": 29183, "\u0120Miller": 7920, "?'": 8348, "\u0120swollen": 37327, "\u0120nab": 47822, "\u0120router": 20264, "eor": 13492, "\u0120disputes": 18563, "\u0120bulls": 40317, "iquid": 6394, "\u0120marg": 6145, "\u01201956": 25190, "\u0120Six": 9699, "release": 20979, "\u0120ESC": 40251, "\u0120',": 46083, "\u0120congregation": 28862, "Grad": 42731, "\u0120polygamy": 43111, "\u0120obsolete": 26533, "\u0120Trafford": 41107, "\u0120adamant": 36009, "\u0120belonged": 19611, "stained": 44279, "\u0120Presidential": 17471, "\u0120berries": 36322, "\u0120Currency": 20113, "\u0120EA": 19814, "\u0120rm": 42721, "uked": 48809, "\u0120Jays": 23288, "dit": 5266, "\u0120lets": 8781, "@#&": 48193, "ales": 2040, "\u0120sett": 2970, "\u0120Spiegel": 46902, "\u0120Meal": 49636, "\u0120Institute": 5136, "\u0120protocols": 19565, "\u0120Buddh": 20921, "\u0120surrounds": 36550, "\u0120ib": 24283, "ake": 539, "gold": 24267, "0000000": 24598, "\u0120revamped": 43814, "\u0120Armory": 45388, "cers": 7999, "\u0120Dian": 19326, "\u0120Arctic": 15723, "roc": 12204, "\u0120contrace": 17473, "\u0120Rail": 12950, "\u0120Jace": 49674, "\u0120pretend": 16614, "\u0120mid": 3095, "\u0120twe": 4184, "\u0120Lucky": 27963, "hari": 49573, "\u0120sen": 3308, "\u0120ARC": 43928, "\u0120paved": 31285, "\u0120190": 19884, "oph": 2522, "\u0120provoking": 45625, "\u0120equ": 1602, "\u0120retrieving": 50122, "\u0120provided": 2810, "ATCH": 11417, "\u0120Mobility": 34505, "BN": 15766, "\u0120Language": 15417, "\u0120finish": 5461, "\u0120betrayal": 29355, "\u0120configuration": 8398, "Ha": 23303, "Demon": 35477, "\u0120tendencies": 25671, "\u0120hog": 40476, "\u0120(?,": 32843, "\u0120STOP": 44934, "\u0120non": 1729, "Father": 34823, "\u0120\u00e8": 5525, "\u0120proves": 17021, "own": 593, "\u0120squid": 45126, "\u0120HTTPS": 38288, "\u0120recol": 26330, "\u0120shoulder": 8163, "\u0120quir": 26575, "inating": 6010, "\u0120engages": 32902, "\u0120rush": 10484, "\u0120Franz": 38323, "\u0120caricature": 47346, "\u0120Dish": 33275, "ushed": 7474, "Hyper": 38197, "\u0120interpersonal": 43146, "access": 15526, "adra": 49456, "\u0120mis": 2984, "\u0120ethic": 29520, "fill": 20797, "\u0120buffs": 34636, "\u0120Kurt": 20642, "\u0120constituency": 28280, "\u0120Jones": 5437, "\u0120immensely": 29731, "azy": 12582, "\u0120trace": 12854, "\u0120CLIENT": 45148, "\u0120award": 5764, "\u0120Blooming": 44026, "\u01201897": 49429, "\u0120sung": 23568, "\u0120superflu": 48713, "\u0120futile": 35322, "rals": 30691, "Figure": 11337, "Auto": 27722, "\u0120scientifically": 32627, "ivably": 47994, "\u0120demise": 25403, "\u0120glam": 27240, "\u0120ming": 42434, "\u0120Melody": 38906, "\u0120Queensland": 21105, "\u0120WITH": 13315, "\u0120girls": 4813, "aced": 2286, "\u0120Addiction": 40187, "\u0120agre": 2477, "\u0120imperative": 23602, "\u0120Satellite": 33530, "\u0120blocker": 38731, "gmail": 14816, "\u0120Wick": 36029, "gress": 5914, "\u0120cas": 6124, "\u0120med": 1117, "lus": 41790, "\u0120thresholds": 40885, "regnancy": 39982, "\u0120MIC": 35878, "\u0120chemist": 47898, "\u0120Innov": 43405, "\u0120departures": 50050, "\u0120Bry": 9092, "\u0120Mal": 4434, "\u0120immediate": 7103, "\u0120294": 41235, "mult": 16680, "276": 27988, "Playing": 36530, "stable": 31284, "\u0120whereby": 23482, "oad": 1170, "JJ": 32178, "414": 37309, "\u0120ItemLevel": 34448, "\u0120Ler": 31831, "\u0120brewed": 40163, "Cho": 22164, "\u0120Plex": 47176, "\u0120bubbles": 25037, "\u0120Yi": 26463, "oub": 12944, "\u0120nas": 25221, "\u0120graduating": 30024, "\u0120ec": 9940, "erences": 4972, "\u0120UW": 33436, "ionic": 26523, "GUI": 40156, "\u0120collaborating": 38152, "WIND": 28929, "aturally": 7436, "\u0120portal": 17898, "\u0120630": 44505, "\u0120coerc": 24029, "\u0120Hatt": 48509, "qa": 20402, "typ": 28004, ")-": 13219, "\u0120Notting": 33615, "\u0120transferring": 26140, "\u0120recurring": 24824, "buquerque": 36461, "\u0120decaying": 49240, "\u0120switch": 5078, "visory": 41783, "ole": 2305, "it\u00c3\u00a9": 43816, "\u0120Although": 4900, "\u0120latter": 6846, "OY": 21414, "\u0120tox": 8293, "\u01201024": 28119, "\u0120chef": 21221, "\u0120perpetrated": 35524, "\u0120Passage": 46169, "uese": 20506, "Pool": 27201, "andise": 18888, "\u0120intense": 8157, "din": 25194, "\u0120Coalition": 15135, "Jack": 14295, "\u0120filled": 5901, "\u0120alleviate": 30885, "raining": 24674, "OH": 12096, "\u0120unreliable": 29954, "\u0120Occupations": 48227, "\u0120Significant": 49631, "ishy": 49785, "\u0120precincts": 47564, "horn": 25311, "bas": 12093, "\u0120interacted": 49236, "\u0120Henderson": 22016, "\u0120untreated": 41539, "\u0120turn": 1210, "\u0120England": 4492, "\u0120admins": 44563, "\u0120grenade": 26168, "\u0120Tyr": 14319, "Water": 19184, "\u0120950": 38384, "\"?": 13984, "\u0142": 254, "\u0120eagerly": 30130, "\u0120cemetery": 27316, "\u0120Lounge": 36333, "\u0120graphics": 9382, "aterial": 2273, "\u0120Hollow": 18710, "\u0120rivers": 18180, "no": 3919, "\u0120eaves": 42174, "\u0120NSW": 23438, "\u0120Dan": 6035, "input": 15414, "\u0120Beauty": 20774, "\u012052": 6740, "\u0120Bunny": 28683, "\u0120Resort": 28345, "sort": 30619, "\u0120Secondary": 29521, "put": 1996, "actus": 34144, "\u0120augmented": 30259, "\u0120photoc": 49857, "\u0120Nish": 48438, "\u0120Baghdad": 19761, "\u0120dst": 29636, "\u0120locked": 8970, "needed": 27938, "\u0120Cros": 26942, "\u0120Ethiop": 23230, "\u0120strapped": 37625, "INA": 28893, "\u0120induce": 21155, "775": 34483, "\u0120Reich": 24560, "Er": 9139, "\u0120Dangerous": 29892, "\u0120primitive": 20049, "\u0120Bosnia": 34292, "Community": 20012, "\u0120SIL": 47551, "NA": 4535, "\u0120exits": 30151, "\u0120shops": 12437, "\u0120dissatisfaction": 41393, "ithe": 31470, "\u0120aber": 42499, "\u0120greatness": 27951, "help": 16794, "animate": 45685, "\u0120playful": 34264, "went": 19963, "\u0120referring": 9759, "nick": 17172, "\u0120Graphics": 19840, "\u0120Short": 10073, "\u0120vim": 43907, "imgur": 19791, "yd": 5173, "\u0120motors": 24699, "Oil": 44142, "\u00e2\u0138\u00ac\u00e2\u0138\u00ac": 49843, "\u0120box": 3091, "\u0120Saras": 40457, "\u0120EMP": 38144, "aley": 16730, "\u0120boats": 16659, "\u0120Geek": 33639, "\u0120stret": 5759, "\u0120)))": 47282, "\u0120supers": 22754, "\u0120Rx": 49715, "FP": 5837, "ogo": 24076, "\u0120trend": 5182, "\u0120place": 1295, ",)": 35751, "\u0120rac": 3444, "\u0120Kn": 6102, "ifestyle": 42004, "\u0120Romania": 23356, "ugal": 43778, "^^^^": 39397, "\u0120Democrat": 9755, "\u0120tobacco": 11219, "\u0120gobl": 29646, "raved": 28366, "\u0120Play": 3811, "\u0120Wrath": 28258, "\u0120INFORMATION": 38044, "\u0120modes": 12881, "\u0120exposing": 21294, "mer": 647, "isitions": 29593, "\u0120Turkish": 9663, "\u0120travellers": 37217, "\u0120synthesis": 21263, "itation": 3780, "ray": 2433, "jobs": 43863, "\u0120homeowners": 24692, "\u0120reflect": 4079, "\u0120undesirable": 38117, "289": 27693, "\u0120Bolshe": 28698, "Claim": 44819, "\u0120VAT": 32313, "\u0120Franks": 50099, "\u0120conformity": 39974, "erald": 12573, "\u0120Ghostbusters": 50037, "\u0120teachings": 19564, "\u0120Derrick": 32979, "\u0120inquiries": 23538, "communications": 20860, "Render": 45819, "jab": 27935, "476": 35435, "\u0120facilitating": 36045, "\u0120Notwithstanding": 43970, "\u0120route": 6339, "PB": 49079, "\u0120Patty": 42417, "\u0120san": 5336, "\u0120Grants": 40535, "ilver": 46978, "312": 27970, "\u0120exch": 9933, "holes": 28439, "\u0120Rouhani": 34915, "\u0120wherever": 14530, "\u0120scattered": 16830, "\u0120phosphorus": 48980, "\u0120Behavior": 20181, "\u0120plantations": 49441, "802": 30863, "\u0120Jamal": 46520, "pages": 31126, "love": 23205, "\u0120refers": 10229, "\u0120showing": 4478, "\u0120disapp": 3786, "\u0120crowned": 37492, "olini": 43232, "\u0120mathematician": 48251, "\u0120complied": 35413, "\u0120slashed": 34930, "\u0120defences": 46942, "\u0120comet": 31733, "ecided": 35503, "\u0120Exception": 35528, "\u0120traveled": 14113, "\u0120gasp": 47440, "\u0120horr": 12731, "JECT": 23680, "culus": 17576, "dollar": 22569, "\u0120Bog": 21555, "\u0120Dru": 21295, "ears": 4127, "\u0120fisherman": 48750, "iere": 13235, "club": 18664, "\u0120terminating": 47985, "\u0120aval": 37441, "\u0120Shawn": 25225, "\u0120plun": 19324, "\u0120Lester": 36508, "\u0120Hills": 14379, "\u0120pH": 22918, "\u0120climate": 4258, "\u0120diarrhea": 36004, "\u0120answering": 18877, "\u0120Sle": 19498, "via": 8869, "xml": 19875, "\u0120Division": 7458, "\u0120LSD": 27483, "engu": 13561, "oves": 5241, "\u0120revis": 22124, "\u00e3\u0123\u00ae\u00e9": 33426, "\u00e3\u0125\u013b": 35604, "\u0120magnesium": 33525, "\u0120adjusted": 12328, "\u0120Cinnamon": 48932, "icating": 12364, "\u0120unpredict": 20378, "Mor": 20044, "\u0120hardened": 33034, "\u0120Exec": 8393, "Currently": 21327, "\u0120liberalism": 33108, "\u0120nos": 43630, "\u0120creations": 28443, "Doug": 42297, "\u0120corp": 24614, "****************": 8412, "mental": 37098, "Fr": 6732, "\u0120prostitutes": 32159, "\u0120oblivious": 38603, "canon": 49883, "\u0120cycling": 16259, "\u0120Agriculture": 19717, "\u0120diversion": 34851, "Green": 13719, "\u0120raging": 30082, "\u0120busiest": 42745, "\u0120helicop": 11727, "\u0120cant": 18548, "akia": 21897, "\u0120TRI": 37679, "\u0120pioneering": 36304, "\u0120affected": 5676, "oche": 30848, "\u0120Corker": 44421, "\u0120Between": 14307, "\u0120mon": 937, "\u0120Bio": 16024, "\u0120flips": 45971, "\u0120Cobra": 44305, "\u0120conf": 1013, "\u012031": 3261, "\u0120Clive": 47722, "\u0120groove": 35096, "\u0120deciding": 14615, "450": 17885, "buck": 27041, "\u0120bolster": 26091, "\u0120creamy": 27892, "iven": 1469, "\u0120Ni": 11556, "\u0120TVs": 31596, "768": 30610, "\u0120Tort": 28467, "ppelin": 48425, "\u0120trig": 5192, "YN": 40760, "\u0120portrait": 18560, "\u0120Pope": 13258, "co": 1073, "hawk": 40624, "\u0120seasoning": 46794, "ear": 451, "almost": 28177, "\u0120Ver": 4643, "\u0120tube": 12403, "\u0120Quad": 20648, "\u0120contingency": 38820, "\u0120Rum": 25463, "\u0120earners": 37342, "\u0120robe": 33192, "NASA": 29998, "\u0120386": 48340, "\u0120Register": 17296, "\u0120tx": 27765, "\u0120arom": 19731, "\u0120RS": 19340, "Child": 16424, "mitter": 37974, "\u0120Secret": 3943, "\u0120daemon": 33386, "\u0120Navajo": 47380, "\u0120manifest": 10561, "\u0120Hor": 6075, "Tap": 45081, "\u0120Krug": 39968, "Lock": 25392, "\u0120prolonged": 20573, "\u0120incredible": 8082, "'t": 470, "Young": 20917, "\u0120Accessories": 44171, "\u0120Latinos": 33877, "\u0120agriculture": 14510, "\u0120OB": 25334, "\u0120Allan": 31908, "\u01200000": 17643, "\u0120now": 783, "pull": 31216, "\u0120pm": 9114, "\u0120slip": 13819, "\u0120mir": 5720, "\u0120But": 887, "Draft": 37741, "\u0120Local": 10714, "\u0120JOHN": 39263, "\u0120wired": 28217, "\u0120jealousy": 35394, "\u0120pup": 15552, "affiliated": 46818, "\u0120\u00e2\u0136\u013e": 33468, "\u0120cricket": 18836, "\u0120Lighting": 43150, "aquin": 48734, "arella": 45494, "OOOOOOOO": 47732, "\u0120Hydro": 32116, "\u0120approvals": 45818, "\u0120masterpiece": 30669, "\u0120matte": 36908, "\u0120springs": 24747, "\u0120Denmark": 16490, "flies": 27959, "\u0120Dirty": 32052, "\u0120yesterday": 7415, "\u0120drowning": 32249, "Ja": 33186, "\u0120Rowe": 44842, "\u0120Mrs": 9074, "\u0120bytes": 9881, "\u0120payment": 6074, "women": 25878, "cern": 30903, "expl": 20676, "\u0120PRODUCT": 41458, "\u0120contamination": 22733, "model": 19849, "></": 12240, "\u0120presupp": 45077, "\u0120Lamar": 26907, "\u0120bl": 698, "\u00c3\u0124": 5523, "SEA": 46887, "antz": 46269, "agraph": 6111, "\u0120shaking": 17275, "\u0120DRAGON": 49819, "arte": 32074, "866": 42240, "\u0120flourish": 31147, "bil": 33473, "jar": 9491, "Ak": 33901, "terson": 23192, "helial": 35566, "PART": 30709, "\u0120Finn": 15368, "\u0120fruit": 8234, "ember": 1491, "\u0120bonuses": 17568, "\u01201952": 26352, "ograph": 2384, "\u0120complicity": 48234, "\u0120Siri": 34461, "\u0120convertible": 41637, "\u0120Green": 3469, "\u0120Cob": 14828, "\u0120whistleblowers": 46147, "throp": 11360, "1016": 27956, "off": 2364, "\u0120Upper": 20390, "\u0120Medium": 13398, "\u0120gamer": 26713, "\u0120programs": 4056, "\u0120Naturally": 30413, "\u0120Beans": 49740, "\u0120congreg": 30663, "\u0120attacked": 7384, "aug": 7493, "Depth": 48791, "\u0120North": 2258, "les": 829, "\u0120statue": 15207, "\u0120Torres": 27663, "\u00d8\u00a9": 45632, "\u0120Disaster": 35213, "\u0120Buffer": 47017, "\u0120Arc": 10173, "\u0120Ak": 9084, "\u0120motivations": 28140, "\u0120Discrimination": 49298, "\u0120pope": 26850, "ato": 5549, "soft": 4215, "\u0120realms": 35423, "\u0120responsible": 4497, "\u0120Greeks": 25059, "\u0120Quit": 48887, "\u0120Protein": 31702, "\u0120mud": 17492, "codes": 40148, "\u0120dodged": 49392, "tymology": 43408, "\u0120Tenth": 44519, "\u0120widely": 6768, "\u0120325": 29524, "\u0120slipping": 29612, "4": 19, "\u0120elastic": 27468, "inducing": 48016, "OR": 1581, "\u0120tenth": 24395, "\u0120Coliseum": 40846, "\u0120shooting": 4395, "\u0120Comm": 1520, "\u0120favorable": 17070, "\u0120Iraqis": 34956, "\u0120permission": 7170, "\u0120neglected": 24007, "\u012041": 6073, "\u0120Putin": 8144, "\u0120bravery": 37808, "\u0120Buildings": 49308, "inton": 2371, "\u0120Yen": 47028, "\u0120Bones": 31823, "\u0120rating": 7955, "\u0120scout": 24490, "\u0120Aden": 48500, "\u0120Bermuda": 41410, "\u0120tiles": 19867, "\u0120Issues": 22852, "cipled": 41296, "\u0120NEO": 44106, "\u0120Alm": 25009, "ivered": 6396, "\u0120volume": 6115, "\u0120BEST": 38502, "\u0120punished": 16851, "\u0120blogger": 23530, "reddits": 36581, "\u0120donate": 16565, "\u0120tion": 34222, "flying": 45928, "ided": 1384, "\u0120Image": 7412, "\u0120board": 3096, "\u0120Zucker": 27629, "\u0120lim": 1761, "riter": 43407, "\u0120hobbies": 45578, "\u0120Council": 4281, "oots": 13880, "\u0120Polk": 49292, "Thirty": 38856, "\u0120Pere": 17229, "\u0120conspicuous": 39089, "\u0120Timbers": 40200, "avior": 15759, "ously": 3481, "\u0120Biol": 38637, "JSON": 40386, "\u0120skies": 24091, "\u0120adjusting": 22000, "\u0120devotion": 25808, "Document": 24941, "\u0120Vide": 42551, "\u0120groceries": 38464, "\u0120commodities": 24392, "\u0120Extend": 46228, "\u0120awaited": 39576, "\u0120rem": 816, ",[": 17414, "Ranked": 36713, "\u0120allocate": 31935, "For": 1890, "\u0120inaug": 14243, "gram": 4546, "\u0120DVD": 12490, "\u0120colonization": 40337, "TI": 25621, "rencies": 14038, "daq": 48539, "\u0120embarrassed": 21100, "\u0120......": 47082, "\u0120farmers": 9818, "\u0120camera": 4676, "\u0120brawl": 42599, "\u0120Matte": 38789, "\u0120Today": 6288, "\u00cf\u012b": 49535, "state": 5219, "process": 14681, "\u0120constituent": 39384, "ivity": 3458, "nav": 28341, "\u0120deny": 10129, "\u0120Sea": 6896, "\u0120Fernand": 26366, "\u0120encryption": 15835, "Against": 39276, "Mos": 32668, "\u0120bandwidth": 19484, "\u0120elimination": 21472, "inen": 42326, "\u0120pace": 8761, "\u0120tut": 9732, "omorph": 25831, "\u0120forest": 8222, "\u0120neg": 2469, "\u0120cats": 11875, "account": 23317, "\u0120DSL": 32643, "\u0120provincial": 15818, "\u0115": 209, "\u0120Swift": 15608, "\u0120lig": 26106, "\u00e2\u0138\u0133": 22110, "\u0120Alma": 35152, "\u0120mundane": 30741, "seen": 15898, "\u0120fits": 11414, "\u0120darkest": 35995, "\u0120discuss": 2112, "pex": 24900, "\u0120Kik": 40571, "\u0120influenza": 29491, "\u0120HRC": 40512, "\u0120coordinated": 22080, "\u0120Conversion": 44101, "\u0120comput": 2653, "\u0120Tex": 3567, "tn": 34106, "\u0120WhatsApp": 37666, "\u0120pie": 2508, "itability": 34147, "\u0120dispers": 39895, "\u0120401": 22219, "045": 40350, "orks": 3647, "\u0120categor": 17851, "\u0120admit": 9159, "\u0120mourning": 33404, "asing": 2313, "\u0120tigers": 43114, "\u0120helmets": 28359, "\u0120Roberto": 32076, "\u0120analog": 15075, "Exper": 20468, "enable": 21633, "rider": 49449, "\u0120laboratory": 14010, "\u0120televised": 30681, "\u0120Scientology": 24990, "\u0120prohibits": 24059, "ipers": 29288, "\u0120collected": 7723, "erves": 11184, "436": 43690, "Sharp": 44336, "\u0120bluff": 43565, "Timeout": 48031, "\u00f1": 173, "\u00e3\u0123\u00a8": 30201, "BUR": 38926, "\u0120Fifth": 19383, "\u0120schema": 32815, "\u0120Market": 5991, "\u0120remembered": 12086, "hur": 48349, "\u0120Theatre": 15752, "\u0120woes": 34072, "\u0120plaint": 13371, "\u0120sacrament": 49081, "\u0120enthusiastic": 21848, "ues": 947, "\u0120Aut": 5231, "eu": 12496, "SI": 11584, "count": 9127, "ongo": 25162, "ock": 735, "\u0120developmental": 23456, "\u0120question": 1808, "\u0120disorderly": 46191, "\u0120conced": 15096, "\u0120Roller": 24945, "Of": 5189, "appings": 39242, "\u0120230": 18395, "\u0120wretched": 41857, "\u0120groin": 42247, "\u0120justifies": 45628, "umenthal": 42300, "issa": 13808, "\u0120Integration": 38410, "\u0120marriage": 4845, "grave": 41711, "arel": 20318, "\u0120minds": 9017, "\u0120lax": 36919, "\u0120drum": 13026, "\u0120Players": 13094, "wrote": 42910, "\u0120brethren": 29644, "\u0120Jacob": 12806, "\u0120porch": 33179, "\u0120sushi": 36324, "\u00c4\u00b1": 30102, "tur": 36590, "\u0120Benefit": 38065, "\u0120absurdity": 41793, "Quantity": 31208, "\u0120enjoying": 13226, "\u0120coward": 26769, "\u0120ENT": 47353, "\u0120imagination": 13843, "\u0120Insider": 22167, "\u0120unusual": 8468, "illus": 44342, "\u0120Pinterest": 17334, "\u0120JA": 41722, "\u0120focus": 2962, "\u0120miners": 18295, "\u0120Granger": 46236, "entric": 22317, "\u0120REC": 19644, "NAME": 20608, "\u0120cognition": 31119, "\u0120dug": 18735, "Di": 18683, "\u0120governors": 26824, "\u00e3\u0124\u00ab": 21763, "\u0120Milky": 34822, "\u0120dispose": 34291, "ocese": 31292, "\u0120STR": 19269, "\u0120Rio": 15338, "\u0120see": 766, "iblical": 16897, "\u0120bumped": 38034, "ied": 798, "571": 42875, "glass": 20721, "water": 7050, "threat": 19971, "azed": 13865, "\u0120borne": 28068, "\u0120Locations": 41277, "\u0120throats": 49012, "communication": 32560, "\u0120Congo": 25935, "\u0120malf": 27750, "\u0120installments": 49854, "\u0120r\u00c3\u00a9": 40560, "\u0120happens": 4325, "\u0120accustomed": 23840, "\u0120tug": 27762, "\u0120Madagascar": 46694, "Out": 7975, "\u0120relie": 15705, "elligent": 32940, "\u0120thieves": 26655, "asty": 7833, "aria": 10312, "ran": 2596, "driver": 26230, "\u0120diagnosed": 14641, "\u0120gaping": 46529, "\u0120compare": 8996, "rase": 22789, "\u0120Ts": 13146, "\u0120Zhang": 19439, "\u0120alter": 8343, "\u0120Cream": 19979, "IE": 10008, "\u0120sauces": 50134, "IA": 3539, "\u0120Advis": 17014, "hea": 21632, "\u0120Allah": 11475, "\u0120visibly": 30544, "\u0120Dmit": 35438, "\u0120Madame": 43116, "Configuration": 38149, "\u0120Nexus": 16756, "\u0120Corn": 11424, "EEK": 33823, "version": 9641, "\u0120neighborhoods": 14287, "\u0120Poe": 34815, "\u0120Blake": 13307, "\u0120aspirin": 49550, "\u0120oldest": 13325, "\u0120Second": 5498, "62": 5237, "\u0120`": 4600, "\u0120confuse": 27531, "\u0120action": 2223, "\u0120roam": 35563, "\u0120demonstr": 4110, "\u0120Reserved": 33876, "\u0120complexes": 42665, "\u0120transmission": 11478, "\u0120Improvement": 33764, "\u0120restrained": 31531, "Roberts": 45487, "\u0120Maduro": 33007, "IST": 8808, "\u0120assign": 8333, "\u0120warranties": 50174, "\u0120rooted": 19459, "figure": 26875, "\u0120unnatural": 33975, "\u0120bend": 19396, "\u0120heater": 39844, "\u0120tweaking": 39272, "\u0120highlights": 11330, "\u0120Scorp": 28097, "\u0120threads": 14390, "\u0120Luo": 25956, "\u0120loops": 23607, "\u0120wanting": 10291, "\u0120FS": 23324, "\u0120Western": 4885, "\u0120lobby": 10866, "\u0120WANT": 41300, "Saint": 48615, "acket": 8317, "DEF": 32988, "\u0120Em": 2295, "\u0120vec": 43030, "Previously": 36837, "\u0120Refuge": 22433, "\u0120touting": 48120, "update": 19119, "\u0120spiral": 23642, "Marsh": 41984, "\u0120inadvertently": 29243, "ANC": 20940, "\u0120number": 1271, "WD": 22332, "\u0120remorse": 34081, "ima": 8083, "\u0120Immediately": 34528, "\u0120requests": 7007, "Cert": 37608, "\u0120proposal": 6961, "aum": 26043, "\u0120despised": 44990, "celer": 7015, "human": 10734, "\u0120Rounds": 49049, ")?": 19427, "\u0120Zak": 32605, "sup": 37330, "\u0120sorted": 23243, "\u0120Fifty": 35351, "\u0120nomine": 9049, "\u0120expectations": 9027, "\u0120224": 26063, "\u0120rack": 19127, "cci": 35764, "\u0120halves": 37192, "\u0120SAL": 42475, "\u0120392": 48207, "Changing": 48333, "mA": 42646, "wheel": 22001, "gt": 13655, "opt": 8738, "\u0120blunt": 19861, "asu": 27345, "insula": 16495, "itt": 715, "\u0120descriptor": 43087, "NT": 11251, "\u0120stimulus": 19819, "eworks": 19653, "\u0120voic": 40268, "\u0120Prime": 5537, "\u0120transpl": 37100, "\u0120Omn": 31816, "14": 1415, "Mich": 11180, "JV": 41697, "\u0120newer": 15064, "apter": 3429, "\u0120welf": 9468, "\u0120Women": 6926, "\u0120enjoy": 2883, "\u0120Feedback": 37774, "Aut": 16541, "\u0120Pharm": 19234, "LOG": 25294, "osa": 8546, "alsa": 32058, "\u0120Abedin": 39562, "\u0120rive": 40112, "\u0120divine": 11871, "\u0120um": 23781, "\u0120Herz": 34321, "\u0120textbook": 28979, "\u0120Adults": 35154, "\u0120Third": 10467, "\u0120{}": 23884, "\u0120Xin": 25426, "\u0120encourage": 7898, "\u0120involved": 2950, "\u0120protracted": 44466, "ird": 1447, "izz": 6457, "\u0120junction": 35037, "\u0120Saga": 19743, "\u01202008": 3648, "so": 568, "\u0120ranks": 9803, "Rap": 35230, "\u0120Scholarship": 38178, "\u0120numbered": 25840, "iting": 1780, "\u00e4\u00b8": 10310, "\u0120Walls": 40699, "ission": 1480, "\u0120spherical": 43180, "\u0120bool": 20512, "\u0120anchors": 43360, "Bl": 3629, "\u0120cattle": 17025, "\u0120Newsweek": 39594, "579": 41734, "\u0120deleted": 13140, "Mania": 45844, "\u0120prosperous": 32757, "\u0120conclusion": 7664, "\u0120US": 1294, "PF": 42668, "\u0120Tenn": 9034, "Russian": 16220, ")/": 20679, "\u0120ultras": 32866, "\u0120mines": 18446, "\u0120fif": 5515, "efully": 7549, "\u0120mc": 36650, "mens": 45535, "\u0120tallied": 48729, "\u0120Pt": 34352, "Pa": 28875, "\u0120baseman": 35348, "\u0120inactive": 28621, "\u0120sociology": 39625, "Student": 38778, "\u0120Gladiator": 41633, "2020": 42334, "\u0120permissions": 21627, "iza": 23638, "\u0120\"#": 25113, "\u0120USPS": 44640, "\u00c3\u0143a": 29690, "serv": 3168, ">(": 33994, "\u0120Noah": 18394, "eneg": 46495, "Supp": 15979, "\u0120Eclipse": 30991, "\u0120debit": 30977, "\u0120english": 46932, "zl": 48274, "ishops": 21863, "\u0120countdown": 33970, "ennett": 48151, "Us": 5842, "great": 18223, "\u0120LEVEL": 49277, "=\\\"": 17553, "Product": 15667, "redients": 23320, "\u0120wives": 17743, "Ag": 10262, "\u0120turrets": 41104, "Mic": 25437, "\u0120dinner": 8073, "\u0120hier": 13550, "\u0120Fay": 35136, "\u0120fortunate": 20200, "\u0120beforehand": 27091, "\u0120conv": 3063, "784": 37688, "atern": 9205, "\u0120Each": 5501, "\u00e2\u0122\u0136\u00e2\u0122\u0136\u00e2\u0122\u0136\u00e2\u0122\u0136": 8184, "\u0120approximately": 6702, "\u0120syll": 27226, "\u0120wastewater": 42073, "81": 6659, "\u0120Macy": 50048, "\u0120decre": 5255, "\u0120comfortably": 24341, "\u0120Scholars": 26381, "\u0120Encounter": 40998, "\u0120MPEG": 41203, "\u0120upbeat": 44337, "\u0120BDS": 33741, "\u0120replicate": 24340, "\u0120bounced": 31318, "Versions": 45150, "gb": 22296, "\u0120morphology": 46320, "\u0120spor": 35810, "\u0120edged": 45871, "\u0120pickups": 46462, "\u0120Recent": 22926, "ocaly": 12063, "\u0120first": 717, "\u0120Clover": 41154, "\u0120artwork": 16257, "kw": 46265, "\u0120provides": 3769, "691": 49541, "\u0120Capitalism": 42678, "\u0120Cardinal": 25564, "\u0120guardians": 32769, "\u0120departing": 37717, "\u0120stares": 38806, "\u0120catering": 39211, "react": 45018, "\u0120delay": 5711, "\u0120referral": 31413, "\u0120candid": 2960, "\u0120drain": 14782, "\u0120viewpoint": 28953, "\u0120\u00e2\u012b\u00a1": 38243, "arth": 11999, "\u0120tribunal": 30105, "\u0120indict": 16056, "\u0120profound": 11982, "\u0120revolutionary": 12253, "\u0120Salad": 42706, "\u0120maintain": 5529, "ottenham": 21889, "sie": 44524, "\u0120Roof": 35271, "December": 20588, "\u0120redacted": 44740, "ANS": 15037, "\u0120contraceptives": 45295, "\u0120Debate": 41029, "\u0120spear": 17514, "\u0120indust": 2226, "\u0120Technology": 8987, "\u0120excel": 27336, "\u0120Psycho": 38955, "\u0120seconds": 4201, "\u0120neat": 15049, "\u0120allotted": 44554, "\u0120Meanwhile": 11214, "born": 6286, "\u00b9": 117, "\u0120[\"": 14631, "\u0120skepticism": 25858, "285": 26279, "\u0120firsthand": 37318, "\u012040": 2319, "\u0120chuckle": 43355, "\u0120Kuwait": 27028, "Request": 18453, "\u0120incub": 25543, "hub": 40140, "\u0120wedge": 35901, "hover": 43753, "\u0120rocking": 38059, "endif": 32088, "\u0120Conj": 37587, "\u0120Met": 3395, "\u0120retailer": 21538, "\u0120vengeance": 30657, "\u0120fitting": 15830, "\u0120Rav": 28146, "\u0120perspect": 6009, "\u01201976": 15408, "\u0120rated": 13178, "urrence": 33928, "\u0120Locke": 34576, "ars": 945, "peror": 8723, "\u0120requisite": 37088, "relation": 49501, "adiator": 33716, "endium": 49811, "USE": 19108, "\u0120Kitty": 21168, "\u0120horrified": 32816, "\u0120rank": 4279, "owan": 45197, "\u0120proclaimed": 25546, "\u0120ride": 6594, "abad": 17325, "\u0120Healer": 47212, "\u0120Mas": 11066, "adelphia": 8273, "\u0120Archdemon": 44555, "\u0120plush": 46336, "\u0120Coc": 18490, "\u0120Primary": 21087, "\u0120Asian": 7740, "\u0120mushrooms": 23452, "Ham": 21281, "\u0120freezing": 20884, "\u0120Omar": 24980, "Blake": 37849, "\u00e8\u0125": 47797, "\u0120ecstatic": 45782, "\u0120Philippe": 39393, "\u0120Cross": 6372, "\u0120fairy": 25607, "Liverpool": 44232, "\u0120DDR": 30085, "embedreportprint": 30898, "just": 3137, "\u0120warheads": 50046, "pak": 41091, "825": 47338, "angs": 27725, "\u0120sarcast": 36543, "Tomorrow": 49488, "\u0120Registry": 33432, "\u0120Liber": 5261, "\u0120wards": 32710, "Map": 13912, "Cor": 10606, "se": 325, "\u0120dawn": 17577, "\u0120Chal": 30529, "\u0120Mead": 21910, "\u0120gol": 43791, "\u0120Named": 34441, "793": 44750, "\u0120designer": 11915, "\u0120Dal": 12348, "\u0120Throw": 22481, "\u0120crunch": 23527, "ateurs": 45211, "orical": 12409, "pointer": 29536, "138": 20107, "\u0120quickly": 2952, "\u0120such": 884, "Carter": 49958, "ete": 14471, "\u0120charging": 11642, "\u0120nan": 15709, "\u0120moved": 3888, "\u0120tough": 5802, "\u0120pursue": 10660, "\u0120Gut": 27549, "\u0120emitting": 48143, "+=": 47932, "\u0120laure": 34515, "ario": 4982, "\u0120hits": 7127, "\u0120Ventures": 41673, "\u0120DB": 20137, "osing": 2752, "nin": 35073, "WOR": 45359, "Was": 16973, "\u0120Warn": 39567, "\u0120intercourse": 22409, "\u0120convict": 38309, "\u0120ii": 21065, "\u0120stamps": 25560, "Chuck": 44324, "\u0120Sleep": 17376, "zar": 41046, "\u0120apostle": 46329, "\u0120Bezos": 48607, "\u0120pac": 23503, "\u0120Israel": 2692, "\u0120Paladin": 26693, "\u0120probably": 2192, "obook": 49776, "\u0120Trend": 22836, "\u0120bis": 47457, "Thunder": 45713, "\u0120implying": 30253, "\u0120Alam": 41514, "\u0120luggage": 31488, "\u00e5\u012d": 47947, "cars": 37993, "STDOUT": 36886, "\u0120solitary": 25565, "\u0120thugs": 35052, "\u0120lash": 46967, "\u0120Aviv": 28890, "\u0120deduction": 24374, "\u0120provision": 8287, "header": 25677, "\u0120corrected": 19267, "\u0120risks": 7476, "\u0120screws": 23742, "\u0120liquidity": 31061, "\u0120Sut": 45220, "\u0120flick": 26810, "elo": 22126, "\u0120blocks": 7021, "Talk": 25685, "DNA": 28886, "\u0120hydra": 25039, "\u0120simpl": 7106, "oried": 42058, "\u0120Insight": 39917, "\u0120Kov": 43326, "\u0120Euro": 1898, "\u0120capitalism": 12129, "\u0120Mong": 18428, "\u0120McKenzie": 44311, "cham": 49869, "\u0120unob": 41511, "\u0120Reds": 14703, "025": 36629, "\u0120HT": 7154, "\u0120inappropriately": 49190, "inx": 28413, "\u0120brainstorm": 48733, "sec": 2363, "soon": 36194, "\u0120(<": 38155, "IFE": 29150, "Finally": 11158, "ademic": 49113, "\u0120Directory": 27387, "\u0120Starts": 50181, "\u0120Sil": 4243, "\u0120NB": 41354, "\u0120boosting": 27611, "\u0120headset": 23492, "directory": 34945, "\u0120Kirst": 39700, "\u00c0": 124, "\u0120Marketplace": 36703, "\u0120cigar": 24518, "\u0120spent": 3377, "istant": 10167, "20439": 47936, "\u0120prompts": 36454, "\u0120powered": 13232, "\u0120relies": 16507, "\u0120Security": 4765, "\u0120relationship": 2776, "\u0120Ches": 28250, "hour": 9769, "\u0120Pull": 21429, "\u0120Gel": 29635, "\u0120piece": 3704, "\u0120Purdue": 34699, "\u0120Genocide": 48721, "\u0120Unlimited": 26774, "yrics": 14279, "\u0120Schro": 47349, "Yes": 5297, "\u0120Worker": 35412, "\u0120Contributions": 49152, "\u0120Cel": 15248, "\u0120discharge": 17655, "\u0120authorized": 10435, "vertising": 31809, "\u0120Rasmussen": 46549, "\u0120beam": 15584, "oneliness": 34634, "strap": 26418, "MS": 5653, "TP": 7250, "gaming": 48616, "\u0120tradition": 6761, "003": 11245, "min": 1084, "ickle": 39423, "\u0120waterfall": 42467, "Advertisement": 4723, "\u0120broadcasts": 30423, "\u0120Sor": 15423, "\u0120Buffy": 27438, "\u0120Bulgar": 26163, "\u0120tours": 21284, "\u0120systematic": 17895, "\u0120Wheat": 34744, "\u0120spite": 15275, "Open": 11505, "avan": 12421, "\u0120scent": 21212, "\u0120presenting": 17728, "\u0120Burns": 23592, "\u0120steel": 7771, "friend": 6726, "\u0120spirituality": 39409, "\u0120controlled": 6856, "\u0120flavour": 29254, "\u0120Vanilla": 33897, "\u0120KILL": 45257, "\u0120issuer": 44168, "\u0120defenders": 16355, "\u0120vaccinations": 46419, "\u0120Dude": 40628, "etition": 15620, "Mart": 13143, "\u0120evaluates": 47850, "\u0120competitors": 13861, "\u0120Regiment": 35588, "\u0120Tao": 32120, "\u0120arter": 30675, "\u0120Coming": 21808, "\u0120proxies": 41775, "\u0120Becker": 40765, "\u01202009": 3717, "tnc": 26642, "tra": 9535, "Zip": 41729, "\u0120relegated": 36391, "aming": 3723, "\u00e5\u00a6": 36685, "\u0120Thompson": 11654, "\u0120outgoing": 28181, "\u00c3\u00a9e": 22161, "\u0120attractive": 10966, "\u0120185": 22855, "\u0120volleyball": 50196, "||": 15886, "\u0120Cab": 15976, "\u0120agric": 8986, "\u0120virgin": 21772, "\u0120Beck": 11739, "Region": 47371, "\u0120insects": 19435, "\u0120Videos": 18637, "things": 27971, "\u0120Centers": 22223, "ithering": 40861, "tk": 30488, "\u0120arte": 46252, "\u0120210": 20064, "\u0120Movement": 15477, "1920": 40454, "Sa": 33890, "\u0120unless": 4556, "organic": 36617, "\u0120adop": 4344, "\u0120tales": 19490, "\u0120Gret": 35877, "\u0120Recogn": 31517, "\u0120exhibitions": 48130, "feeding": 22824, "Donnell": 24853, "\u0120adjacent": 15909, "\u0120EVERY": 27222, "601": 41706, "\u0120critiques": 44329, "\u0120Circus": 46658, "ilty": 6267, "\u0120looms": 46234, "Players": 24860, "\u0120Sodium": 47942, "VER": 5959, "fo": 6513, "\u0120dots": 22969, "adena": 38047, "\u0120infusion": 35547, "mone": 47122, "\u0120Dec": 4280, "\u0120Vall": 46929, "\u0120blows": 20385, "\u0120percent": 1411, "CIA": 49732, "asts": 5773, "\u0120warehouse": 20933, "\u0120angels": 21981, "rose": 13698, "\u0120specified": 7368, "\u0120yarn": 21181, "\u0120transitions": 27188, "\u0120endeav": 21519, "\u0120people": 661, "\u0120Cannes": 50158, "\u0120candidates": 5871, "\u0120Eval": 26439, "!\".": 48220, "\u0120Mueller": 17768, "\u0120discrim": 6534, "\u0120Lash": 47137, "\u0120Hollywood": 8502, "\u0120willful": 47860, "BUG": 12953, "\u0120Technician": 46986, "\u0120ASA": 49599, "\u0120Hollande": 33590, "handle": 28144, "\u0120placed": 4624, "\u0120Berg": 24626, "important": 18049, "Wolf": 32069, "than": 14813, "26": 2075, "\u0120flashing": 25293, "\u0120exchange": 5163, "HF": 29567, "\u0120Gained": 34775, "\u0120demonstrate": 10176, "]]": 11907, "uffy": 15352, "\u01201000": 8576, "uting": 15129, "\u0120misrepresent": 26521, "\u0120electric": 5186, "\u0120Pass": 6251, "\u0120sources": 4237, "popular": 47568, "\u0120nerd": 34712, "\u0120Mage": 17323, "colored": 25717, "\u0120rescind": 39091, "\u0120inherently": 20108, "alid": 10751, "hene": 29473, "\u0120Greenwald": 41821, "\u0120Rica": 31656, "\u0120behind": 2157, "endants": 30841, "\u0120crippling": 37953, "eni": 43850, "ys": 893, "\u0120knock": 10643, "\u0120Sony": 10184, "funding": 25032, "net": 3262, "\u0120cottage": 36856, "\u0120Valencia": 35773, "\u012065": 6135, "\u0120potions": 28074, "Samsung": 32334, "planes": 22587, "\u0120CLE": 30301, "Justin": 33229, "ammers": 36846, "\u0120evils": 33980, "\u0120\"[": 12878, "\u0120Ludwig": 44476, "Pl": 3646, "wat": 47261, "\u0120Trying": 31165, "\u0120Nor": 5414, "\u0120pistol": 16790, "\u012018": 1248, "\u0120Abandon": 41105, "......": 16317, "\u0120Cul": 32559, "\u0120recounted": 34187, "intel": 48779, "\u0120aligned": 19874, "\u00e2\u0122\u0136": 960, "\u0120Wings": 17330, "\u0120Rect": 48599, "sp": 2777, "ruits": 50187, "\u0120indispensable": 35669, "gz": 34586, "raine": 23440, "omm": 2002, "\u0120Currently": 16888, "\u0120Represent": 10858, "kb": 32812, "\u0120Rat": 11738, "esan": 42890, "etting": 35463, "\u0120alerted": 28608, "\u0120beasts": 21930, "\u0120Adams": 12620, "\u0120her": 607, "\u0120roughly": 7323, "\u0120metast": 44678, "\u00e5\u00bf": 33232, "\u0120\\(\\": 40719, "237": 24693, "\u0120superhuman": 47262, "\u0120Zuckerberg": 32584, "odo": 24313, "\u0120Carroll": 21298, "ename": 12453, "afe": 8635, "\u0120Alt": 12344, "\u0120outline": 19001, "\u0120Target": 12744, "\u0120skilled": 14297, "\u0120cookies": 14746, "omorphic": 46374, "ottage": 29480, "Sh": 2484, "\u0120Fans": 24964, "\u0120applaud": 22517, "\u0120sincere": 17082, "ractions": 37810, "\u0120moisture": 20160, "\u0120sauce": 10746, "oulder": 17601, "\u0120NPCs": 28167, "\u0120inexpl": 33199, "Ju": 33018, "\u0120Era": 25466, "\u0120dehyd": 28151, "\u0120conquer": 23875, "\u0120tattoos": 29591, "\u0120Is": 1148, "ittee": 2979, "\u0120Compos": 29936, "bler": 43400, "Order": 18743, "\u0120Dante": 34898, "\u0120Peg": 31084, "\u0120Dis": 3167, "[[": 30109, "\u0120Protect": 21916, "\u0120nation": 3277, "emon": 7966, "bons": 23461, "ptr": 20692, "\u0120landscapes": 32964, "\u0120termed": 28569, "\u0120esp": 15024, "USS": 32835, "OL": 3535, "\u0120electron": 11538, "Patrick": 32718, "\u0120expectation": 17507, "\u012059": 7863, "vas": 11017, "should": 21754, "\u0120graceful": 44363, "Allows": 34934, "\u0120insurg": 17844, "cffff": 31727, "ichick": 38448, "indust": 23213, "Laura": 43687, "\u0120fantasy": 8842, "\u0120oceans": 23744, "\u0120referencing": 32578, "ppard": 43988, "cloth": 44905, "\u0120equals": 21767, "\u0120analysis": 3781, "\u0120:=": 19039, "\u0120buzzing": 41719, "voc": 18893, "otherapy": 18952, "\u0120Feng": 18164, "\u0120poems": 31888, "\u0120glue": 22749, "\u0120correspondence": 22440, "\u0120supplementation": 30306, "\u0120Floor": 22343, "\u0120Sutton": 39964, "\u0120Louisville": 21525, "\u0120Recovery": 21007, "\u0120watered": 48024, "\u0120thrown": 8754, "\u0120Fo": 19434, "ortment": 33920, "\u0120Dew": 25075, "\u0120eagle": 31176, "\u0120pirate": 25868, "estone": 13631, "Reference": 26687, "Anderson": 42991, "\u0120alpha": 17130, "Tang": 43909, "Close": 26125, "adian": 18425, "dot": 26518, "\u0120hood": 14263, "\u0120adip": 31659, "\u0120tert": 48358, "ructose": 32275, "\u0120selectively": 39119, "OWS": 22845, "\u0120seems": 2331, "\u0120Michel": 12386, "\u0120why": 1521, "\u0120cultured": 45847, "Unique": 40257, "toc": 40301, "\u0120trails": 19196, "press": 8439, "\u0120inconvenient": 37513, "\u0120resurrected": 41914, "HA": 7801, "zzi": 46218, "\u0120bets": 29222, "\u0120Plans": 30305, "\u0120Gaga": 42192, "\u0120Winn": 19454, "\u0120poverty": 8098, "STRUCT": 46126, "\u0120genuinely": 17170, "\u0120Demon": 7814, "\u0120Ibid": 28865, "\u0120Ask": 16981, "\u0120beh": 1372, "\u0120alerts": 21675, "\u0120glaring": 29097, "\u0120Richard": 6219, "\u0120flask": 42903, "\u0120akin": 22107, "\u0120cassette": 42812, "\u0120WW": 13505, "^^": 18237, "performing": 37440, "\u0120poker": 27101, "aled": 3021, "\u0120anthology": 43469, "osc": 17500, "\u0120Dip": 43945, "plugin": 33803, "\u0120lend": 22096, "\u0120Allen": 9659, "\u0120NFC": 24004, "\u0120nights": 12513, "\u0120gal": 9426, "\u0120salmon": 24535, "\u0120billed": 33094, "\u0120satirical": 40557, "\u0120Provider": 32549, "ably": 1346, "\u0120ascending": 41988, "ank": 962, "Tre": 31055, "\u0120Algeria": 36498, "\u0120handing": 22786, "\u0120gazed": 50255, "\u0120notice": 4003, "\u0120frustrations": 40447, "\u0120Markus": 46013, "\u0120eat": 4483, "\u0120Nemesis": 49885, "\u0120shows": 2523, "\u0120marketplace": 17432, "\u0120debunk": 30397, "\u0120smiled": 13541, "\u0120Q": 1195, "LESS": 48481, "\u0120modesty": 48740, "\u0120discriminating": 48212, "\u0120trademarks": 27346, "\u0120Grande": 29073, "\u0120recap": 26871, "\u0120Christians": 9316, "\u0120tip": 8171, "\u0120information": 1321, "\u0120folks": 7974, "\u0120compressed": 25388, "\u0120completely": 3190, "\u0120listens": 35019, "\u0120Rams": 16077, "\u0120trance": 43618, "aylor": 7167, "ryn": 29441, "\u0120batches": 37830, "\u0120tense": 20170, "ifling": 38966, "\u0120manuscripts": 36578, "\u0120attic": 46113, "umerous": 31385, "\u0120maths": 47761, "DX": 36227, "cation": 30907, "rite": 6525, "\u0120Been": 36844, "phones": 9708, "\u0120caval": 25820, "\u0120Outer": 35868, "\u0120Polo": 49341, "\u0120Seven": 13723, "\u0120tells": 4952, "rams": 9474, "regn": 28321, "\u0120likely": 1884, "\u0120Computer": 13851, "\u0120BAR": 31597, "42": 3682, "\u0120gripping": 39931, "thren": 25941, "vv": 25093, "\u0120stains": 43329, "\u0120Marina": 35321, "\u0120Generally": 23904, "Args": 42035, "rene": 25924, "\u0120diffusion": 44258, "nered": 15826, "\u0120Seconds": 40876, "\u0120compar": 4616, "\u0120foundation": 8489, "\u0120constraints": 17778, "ynski": 40008, "\u0120consultancy": 47827, "\u0120Gazette": 38772, "perial": 7629, "\u0120Murder": 23375, "\u0120ape": 43835, "rito": 39834, "\u0120Rubber": 42972, "ame": 480, "\u0120derive": 27099, "\u0120JUL": 49349, "TR": 5446, "\u0120Kant": 29576, "\u0120Rh": 10323, "\u0120trailed": 40060, "\u0120cards": 4116, "\u0120Corbyn": 15673, "\u0120teen": 6036, "\u0120\u00e2\u013e\u0135": 24762, "\u0120emission": 25592, "qus": 45260, "\u0120Hamas": 15767, "crime": 28126, "rav": 4108, "\u0120worked": 3111, "\u0120Ensure": 48987, "\u0120rebellious": 43860, "\u0120Crowd": 29452, "LER": 39878, "\u0120Meth": 39675, "\u0120little": 1310, "\u0120passionate": 15347, "\u0120albeit": 18244, "\u0120363": 49327, "oya": 23790, "\u0120directing": 21024, "\u0120numb": 35519, "\u0120endorsements": 40614, "\u0120Dunn": 30833, "io": 952, "LC": 5639, "\u0120Reduction": 33396, "FL": 3697, "winning": 14463, "Exec": 23002, "\u0120demands": 8665, "\u0120iPads": 48741, "\u0120mortals": 49008, "Gre": 43887, "670": 43798, "generated": 27568, "ufficient": 15267, "Lens": 49479, "\u0120Moj": 40120, "\u0120disclaim": 28468, "String": 10100, "goal": 35231, "\u0120cubes": 34896, "ssh": 45824, "\u0120reasoning": 14607, "\u0120drinking": 7722, "\u0120ble": 7245, "\u0120snail": 47374, "\u0120Vine": 28879, "-+-+": 27097, "mund": 20125, "\u0120sentiments": 26930, "iken": 29943, "\u0120Mk": 24798, "'re": 821, "\u0120theological": 30576, "\u0120fiasco": 49023, "\u0120event": 1785, "agen": 11286, "\u0120404": 32320, "won": 26502, "\u0120referendum": 11467, "\u0120Sco": 36179, "\u010f": 203, "\u00e3\u0125\u0140": 20115, "\u0120!=": 14512, "\u0120277": 38703, "\u0120floral": 38838, "\u0120Luthor": 47506, "Throw": 39431, "\u0120outrage": 11616, "\u0120ALS": 27249, "\u0120Runes": 48737, "\u0120concentrate": 20062, "Likewise": 45872, "\u0120Noir": 36961, "\u0120sent": 1908, "Independent": 40566, "\u0120Leopard": 49072, "\u0120Greater": 18169, "\u0120commonly": 8811, "\u00b3": 111, "\u0120Corridor": 48994, "apache": 43073, "posium": 35864, "include": 17256, "acent": 12643, "\u0120Expect": 23600, "ounces": 45982, "arij": 39010, "\u0120asteroid": 27460, "\u0120Sakuya": 37545, "\u0120piety": 44296, "\u0120Butter": 18971, "\u0120Andromeda": 34542, "\u0120Fourth": 15692, "\u0120Ely": 45913, "\u0120resize": 47558, "\u0120applies": 8991, "Status": 19580, "mittedly": 43011, "\u0120Bahamas": 45726, "ones": 1952, "\u0120staff": 3085, "\u0120smoking": 9216, "\u0120tragedy": 13574, "\u0120inevitably": 16857, "\u0120reg": 842, "WF": 48397, "\u0120conversions": 32626, "\u0120dressing": 18544, "ighed": 12570, "\u0120longitudinal": 36211, "space": 13200, "\u0120extraordinary": 11359, "\u0120333": 23460, "\u0120ineffective": 23693, "resa": 14625, "\u0120Treatment": 21415, "\u0120Marcos": 37033, "\u0120destination": 10965, "onement": 49844, "\u00d0\u00be": 15166, "\u01201975": 15231, "\u0120visitation": 49874, "emb": 24419, "achu": 32323, "Reason": 45008, "\u0120recruited": 18774, "\u0120Bul": 8510, "\u0120kidnap": 49679, "\u0120Question": 18233, "\u0120consulting": 18158, "NBC": 13175, "\u0120Sawyer": 42371, "Length": 24539, "\u0120displ": 7845, "\u0120Final": 8125, "\u0120occ": 1609, "\u0120liquid": 8122, "\u0120Yan": 10642, "rot": 10599, "\u0120second": 1218, "\u0120LAST": 41894, "\u0120mascul": 18498, "radius": 42172, "anches": 12140, "\u0120bruises": 42232, "\u0120proverb": 36950, "saw": 43439, "\u0120melanch": 40853, "\u0120Communists": 39049, "\u0120distinctions": 36640, "911": 35549, "arijuana": 42834, "\u0120pleading": 30279, "\u0120bitcoins": 22690, "\u0120Swap": 48408, "\u0120billions": 13188, "idian": 19825, "\u0120Bale": 43248, "ical": 605, "\u0120democrat": 43268, "\u0120house": 2156, "\u0120Reid": 16095, "\u0120Treat": 11217, "\u0120telesc": 18400, "orgetown": 29085, "\u0120extracted": 21242, "\u0120thin": 7888, "\u0120hither": 37706, "Gov": 23774, "akov": 44715, "imsy": 48295, "ricting": 42870, "\u0120grading": 43165, "\u00e3\u0125\u0122": 27852, "\u0120Marriage": 24509, "\u0120mechanism": 9030, "\u0120Rent": 29832, "\u0120Bentley": 38881, "\u0120bipolar": 31170, "aird": 41620, "rentice": 20098, "\u0120isEnabled": 34842, "clear": 20063, "Eh": 43894, "\u0120Licensed": 49962, "\u0120outstanding": 11660, "league": 19316, "irming": 29808, "458": 29334, "\u0120oily": 44560, "\u0120English": 3594, "\u0120Bu": 9842, "bryce": 32524, "\u0120standard": 3210, "\u0120polio": 42664, "otally": 38908, "roots": 19150, "\u0120covering": 9505, "\u0120Bas": 6455, "\u0120delivers": 16316, "anical": 36684, "\u0120od": 16298, "\u0120Peng": 42341, "ository": 13264, "\u0120forceful": 42262, "\u0120impuls": 30348, "SR": 12562, "he": 258, "\u0120Griffin": 16525, "ating": 803, "Border": 34189, "performance": 26585, "\u0120sizeof": 39364, "\u0120able": 1498, "\u0120biom": 27488, "\u0120burdens": 27127, "\u0120quantities": 17794, "\u0120Mits": 22424, "\u0120Occup": 15227, "OOD": 22808, "\u0120announcement": 8009, "arin": 17714, "\u0120undergoing": 23247, "\u0120failure": 5287, "\u0120Blockchain": 29724, "\u0120Gibraltar": 47403, "stick": 13915, "\u0120Trou": 22141, "Produ": 11547, "\u0120KING": 32957, "assment": 45312, "\u0120defect": 11855, "\u0120sued": 16334, "icides": 16751, "\u012036": 4570, "\u0120Fatal": 41815, "Growing": 43964, "\u0120dent": 18794, "\u0120don": 836, "\u0120Though": 7486, "\u0120nightclub": 26617, "\u00c2": 126, "atives": 2929, "\u0120homework": 26131, "\u0120VW": 31388, "ridges": 32124, "\u0120customer": 6491, "\u0120threw": 9617, "\u0120Brit": 2490, "\u0120suicide": 7341, "\u0120Padres": 40188, "itech": 45396, "\u0120Gets": 29620, "._": 13557, "Fuel": 42663, "\u0120dental": 22727, "\u0120Organisation": 30801, "\u0120buff": 6940, "\u0120complaints": 9687, "changed": 40985, "\u0120\u00e2\u0128": 17804, "\u0120narc": 16946, "\u0120Voice": 15282, "ate": 378, "\u0120Mahar": 31692, "\u0120anthrop": 17911, "\u0120ousted": 37822, "isol": 30152, "\u0120tricky": 17198, "prone": 46330, "resents": 6629, "\u0120108": 15495, "\u0120partnering": 41759, "\u0120Liver": 45036, "\u0120militar": 28131, "..................": 49129, "\u0120Kang": 27504, "\u0120cour": 1093, "\u0120flown": 22371, "\u0120Trails": 40076, "ooked": 46288, "\u0120Reserve": 12224, "\u0120motivation": 14052, "\u0120monitoring": 9904, "\u0120prints": 20842, "\u0120discipline": 12883, "\u0120Hungarian": 27304, "\u0120Palm": 18358, "\u0120Celebr": 28921, "\u0120circumcision": 25513, "\u0120system": 1080, "\u0120Aj": 22028, "el": 417, "\u0120embarrassing": 18997, "otype": 8690, "\u0120gallery": 15604, "\u0120sid": 9785, "\u0120notch": 29838, "\u0120Input": 23412, "google": 13297, "\u0120470": 38634, "\u0120bombing": 13471, "position": 9150, "\u0120Colombia": 21291, "\u0120metrics": 20731, "\u0120assume": 7048, "atos": 35492, "Upon": 23792, "\u0120Kad": 31996, "taining": 7339, "\u0120element": 5002, "\u0120Lot": 15099, "fusc": 37695, "\u0120beds": 20237, "sys": 17597, "\u0120sym": 5659, "\u0120brass": 20422, "fm": 38353, "including": 8201, "lio": 48590, "\u0120exception": 6631, "\u0120hearing": 4854, "string": 8841, "\u0120commenter": 46914, "\u0120Clay": 15551, "\u00e4\u00bd\u00bf": 45635, "redible": 26260, "\u0120clearly": 4084, "resses": 16746, "\u010a\u010a": 628, "ibur": 38616, "\u0120\u00ef": 27332, "\u0120selections": 28224, "\u0120oscill": 24969, "\u0120Commands": 49505, "\u0120Cellular": 50072, "\u0120HE": 11179, "])": 12962, "Jar": 47511, "\u0120Lee": 5741, "\u0120any": 597, "..": 492, "\u0120leptin": 49337, "\u0120dismissing": 37514, "\u0120staffed": 47331, "\u0120Tony": 8832, "\u0120voy": 23291, "\u0120goats": 35199, "\u0120sank": 30895, "fml": 38122, "\u0120restrict": 4239, "\u0120Hoo": 26859, "\u0120Philadelphia": 8857, "jing": 49940, "rea": 21468, "\u0120Estimates": 47052, "\u01201800": 21431, "\u0120Solution": 28186, "\u0120habitats": 35308, "eve": 44655, "accompanied": 42588, "\u0120Kanye": 27775, "hid": 49675, "\u0120your": 534, "\u0120trave": 10160, "repe": 45956, "\u0120respectful": 25923, "\u0120unatt": 29327, "\u0120detention": 13280, "hist": 10034, "\u0120meaning": 3616, "\u0120aluminium": 40412, "asser": 24929, "\u0120January": 3269, "\u0120vibrant": 21266, "\u0120Manuel": 25995, "\u0120crowd": 4315, "\u0120eighty": 37516, "\u0120Everett": 36815, "render": 13287, "\u0120Abs": 13051, "ushima": 30474, "\u0120Tos": 40195, "\u0120benefit": 4414, "\u0120steps": 4831, ";;;;": 14223, "\u0120relaxed": 18397, "\u0120soothing": 40836, "\u0120lengths": 20428, "\u0120Turk": 8484, "lords": 19673, "\u0120Bree": 40110, ")).": 29720, "worker": 28816, "oral": 6864, "edit": 19312, "\u0120Frag": 24229, "Rail": 44631, "\u0120pomp": 49435, "conservative": 43218, "breaking": 13395, ")]": 15437, "ga": 4908, "\u0120persisted": 33264, "National": 16186, "\u0120vent": 7435, "Christian": 20298, "Attributes": 29021, "\u0120Reson": 44783, "luster": 48375, "</": 3556, "\u0120notifications": 19605, "\u0120manners": 33558, "Travel": 33074, "\u0120Mostly": 33495, "\u0120Build": 10934, "\u0120adorable": 29012, "\u0120(>": 45160, "\u0120installer": 29124, "\u0120apply": 4174, "\u0120Batman": 9827, ">.": 28401, "561": 47915, "cooked": 46591, "\u0120Holding": 31703, "support": 11284, "hook": 25480, "\u0120guarding": 33294, "Gil": 40747, "\u0120induces": 43614, "\u0120infinite": 15541, "\u0120Pepe": 49761, "\u0120Lars": 31239, "\u0120338": 40736, "\u0120MK": 20553, "\u0120avenue": 36132, "\u0120Socialism": 40407, "\u0120Islamic": 5533, "\u0120Mind": 10175, "\u0120gimm": 33135, "\u0120Morph": 41170, "\u0120fateful": 46873, "\u0120upheld": 24816, "ampton": 23427, "\u0120critic": 4014, "\u0120interf": 9556, "\u0120coined": 33115, "heastern": 18160, "\u0120GN": 15484, "ursday": 3479, "My": 3666, "powered": 12293, "\u0120upstream": 28717, "Counter": 31694, "ffff": 12927, "\u0120deals": 7529, "nesota": 8360, "\u0120pushes": 20070, "Art": 8001, "\u0120VIP": 24791, "\u0120pregnancies": 33593, "\u0120genesis": 48861, "\u0120ledger": 37208, "omp": 3361, "\u0120continuously": 17282, "\u0120attm": 36926, "haus": 30404, "\u0120Banana": 40058, "\u01208000": 38055, "\u0120motivational": 49066, "\u0120horrendous": 42613, "Nazi": 31343, "\u0120loser": 30256, "\u0120Nu": 21733, "\u0120calcul": 5204, "\u0120sorcerer": 47063, "\u0120atom": 22037, "\u0120Tower": 8765, "\u0120interns": 47266, "\u0120apprehended": 41979, "\u0120democratically": 48517, "\u0120Pet": 4767, "shine": 19489, "Enlarge": 30952, "\u0120Duty": 18104, "\u0120progression": 17085, "\u0120ecstasy": 38903, "\u0120Bus": 5869, "itable": 4674, "\u0120conferred": 39376, "lyak": 43782, "else": 17772, "Mus": 10694, "\u0120pays": 13831, "clus": 2527, ")!": 31520, "irus": 19397, "\u0120perspective": 6650, "ometers": 40077, "\u0120scream": 8196, "\u0120Sasha": 32151, "\u0120Cann": 12283, "\u0120suited": 16662, "Wave": 39709, "\u0120volt": 13161, "\u0120Unable": 27319, "ady": 4597, "\u012072": 7724, "RY": 18276, "\u0120cart": 6383, "\u0120sw": 1509, "\u00e4\u00bc": 27670, "\u0120Situation": 49465, "\u0120pills": 19521, "roma": 42902, "355": 28567, "Pakistan": 38485, "\u0120handwritten": 45916, "\u0120congestion": 28014, "nation": 25729, "\u0120Boko": 40160, "health": 13948, "\u0120boasting": 40776, "gard": 19977, "\u0120Sas": 23771, "\u0120frying": 45366, "\u0120vol": 2322, "VT": 36392, "\u0120arcade": 27210, "ICS": 19505, "\u0120cities": 4736, "\u0120Scully": 47953, "\u0120ge": 4903, "\u0120Standard": 8997, "\u0120Fram": 15183, "\u0120influencing": 32596, "\u0120perspectives": 22582, "134": 19880, "pite": 2595, "udeau": 16229, "\u0120phot": 2825, "\u0120range": 2837, "ults": 8376, "\u0120Costume": 40051, "\u0120forth": 6071, "ographic": 6826, "\u0120convictions": 19131, "cible": 37369, "\u0120surprising": 6452, "\u0120alt": 5988, "\u0120Gross": 21796, "uh": 7456, "pair": 24874, "obs": 8158, "\u0120Eugene": 24532, "\u0120establish": 4474, "ibu": 33828, "\u0120340": 28560, "itial": 6847, "\u0120Wire": 14712, "chn": 1349, "Sal": 19221, "\u0120descend": 15350, "ptives": 43903, "\u0120CRC": 45623, "punk": 30354, "\u0120Cotton": 23915, "odynamic": 34743, "\u0120por": 16964, "\u0120wal": 6514, "\u0120inverted": 37204, "\u0120DON": 23917, "\u0120invaders": 39417, "\u0120Springer": 43100, "\u0120arcane": 34362, "\u0120beet": 25679, "align": 31494, "Cross": 21544, "iates": 32820, "anes": 7305, "Fab": 43957, "\u0120FA": 9677, "Golden": 32378, "ulsive": 22220, "\u0120DK": 32975, "\u0120eBay": 21698, "bucks": 18999, "'ll": 1183, "\u0120savvy": 32800, "\u0120removing": 10829, "ognitive": 46610, "\u0120grid": 10706, "\u0120te": 573, "\u0120gallons": 23239, "atonin": 44248, "\u0120criminal": 4301, "\u0120Helena": 42916, "\u00e5\u012b": 30298, "\u0120Mormon": 13164, "\u0120rou": 13805, "haven": 39487, "\u0120goofy": 44089, "ives": 1083, "\u0120670": 48136, "\u0120politicians": 7602, "\u0120Major": 8386, "\u0120Surf": 43771, "\u0120Sector": 25892, "\u0120imitation": 40260, "\u0120milk": 7545, "\u0120SEN": 44738, "\u0120Mud": 32878, "\u0120teamed": 31230, "\u0120audition": 31678, "Crash": 47598, "akers": 3979, "\u0120noticeable": 19787, "\u0120Mac": 4100, "ony": 1647, "\u0120Sparkle": 41614, "\u0120IDF": 33389, "\u0120Words": 23087, "\u0120laptops": 26635, "ball": 1894, "identified": 19107, "\u0120{*": 48683, "\u0120drib": 35003, "\u0120JJ": 38775, "\u0120scouts": 29663, "\u0120played": 2826, "\u0120Links": 21691, "\u0120Reduce": 44048, "\u0120bacteria": 11492, "\u0120MFT": 43910, "\u0120foreseeable": 34922, "\u0120stal": 29049, "\u0120Roose": 18589, "\u0120lending": 20983, "\u0120Rogers": 15372, "\u0120quartz": 47969, "\u0120eighth": 16974, "\u0120altitude": 20334, "album": 40916, "\u0120simplest": 24043, "\u0120Perse": 31544, "\u0120Highland": 39874, "ishing": 3929, "\u0120grenades": 28850, "boarding": 27794, "there": 8117, "\u0120Magnet": 32079, "\u0120Eng": 1985, "\u0120degraded": 41604, "\u0120taxation": 21843, "\u0120Duel": 23958, "\u0120commits": 23463, "\u00d1\u012d": 45035, "\u0120discounts": 25684, "\u00ce\u00b5": 30950, "bach": 19496, "xff": 47596, "wired": 44236, "445": 43489, "\u0120Enc": 14711, "OTH": 26946, "\u0120menacing": 39579, "ifference": 33012, "\u0120Wol": 27094, "igel": 47709, "eston": 19115, "\u0120Modi": 14637, "\u0120Ao": 27378, "otyp": 17183, "auri": 35190, "\u0120Alphabet": 45695, "\u0120Variety": 39143, "bush": 50231, "Flash": 30670, "rugged": 21901, "\u0120scanner": 27474, "\u0120iPhones": 33845, "Naturally": 44213, "\u0120salts": 37056, "rawdownload": 30905, "\u0106": 194, "\u0120DirectX": 37017, "\u0120initiating": 40150, "\u0120warranty": 18215, "\u0120Grassley": 44050, "\u0120challenge": 4427, "\u0120forging": 44096, "\u0120Animals": 25390, "\u0120Gael": 39652, "bit": 2545, "\u0120Rodney": 34895, "Bound": 49646, "\u0120pods": 37185, "\u0120Rothschild": 38198, "\u0120Prix": 23832, "\u0120Communist": 14884, "\u0120strike": 5587, "\u0120Anita": 38992, "\u0120Sell": 25688, "\u0120Ran": 23075, "ions": 507, "WER": 45532, "\u0120distributing": 25950, "nder": 681, "\u0120fray": 40606, "\u0120usur": 39954, "\u0120weak": 4939, "\u0120earned": 7366, "\u0120unseen": 29587, "\u0120William": 3977, "packing": 41291, "cream": 36277, "\u0120waived": 28170, "\u0120phases": 21164, "\u0120Investig": 16203, "las": 21921, "102": 15377, "acre": 12345, "\u0120GT": 7963, "\u0120Here": 3423, "once": 27078, "\u0120faded": 24887, "'s": 338, "618": 47448, "\u0120embedded": 14553, "achus": 9523, "isle": 20919, "hern": 2881, "\u0120lamented": 40176, "\u0120cool": 3608, "\u0120panicked": 38225, "\u0120technique": 8173, "glas": 14391, "Ni": 34153, "Eat": 47659, "\u0120downgrade": 48514, "\u0120underdog": 44288, "ature": 1300, "\u0120Re": 797, "\u0120Sudan": 19610, "\u0120Magn": 14872, "\u0120TCP": 23633, "Rub": 21312, "ymph": 20896, "\u0120censorship": 21185, "floor": 28300, "\u0120ecology": 36517, "ilation": 10520, "\u0120rarity": 32823, "\u0120mosa": 39788, "\u0120Nancy": 18496, "\u0120potency": 35950, "proclaimed": 39865, "\u0120128": 13108, "exempt": 42679, "ocating": 27123, "\u0120rebel": 14034, "\u0120Blumenthal": 44888, "cfg": 37581, "visors": 27681, "\u0120regular": 3218, "\u0120hug": 16225, "\u0120WE": 12887, "\u0120enigmatic": 48584, "\u0120occasion": 6695, "\u0120distribution": 6082, "\u0120fire": 2046, "Ott": 49092, "\u0120Cooking": 33774, "arently": 13773, "\u0120depict": 19583, "ARDS": 48294, "\u0120Warsaw": 32955, "\u0120Breath": 26988, "\u0120Islands": 12010, "\u0120securely": 30835, "\u0120civilians": 10380, "ominated": 50251, "ATED": 11617, "\u0120rented": 26399, "\u0120deportation": 24031, "active": 5275, "\u0120miracles": 32904, "icc": 44240, "\u0120Anarchy": 38899, "\u0120Management": 8549, "agog": 37300, "Pand": 47206, "\u0120gap": 7625, "\u0138\u013c": 31204, "Friends": 36705, "\u0120PTS": 20907, "\u0120determined": 5295, "\u0120disasters": 24193, "\u0120obstacles": 17648, "\u0120recommending": 34639, "\u0120care": 1337, "\u0120Trib": 10841, "\u0120goblins": 46220, "\u0120plain": 8631, "ockey": 8337, "\u0120Kabul": 34753, "144": 18444, "\u0120pipe": 12656, "\u0120muscles": 12749, "\u0120Di": 6031, "omez": 30010, "\u0120Prospect": 26736, "\u0120posts": 6851, "\u0120Kelly": 9077, "\u0120standards": 5423, "\u0120devised": 28964, "\u0120cider": 36930, "\u0120beaut": 3566, "\u0120Hitchcock": 49817, "\u0120trips": 13229, "\u0120repression": 28279, "\u0120Martha": 27243, "}\\": 32239, "\u0120NOT": 5626, "\u0120lakh": 29002, "\u0120offensive": 5859, "\u0120Atlantic": 10596, "\u0120Glen": 20716, "\u0120recognizable": 30264, "Sher": 28782, "\u0120Canadiens": 33664, "\u0120predominant": 45718, "\u0120Ire": 7181, "Nev": 43555, "\u0120fox": 21831, "HM": 36905, "\u0120brilliantly": 37928, "\u0120spinning": 19493, "\u0120should": 815, "\u0120Vic": 24017, "compatible": 38532, "acia": 47431, "\u0120trials": 9867, "\u0120Qian": 44696, "\u0120Shards": 46464, "\u0120extrap": 36804, "\u0120reforms": 12506, "bash": 41757, "oly": 3366, "\u0120Throne": 28419, "\u0120manufacturer": 11554, "\u0120colleges": 15273, "\u0120Requirements": 24422, "\u0120supplemented": 41610, "\u0120bearded": 42634, "\u0120Tatt": 36711, "dB": 36077, "\u0120patron": 19686, "\u012088": 9193, "rr": 21062, "\u0120Neither": 16126, "\u00e4\u00b8\u0122": 31660, "\u0120regarding": 5115, "\u0120Kurdistan": 29439, "\u0120666": 43364, "\u0120foundations": 19369, "tale": 29429, "uala": 41944, "Written": 25354, "ency": 1387, "\u0120conquered": 29346, "\u0120Ub": 12021, "Jay": 30568, "ormons": 29966, "\u0120Reduced": 39963, "\u0120applying": 11524, "\u0120[...]": 26894, "\u0120rhythms": 39804, "\u0120Leica": 50211, "\u0120Meyer": 23975, "\u0120mansion": 24141, "\u0120dopamine": 26252, "\u0120HOT": 44607, "gren": 32762, "\u0120circumstance": 25179, "idis": 29207, "ERE": 9338, "\u0120managing": 11149, "afia": 22214, "\u0120expr": 44052, "\u0120imagining": 34140, "\u0120Schne": 23343, ":[": 33250, "uls": 5753, "\u0120Movies": 27151, "hus": 7537, "\u0120adolescents": 25447, "\u0120isot": 31624, "\u0120invari": 25275, "\u0120PubMed": 32131, "\u0120Latino": 20496, "\u0120SLI": 44538, "251": 28072, "clean": 27773, "\u0120irrespective": 40611, "\u0120admittedly": 33603, "\u0120Braz": 41414, "\u0120inc": 753, "\u0120infrastructure": 6884, "\u0120Rei": 33225, "\u0120Minerva": 39367, "outher": 44262, "utt": 15318, "\u0120Robb": 31384, "vette": 33573, "\u0120grabbing": 23256, "ibe": 32438, "\u0120educating": 36267, "utf": 40477, "\u0120Zeal": 8417, "\u0120Bok": 47390, "\u0120Made": 14446, "\u0120Dempsey": 41994, "\u0120astronomical": 37209, "gans": 39352, "249": 21626, "\u00e5\u0129": 49035, "\u0120investigating": 10240, "\u0120directs": 32254, "ataka": 48088, "\u0120Cruel": 44153, "\u0120implant": 29016, "\u0120GMO": 35945, "\u0120Hash": 21059, "resy": 33000, "paragraph": 20360, "\u0120stronghold": 32753, "\u0120Pat": 3208, "\u0120Furn": 34937, "\u0120Billy": 15890, "\u0120Javascript": 24711, "\u0120slowed": 20955, "amura": 37324, "\u0120Stupid": 42930, "../": 40720, "\u0120770": 44586, "\u0120heartbreaking": 37154, "\u0120copied": 18984, "\u0120closure": 16512, "\u0120hauled": 43423, "\u0120Mosul": 19192, "Jud": 26141, "inus": 35237, "art": 433, "\u0120Simone": 47592, "\u0120Kick": 10279, "\u0120Azure": 22134, "wear": 13927, "KING": 37286, "\u0120Chamberlain": 45918, "\u0120clos": 3542, "\u0120predictably": 45741, "\u0120kidding": 26471, "\u0120hep": 47585, "iders": 4157, "=\"#": 25698, "Pri": 34487, "Sup": 40784, "ancies": 16183, "\u0120treacher": 32550, "vous": 31222, "\u0120Stay": 16160, "30": 1270, "AAA": 29697, "\u0120cockpit": 25762, "\u0120Grape": 48315, "itten": 2621, "\u0120truths": 24279, "secure": 22390, "igue": 15212, "Solid": 46933, "\u0120older": 4697, "\u0120SPD": 30628, "\u0120homemade": 24584, "ENCE": 18310, "\u0120frequ": 3593, "Saturday": 19844, "\u0120Economics": 18963, "\u0120Luc": 7598, "\u0120borrowers": 31617, "\u0120Shipping": 24147, "\u0120coup": 12092, "\u0120semifinals": 47633, "oggle": 20258, "\u0120predicament": 44472, "\u0120crem": 36559, "\u0120Nutr": 37012, "\u0120chants": 40727, "icycle": 35298, "\u0120workforce": 16433, "\u0120ancestral": 34843, "\u0120steal": 8711, "\u0120Hunts": 31926, "\u0120incom": 15501, "\u0120cann": 6463, "\u0120Schw": 20469, "\u00c2\u00b0": 7200, "enny": 11870, "ulk": 12171, "det": 15255, "blown": 31290, "\u0120[]": 17635, "egu": 15703, "\u0120solar": 6591, "Delivery": 33129, "\u0120obligation": 12990, "\u0120brought": 3181, "\u0120lore": 24044, "\u0120SY": 19704, "\u0120Dame": 20377, "\u0120Gallery": 12917, "\u0120Himself": 31657, "\u0120arrest": 3251, "avery": 12447, "\u0120estranged": 44585, "\u0120certainly": 3729, "Bloom": 38941, "assed": 21390, "\u0120Strawberry": 42611, "otics": 23891, "imum": 2847, "\u0120predis": 46276, "\u0120jaw": 19218, "\u0120Nevertheless": 15933, "NC": 7792, "\u0120Work": 5521, "\u0120plantation": 43206, "oring": 3255, "\u0120considering": 6402, "\u0120populated": 22331, "\u0120tam": 21885, "\u0120staffing": 36700, "\u0120rods": 32858, "\u0120capacities": 32484, "\u0120curb": 20799, "nir": 32986, "\u0120hoped": 10719, "\u0120paragraphs": 23549, "\u0120desktop": 11364, "Fle": 47669, "genic": 38516, "\u0120Bowl": 8693, "Hero": 30411, "\u0120glimps": 41226, "\u00c3\u00b6r": 30570, "Credit": 23690, "\u0120Bulldogs": 34969, "\u0120rosters": 48803, "DVD": 39218, "scope": 29982, "\u0120defendant": 11304, "\u0120Magnus": 35451, "OUN": 19385, "\u0120tsunami": 31019, "vik": 28930, "\u0120mighty": 18680, "usual": 37850, "igion": 17035, "\u0120Embassy": 23233, "\u0120Pieces": 44676, "\u0120800": 10460, "\u0120produce": 4439, "\u0120MP": 4904, "\u0120retreat": 13703, "\u0120Sau": 23167, "\u0120Polar": 32909, "\u0120Fernando": 31063, "pty": 5835, "\u0120fearful": 26844, "\u0120GTX": 12646, "\u0120differs": 24242, "very": 548, "\u0120casinos": 39855, "\u0120limitation": 17385, "\u01201953": 24217, "\u0120basin": 34164, "\u0120dere": 49408, "\u0120swift": 14622, "\u0120cords": 45173, "\u0120pathways": 22963, "\u0120Freeman": 22394, "\u0120engines": 11874, "repair": 49932, "\u0120Dest": 8145, "\u0120slider": 28982, "\u0120Editor": 12058, "2015": 4626, "\u0120Airways": 40020, "\u0120Lans": 34176, "\u0120manage": 6687, "EAR": 17133, "aterasu": 45335, "\u0120endured": 24067, "\u0120ent": 920, "\u0120Ctrl": 19212, "\u0120starving": 34253, "\u01201963": 19342, "\u0120Til": 40422, "\u0120virtuous": 41276, "anting": 20482, "rella": 20481, "\u0120Malta": 35206, "\u0120descendants": 25321, "Salt": 43061, "\u0120288": 35419, "\u0120Nare": 27236, "\u0120Ep": 4551, "\u0120thumbs": 32766, "\u0120shaft": 18619, "\u0120fright": 12773, "assemb": 34455, "402": 32531, "\u0120cease": 13468, "\u0120reass": 12719, "aunted": 20227, "\u0120extortion": 38583, "ronics": 20844, "699": 47325, "\u0120Israelis": 21137, "\u012019": 678, "ivering": 35598, "\u0120pure": 5899, "chief": 17351,
[...]
